<?xml version="1.0"?>
<MethodSetup Method="BDT::BDTG">
  <GeneralInfo>
    <Info name="TMVA Release" value="4.2.1 [262657]"/>
    <Info name="ROOT Release" value="6.06/01 [394753]"/>
    <Info name="Creator" value="kelmorab"/>
    <Info name="Date" value="Tue Feb 28 15:16:57 2017"/>
    <Info name="Host" value="Linux vocms0315.cern.ch 2.6.32-573.26.1.el6.x86_64 #1 SMP Wed May 4 09:23:05 CEST 2016 x86_64 x86_64 x86_64 GNU/Linux"/>
    <Info name="Dir" value="/nfs/dust/cms/user/kelmorab/Spring17Training/3makeHistosAndCards"/>
    <Info name="Training events" value="6834"/>
    <Info name="TrainingTime" value="3.69216299e+00"/>
    <Info name="AnalysisType" value="Classification"/>
  </GeneralInfo>
  <Options>
    <Option name="V" modified="Yes">False</Option>
    <Option name="VerbosityLevel" modified="No">Default</Option>
    <Option name="VarTransform" modified="No">None</Option>
    <Option name="H" modified="Yes">False</Option>
    <Option name="CreateMVAPdfs" modified="No">False</Option>
    <Option name="IgnoreNegWeightsInTraining" modified="No">False</Option>
    <Option name="NTrees" modified="Yes">700</Option>
    <Option name="MaxDepth" modified="Yes">2</Option>
    <Option name="MinNodeSize" modified="No">5%</Option>
    <Option name="nCuts" modified="Yes">49</Option>
    <Option name="BoostType" modified="Yes">Grad</Option>
    <Option name="AdaBoostR2Loss" modified="No">quadratic</Option>
    <Option name="UseBaggedBoost" modified="Yes">True</Option>
    <Option name="Shrinkage" modified="Yes">1.690000e-02</Option>
    <Option name="AdaBoostBeta" modified="No">5.000000e-01</Option>
    <Option name="UseRandomisedTrees" modified="No">False</Option>
    <Option name="UseNvars" modified="No">3</Option>
    <Option name="UsePoissonNvars" modified="No">True</Option>
    <Option name="BaggedSampleFraction" modified="No">4.870000e-01</Option>
    <Option name="UseYesNoLeaf" modified="No">True</Option>
    <Option name="NegWeightTreatment" modified="Yes">ignorenegweightsintraining</Option>
    <Option name="Css" modified="No">1.000000e+00</Option>
    <Option name="Cts_sb" modified="No">1.000000e+00</Option>
    <Option name="Ctb_ss" modified="No">1.000000e+00</Option>
    <Option name="Cbb" modified="No">1.000000e+00</Option>
    <Option name="NodePurityLimit" modified="No">5.000000e-01</Option>
    <Option name="SeparationType" modified="No">giniindex</Option>
    <Option name="DoBoostMonitor" modified="No">False</Option>
    <Option name="UseFisherCuts" modified="No">False</Option>
    <Option name="MinLinCorrForFisher" modified="No">8.000000e-01</Option>
    <Option name="UseExclusiveVars" modified="No">False</Option>
    <Option name="DoPreselection" modified="No">False</Option>
    <Option name="SigToBkgFraction" modified="No">1.000000e+00</Option>
    <Option name="PruneMethod" modified="No">nopruning</Option>
    <Option name="PruneStrength" modified="No">0.000000e+00</Option>
    <Option name="PruningValFraction" modified="No">5.000000e-01</Option>
    <Option name="nEventsMin" modified="No">0</Option>
    <Option name="UseBaggedGrad" modified="No">False</Option>
    <Option name="GradBaggingFraction" modified="Yes">4.870000e-01</Option>
    <Option name="UseNTrainEvents" modified="No">0</Option>
    <Option name="NNodesMax" modified="No">0</Option>
  </Options>
  <Variables NVar="9">
    <Variable VarIndex="0" Expression="Evt_Deta_JetsAverage" Label="Evt_Deta_JetsAverage" Title="Evt_Deta_JetsAverage" Unit="" Internal="Evt_Deta_JetsAverage" Type="F" Min="8.02555531e-02" Max="2.43026495e+00"/>
    <Variable VarIndex="1" Expression="HT" Label="HT" Title="HT" Unit="" Internal="HT" Type="F" Min="1.88689194e+02" Max="1.84092822e+03"/>
    <Variable VarIndex="2" Expression="avg_btag_disc_btags" Label="avg_btag_disc_btags" Title="avg_btag_disc_btags" Unit="" Internal="avg_btag_disc_btags" Type="F" Min="8.61950696e-01" Max="9.98640537e-01"/>
    <Variable VarIndex="3" Expression="tagged_dijet_mass_closest_to_125" Label="tagged_dijet_mass_closest_to_125" Title="tagged_dijet_mass_closest_to_125" Unit="" Internal="tagged_dijet_mass_closest_to_125" Type="F" Min="3.15517025e+01" Max="2.85149445e+02"/>
    <Variable VarIndex="4" Expression="M3" Label="M3" Title="M3" Unit="" Internal="M3" Type="F" Min="4.77401848e+01" Max="1.69488135e+03"/>
    <Variable VarIndex="5" Expression="all_sum_pt_with_met" Label="all_sum_pt_with_met" Title="all_sum_pt_with_met" Unit="" Internal="all_sum_pt_with_met" Type="F" Min="2.42213242e+02" Max="2.02883215e+03"/>
    <Variable VarIndex="6" Expression="closest_tagged_dijet_mass" Label="closest_tagged_dijet_mass" Title="closest_tagged_dijet_mass" Unit="" Internal="closest_tagged_dijet_mass" Type="F" Min="1.64016380e+01" Max="4.97849426e+02"/>
    <Variable VarIndex="7" Expression="aplanarity" Label="aplanarity" Title="aplanarity" Unit="" Internal="aplanarity" Type="F" Min="7.34558213e-04" Max="3.94745082e-01"/>
    <Variable VarIndex="8" Expression="avg_dr_tagged_jets" Label="avg_dr_tagged_jets" Title="avg_dr_tagged_jets" Unit="" Internal="avg_dr_tagged_jets" Type="F" Min="7.00930953e-01" Max="3.53502727e+00"/>
  </Variables>
  <Spectators NSpec="0"/>
  <Classes NClass="2">
    <Class Name="Signal" Index="0"/>
    <Class Name="Background" Index="1"/>
  </Classes>
  <Transformations NTransformations="0"/>
  <MVAPdfs/>
  <Weights NTrees="700" AnalysisType="1">
    <BinaryTree type="DecisionTree" boostWeight="1.0000000000000000e+00" itree="0">
      <Node pos="s" depth="0" NCoef="0" IVar="0" Cut="1.2836309671401978e+00" cType="1" res="2.3497547954320908e-02" rms="4.9944755434989929e-01" purity="5.2349758148193359e-01" nType="0">
        <Node pos="l" depth="1" NCoef="0" IVar="2" Cut="9.3491125106811523e-01" cType="1" res="1.2409895658493042e-01" rms="4.8435467481613159e-01" purity="6.2409895658493042e-01" nType="0">
          <Node pos="l" depth="2" NCoef="0" IVar="-1" Cut="0.0000000000000000e+00" cType="1" res="-1.0116875637322664e-03" rms="4.9624860286712646e-01" purity="4.3886643648147583e-01" nType="-99"/>
          <Node pos="r" depth="2" NCoef="0" IVar="-1" Cut="0.0000000000000000e+00" cType="1" res="4.3885982595384121e-03" rms="4.6517026424407959e-01" purity="6.8334841728210449e-01" nType="-99"/>
        </Node>
        <Node pos="r" depth="1" NCoef="0" IVar="2" Cut="9.4915944337844849e-01" cType="1" res="-2.3827204108238220e-01" rms="4.3957528471946716e-01" purity="2.6172795891761780e-01" nType="0">
          <Node pos="l" depth="2" NCoef="0" IVar="-1" Cut="0.0000000000000000e+00" cType="1" res="-3.9681773632764816e-03" rms="3.7860834598541260e-01" purity="1.7341811954975128e-01" nType="-99"/>
          <Node pos="r" depth="2" NCoef="0" IVar="-1" Cut="0.0000000000000000e+00" cType="1" res="-2.0592988003045321e-03" rms="4.8246785998344421e-01" purity="3.6875680088996887e-01" nType="-99"/>
        </Node>
      </Node>
    </BinaryTree>
    <BinaryTree type="DecisionTree" boostWeight="1.0000000000000000e+00" itree="1">
      <Node pos="s" depth="0" NCoef="0" IVar="0" Cut="1.2371242046356201e+00" cType="1" res="-1.2601544149219990e-02" rms="4.9931320548057556e-01" purity="4.8812007904052734e-01" nType="0">
        <Node pos="l" depth="1" NCoef="0" IVar="2" Cut="9.6171230077743530e-01" cType="1" res="8.0015748739242554e-02" rms="4.9308475852012634e-01" purity="5.8155870437622070e-01" nType="0">
          <Node pos="l" depth="2" NCoef="0" IVar="-1" Cut="0.0000000000000000e+00" cType="1" res="5.3418283641804010e-05" rms="4.9980834126472473e-01" purity="5.0421327352523804e-01" nType="-99"/>
          <Node pos="r" depth="2" NCoef="0" IVar="-1" Cut="0.0000000000000000e+00" cType="1" res="6.1485506594181061e-03" rms="4.4242432713508606e-01" purity="7.3293924331665039e-01" nType="-99"/>
        </Node>
        <Node pos="r" depth="1" NCoef="0" IVar="2" Cut="9.3149554729461670e-01" cType="1" res="-2.2747224569320679e-01" rms="4.4450369477272034e-01" purity="2.7134400606155396e-01" nType="0">
          <Node pos="l" depth="2" NCoef="0" IVar="-1" Cut="0.0000000000000000e+00" cType="1" res="-4.1320854797959328e-03" rms="3.3730065822601318e-01" purity="1.3094392418861389e-01" nType="-99"/>
          <Node pos="r" depth="2" NCoef="0" IVar="-1" Cut="0.0000000000000000e+00" cType="1" res="-2.4386094883084297e-03" rms="4.7451770305633545e-01" purity="3.4257435798645020e-01" nType="-99"/>
        </Node>
      </Node>
    </BinaryTree>
    <BinaryTree type="DecisionTree" boostWeight="1.0000000000000000e+00" itree="2">
      <Node pos="s" depth="0" NCoef="0" IVar="0" Cut="1.0820320844650269e+00" cType="1" res="-7.3454449884593487e-03" rms="4.9883759021759033e-01" purity="4.9364086985588074e-01" nType="0">
        <Node pos="l" depth="1" NCoef="0" IVar="2" Cut="9.5216596126556396e-01" cType="1" res="1.2475862354040146e-01" rms="4.8301541805267334e-01" purity="6.2743037939071655e-01" nType="0">
          <Node pos="l" depth="2" NCoef="0" IVar="-1" Cut="0.0000000000000000e+00" cType="1" res="1.8653309962246567e-04" rms="4.9976778030395508e-01" purity="5.1158612966537476e-01" nType="-99"/>
          <Node pos="r" depth="2" NCoef="0" IVar="-1" Cut="0.0000000000000000e+00" cType="1" res="6.1887544579803944e-03" rms="4.4185221195220947e-01" purity="7.3389214277267456e-01" nType="-99"/>
        </Node>
        <Node pos="r" depth="1" NCoef="0" IVar="2" Cut="9.4007271528244019e-01" cType="1" res="-1.7370375990867615e-01" rms="4.6770772337913513e-01" purity="3.2516011595726013e-01" nType="0">
          <Node pos="l" depth="2" NCoef="0" IVar="-1" Cut="0.0000000000000000e+00" cType="1" res="-3.7532891146838665e-03" rms="3.8626316189765930e-01" purity="1.8267674744129181e-01" nType="-99"/>
          <Node pos="r" depth="2" NCoef="0" IVar="-1" Cut="0.0000000000000000e+00" cType="1" res="-1.1871478054672480e-03" rms="4.9436664581298828e-01" purity="4.2930203676223755e-01" nType="-99"/>
        </Node>
      </Node>
    </BinaryTree>
    <BinaryTree type="DecisionTree" boostWeight="1.0000000000000000e+00" itree="3">
      <Node pos="s" depth="0" NCoef="0" IVar="0" Cut="1.1440871953964233e+00" cType="1" res="5.7104527950286865e-03" rms="4.9811077117919922e-01" purity="5.0709021091461182e-01" nType="0">
        <Node pos="l" depth="1" NCoef="0" IVar="2" Cut="9.4031572341918945e-01" cType="1" res="1.2229493260383606e-01" rms="4.8284304141998291e-01" purity="6.2635409832000732e-01" nType="0">
          <Node pos="l" depth="2" NCoef="0" IVar="-1" Cut="0.0000000000000000e+00" cType="1" res="-9.2081434559077024e-04" rms="4.9658471345901489e-01" purity="4.4254112243652344e-01" nType="-99"/>
          <Node pos="r" depth="2" NCoef="0" IVar="-1" Cut="0.0000000000000000e+00" cType="1" res="5.1197749562561512e-03" rms="4.5366290211677551e-01" purity="7.0947504043579102e-01" nType="-99"/>
        </Node>
        <Node pos="r" depth="1" NCoef="0" IVar="2" Cut="9.6709614992141724e-01" cType="1" res="-1.8265251815319061e-01" rms="4.6354228258132935e-01" purity="3.1439825892448425e-01" nType="0">
          <Node pos="l" depth="2" NCoef="0" IVar="-1" Cut="0.0000000000000000e+00" cType="1" res="-3.1082963105291128e-03" rms="4.4089737534523010e-01" purity="2.6510775089263916e-01" nType="-99"/>
          <Node pos="r" depth="2" NCoef="0" IVar="-1" Cut="0.0000000000000000e+00" cType="1" res="9.0732943499460816e-04" rms="4.9734297394752502e-01" purity="5.4330790042877197e-01" nType="-99"/>
        </Node>
      </Node>
    </BinaryTree>
    <BinaryTree type="DecisionTree" boostWeight="1.0000000000000000e+00" itree="4">
      <Node pos="s" depth="0" NCoef="0" IVar="0" Cut="1.0820320844650269e+00" cType="1" res="-6.2616379000246525e-03" rms="4.9758708477020264e-01" purity="4.9566325545310974e-01" nType="0">
        <Node pos="l" depth="1" NCoef="0" IVar="6" Cut="8.8012130737304688e+01" cType="1" res="1.2742590904235840e-01" rms="4.8091304302215576e-01" purity="6.3337379693984985e-01" nType="0">
          <Node pos="l" depth="2" NCoef="0" IVar="-1" Cut="0.0000000000000000e+00" cType="1" res="9.3702465528622270e-04" rms="4.9601316452026367e-01" purity="5.5505061149597168e-01" nType="-99"/>
          <Node pos="r" depth="2" NCoef="0" IVar="-1" Cut="0.0000000000000000e+00" cType="1" res="8.4837432950735092e-03" rms="4.0462225675582886e-01" purity="7.9237723350524902e-01" nType="-99"/>
        </Node>
        <Node pos="r" depth="1" NCoef="0" IVar="2" Cut="9.5353674888610840e-01" cType="1" res="-1.8065203726291656e-01" rms="4.6384277939796448e-01" purity="3.1602498888969421e-01" nType="0">
          <Node pos="l" depth="2" NCoef="0" IVar="-1" Cut="0.0000000000000000e+00" cType="1" res="-3.6946234758943319e-03" rms="4.1177505254745483e-01" purity="2.1675541996955872e-01" nType="-99"/>
          <Node pos="r" depth="2" NCoef="0" IVar="-1" Cut="0.0000000000000000e+00" cType="1" res="-2.7436498203314841e-04" rms="4.9898061156272888e-01" purity="4.8487299680709839e-01" nType="-99"/>
        </Node>
      </Node>
    </BinaryTree>
    <BinaryTree type="DecisionTree" boostWeight="1.0000000000000000e+00" itree="5">
      <Node pos="s" depth="0" NCoef="0" IVar="0" Cut="1.0721266269683838e+00" cType="1" res="-1.0394909419119358e-02" rms="4.9656799435615540e-01" purity="4.9178141355514526e-01" nType="0">
        <Node pos="l" depth="1" NCoef="0" IVar="2" Cut="9.4599652290344238e-01" cType="1" res="1.3093808293342590e-01" rms="4.7867858409881592e-01" purity="6.3830363750457764e-01" nType="0">
          <Node pos="l" depth="2" NCoef="0" IVar="-1" Cut="0.0000000000000000e+00" cType="1" res="-5.8374874060973525e-04" rms="4.9843412637710571e-01" purity="4.6719536185264587e-01" nType="-99"/>
          <Node pos="r" depth="2" NCoef="0" IVar="-1" Cut="0.0000000000000000e+00" cType="1" res="7.0685716345906258e-03" rms="4.2460501194000244e-01" purity="7.6293671131134033e-01" nType="-99"/>
        </Node>
        <Node pos="r" depth="1" NCoef="0" IVar="2" Cut="9.5104444026947021e-01" cType="1" res="-1.8095101416110992e-01" rms="4.6307575702667236e-01" purity="3.1496319174766541e-01" nType="0">
          <Node pos="l" depth="2" NCoef="0" IVar="-1" Cut="0.0000000000000000e+00" cType="1" res="-3.4982648212462664e-03" rms="4.0975585579872131e-01" purity="2.1413668990135193e-01" nType="-99"/>
          <Node pos="r" depth="2" NCoef="0" IVar="-1" Cut="0.0000000000000000e+00" cType="1" res="-7.4560398934409022e-04" rms="4.9734511971473694e-01" purity="4.5728489756584167e-01" nType="-99"/>
        </Node>
      </Node>
    </BinaryTree>
    <BinaryTree type="DecisionTree" boostWeight="1.0000000000000000e+00" itree="6">
      <Node pos="s" depth="0" NCoef="0" IVar="0" Cut="1.1142597198486328e+00" cType="1" res="1.2541697360575199e-02" rms="4.9588111042976379e-01" purity="5.1562780141830444e-01" nType="0">
        <Node pos="l" depth="1" NCoef="0" IVar="6" Cut="7.2069961547851562e+01" cType="1" res="1.4246103167533875e-01" rms="4.7469514608383179e-01" purity="6.5201014280319214e-01" nType="0">
          <Node pos="l" depth="2" NCoef="0" IVar="-1" Cut="0.0000000000000000e+00" cType="1" res="8.8410807074978948e-04" rms="4.9562272429466248e-01" purity="5.5383616685867310e-01" nType="-99"/>
          <Node pos="r" depth="2" NCoef="0" IVar="-1" Cut="0.0000000000000000e+00" cType="1" res="7.2428220883011818e-03" rms="4.2166855931282043e-01" purity="7.6681941747665405e-01" nType="-99"/>
        </Node>
        <Node pos="r" depth="1" NCoef="0" IVar="2" Cut="9.3858271837234497e-01" cType="1" res="-1.7125470936298370e-01" rms="4.6618458628654480e-01" purity="3.2268819212913513e-01" nType="0">
          <Node pos="l" depth="2" NCoef="0" IVar="-1" Cut="0.0000000000000000e+00" cType="1" res="-3.8399551995098591e-03" rms="3.7716150283813477e-01" purity="1.7198902368545532e-01" nType="-99"/>
          <Node pos="r" depth="2" NCoef="0" IVar="-1" Cut="0.0000000000000000e+00" cType="1" res="-1.1686692014336586e-03" rms="4.9377223849296570e-01" purity="4.2543557286262512e-01" nType="-99"/>
        </Node>
      </Node>
    </BinaryTree>
    <BinaryTree type="DecisionTree" boostWeight="1.0000000000000000e+00" itree="7">
      <Node pos="s" depth="0" NCoef="0" IVar="0" Cut="1.1838330030441284e+00" cType="1" res="-6.9385855458676815e-03" rms="4.9518340826034546e-01" purity="4.9692046642303467e-01" nType="0">
        <Node pos="l" depth="1" NCoef="0" IVar="2" Cut="9.4084632396697998e-01" cType="1" res="1.1104341596364975e-01" rms="4.8262444138526917e-01" purity="6.2137186527252197e-01" nType="0">
          <Node pos="l" depth="2" NCoef="0" IVar="-1" Cut="0.0000000000000000e+00" cType="1" res="-9.2825520550832152e-04" rms="4.9565088748931885e-01" purity="4.4317805767059326e-01" nType="-99"/>
          <Node pos="r" depth="2" NCoef="0" IVar="-1" Cut="0.0000000000000000e+00" cType="1" res="4.8537240363657475e-03" rms="4.5436125993728638e-01" purity="7.0669019222259521e-01" nType="-99"/>
        </Node>
        <Node pos="r" depth="1" NCoef="0" IVar="2" Cut="9.4783478975296021e-01" cType="1" res="-2.2164568305015564e-01" rms="4.4285878539085388e-01" purity="2.7044028043746948e-01" nType="0">
          <Node pos="l" depth="2" NCoef="0" IVar="-1" Cut="0.0000000000000000e+00" cType="1" res="-3.8710911758244038e-03" rms="3.7229487299919128e-01" purity="1.6655366122722626e-01" nType="-99"/>
          <Node pos="r" depth="2" NCoef="0" IVar="-1" Cut="0.0000000000000000e+00" cType="1" res="-1.7008509021252394e-03" rms="4.8688012361526489e-01" purity="3.8867345452308655e-01" nType="-99"/>
        </Node>
      </Node>
    </BinaryTree>
    <BinaryTree type="DecisionTree" boostWeight="1.0000000000000000e+00" itree="8">
      <Node pos="s" depth="0" NCoef="0" IVar="2" Cut="9.4477194547653198e-01" cType="1" res="-1.3987574493512511e-03" rms="4.9476286768913269e-01" purity="5.0332272052764893e-01" nType="0">
        <Node pos="l" depth="1" NCoef="0" IVar="0" Cut="9.2554342746734619e-01" cType="1" res="-1.6666552424430847e-01" rms="4.6738192439079285e-01" purity="3.2960456609725952e-01" nType="0">
          <Node pos="l" depth="2" NCoef="0" IVar="-1" Cut="0.0000000000000000e+00" cType="1" res="3.0945788603276014e-04" rms="4.9851706624031067e-01" purity="5.2103644609451294e-01" nType="-99"/>
          <Node pos="r" depth="2" NCoef="0" IVar="-1" Cut="0.0000000000000000e+00" cType="1" res="-3.4395938273519278e-03" rms="4.1302731633186340e-01" purity="2.1973283588886261e-01" nType="-99"/>
        </Node>
        <Node pos="r" depth="1" NCoef="0" IVar="0" Cut="1.1373199224472046e+00" cType="1" res="1.1791680753231049e-01" rms="4.7943168878555298e-01" purity="6.2873977422714233e-01" nType="0">
          <Node pos="l" depth="2" NCoef="0" IVar="-1" Cut="0.0000000000000000e+00" cType="1" res="5.5129998363554478e-03" rms="4.4468885660171509e-01" purity="7.2678470611572266e-01" nType="-99"/>
          <Node pos="r" depth="2" NCoef="0" IVar="-1" Cut="0.0000000000000000e+00" cType="1" res="-1.1398434871807694e-03" rms="4.9402463436126709e-01" purity="4.2763033509254456e-01" nType="-99"/>
        </Node>
      </Node>
    </BinaryTree>
    <BinaryTree type="DecisionTree" boostWeight="1.0000000000000000e+00" itree="9">
      <Node pos="s" depth="0" NCoef="0" IVar="0" Cut="1.2892304658889771e+00" cType="1" res="1.0367228649556637e-02" rms="4.9385535717010498e-01" purity="5.1513314247131348e-01" nType="0">
        <Node pos="l" depth="1" NCoef="0" IVar="2" Cut="9.4201719760894775e-01" cType="1" res="1.1054061353206635e-01" rms="4.8147910833358765e-01" purity="6.2188816070556641e-01" nType="0">
          <Node pos="l" depth="2" NCoef="0" IVar="-1" Cut="0.0000000000000000e+00" cType="1" res="-7.4434455018490553e-04" rms="4.9679243564605713e-01" purity="4.5375612378120422e-01" nType="-99"/>
          <Node pos="r" depth="2" NCoef="0" IVar="-1" Cut="0.0000000000000000e+00" cType="1" res="4.7986190766096115e-03" rms="4.5392608642578125e-01" purity="7.0599651336669922e-01" nType="-99"/>
        </Node>
        <Node pos="r" depth="1" NCoef="0" IVar="2" Cut="9.3386459350585938e-01" cType="1" res="-2.3469197750091553e-01" rms="4.3453481793403625e-01" purity="2.5397306680679321e-01" nType="0">
          <Node pos="l" depth="2" NCoef="0" IVar="-1" Cut="0.0000000000000000e+00" cType="1" res="-3.9272769354283810e-03" rms="3.5141831636428833e-01" purity="1.4432170987129211e-01" nType="-99"/>
          <Node pos="r" depth="2" NCoef="0" IVar="-1" Cut="0.0000000000000000e+00" cType="1" res="-2.6895836926996708e-03" rms="4.6309286355972290e-01" purity="3.1171813607215881e-01" nType="-99"/>
        </Node>
      </Node>
    </BinaryTree>
    <BinaryTree type="DecisionTree" boostWeight="1.0000000000000000e+00" itree="10">
      <Node pos="s" depth="0" NCoef="0" IVar="0" Cut="1.1612598896026611e+00" cType="1" res="-1.2915093451738358e-02" rms="4.9313718080520630e-01" purity="4.9209687113761902e-01" nType="0">
        <Node pos="l" depth="1" NCoef="0" IVar="2" Cut="9.4123077392578125e-01" cType="1" res="1.0854788869619370e-01" rms="4.8090365529060364e-01" purity="6.2336647510528564e-01" nType="0">
          <Node pos="l" depth="2" NCoef="0" IVar="-1" Cut="0.0000000000000000e+00" cType="1" res="-9.1206509387120605e-04" rms="4.9586430191993713e-01" purity="4.4324529170989990e-01" nType="-99"/>
          <Node pos="r" depth="2" NCoef="0" IVar="-1" Cut="0.0000000000000000e+00" cType="1" res="4.9537443555891514e-03" rms="4.4960442185401917e-01" purity="7.1640914678573608e-01" nType="-99"/>
        </Node>
        <Node pos="r" depth="1" NCoef="0" IVar="2" Cut="9.5021444559097290e-01" cType="1" res="-2.1000772714614868e-01" rms="4.4691699743270874e-01" purity="2.7909147739410400e-01" nType="0">
          <Node pos="l" depth="2" NCoef="0" IVar="-1" Cut="0.0000000000000000e+00" cType="1" res="-3.5894543398171663e-03" rms="3.9681482315063477e-01" purity="1.9640402495861053e-01" nType="-99"/>
          <Node pos="r" depth="2" NCoef="0" IVar="-1" Cut="0.0000000000000000e+00" cType="1" res="-1.4965307200327516e-03" rms="4.8963487148284912e-01" purity="4.0161207318305969e-01" nType="-99"/>
        </Node>
      </Node>
    </BinaryTree>
    <BinaryTree type="DecisionTree" boostWeight="1.0000000000000000e+00" itree="11">
      <Node pos="s" depth="0" NCoef="0" IVar="0" Cut="1.1028327941894531e+00" cType="1" res="-5.2307113073766232e-03" rms="4.9285611510276794e-01" purity="5.0029480457305908e-01" nType="0">
        <Node pos="l" depth="1" NCoef="0" IVar="2" Cut="9.3874263763427734e-01" cType="1" res="1.2338924407958984e-01" rms="4.7651648521423340e-01" purity="6.4048975706100464e-01" nType="0">
          <Node pos="l" depth="2" NCoef="0" IVar="-1" Cut="0.0000000000000000e+00" cType="1" res="-7.3868711479008198e-04" rms="4.9731403589248657e-01" purity="4.5566222071647644e-01" nType="-99"/>
          <Node pos="r" depth="2" NCoef="0" IVar="-1" Cut="0.0000000000000000e+00" cType="1" res="5.1385164260864258e-03" rms="4.4753688573837280e-01" purity="7.2159904241561890e-01" nType="-99"/>
        </Node>
        <Node pos="r" depth="1" NCoef="0" IVar="2" Cut="9.3777859210968018e-01" cType="1" res="-1.7820851504802704e-01" rms="4.6047714352607727e-01" purity="3.1175014376640320e-01" nType="0">
          <Node pos="l" depth="2" NCoef="0" IVar="-1" Cut="0.0000000000000000e+00" cType="1" res="-3.8545676507055759e-03" rms="3.6548587679862976e-01" purity="1.5903249382972717e-01" nType="-99"/>
          <Node pos="r" depth="2" NCoef="0" IVar="-1" Cut="0.0000000000000000e+00" cType="1" res="-1.4558976981788874e-03" rms="4.8911881446838379e-01" purity="4.0461403131484985e-01" nType="-99"/>
        </Node>
      </Node>
    </BinaryTree>
    <BinaryTree type="DecisionTree" boostWeight="1.0000000000000000e+00" itree="12">
      <Node pos="s" depth="0" NCoef="0" IVar="0" Cut="1.1440871953964233e+00" cType="1" res="-8.6047509685158730e-03" rms="4.9268549680709839e-01" purity="4.9811804294586182e-01" nType="0">
        <Node pos="l" depth="1" NCoef="0" IVar="6" Cut="9.2544235229492188e+01" cType="1" res="1.0428095608949661e-01" rms="4.8123940825462341e-01" purity="6.2244659662246704e-01" nType="0">
          <Node pos="l" depth="2" NCoef="0" IVar="-1" Cut="0.0000000000000000e+00" cType="1" res="8.5955596296116710e-04" rms="4.9348232150077820e-01" purity="5.6088644266128540e-01" nType="-99"/>
          <Node pos="r" depth="2" NCoef="0" IVar="-1" Cut="0.0000000000000000e+00" cType="1" res="8.3075035363435745e-03" rms="3.9919418096542358e-01" purity="7.9562115669250488e-01" nType="-99"/>
        </Node>
        <Node pos="r" depth="1" NCoef="0" IVar="2" Cut="9.4791197776794434e-01" cType="1" res="-1.9470112025737762e-01" rms="4.5329549908638000e-01" purity="2.9315766692161560e-01" nType="0">
          <Node pos="l" depth="2" NCoef="0" IVar="-1" Cut="0.0000000000000000e+00" cType="1" res="-3.6928334739059210e-03" rms="3.8986089825630188e-01" purity="1.8726278841495514e-01" nType="-99"/>
          <Node pos="r" depth="2" NCoef="0" IVar="-1" Cut="0.0000000000000000e+00" cType="1" res="-1.5199509216472507e-03" rms="4.8850643634796143e-01" purity="3.9620226621627808e-01" nType="-99"/>
        </Node>
      </Node>
    </BinaryTree>
    <BinaryTree type="DecisionTree" boostWeight="1.0000000000000000e+00" itree="13">
      <Node pos="s" depth="0" NCoef="0" IVar="0" Cut="1.2257379293441772e+00" cType="1" res="-2.6243110187351704e-03" rms="4.9209526181221008e-01" purity="5.0458776950836182e-01" nType="0">
        <Node pos="l" depth="1" NCoef="0" IVar="2" Cut="9.4309490919113159e-01" cType="1" res="8.6842335760593414e-02" rms="4.8439660668373108e-01" purity="6.0442847013473511e-01" nType="0">
          <Node pos="l" depth="2" NCoef="0" IVar="-1" Cut="0.0000000000000000e+00" cType="1" res="-9.0747786452993751e-04" rms="4.9492880702018738e-01" purity="4.4455403089523315e-01" nType="-99"/>
          <Node pos="r" depth="2" NCoef="0" IVar="-1" Cut="0.0000000000000000e+00" cType="1" res="4.0410957299172878e-03" rms="4.5982232689857483e-01" purity="6.9266438484191895e-01" nType="-99"/>
        </Node>
        <Node pos="r" depth="1" NCoef="0" IVar="8" Cut="2.5810711383819580e+00" cType="1" res="-1.9813455641269684e-01" rms="4.5041108131408691e-01" purity="2.8640738129615784e-01" nType="0">
          <Node pos="l" depth="2" NCoef="0" IVar="-1" Cut="0.0000000000000000e+00" cType="1" res="-1.7301114276051521e-03" rms="4.8181051015853882e-01" purity="3.7131148576736450e-01" nType="-99"/>
          <Node pos="r" depth="2" NCoef="0" IVar="-1" Cut="0.0000000000000000e+00" cType="1" res="-4.0383455343544483e-03" rms="3.6310046911239624e-01" purity="1.5790891647338867e-01" nType="-99"/>
        </Node>
      </Node>
    </BinaryTree>
    <BinaryTree type="DecisionTree" boostWeight="1.0000000000000000e+00" itree="14">
      <Node pos="s" depth="0" NCoef="0" IVar="0" Cut="1.0758219957351685e+00" cType="1" res="-8.9092347770929337e-03" rms="4.9141377210617065e-01" purity="4.9772632122039795e-01" nType="0">
        <Node pos="l" depth="1" NCoef="0" IVar="2" Cut="9.6148377656936646e-01" cType="1" res="1.2599626183509827e-01" rms="4.7437778115272522e-01" purity="6.4790123701095581e-01" nType="0">
          <Node pos="l" depth="2" NCoef="0" IVar="-1" Cut="0.0000000000000000e+00" cType="1" res="1.2624997179955244e-03" rms="4.9177086353302002e-01" purity="5.7936841249465942e-01" nType="-99"/>
          <Node pos="r" depth="2" NCoef="0" IVar="-1" Cut="0.0000000000000000e+00" cType="1" res="7.0745735429227352e-03" rms="4.1679376363754272e-01" purity="7.7494853734970093e-01" nType="-99"/>
        </Node>
        <Node pos="r" depth="1" NCoef="0" IVar="2" Cut="9.4314640760421753e-01" cType="1" res="-1.7245616018772125e-01" rms="4.6111044287681580e-01" purity="3.1566816568374634e-01" nType="0">
          <Node pos="l" depth="2" NCoef="0" IVar="-1" Cut="0.0000000000000000e+00" cType="1" res="-3.5378693137317896e-03" rms="3.9122453331947327e-01" purity="1.8980771303176880e-01" nType="-99"/>
          <Node pos="r" depth="2" NCoef="0" IVar="-1" Cut="0.0000000000000000e+00" cType="1" res="-1.2641178909689188e-03" rms="4.9087351560592651e-01" purity="4.1810178756713867e-01" nType="-99"/>
        </Node>
      </Node>
    </BinaryTree>
    <BinaryTree type="DecisionTree" boostWeight="1.0000000000000000e+00" itree="15">
      <Node pos="s" depth="0" NCoef="0" IVar="0" Cut="1.1720354557037354e+00" cType="1" res="-4.8745195381343365e-03" rms="4.9037373065948486e-01" purity="5.0233197212219238e-01" nType="0">
        <Node pos="l" depth="1" NCoef="0" IVar="2" Cut="9.4869709014892578e-01" cType="1" res="1.0747022181749344e-01" rms="4.7782054543495178e-01" purity="6.2959915399551392e-01" nType="0">
          <Node pos="l" depth="2" NCoef="0" IVar="-1" Cut="0.0000000000000000e+00" cType="1" res="-3.7504930514842272e-04" rms="4.9701669812202454e-01" purity="4.8483282327651978e-01" nType="-99"/>
          <Node pos="r" depth="2" NCoef="0" IVar="-1" Cut="0.0000000000000000e+00" cType="1" res="5.5853468365967274e-03" rms="4.3825960159301758e-01" purity="7.3901271820068359e-01" nType="-99"/>
        </Node>
        <Node pos="r" depth="1" NCoef="0" IVar="0" Cut="1.4393508434295654e+00" cType="1" res="-1.8705992400646210e-01" rms="4.5444127917289734e-01" purity="2.9594749212265015e-01" nType="0">
          <Node pos="l" depth="2" NCoef="0" IVar="-1" Cut="0.0000000000000000e+00" cType="1" res="-1.3473483268171549e-03" rms="4.8825600743293762e-01" purity="4.0084496140480042e-01" nType="-99"/>
          <Node pos="r" depth="2" NCoef="0" IVar="-1" Cut="0.0000000000000000e+00" cType="1" res="-3.6207654047757387e-03" rms="3.9375412464141846e-01" purity="1.9330438971519470e-01" nType="-99"/>
        </Node>
      </Node>
    </BinaryTree>
    <BinaryTree type="DecisionTree" boostWeight="1.0000000000000000e+00" itree="16">
      <Node pos="s" depth="0" NCoef="0" IVar="8" Cut="2.4147408008575439e+00" cType="1" res="-1.8106818199157715e-02" rms="4.9052545428276062e-01" purity="4.8953723907470703e-01" nType="0">
        <Node pos="l" depth="1" NCoef="0" IVar="6" Cut="7.7588050842285156e+01" cType="1" res="5.7077508419752121e-02" rms="4.8811471462249756e-01" purity="5.7238763570785522e-01" nType="0">
          <Node pos="l" depth="2" NCoef="0" IVar="-1" Cut="0.0000000000000000e+00" cType="1" res="-5.7442585239186883e-04" rms="4.9356007575988770e-01" purity="4.7803214192390442e-01" nType="-99"/>
          <Node pos="r" depth="2" NCoef="0" IVar="-1" Cut="0.0000000000000000e+00" cType="1" res="5.1999613642692566e-03" rms="4.4258695840835571e-01" purity="7.2218877077102661e-01" nType="-99"/>
        </Node>
        <Node pos="r" depth="1" NCoef="0" IVar="2" Cut="9.4073611497879028e-01" cType="1" res="-2.4817289412021637e-01" rms="4.2143416404724121e-01" purity="2.3601278662681580e-01" nType="0">
          <Node pos="l" depth="2" NCoef="0" IVar="-1" Cut="0.0000000000000000e+00" cType="1" res="-3.9946697652339935e-03" rms="3.3967015147209167e-01" purity="1.3373358547687531e-01" nType="-99"/>
          <Node pos="r" depth="2" NCoef="0" IVar="-1" Cut="0.0000000000000000e+00" cType="1" res="-2.6435791514813900e-03" rms="4.6440863609313965e-01" purity="3.1952098011970520e-01" nType="-99"/>
        </Node>
      </Node>
    </BinaryTree>
    <BinaryTree type="DecisionTree" boostWeight="1.0000000000000000e+00" itree="17">
      <Node pos="s" depth="0" NCoef="0" IVar="8" Cut="2.4657459259033203e+00" cType="1" res="-5.7065668515861034e-03" rms="4.8984107375144958e-01" purity="5.0316202640533447e-01" nType="0">
        <Node pos="l" depth="1" NCoef="0" IVar="2" Cut="9.3910819292068481e-01" cType="1" res="6.4299367368221283e-02" rms="4.8675635457038879e-01" purity="5.8049237728118896e-01" nType="0">
          <Node pos="l" depth="2" NCoef="0" IVar="-1" Cut="0.0000000000000000e+00" cType="1" res="-1.3926082756370306e-03" rms="4.8711746931076050e-01" purity="4.0343904495239258e-01" nType="-99"/>
          <Node pos="r" depth="2" NCoef="0" IVar="-1" Cut="0.0000000000000000e+00" cType="1" res="3.0821494292467833e-03" rms="4.7028112411499023e-01" purity="6.5965139865875244e-01" nType="-99"/>
        </Node>
        <Node pos="r" depth="1" NCoef="0" IVar="2" Cut="9.4887506961822510e-01" cType="1" res="-2.8615802526473999e-01" rms="3.9207962155342102e-01" purity="1.9336833059787750e-01" nType="0">
          <Node pos="l" depth="2" NCoef="0" IVar="-1" Cut="0.0000000000000000e+00" cType="1" res="-4.3021733872592449e-03" rms="3.0033084750175476e-01" purity="1.0034275799989700e-01" nType="-99"/>
          <Node pos="r" depth="2" NCoef="0" IVar="-1" Cut="0.0000000000000000e+00" cType="1" res="-2.3079528473317623e-03" rms="4.7120335698127747e-01" purity="3.3571279048919678e-01" nType="-99"/>
        </Node>
      </Node>
    </BinaryTree>
    <BinaryTree type="DecisionTree" boostWeight="1.0000000000000000e+00" itree="18">
      <Node pos="s" depth="0" NCoef="0" IVar="0" Cut="1.1612598896026611e+00" cType="1" res="4.0478124283254147e-03" rms="4.8880031704902649e-01" purity="5.1324546337127686e-01" nType="0">
        <Node pos="l" depth="1" NCoef="0" IVar="2" Cut="9.2950677871704102e-01" cType="1" res="1.1284110695123672e-01" rms="4.7523969411849976e-01" purity="6.3870316743850708e-01" nType="0">
          <Node pos="l" depth="2" NCoef="0" IVar="-1" Cut="0.0000000000000000e+00" cType="1" res="-1.4958591200411320e-03" rms="4.8907199501991272e-01" purity="4.0121176838874817e-01" nType="-99"/>
          <Node pos="r" depth="2" NCoef="0" IVar="-1" Cut="0.0000000000000000e+00" cType="1" res="3.8996872026473284e-03" rms="4.5886281132698059e-01" purity="6.9172304868698120e-01" nType="-99"/>
        </Node>
        <Node pos="r" depth="1" NCoef="0" IVar="2" Cut="9.6811544895172119e-01" cType="1" res="-1.8045817315578461e-01" rms="4.5495185256004333e-01" purity="3.0047780275344849e-01" nType="0">
          <Node pos="l" depth="2" NCoef="0" IVar="-1" Cut="0.0000000000000000e+00" cType="1" res="-3.0915616080164909e-03" rms="4.2864865064620972e-01" purity="2.4658803641796112e-01" nType="-99"/>
          <Node pos="r" depth="2" NCoef="0" IVar="-1" Cut="0.0000000000000000e+00" cType="1" res="1.1416383786126971e-03" rms="4.9535664916038513e-01" purity="5.4761755466461182e-01" nType="-99"/>
        </Node>
      </Node>
    </BinaryTree>
    <BinaryTree type="DecisionTree" boostWeight="1.0000000000000000e+00" itree="19">
      <Node pos="s" depth="0" NCoef="0" IVar="0" Cut="1.1098282337188721e+00" cType="1" res="5.1977421389892697e-04" rms="4.8891827464103699e-01" purity="5.1066052913665771e-01" nType="0">
        <Node pos="l" depth="1" NCoef="0" IVar="2" Cut="9.5216596126556396e-01" cType="1" res="1.1182885617017746e-01" rms="4.7489905357360840e-01" purity="6.4067560434341431e-01" nType="0">
          <Node pos="l" depth="2" NCoef="0" IVar="-1" Cut="0.0000000000000000e+00" cType="1" res="-5.2923940529581159e-05" rms="4.9804478883743286e-01" purity="5.1021528244018555e-01" nType="-99"/>
          <Node pos="r" depth="2" NCoef="0" IVar="-1" Cut="0.0000000000000000e+00" cType="1" res="6.0935425572097301e-03" rms="4.2756497859954834e-01" purity="7.5791060924530029e-01" nType="-99"/>
        </Node>
        <Node pos="r" depth="1" NCoef="0" IVar="0" Cut="1.4531670808792114e+00" cType="1" res="-1.6144393384456635e-01" rms="4.6307858824729919e-01" purity="3.2147806882858276e-01" nType="0">
          <Node pos="l" depth="2" NCoef="0" IVar="-1" Cut="0.0000000000000000e+00" cType="1" res="-1.2370687909424305e-03" rms="4.8863258957862854e-01" purity="4.1037324070930481e-01" nType="-99"/>
          <Node pos="r" depth="2" NCoef="0" IVar="-1" Cut="0.0000000000000000e+00" cType="1" res="-3.6430563777685165e-03" rms="3.9391052722930908e-01" purity="1.9425028562545776e-01" nType="-99"/>
        </Node>
      </Node>
    </BinaryTree>
    <BinaryTree type="DecisionTree" boostWeight="1.0000000000000000e+00" itree="20">
      <Node pos="s" depth="0" NCoef="0" IVar="0" Cut="1.0076739788055420e+00" cType="1" res="-3.2404813915491104e-02" rms="4.8890107870101929e-01" purity="4.7807708382606506e-01" nType="0">
        <Node pos="l" depth="1" NCoef="0" IVar="6" Cut="9.3002784729003906e+01" cType="1" res="1.0251052677631378e-01" rms="4.7807756066322327e-01" purity="6.3302588462829590e-01" nType="0">
          <Node pos="l" depth="2" NCoef="0" IVar="-1" Cut="0.0000000000000000e+00" cType="1" res="1.0236549424007535e-03" rms="4.9030536413192749e-01" purity="5.7794231176376343e-01" nType="-99"/>
          <Node pos="r" depth="2" NCoef="0" IVar="-1" Cut="0.0000000000000000e+00" cType="1" res="7.2570452466607094e-03" rms="4.1135957837104797e-01" purity="7.8477638959884644e-01" nType="-99"/>
        </Node>
        <Node pos="r" depth="1" NCoef="0" IVar="2" Cut="9.5417195558547974e-01" cType="1" res="-1.6170319914817810e-01" rms="4.6356466412544250e-01" purity="3.2957929372787476e-01" nType="0">
          <Node pos="l" depth="2" NCoef="0" IVar="-1" Cut="0.0000000000000000e+00" cType="1" res="-3.3310726284980774e-03" rms="4.1570639610290527e-01" purity="2.2673358023166656e-01" nType="-99"/>
          <Node pos="r" depth="2" NCoef="0" IVar="-1" Cut="0.0000000000000000e+00" cType="1" res="-5.4621946765109897e-04" rms="4.9556314945220947e-01" purity="4.7609314322471619e-01" nType="-99"/>
        </Node>
      </Node>
    </BinaryTree>
    <BinaryTree type="DecisionTree" boostWeight="1.0000000000000000e+00" itree="21">
      <Node pos="s" depth="0" NCoef="0" IVar="0" Cut="1.3357295989990234e+00" cType="1" res="-1.9211636856198311e-02" rms="4.8854565620422363e-01" purity="4.9093112349510193e-01" nType="0">
        <Node pos="l" depth="1" NCoef="0" IVar="2" Cut="9.6118295192718506e-01" cType="1" res="5.1412750035524368e-02" rms="4.8800402879714966e-01" purity="5.7330220937728882e-01" nType="0">
          <Node pos="l" depth="2" NCoef="0" IVar="-1" Cut="0.0000000000000000e+00" cType="1" res="-4.3620332144200802e-04" rms="4.9545291066169739e-01" purity="4.8609685897827148e-01" nType="-99"/>
          <Node pos="r" depth="2" NCoef="0" IVar="-1" Cut="0.0000000000000000e+00" cType="1" res="5.2578886970877647e-03" rms="4.3884578347206116e-01" purity="7.3590511083602905e-01" nType="-99"/>
        </Node>
        <Node pos="r" depth="1" NCoef="0" IVar="2" Cut="9.4831329584121704e-01" cType="1" res="-2.4416138231754303e-01" rms="4.1697990894317627e-01" purity="2.2856634855270386e-01" nType="0">
          <Node pos="l" depth="2" NCoef="0" IVar="-1" Cut="0.0000000000000000e+00" cType="1" res="-3.8180614355951548e-03" rms="3.4892719984054565e-01" purity="1.4272445440292358e-01" nType="-99"/>
          <Node pos="r" depth="2" NCoef="0" IVar="-1" Cut="0.0000000000000000e+00" cType="1" res="-1.8948472570627928e-03" rms="4.7839292883872986e-01" purity="3.5798946022987366e-01" nType="-99"/>
        </Node>
      </Node>
    </BinaryTree>
    <BinaryTree type="DecisionTree" boostWeight="1.0000000000000000e+00" itree="22">
      <Node pos="s" depth="0" NCoef="0" IVar="0" Cut="1.0535640716552734e+00" cType="1" res="-6.2858848832547665e-03" rms="4.8810154199600220e-01" purity="5.0458830595016479e-01" nType="0">
        <Node pos="l" depth="1" NCoef="0" IVar="2" Cut="9.5091784000396729e-01" cType="1" res="1.0557337850332260e-01" rms="4.7512188553810120e-01" purity="6.3775432109832764e-01" nType="0">
          <Node pos="l" depth="2" NCoef="0" IVar="-1" Cut="0.0000000000000000e+00" cType="1" res="1.0137117351405323e-04" rms="4.9744874238967896e-01" purity="5.1896947622299194e-01" nType="-99"/>
          <Node pos="r" depth="2" NCoef="0" IVar="-1" Cut="0.0000000000000000e+00" cType="1" res="5.2944244816899300e-03" rms="4.3581739068031311e-01" purity="7.4276179075241089e-01" nType="-99"/>
        </Node>
        <Node pos="r" depth="1" NCoef="0" IVar="2" Cut="9.5441150665283203e-01" cType="1" res="-1.4346282184123993e-01" rms="4.6841552853584290e-01" purity="3.4128212928771973e-01" nType="0">
          <Node pos="l" depth="2" NCoef="0" IVar="-1" Cut="0.0000000000000000e+00" cType="1" res="-3.0690098647028208e-03" rms="4.2625588178634644e-01" purity="2.4158091843128204e-01" nType="-99"/>
          <Node pos="r" depth="2" NCoef="0" IVar="-1" Cut="0.0000000000000000e+00" cType="1" res="-1.3896950986236334e-04" rms="4.9586179852485657e-01" purity="4.9220290780067444e-01" nType="-99"/>
        </Node>
      </Node>
    </BinaryTree>
    <BinaryTree type="DecisionTree" boostWeight="1.0000000000000000e+00" itree="23">
      <Node pos="s" depth="0" NCoef="0" IVar="0" Cut="1.0994540452957153e+00" cType="1" res="-2.0788354799151421e-02" rms="4.8729509115219116e-01" purity="4.9092489480972290e-01" nType="0">
        <Node pos="l" depth="1" NCoef="0" IVar="2" Cut="9.7130256891250610e-01" cType="1" res="7.8951701521873474e-02" rms="4.8065030574798584e-01" purity="6.1211425065994263e-01" nType="0">
          <Node pos="l" depth="2" NCoef="0" IVar="-1" Cut="0.0000000000000000e+00" cType="1" res="5.0670327618718147e-04" rms="4.9221339821815491e-01" purity="5.5392390489578247e-01" nType="-99"/>
          <Node pos="r" depth="2" NCoef="0" IVar="-1" Cut="0.0000000000000000e+00" cType="1" res="9.5225125551223755e-03" rms="3.6750182509422302e-01" purity="8.3780586719512939e-01" nType="-99"/>
        </Node>
        <Node pos="r" depth="1" NCoef="0" IVar="2" Cut="9.4267708063125610e-01" cType="1" res="-1.6724194586277008e-01" rms="4.5917826890945435e-01" purity="3.1297618150711060e-01" nType="0">
          <Node pos="l" depth="2" NCoef="0" IVar="-1" Cut="0.0000000000000000e+00" cType="1" res="-3.4144807141274214e-03" rms="3.9998704195022583e-01" purity="2.0181865990161896e-01" nType="-99"/>
          <Node pos="r" depth="2" NCoef="0" IVar="-1" Cut="0.0000000000000000e+00" cType="1" res="-1.4881455572322011e-03" rms="4.8738348484039307e-01" purity="4.0137252211570740e-01" nType="-99"/>
        </Node>
      </Node>
    </BinaryTree>
    <BinaryTree type="DecisionTree" boostWeight="1.0000000000000000e+00" itree="24">
      <Node pos="s" depth="0" NCoef="0" IVar="0" Cut="1.0889298915863037e+00" cType="1" res="-5.9488946571946144e-03" rms="4.8655945062637329e-01" purity="5.0481313467025757e-01" nType="0">
        <Node pos="l" depth="1" NCoef="0" IVar="2" Cut="9.3874263763427734e-01" cType="1" res="1.1140165477991104e-01" rms="4.7202014923095703e-01" purity="6.4624267816543579e-01" nType="0">
          <Node pos="l" depth="2" NCoef="0" IVar="-1" Cut="0.0000000000000000e+00" cType="1" res="-7.0964207407087088e-04" rms="4.9758514761924744e-01" purity="4.6011552214622498e-01" nType="-99"/>
          <Node pos="r" depth="2" NCoef="0" IVar="-1" Cut="0.0000000000000000e+00" cType="1" res="4.3852119706571102e-03" rms="4.4764280319213867e-01" purity="7.1804517507553101e-01" nType="-99"/>
        </Node>
        <Node pos="r" depth="1" NCoef="0" IVar="0" Cut="1.4311699867248535e+00" cType="1" res="-1.5876138210296631e-01" rms="4.6217367053031921e-01" purity="3.2064530253410339e-01" nType="0">
          <Node pos="l" depth="2" NCoef="0" IVar="-1" Cut="0.0000000000000000e+00" cType="1" res="-1.3668191386386752e-03" rms="4.8662364482879639e-01" purity="4.0056592226028442e-01" nType="-99"/>
          <Node pos="r" depth="2" NCoef="0" IVar="-1" Cut="0.0000000000000000e+00" cType="1" res="-3.2767704688012600e-03" rms="4.0909972786903381e-01" purity="2.1594808995723724e-01" nType="-99"/>
        </Node>
      </Node>
    </BinaryTree>
    <BinaryTree type="DecisionTree" boostWeight="1.0000000000000000e+00" itree="25">
      <Node pos="s" depth="0" NCoef="0" IVar="0" Cut="1.4670923948287964e+00" cType="1" res="-9.6075497567653656e-03" rms="4.8671793937683105e-01" purity="5.0117355585098267e-01" nType="0">
        <Node pos="l" depth="1" NCoef="0" IVar="2" Cut="9.3529886007308960e-01" cType="1" res="5.0968497991561890e-02" rms="4.8596221208572388e-01" purity="5.7121658325195312e-01" nType="0">
          <Node pos="l" depth="2" NCoef="0" IVar="-1" Cut="0.0000000000000000e+00" cType="1" res="-1.5507318312302232e-03" rms="4.8135468363761902e-01" purity="3.8568159937858582e-01" nType="-99"/>
          <Node pos="r" depth="2" NCoef="0" IVar="-1" Cut="0.0000000000000000e+00" cType="1" res="2.4493813980370760e-03" rms="4.7488695383071899e-01" purity="6.4213305711746216e-01" nType="-99"/>
        </Node>
        <Node pos="r" depth="1" NCoef="0" IVar="8" Cut="2.5597643852233887e+00" cType="1" res="-2.8586554527282715e-01" rms="3.8365814089775085e-01" purity="1.8174137175083160e-01" nType="0">
          <Node pos="l" depth="2" NCoef="0" IVar="-1" Cut="0.0000000000000000e+00" cType="1" res="-2.6179775595664978e-03" rms="4.4499543309211731e-01" purity="2.7475824952125549e-01" nType="-99"/>
          <Node pos="r" depth="2" NCoef="0" IVar="-1" Cut="0.0000000000000000e+00" cType="1" res="-4.2839972302317619e-03" rms="3.1953331828117371e-01" purity="1.1679256707429886e-01" nType="-99"/>
        </Node>
      </Node>
    </BinaryTree>
    <BinaryTree type="DecisionTree" boostWeight="1.0000000000000000e+00" itree="26">
      <Node pos="s" depth="0" NCoef="0" IVar="0" Cut="1.1612598896026611e+00" cType="1" res="-8.7942415848374367e-03" rms="4.8572787642478943e-01" purity="5.0265932083129883e-01" nType="0">
        <Node pos="l" depth="1" NCoef="0" IVar="6" Cut="7.6444236755371094e+01" cType="1" res="8.5214696824550629e-02" rms="4.7790306806564331e-01" purity="6.1946934461593628e-01" nType="0">
          <Node pos="l" depth="2" NCoef="0" IVar="-1" Cut="0.0000000000000000e+00" cType="1" res="-3.0932314984966069e-05" rms="4.9274927377700806e-01" purity="5.2670127153396606e-01" nType="-99"/>
          <Node pos="r" depth="2" NCoef="0" IVar="-1" Cut="0.0000000000000000e+00" cType="1" res="5.9436005540192127e-03" rms="4.2335319519042969e-01" purity="7.5702267885208130e-01" nType="-99"/>
        </Node>
        <Node pos="r" depth="1" NCoef="0" IVar="6" Cut="7.4804481506347656e+01" cType="1" res="-1.6810248792171478e-01" rms="4.5645788311958313e-01" purity="3.0471238493919373e-01" nType="0">
          <Node pos="l" depth="2" NCoef="0" IVar="-1" Cut="0.0000000000000000e+00" cType="1" res="-3.4917681477963924e-03" rms="4.0400955080986023e-01" purity="2.0899683237075806e-01" nType="-99"/>
          <Node pos="r" depth="2" NCoef="0" IVar="-1" Cut="0.0000000000000000e+00" cType="1" res="-1.2430583592504263e-03" rms="4.8377761244773865e-01" purity="3.9509013295173645e-01" nType="-99"/>
        </Node>
      </Node>
    </BinaryTree>
    <BinaryTree type="DecisionTree" boostWeight="1.0000000000000000e+00" itree="27">
      <Node pos="s" depth="0" NCoef="0" IVar="0" Cut="1.1497334241867065e+00" cType="1" res="-1.0739810764789581e-02" rms="4.8476344347000122e-01" purity="5.0154179334640503e-01" nType="0">
        <Node pos="l" depth="1" NCoef="0" IVar="6" Cut="4.9376365661621094e+01" cType="1" res="8.5105508565902710e-02" rms="4.7749578952789307e-01" purity="6.2126505374908447e-01" nType="0">
          <Node pos="l" depth="2" NCoef="0" IVar="-1" Cut="0.0000000000000000e+00" cType="1" res="-1.4682862674817443e-03" rms="4.8993399739265442e-01" purity="4.4368669390678406e-01" nType="-99"/>
          <Node pos="r" depth="2" NCoef="0" IVar="-1" Cut="0.0000000000000000e+00" cType="1" res="3.3856981899589300e-03" rms="4.5984986424446106e-01" purity="6.7984884977340698e-01" nType="-99"/>
        </Node>
        <Node pos="r" depth="1" NCoef="0" IVar="2" Cut="9.3503534793853760e-01" cType="1" res="-1.7090849578380585e-01" rms="4.5351615548133850e-01" purity="3.0147024989128113e-01" nType="0">
          <Node pos="l" depth="2" NCoef="0" IVar="-1" Cut="0.0000000000000000e+00" cType="1" res="-3.5464018583297729e-03" rms="3.5578012466430664e-01" purity="1.5034872293472290e-01" nType="-99"/>
          <Node pos="r" depth="2" NCoef="0" IVar="-1" Cut="0.0000000000000000e+00" cType="1" res="-1.4262917684391141e-03" rms="4.8478525876998901e-01" purity="3.9144319295883179e-01" nType="-99"/>
        </Node>
      </Node>
    </BinaryTree>
    <BinaryTree type="DecisionTree" boostWeight="1.0000000000000000e+00" itree="28">
      <Node pos="s" depth="0" NCoef="0" IVar="0" Cut="1.0491220951080322e+00" cType="1" res="-1.9604470580816269e-02" rms="4.8499393463134766e-01" purity="4.9160414934158325e-01" nType="0">
        <Node pos="l" depth="1" NCoef="0" IVar="2" Cut="9.5391410589218140e-01" cType="1" res="1.1060406267642975e-01" rms="4.7088843584060669e-01" purity="6.4946037530899048e-01" nType="0">
          <Node pos="l" depth="2" NCoef="0" IVar="-1" Cut="0.0000000000000000e+00" cType="1" res="4.5062994468025863e-04" rms="4.9579042196273804e-01" purity="5.4351568222045898e-01" nType="-99"/>
          <Node pos="r" depth="2" NCoef="0" IVar="-1" Cut="0.0000000000000000e+00" cType="1" res="5.8931489475071430e-03" rms="4.2016664147377014e-01" purity="7.6895433664321899e-01" nType="-99"/>
        </Node>
        <Node pos="r" depth="1" NCoef="0" IVar="2" Cut="9.4463658332824707e-01" cType="1" res="-1.6037631034851074e-01" rms="4.6005403995513916e-01" purity="3.2094174623489380e-01" nType="0">
          <Node pos="l" depth="2" NCoef="0" IVar="-1" Cut="0.0000000000000000e+00" cType="1" res="-3.3321788068860769e-03" rms="4.0065962076187134e-01" purity="2.0265364646911621e-01" nType="-99"/>
          <Node pos="r" depth="2" NCoef="0" IVar="-1" Cut="0.0000000000000000e+00" cType="1" res="-1.1964611476287246e-03" rms="4.8957765102386475e-01" purity="4.2610615491867065e-01" nType="-99"/>
        </Node>
      </Node>
    </BinaryTree>
    <BinaryTree type="DecisionTree" boostWeight="1.0000000000000000e+00" itree="29">
      <Node pos="s" depth="0" NCoef="0" IVar="8" Cut="2.4777815341949463e+00" cType="1" res="-7.8083798289299011e-03" rms="4.8502531647682190e-01" purity="5.0654870271682739e-01" nType="0">
        <Node pos="l" depth="1" NCoef="0" IVar="2" Cut="9.4477194547653198e-01" cType="1" res="4.8042792826890945e-02" rms="4.8450371623039246e-01" purity="5.7326000928878784e-01" nType="0">
          <Node pos="l" depth="2" NCoef="0" IVar="-1" Cut="0.0000000000000000e+00" cType="1" res="-1.1465628631412983e-03" rms="4.8841714859008789e-01" purity="4.2340591549873352e-01" nType="-99"/>
          <Node pos="r" depth="2" NCoef="0" IVar="-1" Cut="0.0000000000000000e+00" cType="1" res="2.9118636157363653e-03" rms="4.6656590700149536e-01" purity="6.6708046197891235e-01" nType="-99"/>
        </Node>
        <Node pos="r" depth="1" NCoef="0" IVar="2" Cut="9.4526398181915283e-01" cType="1" res="-2.4799782037734985e-01" rms="4.0782171487808228e-01" purity="2.1965534985065460e-01" nType="0">
          <Node pos="l" depth="2" NCoef="0" IVar="-1" Cut="0.0000000000000000e+00" cType="1" res="-3.9632800035178661e-03" rms="3.2357057929039001e-01" purity="1.1971198767423630e-01" nType="-99"/>
          <Node pos="r" depth="2" NCoef="0" IVar="-1" Cut="0.0000000000000000e+00" cType="1" res="-2.1772526670247316e-03" rms="4.7228038311004639e-01" purity="3.4854760766029358e-01" nType="-99"/>
        </Node>
      </Node>
    </BinaryTree>
    <BinaryTree type="DecisionTree" boostWeight="1.0000000000000000e+00" itree="30">
      <Node pos="s" depth="0" NCoef="0" IVar="0" Cut="1.0993040800094604e+00" cType="1" res="-1.8710922449827194e-02" rms="4.8324090242385864e-01" purity="4.9293619394302368e-01" nType="0">
        <Node pos="l" depth="1" NCoef="0" IVar="2" Cut="9.5695459842681885e-01" cType="1" res="9.3917109072208405e-02" rms="4.7397983074188232e-01" purity="6.3460963964462280e-01" nType="0">
          <Node pos="l" depth="2" NCoef="0" IVar="-1" Cut="0.0000000000000000e+00" cType="1" res="6.3463849073741585e-05" rms="4.9571374058723450e-01" purity="5.2644085884094238e-01" nType="-99"/>
          <Node pos="r" depth="2" NCoef="0" IVar="-1" Cut="0.0000000000000000e+00" cType="1" res="6.6537475213408470e-03" rms="4.0939575433731079e-01" purity="7.8614151477813721e-01" nType="-99"/>
        </Node>
        <Node pos="r" depth="1" NCoef="0" IVar="2" Cut="9.4270139932632446e-01" cType="1" res="-1.6854563355445862e-01" rms="4.5386028289794922e-01" purity="3.0446100234985352e-01" nType="0">
          <Node pos="l" depth="2" NCoef="0" IVar="-1" Cut="0.0000000000000000e+00" cType="1" res="-3.3695239108055830e-03" rms="3.9208984375000000e-01" purity="1.9253596663475037e-01" nType="-99"/>
          <Node pos="r" depth="2" NCoef="0" IVar="-1" Cut="0.0000000000000000e+00" cType="1" res="-1.2486962368711829e-03" rms="4.8821926116943359e-01" purity="4.1175332665443420e-01" nType="-99"/>
        </Node>
      </Node>
    </BinaryTree>
    <BinaryTree type="DecisionTree" boostWeight="1.0000000000000000e+00" itree="31">
      <Node pos="s" depth="0" NCoef="0" IVar="0" Cut="1.1413950920104980e+00" cType="1" res="-9.0702502056956291e-03" rms="4.8322388529777527e-01" purity="5.0441247224807739e-01" nType="0">
        <Node pos="l" depth="1" NCoef="0" IVar="2" Cut="9.4648092985153198e-01" cType="1" res="8.8842436671257019e-02" rms="4.7437578439712524e-01" purity="6.2907749414443970e-01" nType="0">
          <Node pos="l" depth="2" NCoef="0" IVar="-1" Cut="0.0000000000000000e+00" cType="1" res="-4.2298229527659714e-04" rms="4.9653249979019165e-01" purity="4.8429325222969055e-01" nType="-99"/>
          <Node pos="r" depth="2" NCoef="0" IVar="-1" Cut="0.0000000000000000e+00" cType="1" res="4.3450398370623589e-03" rms="4.4322395324707031e-01" purity="7.2506493330001831e-01" nType="-99"/>
        </Node>
        <Node pos="r" depth="1" NCoef="0" IVar="2" Cut="9.4829565286636353e-01" cType="1" res="-1.6756159067153931e-01" rms="4.5451369881629944e-01" purity="3.0261704325675964e-01" nType="0">
          <Node pos="l" depth="2" NCoef="0" IVar="-1" Cut="0.0000000000000000e+00" cType="1" res="-3.2102160621434450e-03" rms="4.0024262666702271e-01" purity="2.0223753154277802e-01" nType="-99"/>
          <Node pos="r" depth="2" NCoef="0" IVar="-1" Cut="0.0000000000000000e+00" cType="1" res="-1.1827017879113555e-03" rms="4.9037063121795654e-01" purity="4.1441187262535095e-01" nType="-99"/>
        </Node>
      </Node>
    </BinaryTree>
    <BinaryTree type="DecisionTree" boostWeight="1.0000000000000000e+00" itree="32">
      <Node pos="s" depth="0" NCoef="0" IVar="0" Cut="1.1032344102859497e+00" cType="1" res="-2.3916458711028099e-02" rms="4.8250678181648254e-01" purity="4.8971417546272278e-01" nType="0">
        <Node pos="l" depth="1" NCoef="0" IVar="2" Cut="9.4396460056304932e-01" cType="1" res="8.4405265748500824e-02" rms="4.7601929306983948e-01" purity="6.2862801551818848e-01" nType="0">
          <Node pos="l" depth="2" NCoef="0" IVar="-1" Cut="0.0000000000000000e+00" cType="1" res="-5.2400352433323860e-04" rms="4.9744573235511780e-01" purity="4.7720417380332947e-01" nType="-99"/>
          <Node pos="r" depth="2" NCoef="0" IVar="-1" Cut="0.0000000000000000e+00" cType="1" res="3.8003781810402870e-03" rms="4.5203483104705811e-01" purity="7.1006995439529419e-01" nType="-99"/>
        </Node>
        <Node pos="r" depth="1" NCoef="0" IVar="2" Cut="9.4287765026092529e-01" cType="1" res="-1.7421483993530273e-01" rms="4.5007863640785217e-01" purity="2.9696869850158691e-01" nType="0">
          <Node pos="l" depth="2" NCoef="0" IVar="-1" Cut="0.0000000000000000e+00" cType="1" res="-3.5004385281354189e-03" rms="3.6777946352958679e-01" purity="1.6290003061294556e-01" nType="-99"/>
          <Node pos="r" depth="2" NCoef="0" IVar="-1" Cut="0.0000000000000000e+00" cType="1" res="-1.1826626723632216e-03" rms="4.8904544115066528e-01" purity="4.1405421495437622e-01" nType="-99"/>
        </Node>
      </Node>
    </BinaryTree>
    <BinaryTree type="DecisionTree" boostWeight="1.0000000000000000e+00" itree="33">
      <Node pos="s" depth="0" NCoef="0" IVar="2" Cut="9.5746439695358276e-01" cType="1" res="-7.5055267661809921e-03" rms="4.8204404115676880e-01" purity="5.0611019134521484e-01" nType="0">
        <Node pos="l" depth="1" NCoef="0" IVar="0" Cut="1.0648435354232788e+00" cType="1" res="-1.0572230815887451e-01" rms="4.7514849901199341e-01" purity="3.8825505971908569e-01" nType="0">
          <Node pos="l" depth="2" NCoef="0" IVar="-1" Cut="0.0000000000000000e+00" cType="1" res="-9.3409347755368799e-05" rms="4.9417090415954590e-01" purity="5.1781821250915527e-01" nType="-99"/>
          <Node pos="r" depth="2" NCoef="0" IVar="-1" Cut="0.0000000000000000e+00" cType="1" res="-2.8419787995517254e-03" rms="4.2764356732368469e-01" purity="2.4765287339687347e-01" nType="-99"/>
        </Node>
        <Node pos="r" depth="1" NCoef="0" IVar="6" Cut="9.3467147827148438e+01" cType="1" res="1.4309816062450409e-01" rms="4.5278474688529968e-01" purity="6.8682700395584106e-01" nType="0">
          <Node pos="l" depth="2" NCoef="0" IVar="-1" Cut="0.0000000000000000e+00" cType="1" res="1.6425277572125196e-03" rms="4.7621238231658936e-01" purity="6.1710107326507568e-01" nType="-99"/>
          <Node pos="r" depth="2" NCoef="0" IVar="-1" Cut="0.0000000000000000e+00" cType="1" res="9.4627570360898972e-03" rms="3.6006951332092285e-01" purity="8.3251434564590454e-01" nType="-99"/>
        </Node>
      </Node>
    </BinaryTree>
    <BinaryTree type="DecisionTree" boostWeight="1.0000000000000000e+00" itree="34">
      <Node pos="s" depth="0" NCoef="0" IVar="0" Cut="1.1460348367691040e+00" cType="1" res="-4.7588702291250229e-03" rms="4.8181900382041931e-01" purity="5.0981658697128296e-01" nType="0">
        <Node pos="l" depth="1" NCoef="0" IVar="2" Cut="9.7656714916229248e-01" cType="1" res="9.3007437884807587e-02" rms="4.7248822450637817e-01" purity="6.3787746429443359e-01" nType="0">
          <Node pos="l" depth="2" NCoef="0" IVar="-1" Cut="0.0000000000000000e+00" cType="1" res="1.1336189927533269e-03" rms="4.8498260974884033e-01" purity="5.9500831365585327e-01" nType="-99"/>
          <Node pos="r" depth="2" NCoef="0" IVar="-1" Cut="0.0000000000000000e+00" cType="1" res="1.2187127023935318e-02" rms="3.0738309025764465e-01" purity="8.9139628410339355e-01" nType="-99"/>
        </Node>
        <Node pos="r" depth="1" NCoef="0" IVar="2" Cut="9.4202423095703125e-01" cType="1" res="-1.6060166060924530e-01" rms="4.5477509498596191e-01" purity="3.0568325519561768e-01" nType="0">
          <Node pos="l" depth="2" NCoef="0" IVar="-1" Cut="0.0000000000000000e+00" cType="1" res="-3.3664957154542208e-03" rms="3.7988179922103882e-01" purity="1.7636528611183167e-01" nType="-99"/>
          <Node pos="r" depth="2" NCoef="0" IVar="-1" Cut="0.0000000000000000e+00" cType="1" res="-1.1160336434841156e-03" rms="4.8931407928466797e-01" purity="4.1199788451194763e-01" nType="-99"/>
        </Node>
      </Node>
    </BinaryTree>
    <BinaryTree type="DecisionTree" boostWeight="1.0000000000000000e+00" itree="35">
      <Node pos="s" depth="0" NCoef="0" IVar="0" Cut="1.0994540452957153e+00" cType="1" res="-1.6692044213414192e-02" rms="4.8273631930351257e-01" purity="4.9794542789459229e-01" nType="0">
        <Node pos="l" depth="1" NCoef="0" IVar="6" Cut="8.5802154541015625e+01" cType="1" res="8.6191944777965546e-02" rms="4.7475427389144897e-01" purity="6.3301336765289307e-01" nType="0">
          <Node pos="l" depth="2" NCoef="0" IVar="-1" Cut="0.0000000000000000e+00" cType="1" res="5.6981644593179226e-04" rms="4.8894134163856506e-01" purity="5.6806254386901855e-01" nType="-99"/>
          <Node pos="r" depth="2" NCoef="0" IVar="-1" Cut="0.0000000000000000e+00" cType="1" res="5.7904701679944992e-03" rms="4.2100900411605835e-01" purity="7.6511508226394653e-01" nType="-99"/>
        </Node>
        <Node pos="r" depth="1" NCoef="0" IVar="2" Cut="9.3819177150726318e-01" cType="1" res="-1.5595944225788116e-01" rms="4.5788207650184631e-01" purity="3.1511273980140686e-01" nType="0">
          <Node pos="l" depth="2" NCoef="0" IVar="-1" Cut="0.0000000000000000e+00" cType="1" res="-3.3791176974773407e-03" rms="3.8045239448547363e-01" purity="1.7734639346599579e-01" nType="-99"/>
          <Node pos="r" depth="2" NCoef="0" IVar="-1" Cut="0.0000000000000000e+00" cType="1" res="-1.3694801600649953e-03" rms="4.8480772972106934e-01" purity="3.9629268646240234e-01" nType="-99"/>
        </Node>
      </Node>
    </BinaryTree>
    <BinaryTree type="DecisionTree" boostWeight="1.0000000000000000e+00" itree="36">
      <Node pos="s" depth="0" NCoef="0" IVar="0" Cut="1.2336680889129639e+00" cType="1" res="-1.1864285916090012e-02" rms="4.8086705803871155e-01" purity="5.0429290533065796e-01" nType="0">
        <Node pos="l" depth="1" NCoef="0" IVar="2" Cut="9.3906408548355103e-01" cType="1" res="6.6303476691246033e-02" rms="4.7749912738800049e-01" purity="6.0617929697036743e-01" nType="0">
          <Node pos="l" depth="2" NCoef="0" IVar="-1" Cut="0.0000000000000000e+00" cType="1" res="-1.2461899314075708e-03" rms="4.9005407094955444e-01" purity="4.1628420352935791e-01" nType="-99"/>
          <Node pos="r" depth="2" NCoef="0" IVar="-1" Cut="0.0000000000000000e+00" cType="1" res="3.2623813021928072e-03" rms="4.5718938112258911e-01" purity="6.8849229812622070e-01" nType="-99"/>
        </Node>
        <Node pos="r" depth="1" NCoef="0" IVar="2" Cut="9.4314801692962646e-01" cType="1" res="-1.9404073059558868e-01" rms="4.3740937113761902e-01" purity="2.6683813333511353e-01" nType="0">
          <Node pos="l" depth="2" NCoef="0" IVar="-1" Cut="0.0000000000000000e+00" cType="1" res="-3.4953413996845484e-03" rms="3.5975465178489685e-01" purity="1.5374383330345154e-01" nType="-99"/>
          <Node pos="r" depth="2" NCoef="0" IVar="-1" Cut="0.0000000000000000e+00" cType="1" res="-1.6356126870959997e-03" rms="4.8192611336708069e-01" purity="3.7186285853385925e-01" nType="-99"/>
        </Node>
      </Node>
    </BinaryTree>
    <BinaryTree type="DecisionTree" boostWeight="1.0000000000000000e+00" itree="37">
      <Node pos="s" depth="0" NCoef="0" IVar="8" Cut="2.3710429668426514e+00" cType="1" res="-2.0529131870716810e-03" rms="4.8108196258544922e-01" purity="5.1211011409759521e-01" nType="0">
        <Node pos="l" depth="1" NCoef="0" IVar="6" Cut="4.8346286773681641e+01" cType="1" res="7.8873738646507263e-02" rms="4.7637009620666504e-01" purity="6.1212259531021118e-01" nType="0">
          <Node pos="l" depth="2" NCoef="0" IVar="-1" Cut="0.0000000000000000e+00" cType="1" res="-1.1349316919222474e-03" rms="4.8704335093498230e-01" purity="4.5492503046989441e-01" nType="-99"/>
          <Node pos="r" depth="2" NCoef="0" IVar="-1" Cut="0.0000000000000000e+00" cType="1" res="2.8647670987993479e-03" rms="4.6354812383651733e-01" purity="6.6118425130844116e-01" nType="-99"/>
        </Node>
        <Node pos="r" depth="1" NCoef="0" IVar="2" Cut="9.3758428096771240e-01" cType="1" res="-1.9675002992153168e-01" rms="4.3431597948074341e-01" purity="2.7149552106857300e-01" nType="0">
          <Node pos="l" depth="2" NCoef="0" IVar="-1" Cut="0.0000000000000000e+00" cType="1" res="-3.5941961687058210e-03" rms="3.3787918090820312e-01" purity="1.3260914385318756e-01" nType="-99"/>
          <Node pos="r" depth="2" NCoef="0" IVar="-1" Cut="0.0000000000000000e+00" cType="1" res="-1.9143741810694337e-03" rms="4.7314399480819702e-01" purity="3.6407613754272461e-01" nType="-99"/>
        </Node>
      </Node>
    </BinaryTree>
    <BinaryTree type="DecisionTree" boostWeight="1.0000000000000000e+00" itree="38">
      <Node pos="s" depth="0" NCoef="0" IVar="0" Cut="1.0202592611312866e+00" cType="1" res="-2.5103114545345306e-02" rms="4.8149889707565308e-01" purity="4.9089637398719788e-01" nType="0">
        <Node pos="l" depth="1" NCoef="0" IVar="2" Cut="9.3898713588714600e-01" cType="1" res="9.3703821301460266e-02" rms="4.7093403339385986e-01" purity="6.4464104175567627e-01" nType="0">
          <Node pos="l" depth="2" NCoef="0" IVar="-1" Cut="0.0000000000000000e+00" cType="1" res="-5.3110916633158922e-04" rms="4.9846217036247253e-01" purity="4.7554674744606018e-01" nType="-99"/>
          <Node pos="r" depth="2" NCoef="0" IVar="-1" Cut="0.0000000000000000e+00" cType="1" res="3.8373430725187063e-03" rms="4.4847902655601501e-01" purity="7.1585750579833984e-01" nType="-99"/>
        </Node>
        <Node pos="r" depth="1" NCoef="0" IVar="0" Cut="1.4445426464080811e+00" cType="1" res="-1.4863000810146332e-01" rms="4.6083456277847290e-01" purity="3.3104377985000610e-01" nType="0">
          <Node pos="l" depth="2" NCoef="0" IVar="-1" Cut="0.0000000000000000e+00" cType="1" res="-1.2844736920669675e-03" rms="4.8604720830917358e-01" purity="4.1393768787384033e-01" nType="-99"/>
          <Node pos="r" depth="2" NCoef="0" IVar="-1" Cut="0.0000000000000000e+00" cType="1" res="-3.3990929368883371e-03" rms="3.8195741176605225e-01" purity="1.8237008154392242e-01" nType="-99"/>
        </Node>
      </Node>
    </BinaryTree>
    <BinaryTree type="DecisionTree" boostWeight="1.0000000000000000e+00" itree="39">
      <Node pos="s" depth="0" NCoef="0" IVar="0" Cut="1.1142597198486328e+00" cType="1" res="-9.7841559909284115e-04" rms="4.8006951808929443e-01" purity="5.1563757658004761e-01" nType="0">
        <Node pos="l" depth="1" NCoef="0" IVar="6" Cut="9.2143112182617188e+01" cType="1" res="1.0873313993215561e-01" rms="4.6643167734146118e-01" purity="6.5874600410461426e-01" nType="0">
          <Node pos="l" depth="2" NCoef="0" IVar="-1" Cut="0.0000000000000000e+00" cType="1" res="1.2688112910836935e-03" rms="4.8375323414802551e-01" purity="6.0475844144821167e-01" nType="-99"/>
          <Node pos="r" depth="2" NCoef="0" IVar="-1" Cut="0.0000000000000000e+00" cType="1" res="7.0873936638236046e-03" rms="3.9340552687644958e-01" purity="7.9753214120864868e-01" nType="-99"/>
        </Node>
        <Node pos="r" depth="1" NCoef="0" IVar="2" Cut="9.7001761198043823e-01" cType="1" res="-1.6379499435424805e-01" rms="4.5304635167121887e-01" purity="3.0325859785079956e-01" nType="0">
          <Node pos="l" depth="2" NCoef="0" IVar="-1" Cut="0.0000000000000000e+00" cType="1" res="-2.7716716285794973e-03" rms="4.3274974822998047e-01" purity="2.5655093789100647e-01" nType="-99"/>
          <Node pos="r" depth="2" NCoef="0" IVar="-1" Cut="0.0000000000000000e+00" cType="1" res="7.1663380367681384e-04" rms="4.9399623274803162e-01" purity="5.2898216247558594e-01" nType="-99"/>
        </Node>
      </Node>
    </BinaryTree>
    <BinaryTree type="DecisionTree" boostWeight="1.0000000000000000e+00" itree="40">
      <Node pos="s" depth="0" NCoef="0" IVar="0" Cut="1.1032344102859497e+00" cType="1" res="-2.9913433827459812e-03" rms="4.7978243231773376e-01" purity="5.1328808069229126e-01" nType="0">
        <Node pos="l" depth="1" NCoef="0" IVar="2" Cut="9.2923593521118164e-01" cType="1" res="8.8662594556808472e-02" rms="4.6982032060623169e-01" purity="6.3974362611770630e-01" nType="0">
          <Node pos="l" depth="2" NCoef="0" IVar="-1" Cut="0.0000000000000000e+00" cType="1" res="-1.5576166333630681e-03" rms="4.8833495378494263e-01" purity="4.0201404690742493e-01" nType="-99"/>
          <Node pos="r" depth="2" NCoef="0" IVar="-1" Cut="0.0000000000000000e+00" cType="1" res="3.2674658577889204e-03" rms="4.5424827933311462e-01" purity="6.9456547498703003e-01" nType="-99"/>
        </Node>
        <Node pos="r" depth="1" NCoef="0" IVar="2" Cut="9.6849077939987183e-01" cType="1" res="-1.3308534026145935e-01" rms="4.6343362331390381e-01" purity="3.3379647135734558e-01" nType="0">
          <Node pos="l" depth="2" NCoef="0" IVar="-1" Cut="0.0000000000000000e+00" cType="1" res="-2.5736019015312195e-03" rms="4.4076973199844360e-01" purity="2.7374237775802612e-01" nType="-99"/>
          <Node pos="r" depth="2" NCoef="0" IVar="-1" Cut="0.0000000000000000e+00" cType="1" res="2.1621575579047203e-03" rms="4.8668822646141052e-01" purity="5.9442502260208130e-01" nType="-99"/>
        </Node>
      </Node>
    </BinaryTree>
    <BinaryTree type="DecisionTree" boostWeight="1.0000000000000000e+00" itree="41">
      <Node pos="s" depth="0" NCoef="0" IVar="0" Cut="1.3302949666976929e+00" cType="1" res="-2.2890741005539894e-02" rms="4.8093613982200623e-01" purity="4.9466705322265625e-01" nType="0">
        <Node pos="l" depth="1" NCoef="0" IVar="2" Cut="9.6378690004348755e-01" cType="1" res="3.4968707710504532e-02" rms="4.8361074924468994e-01" purity="5.7352465391159058e-01" nType="0">
          <Node pos="l" depth="2" NCoef="0" IVar="-1" Cut="0.0000000000000000e+00" cType="1" res="-2.8195761842653155e-04" rms="4.9154588580131531e-01" purity="5.0747925043106079e-01" nType="-99"/>
          <Node pos="r" depth="2" NCoef="0" IVar="-1" Cut="0.0000000000000000e+00" cType="1" res="4.4139302335679531e-03" rms="4.3983539938926697e-01" purity="7.3419928550720215e-01" nType="-99"/>
        </Node>
        <Node pos="r" depth="1" NCoef="0" IVar="2" Cut="9.3463420867919922e-01" cType="1" res="-2.0669020712375641e-01" rms="4.2271476984024048e-01" purity="2.4416381120681763e-01" nType="0">
          <Node pos="l" depth="2" NCoef="0" IVar="-1" Cut="0.0000000000000000e+00" cType="1" res="-3.8028359413146973e-03" rms="2.9784151911735535e-01" purity="9.9232122302055359e-02" nType="-99"/>
          <Node pos="r" depth="2" NCoef="0" IVar="-1" Cut="0.0000000000000000e+00" cType="1" res="-1.6670615877956152e-03" rms="4.7752121090888977e-01" purity="3.6184123158454895e-01" nType="-99"/>
        </Node>
      </Node>
    </BinaryTree>
    <BinaryTree type="DecisionTree" boostWeight="1.0000000000000000e+00" itree="42">
      <Node pos="s" depth="0" NCoef="0" IVar="0" Cut="1.0076739788055420e+00" cType="1" res="-2.1556163206696510e-02" rms="4.7758990526199341e-01" purity="4.9410492181777954e-01" nType="0">
        <Node pos="l" depth="1" NCoef="0" IVar="6" Cut="7.6106605529785156e+01" cType="1" res="1.0755800455808640e-01" rms="4.6278384327888489e-01" purity="6.6344028711318970e-01" nType="0">
          <Node pos="l" depth="2" NCoef="0" IVar="-1" Cut="0.0000000000000000e+00" cType="1" res="7.3352456092834473e-04" rms="4.8493841290473938e-01" purity="5.8122038841247559e-01" nType="-99"/>
          <Node pos="r" depth="2" NCoef="0" IVar="-1" Cut="0.0000000000000000e+00" cType="1" res="6.4022815786302090e-03" rms="4.0769851207733154e-01" purity="7.8207868337631226e-01" nType="-99"/>
        </Node>
        <Node pos="r" depth="1" NCoef="0" IVar="2" Cut="9.5305556058883667e-01" cType="1" res="-1.4565311372280121e-01" rms="4.5831388235092163e-01" purity="3.3134967088699341e-01" nType="0">
          <Node pos="l" depth="2" NCoef="0" IVar="-1" Cut="0.0000000000000000e+00" cType="1" res="-2.9578881803900003e-03" rms="4.1830620169639587e-01" purity="2.3330724239349365e-01" nType="-99"/>
          <Node pos="r" depth="2" NCoef="0" IVar="-1" Cut="0.0000000000000000e+00" cType="1" res="-5.7971733622252941e-04" rms="4.8777833580970764e-01" purity="4.7069740295410156e-01" nType="-99"/>
        </Node>
      </Node>
    </BinaryTree>
    <BinaryTree type="DecisionTree" boostWeight="1.0000000000000000e+00" itree="43">
      <Node pos="s" depth="0" NCoef="0" IVar="0" Cut="1.2082600593566895e+00" cType="1" res="-3.3686429262161255e-02" rms="4.7792676091194153e-01" purity="4.8086598515510559e-01" nType="0">
        <Node pos="l" depth="1" NCoef="0" IVar="2" Cut="9.5216596126556396e-01" cType="1" res="4.3770156800746918e-02" rms="4.7831514477729797e-01" purity="5.8840328454971313e-01" nType="0">
          <Node pos="l" depth="2" NCoef="0" IVar="-1" Cut="0.0000000000000000e+00" cType="1" res="-8.7635888485237956e-04" rms="4.9108380079269409e-01" purity="4.6011146903038025e-01" nType="-99"/>
          <Node pos="r" depth="2" NCoef="0" IVar="-1" Cut="0.0000000000000000e+00" cType="1" res="3.7972584832459688e-03" rms="4.4277119636535645e-01" purity="7.2122550010681152e-01" nType="-99"/>
        </Node>
        <Node pos="r" depth="1" NCoef="0" IVar="2" Cut="9.3889534473419189e-01" cType="1" res="-1.8672862648963928e-01" rms="4.3863895535469055e-01" purity="2.6838889718055725e-01" nType="0">
          <Node pos="l" depth="2" NCoef="0" IVar="-1" Cut="0.0000000000000000e+00" cType="1" res="-3.3966589253395796e-03" rms="3.6533957719802856e-01" purity="1.5919427573680878e-01" nType="-99"/>
          <Node pos="r" depth="2" NCoef="0" IVar="-1" Cut="0.0000000000000000e+00" cType="1" res="-1.9087224500253797e-03" rms="4.7517672181129456e-01" purity="3.4914746880531311e-01" nType="-99"/>
        </Node>
      </Node>
    </BinaryTree>
    <BinaryTree type="DecisionTree" boostWeight="1.0000000000000000e+00" itree="44">
      <Node pos="s" depth="0" NCoef="0" IVar="8" Cut="2.3447067737579346e+00" cType="1" res="-1.6770008951425552e-02" rms="4.7834667563438416e-01" purity="5.0008594989776611e-01" nType="0">
        <Node pos="l" depth="1" NCoef="0" IVar="2" Cut="9.4966906309127808e-01" cType="1" res="5.6014329195022583e-02" rms="4.7740036249160767e-01" purity="5.9512811899185181e-01" nType="0">
          <Node pos="l" depth="2" NCoef="0" IVar="-1" Cut="0.0000000000000000e+00" cType="1" res="-5.6461838539689779e-04" rms="4.8869821429252625e-01" purity="4.7194752097129822e-01" nType="-99"/>
          <Node pos="r" depth="2" NCoef="0" IVar="-1" Cut="0.0000000000000000e+00" cType="1" res="3.3309822902083397e-03" rms="4.5450860261917114e-01" purity="6.9784706830978394e-01" nType="-99"/>
        </Node>
        <Node pos="r" depth="1" NCoef="0" IVar="2" Cut="9.5155364274978638e-01" cType="1" res="-1.8692511320114136e-01" rms="4.3542227149009705e-01" purity="2.7789652347564697e-01" nType="0">
          <Node pos="l" depth="2" NCoef="0" IVar="-1" Cut="0.0000000000000000e+00" cType="1" res="-3.3629429526627064e-03" rms="3.8399070501327515e-01" purity="1.8373386561870575e-01" nType="-99"/>
          <Node pos="r" depth="2" NCoef="0" IVar="-1" Cut="0.0000000000000000e+00" cType="1" res="-1.1754876468330622e-03" rms="4.7993665933609009e-01" purity="4.1768261790275574e-01" nType="-99"/>
        </Node>
      </Node>
    </BinaryTree>
    <BinaryTree type="DecisionTree" boostWeight="1.0000000000000000e+00" itree="45">
      <Node pos="s" depth="0" NCoef="0" IVar="0" Cut="1.1032344102859497e+00" cType="1" res="-7.7590500004589558e-03" rms="4.7515672445297241e-01" purity="5.0854295492172241e-01" nType="0">
        <Node pos="l" depth="1" NCoef="0" IVar="2" Cut="9.6111035346984863e-01" cType="1" res="1.0179916024208069e-01" rms="4.6234050393104553e-01" purity="6.5752202272415161e-01" nType="0">
          <Node pos="l" depth="2" NCoef="0" IVar="-1" Cut="0.0000000000000000e+00" cType="1" res="5.7165545877069235e-04" rms="4.8834943771362305e-01" purity="5.6434500217437744e-01" nType="-99"/>
          <Node pos="r" depth="2" NCoef="0" IVar="-1" Cut="0.0000000000000000e+00" cType="1" res="7.9186307266354561e-03" rms="3.7358269095420837e-01" purity="8.3079123497009277e-01" nType="-99"/>
        </Node>
        <Node pos="r" depth="1" NCoef="0" IVar="2" Cut="9.3935811519622803e-01" cType="1" res="-1.5781271457672119e-01" rms="4.5085966587066650e-01" purity="3.0449736118316650e-01" nType="0">
          <Node pos="l" depth="2" NCoef="0" IVar="-1" Cut="0.0000000000000000e+00" cType="1" res="-3.2460396178066730e-03" rms="3.7051439285278320e-01" purity="1.6837252676486969e-01" nType="-99"/>
          <Node pos="r" depth="2" NCoef="0" IVar="-1" Cut="0.0000000000000000e+00" cType="1" res="-1.2991707772016525e-03" rms="4.8541891574859619e-01" purity="4.0214332938194275e-01" nType="-99"/>
        </Node>
      </Node>
    </BinaryTree>
    <BinaryTree type="DecisionTree" boostWeight="1.0000000000000000e+00" itree="46">
      <Node pos="s" depth="0" NCoef="0" IVar="0" Cut="1.2836309671401978e+00" cType="1" res="-2.7698600664734840e-02" rms="4.7472056746482849e-01" purity="4.8652014136314392e-01" nType="0">
        <Node pos="l" depth="1" NCoef="0" IVar="2" Cut="9.5489978790283203e-01" cType="1" res="5.0573315471410751e-02" rms="4.7568944096565247e-01" purity="5.9233319759368896e-01" nType="0">
          <Node pos="l" depth="2" NCoef="0" IVar="-1" Cut="0.0000000000000000e+00" cType="1" res="-6.9821666693314910e-04" rms="4.9056470394134521e-01" purity="4.7300454974174500e-01" nType="-99"/>
          <Node pos="r" depth="2" NCoef="0" IVar="-1" Cut="0.0000000000000000e+00" cType="1" res="5.0427541136741638e-03" rms="4.2352351546287537e-01" purity="7.5525254011154175e-01" nType="-99"/>
        </Node>
        <Node pos="r" depth="1" NCoef="0" IVar="8" Cut="2.6859636306762695e+00" cType="1" res="-2.1923798322677612e-01" rms="4.1403707861900330e-01" purity="2.2758480906486511e-01" nType="0">
          <Node pos="l" depth="2" NCoef="0" IVar="-1" Cut="0.0000000000000000e+00" cType="1" res="-2.2337860427796841e-03" rms="4.5338732004165649e-01" purity="2.9805958271026611e-01" nType="-99"/>
          <Node pos="r" depth="2" NCoef="0" IVar="-1" Cut="0.0000000000000000e+00" cType="1" res="-4.0173437446355820e-03" rms="3.0305457115173340e-01" purity="1.0430438816547394e-01" nType="-99"/>
        </Node>
      </Node>
    </BinaryTree>
    <BinaryTree type="DecisionTree" boostWeight="1.0000000000000000e+00" itree="47">
      <Node pos="s" depth="0" NCoef="0" IVar="0" Cut="1.0362902879714966e+00" cType="1" res="-1.0280732065439224e-02" rms="4.7710537910461426e-01" purity="5.0990992784500122e-01" nType="0">
        <Node pos="l" depth="1" NCoef="0" IVar="2" Cut="9.5510339736938477e-01" cType="1" res="9.1522298753261566e-02" rms="4.6643775701522827e-01" purity="6.5171599388122559e-01" nType="0">
          <Node pos="l" depth="2" NCoef="0" IVar="-1" Cut="0.0000000000000000e+00" cType="1" res="4.8306488315574825e-04" rms="4.9256977438926697e-01" purity="5.5400812625885010e-01" nType="-99"/>
          <Node pos="r" depth="2" NCoef="0" IVar="-1" Cut="0.0000000000000000e+00" cType="1" res="4.9156430177390575e-03" rms="4.2079105973243713e-01" purity="7.6623481512069702e-01" nType="-99"/>
        </Node>
        <Node pos="r" depth="1" NCoef="0" IVar="2" Cut="9.4760382175445557e-01" cType="1" res="-1.3347870111465454e-01" rms="4.6053287386894226e-01" purity="3.3830186724662781e-01" nType="0">
          <Node pos="l" depth="2" NCoef="0" IVar="-1" Cut="0.0000000000000000e+00" cType="1" res="-2.8998176567256451e-03" rms="4.1261211037635803e-01" purity="2.2416828572750092e-01" nType="-99"/>
          <Node pos="r" depth="2" NCoef="0" IVar="-1" Cut="0.0000000000000000e+00" cType="1" res="-7.2942499537020922e-04" rms="4.8847365379333496e-01" purity="4.5579928159713745e-01" nType="-99"/>
        </Node>
      </Node>
    </BinaryTree>
    <BinaryTree type="DecisionTree" boostWeight="1.0000000000000000e+00" itree="48">
      <Node pos="s" depth="0" NCoef="0" IVar="0" Cut="1.0370304584503174e+00" cType="1" res="-2.6986345648765564e-02" rms="4.7411206364631653e-01" purity="4.9023541808128357e-01" nType="0">
        <Node pos="l" depth="1" NCoef="0" IVar="2" Cut="9.4021344184875488e-01" cType="1" res="8.9975617825984955e-02" rms="4.6399140357971191e-01" purity="6.5080624818801880e-01" nType="0">
          <Node pos="l" depth="2" NCoef="0" IVar="-1" Cut="0.0000000000000000e+00" cType="1" res="-8.2481553545221686e-04" rms="4.9671420454978943e-01" purity="4.5839971303939819e-01" nType="-99"/>
          <Node pos="r" depth="2" NCoef="0" IVar="-1" Cut="0.0000000000000000e+00" cType="1" res="4.2379130609333515e-03" rms="4.3255433440208435e-01" purity="7.4043387174606323e-01" nType="-99"/>
        </Node>
        <Node pos="r" depth="1" NCoef="0" IVar="2" Cut="9.3609040975570679e-01" cType="1" res="-1.5344302356243134e-01" rms="4.5195713639259338e-01" purity="3.1662982702255249e-01" nType="0">
          <Node pos="l" depth="2" NCoef="0" IVar="-1" Cut="0.0000000000000000e+00" cType="1" res="-3.3643324859440327e-03" rms="3.6311227083206177e-01" purity="1.5951773524284363e-01" nType="-99"/>
          <Node pos="r" depth="2" NCoef="0" IVar="-1" Cut="0.0000000000000000e+00" cType="1" res="-1.4125574380159378e-03" rms="4.7935685515403748e-01" purity="4.0054690837860107e-01" nType="-99"/>
        </Node>
      </Node>
    </BinaryTree>
    <BinaryTree type="DecisionTree" boostWeight="1.0000000000000000e+00" itree="49">
      <Node pos="s" depth="0" NCoef="0" IVar="0" Cut="1.0994540452957153e+00" cType="1" res="-1.9365910440683365e-02" rms="4.7528839111328125e-01" purity="4.9803566932678223e-01" nType="0">
        <Node pos="l" depth="1" NCoef="0" IVar="2" Cut="9.6269595623016357e-01" cType="1" res="7.9097062349319458e-02" rms="4.6944135427474976e-01" purity="6.3996177911758423e-01" nType="0">
          <Node pos="l" depth="2" NCoef="0" IVar="-1" Cut="0.0000000000000000e+00" cType="1" res="4.0788215119391680e-04" rms="4.9106246232986450e-01" purity="5.6143224239349365e-01" nType="-99"/>
          <Node pos="r" depth="2" NCoef="0" IVar="-1" Cut="0.0000000000000000e+00" cType="1" res="6.4974464476108551e-03" rms="3.9332810044288635e-01" purity="8.0549281835556030e-01" nType="-99"/>
        </Node>
        <Node pos="r" depth="1" NCoef="0" IVar="2" Cut="9.4855207204818726e-01" cType="1" res="-1.5402108430862427e-01" rms="4.4951397180557251e-01" purity="3.0394157767295837e-01" nType="0">
          <Node pos="l" depth="2" NCoef="0" IVar="-1" Cut="0.0000000000000000e+00" cType="1" res="-3.0331641901284456e-03" rms="3.9361125230789185e-01" purity="1.9593229889869690e-01" nType="-99"/>
          <Node pos="r" depth="2" NCoef="0" IVar="-1" Cut="0.0000000000000000e+00" cType="1" res="-8.4977765800431371e-04" rms="4.8932987451553345e-01" purity="4.3390315771102905e-01" nType="-99"/>
        </Node>
      </Node>
    </BinaryTree>
    <BinaryTree type="DecisionTree" boostWeight="1.0000000000000000e+00" itree="50">
      <Node pos="s" depth="0" NCoef="0" IVar="8" Cut="2.4847466945648193e+00" cType="1" res="1.6517559066414833e-02" rms="4.7343310713768005e-01" purity="5.3651261329650879e-01" nType="0">
        <Node pos="l" depth="1" NCoef="0" IVar="2" Cut="9.5206725597381592e-01" cType="1" res="7.0780895650386810e-02" rms="4.7068104147911072e-01" purity="6.0838508605957031e-01" nType="0">
          <Node pos="l" depth="2" NCoef="0" IVar="-1" Cut="0.0000000000000000e+00" cType="1" res="-5.6288437917828560e-04" rms="4.9071261286735535e-01" purity="4.6793180704116821e-01" nType="-99"/>
          <Node pos="r" depth="2" NCoef="0" IVar="-1" Cut="0.0000000000000000e+00" cType="1" res="4.8196963034570217e-03" rms="4.2620334029197693e-01" purity="7.4653667211532593e-01" nType="-99"/>
        </Node>
        <Node pos="r" depth="1" NCoef="0" IVar="2" Cut="9.4643551111221313e-01" cType="1" res="-2.2434461116790771e-01" rms="4.0569388866424561e-01" purity="2.1748761832714081e-01" nType="0">
          <Node pos="l" depth="2" NCoef="0" IVar="-1" Cut="0.0000000000000000e+00" cType="1" res="-3.5922157112509012e-03" rms="3.3139851689338684e-01" purity="1.2544757127761841e-01" nType="-99"/>
          <Node pos="r" depth="2" NCoef="0" IVar="-1" Cut="0.0000000000000000e+00" cType="1" res="-1.9706063903868198e-03" rms="4.7205272316932678e-01" purity="3.4625884890556335e-01" nType="-99"/>
        </Node>
      </Node>
    </BinaryTree>
    <BinaryTree type="DecisionTree" boostWeight="1.0000000000000000e+00" itree="51">
      <Node pos="s" depth="0" NCoef="0" IVar="2" Cut="9.4120562076568604e-01" cType="1" res="-2.7344027534127235e-02" rms="4.7287711501121521e-01" purity="4.8942807316780090e-01" nType="0">
        <Node pos="l" depth="1" NCoef="0" IVar="0" Cut="9.7845864295959473e-01" cType="1" res="-1.6983987390995026e-01" rms="4.4697982072830200e-01" purity="2.9982250928878784e-01" nType="0">
          <Node pos="l" depth="2" NCoef="0" IVar="-1" Cut="0.0000000000000000e+00" cType="1" res="-8.6972676217556000e-04" rms="4.9545389413833618e-01" purity="4.5443636178970337e-01" nType="-99"/>
          <Node pos="r" depth="2" NCoef="0" IVar="-1" Cut="0.0000000000000000e+00" cType="1" res="-3.0743901152163744e-03" rms="3.9305007457733154e-01" purity="1.9579492509365082e-01" nType="-99"/>
        </Node>
        <Node pos="r" depth="1" NCoef="0" IVar="0" Cut="1.3866854906082153e+00" cType="1" res="6.2335532158613205e-02" rms="4.6667289733886719e-01" purity="6.0875606536865234e-01" nType="0">
          <Node pos="l" depth="2" NCoef="0" IVar="-1" Cut="0.0000000000000000e+00" cType="1" res="3.0328091233968735e-03" rms="4.5240518450737000e-01" purity="6.8773663043975830e-01" nType="-99"/>
          <Node pos="r" depth="2" NCoef="0" IVar="-1" Cut="0.0000000000000000e+00" cType="1" res="-2.6953960768878460e-03" rms="4.4318327307701111e-01" purity="2.7204072475433350e-01" nType="-99"/>
        </Node>
      </Node>
    </BinaryTree>
    <BinaryTree type="DecisionTree" boostWeight="1.0000000000000000e+00" itree="52">
      <Node pos="s" depth="0" NCoef="0" IVar="0" Cut="1.1413950920104980e+00" cType="1" res="-2.0427079871296883e-03" rms="4.7399359941482544e-01" purity="5.1745426654815674e-01" nType="0">
        <Node pos="l" depth="1" NCoef="0" IVar="2" Cut="9.5312476158142090e-01" cType="1" res="8.6630880832672119e-02" rms="4.6514442563056946e-01" purity="6.4704132080078125e-01" nType="0">
          <Node pos="l" depth="2" NCoef="0" IVar="-1" Cut="0.0000000000000000e+00" cType="1" res="-9.1948968474753201e-05" rms="4.9429768323898315e-01" purity="5.1846379041671753e-01" nType="-99"/>
          <Node pos="r" depth="2" NCoef="0" IVar="-1" Cut="0.0000000000000000e+00" cType="1" res="5.9313289821147919e-03" rms="4.0613156557083130e-01" purity="7.9127514362335205e-01" nType="-99"/>
        </Node>
        <Node pos="r" depth="1" NCoef="0" IVar="2" Cut="9.6831357479095459e-01" cType="1" res="-1.4550894498825073e-01" rms="4.5256105065345764e-01" purity="3.0779355764389038e-01" nType="0">
          <Node pos="l" depth="2" NCoef="0" IVar="-1" Cut="0.0000000000000000e+00" cType="1" res="-2.6188895571976900e-03" rms="4.2876935005187988e-01" purity="2.5239160656929016e-01" nType="-99"/>
          <Node pos="r" depth="2" NCoef="0" IVar="-1" Cut="0.0000000000000000e+00" cType="1" res="8.1138091627508402e-04" rms="4.9680233001708984e-01" purity="5.3183096647262573e-01" nType="-99"/>
        </Node>
      </Node>
    </BinaryTree>
    <BinaryTree type="DecisionTree" boostWeight="1.0000000000000000e+00" itree="53">
      <Node pos="s" depth="0" NCoef="0" IVar="0" Cut="1.4432610273361206e+00" cType="1" res="-1.3759925961494446e-02" rms="4.7568204998970032e-01" purity="5.0819844007492065e-01" nType="0">
        <Node pos="l" depth="1" NCoef="0" IVar="2" Cut="9.4356739521026611e-01" cType="1" res="3.4415464848279953e-02" rms="4.7770392894744873e-01" purity="5.7530802488327026e-01" nType="0">
          <Node pos="l" depth="2" NCoef="0" IVar="-1" Cut="0.0000000000000000e+00" cType="1" res="-1.3768362114205956e-03" rms="4.8247718811035156e-01" purity="3.9729529619216919e-01" nType="-99"/>
          <Node pos="r" depth="2" NCoef="0" IVar="-1" Cut="0.0000000000000000e+00" cType="1" res="2.8027975931763649e-03" rms="4.5725640654563904e-01" purity="6.8716806173324585e-01" nType="-99"/>
        </Node>
        <Node pos="r" depth="1" NCoef="0" IVar="6" Cut="9.2231414794921875e+01" cType="1" res="-2.2916533052921295e-01" rms="4.0109547972679138e-01" purity="2.0813325047492981e-01" nType="0">
          <Node pos="l" depth="2" NCoef="0" IVar="-1" Cut="0.0000000000000000e+00" cType="1" res="-3.6131285596638918e-03" rms="3.4435862302780151e-01" purity="1.4199741184711456e-01" nType="-99"/>
          <Node pos="r" depth="2" NCoef="0" IVar="-1" Cut="0.0000000000000000e+00" cType="1" res="-2.1245602983981371e-03" rms="4.4815704226493835e-01" purity="2.8999286890029907e-01" nType="-99"/>
        </Node>
      </Node>
    </BinaryTree>
    <BinaryTree type="DecisionTree" boostWeight="1.0000000000000000e+00" itree="54">
      <Node pos="s" depth="0" NCoef="0" IVar="0" Cut="1.2082600593566895e+00" cType="1" res="-2.0635532215237617e-02" rms="4.7480654716491699e-01" purity="5.0107944011688232e-01" nType="0">
        <Node pos="l" depth="1" NCoef="0" IVar="6" Cut="8.4290008544921875e+01" cType="1" res="5.1311127841472626e-02" rms="4.7481381893157959e-01" purity="6.1062294244766235e-01" nType="0">
          <Node pos="l" depth="2" NCoef="0" IVar="-1" Cut="0.0000000000000000e+00" cType="1" res="-3.0822586268186569e-04" rms="4.8768475651741028e-01" purity="5.3273385763168335e-01" nType="-99"/>
          <Node pos="r" depth="2" NCoef="0" IVar="-1" Cut="0.0000000000000000e+00" cType="1" res="4.3055559508502483e-03" rms="4.3150585889816284e-01" purity="7.3640686273574829e-01" nType="-99"/>
        </Node>
        <Node pos="r" depth="1" NCoef="0" IVar="2" Cut="9.3731439113616943e-01" cType="1" res="-1.6627699136734009e-01" rms="4.4015613198280334e-01" purity="2.7933087944984436e-01" nType="0">
          <Node pos="l" depth="2" NCoef="0" IVar="-1" Cut="0.0000000000000000e+00" cType="1" res="-3.3452918287366629e-03" rms="3.4275284409523010e-01" purity="1.3834777474403381e-01" nType="-99"/>
          <Node pos="r" depth="2" NCoef="0" IVar="-1" Cut="0.0000000000000000e+00" cType="1" res="-1.4860932715237141e-03" rms="4.8010015487670898e-01" purity="3.7301489710807800e-01" nType="-99"/>
        </Node>
      </Node>
    </BinaryTree>
    <BinaryTree type="DecisionTree" boostWeight="1.0000000000000000e+00" itree="55">
      <Node pos="s" depth="0" NCoef="0" IVar="0" Cut="1.0076739788055420e+00" cType="1" res="-2.7155481278896332e-02" rms="4.7494539618492126e-01" purity="4.9190470576286316e-01" nType="0">
        <Node pos="l" depth="1" NCoef="0" IVar="2" Cut="9.3091607093811035e-01" cType="1" res="7.1573287248611450e-02" rms="4.6710270643234253e-01" purity="6.3977247476577759e-01" nType="0">
          <Node pos="l" depth="2" NCoef="0" IVar="-1" Cut="0.0000000000000000e+00" cType="1" res="-1.6038683243095875e-03" rms="4.8688358068466187e-01" purity="3.9968571066856384e-01" nType="-99"/>
          <Node pos="r" depth="2" NCoef="0" IVar="-1" Cut="0.0000000000000000e+00" cType="1" res="3.0141363386064768e-03" rms="4.5023816823959351e-01" purity="7.0334720611572266e-01" nType="-99"/>
        </Node>
        <Node pos="r" depth="1" NCoef="0" IVar="2" Cut="9.5353674888610840e-01" cType="1" res="-1.2264455854892731e-01" rms="4.6278849244117737e-01" purity="3.4888905286788940e-01" nType="0">
          <Node pos="l" depth="2" NCoef="0" IVar="-1" Cut="0.0000000000000000e+00" cType="1" res="-2.6064377743750811e-03" rms="4.3147441744804382e-01" purity="2.5619605183601379e-01" nType="-99"/>
          <Node pos="r" depth="2" NCoef="0" IVar="-1" Cut="0.0000000000000000e+00" cType="1" res="-4.1988657903857529e-04" rms="4.8849231004714966e-01" purity="4.8583331704139709e-01" nType="-99"/>
        </Node>
      </Node>
    </BinaryTree>
    <BinaryTree type="DecisionTree" boostWeight="1.0000000000000000e+00" itree="56">
      <Node pos="s" depth="0" NCoef="0" IVar="0" Cut="1.0029855966567993e+00" cType="1" res="-4.8507928848266602e-02" rms="4.7422853112220764e-01" purity="4.7048991918563843e-01" nType="0">
        <Node pos="l" depth="1" NCoef="0" IVar="6" Cut="4.6422935485839844e+01" cType="1" res="4.7316290438175201e-02" rms="4.7610163688659668e-01" purity="6.1800140142440796e-01" nType="0">
          <Node pos="l" depth="2" NCoef="0" IVar="-1" Cut="0.0000000000000000e+00" cType="1" res="-1.4192062662914395e-03" rms="4.9593114852905273e-01" purity="4.7997310757637024e-01" nType="-99"/>
          <Node pos="r" depth="2" NCoef="0" IVar="-1" Cut="0.0000000000000000e+00" cType="1" res="1.9290690543130040e-03" rms="4.6398705244064331e-01" purity="6.5696257352828979e-01" nType="-99"/>
        </Node>
        <Node pos="r" depth="1" NCoef="0" IVar="2" Cut="9.5852142572402954e-01" cType="1" res="-1.4186295866966248e-01" rms="4.5331850647926331e-01" purity="3.2677945494651794e-01" nType="0">
          <Node pos="l" depth="2" NCoef="0" IVar="-1" Cut="0.0000000000000000e+00" cType="1" res="-2.7553203981369734e-03" rms="4.1900435090065002e-01" purity="2.4182778596878052e-01" nType="-99"/>
          <Node pos="r" depth="2" NCoef="0" IVar="-1" Cut="0.0000000000000000e+00" cType="1" res="2.6038920623250306e-04" rms="4.9088019132614136e-01" purity="5.2524977922439575e-01" nType="-99"/>
        </Node>
      </Node>
    </BinaryTree>
    <BinaryTree type="DecisionTree" boostWeight="1.0000000000000000e+00" itree="57">
      <Node pos="s" depth="0" NCoef="0" IVar="0" Cut="1.2082600593566895e+00" cType="1" res="-3.3306449651718140e-02" rms="4.7102284431457520e-01" purity="4.8302581906318665e-01" nType="0">
        <Node pos="l" depth="1" NCoef="0" IVar="6" Cut="8.2175331115722656e+01" cType="1" res="5.0553798675537109e-02" rms="4.7375902533531189e-01" purity="6.0909152030944824e-01" nType="0">
          <Node pos="l" depth="2" NCoef="0" IVar="-1" Cut="0.0000000000000000e+00" cType="1" res="-2.5946475216187537e-04" rms="4.8614314198493958e-01" purity="5.3343397378921509e-01" nType="-99"/>
          <Node pos="r" depth="2" NCoef="0" IVar="-1" Cut="0.0000000000000000e+00" cType="1" res="4.2995666153728962e-03" rms="4.3117979168891907e-01" purity="7.3609769344329834e-01" nType="-99"/>
        </Node>
        <Node pos="r" depth="1" NCoef="0" IVar="8" Cut="2.4978516101837158e+00" cType="1" res="-1.8720357120037079e-01" rms="4.2488622665405273e-01" purity="2.5167506933212280e-01" nType="0">
          <Node pos="l" depth="2" NCoef="0" IVar="-1" Cut="0.0000000000000000e+00" cType="1" res="-1.4502595877274871e-03" rms="4.7104081511497498e-01" purity="3.5394859313964844e-01" nType="-99"/>
          <Node pos="r" depth="2" NCoef="0" IVar="-1" Cut="0.0000000000000000e+00" cType="1" res="-3.2325130887329578e-03" rms="3.6642429232597351e-01" purity="1.6697491705417633e-01" nType="-99"/>
        </Node>
      </Node>
    </BinaryTree>
    <BinaryTree type="DecisionTree" boostWeight="1.0000000000000000e+00" itree="58">
      <Node pos="s" depth="0" NCoef="0" IVar="0" Cut="1.0994540452957153e+00" cType="1" res="-1.7261568456888199e-02" rms="4.7078284621238708e-01" purity="5.0099402666091919e-01" nType="0">
        <Node pos="l" depth="1" NCoef="0" IVar="2" Cut="9.4399756193161011e-01" cType="1" res="8.0655977129936218e-02" rms="4.6429762244224548e-01" purity="6.4827275276184082e-01" nType="0">
          <Node pos="l" depth="2" NCoef="0" IVar="-1" Cut="0.0000000000000000e+00" cType="1" res="-4.8678199527785182e-04" rms="4.9660083651542664e-01" purity="4.8142966628074646e-01" nType="-99"/>
          <Node pos="r" depth="2" NCoef="0" IVar="-1" Cut="0.0000000000000000e+00" cType="1" res="4.1914219036698341e-03" rms="4.3004420399665833e-01" purity="7.4882757663726807e-01" nType="-99"/>
        </Node>
        <Node pos="r" depth="1" NCoef="0" IVar="2" Cut="9.6592903137207031e-01" cType="1" res="-1.5220451354980469e-01" rms="4.4561293721199036e-01" purity="2.9802510142326355e-01" nType="0">
          <Node pos="l" depth="2" NCoef="0" IVar="-1" Cut="0.0000000000000000e+00" cType="1" res="-2.6092866901308298e-03" rms="4.2234456539154053e-01" purity="2.4285161495208740e-01" nType="-99"/>
          <Node pos="r" depth="2" NCoef="0" IVar="-1" Cut="0.0000000000000000e+00" cType="1" res="5.9752684319391847e-04" rms="4.8901754617691040e-01" purity="5.2233678102493286e-01" nType="-99"/>
        </Node>
      </Node>
    </BinaryTree>
    <BinaryTree type="DecisionTree" boostWeight="1.0000000000000000e+00" itree="59">
      <Node pos="s" depth="0" NCoef="0" IVar="0" Cut="1.2427314519882202e+00" cType="1" res="-2.3395424708724022e-02" rms="4.7492209076881409e-01" purity="4.9765586853027344e-01" nType="0">
        <Node pos="l" depth="1" NCoef="0" IVar="2" Cut="9.7882360219955444e-01" cType="1" res="3.4370083361864090e-02" rms="4.7713494300842285e-01" purity="5.9044408798217773e-01" nType="0">
          <Node pos="l" depth="2" NCoef="0" IVar="-1" Cut="0.0000000000000000e+00" cType="1" res="-2.9499615266104229e-06" rms="4.8639979958534241e-01" purity="5.4841917753219604e-01" nType="-99"/>
          <Node pos="r" depth="2" NCoef="0" IVar="-1" Cut="0.0000000000000000e+00" cType="1" res="1.2276659719645977e-02" rms="2.9161876440048218e-01" purity="9.0514487028121948e-01" nType="-99"/>
        </Node>
        <Node pos="r" depth="1" NCoef="0" IVar="2" Cut="9.3780398368835449e-01" cType="1" res="-1.6058254241943359e-01" rms="4.4023028016090393e-01" purity="2.7729329466819763e-01" nType="0">
          <Node pos="l" depth="2" NCoef="0" IVar="-1" Cut="0.0000000000000000e+00" cType="1" res="-3.0026703607290983e-03" rms="3.6527687311172485e-01" purity="1.6021987795829773e-01" nType="-99"/>
          <Node pos="r" depth="2" NCoef="0" IVar="-1" Cut="0.0000000000000000e+00" cType="1" res="-1.5681681688874960e-03" rms="4.7625175118446350e-01" purity="3.5977551341056824e-01" nType="-99"/>
        </Node>
      </Node>
    </BinaryTree>
    <BinaryTree type="DecisionTree" boostWeight="1.0000000000000000e+00" itree="60">
      <Node pos="s" depth="0" NCoef="0" IVar="0" Cut="1.1142597198486328e+00" cType="1" res="-4.2480722069740295e-02" rms="4.7291550040245056e-01" purity="4.7742125391960144e-01" nType="0">
        <Node pos="l" depth="1" NCoef="0" IVar="2" Cut="9.5216596126556396e-01" cType="1" res="3.7361737340688705e-02" rms="4.7552508115768433e-01" purity="6.0628473758697510e-01" nType="0">
          <Node pos="l" depth="2" NCoef="0" IVar="-1" Cut="0.0000000000000000e+00" cType="1" res="-6.9324136711657047e-04" rms="4.9513807892799377e-01" purity="4.8323196172714233e-01" nType="-99"/>
          <Node pos="r" depth="2" NCoef="0" IVar="-1" Cut="0.0000000000000000e+00" cType="1" res="3.1292953062802553e-03" rms="4.4239282608032227e-01" purity="7.2641640901565552e-01" nType="-99"/>
        </Node>
        <Node pos="r" depth="1" NCoef="0" IVar="2" Cut="9.4356739521026611e-01" cType="1" res="-1.5646861493587494e-01" rms="4.4499585032463074e-01" purity="2.9344806075096130e-01" nType="0">
          <Node pos="l" depth="2" NCoef="0" IVar="-1" Cut="0.0000000000000000e+00" cType="1" res="-3.0060736462473869e-03" rms="3.8279238343238831e-01" purity="1.8144650757312775e-01" nType="-99"/>
          <Node pos="r" depth="2" NCoef="0" IVar="-1" Cut="0.0000000000000000e+00" cType="1" res="-1.3870580587536097e-03" rms="4.8115286231040955e-01" purity="3.8907834887504578e-01" nType="-99"/>
        </Node>
      </Node>
    </BinaryTree>
    <BinaryTree type="DecisionTree" boostWeight="1.0000000000000000e+00" itree="61">
      <Node pos="s" depth="0" NCoef="0" IVar="0" Cut="1.4432610273361206e+00" cType="1" res="-2.1591220051050186e-02" rms="4.7427004575729370e-01" purity="4.9985063076019287e-01" nType="0">
        <Node pos="l" depth="1" NCoef="0" IVar="6" Cut="9.1833160400390625e+01" cType="1" res="2.6799878105521202e-02" rms="4.7853091359138489e-01" purity="5.7005196809768677e-01" nType="0">
          <Node pos="l" depth="2" NCoef="0" IVar="-1" Cut="0.0000000000000000e+00" cType="1" res="-4.7063638339750469e-04" rms="4.8488363623619080e-01" purity="5.1058942079544067e-01" nType="-99"/>
          <Node pos="r" depth="2" NCoef="0" IVar="-1" Cut="0.0000000000000000e+00" cType="1" res="3.6286623217165470e-03" rms="4.4233590364456177e-01" purity="7.0150554180145264e-01" nType="-99"/>
        </Node>
        <Node pos="r" depth="1" NCoef="0" IVar="2" Cut="9.4878935813903809e-01" cType="1" res="-2.2726222872734070e-01" rms="3.9423859119415283e-01" purity="2.0148222148418427e-01" nType="0">
          <Node pos="l" depth="2" NCoef="0" IVar="-1" Cut="0.0000000000000000e+00" cType="1" res="-3.4305762965232134e-03" rms="3.2177594304084778e-01" purity="1.2016816437244415e-01" nType="-99"/>
          <Node pos="r" depth="2" NCoef="0" IVar="-1" Cut="0.0000000000000000e+00" cType="1" res="-2.2810033988207579e-03" rms="4.6000739932060242e-01" purity="3.0659180879592896e-01" nType="-99"/>
        </Node>
      </Node>
    </BinaryTree>
    <BinaryTree type="DecisionTree" boostWeight="1.0000000000000000e+00" itree="62">
      <Node pos="s" depth="0" NCoef="0" IVar="8" Cut="2.5103750228881836e+00" cType="1" res="1.8787602894008160e-03" rms="4.7029969096183777e-01" purity="5.2189975976943970e-01" nType="0">
        <Node pos="l" depth="1" NCoef="0" IVar="1" Cut="2.7984143066406250e+02" cType="1" res="5.0840821117162704e-02" rms="4.7055807709693909e-01" purity="5.8904993534088135e-01" nType="0">
          <Node pos="l" depth="2" NCoef="0" IVar="-1" Cut="0.0000000000000000e+00" cType="1" res="-2.3182986769825220e-03" rms="4.3849256634712219e-01" purity="3.3434388041496277e-01" nType="-99"/>
          <Node pos="r" depth="2" NCoef="0" IVar="-1" Cut="0.0000000000000000e+00" cType="1" res="1.7566088354215026e-03" rms="4.6739652752876282e-01" purity="6.2597620487213135e-01" nType="-99"/>
        </Node>
        <Node pos="r" depth="1" NCoef="0" IVar="2" Cut="9.5218092203140259e-01" cType="1" res="-2.3758351802825928e-01" rms="3.8849219679832458e-01" purity="1.9348369538784027e-01" nType="0">
          <Node pos="l" depth="2" NCoef="0" IVar="-1" Cut="0.0000000000000000e+00" cType="1" res="-3.5784360952675343e-03" rms="3.1089937686920166e-01" purity="1.0944442451000214e-01" nType="-99"/>
          <Node pos="r" depth="2" NCoef="0" IVar="-1" Cut="0.0000000000000000e+00" cType="1" res="-2.1136794239282608e-03" rms="4.7147178649902344e-01" purity="3.3054158091545105e-01" nType="-99"/>
        </Node>
      </Node>
    </BinaryTree>
    <BinaryTree type="DecisionTree" boostWeight="1.0000000000000000e+00" itree="63">
      <Node pos="s" depth="0" NCoef="0" IVar="0" Cut="1.2836309671401978e+00" cType="1" res="-8.5231624543666840e-03" rms="4.7410979866981506e-01" purity="5.1460957527160645e-01" nType="0">
        <Node pos="l" depth="1" NCoef="0" IVar="6" Cut="1.0113853454589844e+02" cType="1" res="5.5317897349596024e-02" rms="4.7432133555412292e-01" purity="6.1167091131210327e-01" nType="0">
          <Node pos="l" depth="2" NCoef="0" IVar="-1" Cut="0.0000000000000000e+00" cType="1" res="1.4890487364027649e-04" rms="4.8446586728096008e-01" purity="5.5744814872741699e-01" nType="-99"/>
          <Node pos="r" depth="2" NCoef="0" IVar="-1" Cut="0.0000000000000000e+00" cType="1" res="6.0198786668479443e-03" rms="4.1029912233352661e-01" purity="7.7490395307540894e-01" nType="-99"/>
        </Node>
        <Node pos="r" depth="1" NCoef="0" IVar="8" Cut="2.6241650581359863e+00" cType="1" res="-1.7765530943870544e-01" rms="4.2993634939193726e-01" purity="2.5746786594390869e-01" nType="0">
          <Node pos="l" depth="2" NCoef="0" IVar="-1" Cut="0.0000000000000000e+00" cType="1" res="-1.7817852785810828e-03" rms="4.6180400252342224e-01" purity="3.2358616590499878e-01" nType="-99"/>
          <Node pos="r" depth="2" NCoef="0" IVar="-1" Cut="0.0000000000000000e+00" cType="1" res="-3.4200877416878939e-03" rms="3.5492083430290222e-01" purity="1.5263059735298157e-01" nType="-99"/>
        </Node>
      </Node>
    </BinaryTree>
    <BinaryTree type="DecisionTree" boostWeight="1.0000000000000000e+00" itree="64">
      <Node pos="s" depth="0" NCoef="0" IVar="0" Cut="1.3164664506912231e+00" cType="1" res="1.6198649536818266e-03" rms="4.7128739953041077e-01" purity="5.2457344532012939e-01" nType="0">
        <Node pos="l" depth="1" NCoef="0" IVar="0" Cut="1.0792851448059082e+00" cType="1" res="7.0993825793266296e-02" rms="4.6927607059478760e-01" purity="6.2728387117385864e-01" nType="0">
          <Node pos="l" depth="2" NCoef="0" IVar="-1" Cut="0.0000000000000000e+00" cType="1" res="2.4548198562115431e-03" rms="4.5852187275886536e-01" purity="6.8011921644210815e-01" nType="-99"/>
          <Node pos="r" depth="2" NCoef="0" IVar="-1" Cut="0.0000000000000000e+00" cType="1" res="-5.3924904204905033e-04" rms="4.8846045136451721e-01" purity="4.5668664574623108e-01" nType="-99"/>
        </Node>
        <Node pos="r" depth="1" NCoef="0" IVar="6" Cut="9.5223678588867188e+01" cType="1" res="-1.9070062041282654e-01" rms="4.2074587941169739e-01" purity="2.3983664810657501e-01" nType="0">
          <Node pos="l" depth="2" NCoef="0" IVar="-1" Cut="0.0000000000000000e+00" cType="1" res="-3.1207506544888020e-03" rms="3.8689205050468445e-01" purity="1.9122543931007385e-01" nType="-99"/>
          <Node pos="r" depth="2" NCoef="0" IVar="-1" Cut="0.0000000000000000e+00" cType="1" res="-1.5662935329601169e-03" rms="4.6376475691795349e-01" purity="3.2940274477005005e-01" nType="-99"/>
        </Node>
      </Node>
    </BinaryTree>
    <BinaryTree type="DecisionTree" boostWeight="1.0000000000000000e+00" itree="65">
      <Node pos="s" depth="0" NCoef="0" IVar="8" Cut="2.4013886451721191e+00" cType="1" res="-1.5820112079381943e-02" rms="4.7101947665214539e-01" purity="5.0694096088409424e-01" nType="0">
        <Node pos="l" depth="1" NCoef="0" IVar="2" Cut="9.7367602586746216e-01" cType="1" res="4.6552564948797226e-02" rms="4.7198638319969177e-01" purity="5.9658938646316528e-01" nType="0">
          <Node pos="l" depth="2" NCoef="0" IVar="-1" Cut="0.0000000000000000e+00" cType="1" res="2.1262512018438429e-04" rms="4.8339739441871643e-01" purity="5.4880571365356445e-01" nType="-99"/>
          <Node pos="r" depth="2" NCoef="0" IVar="-1" Cut="0.0000000000000000e+00" cType="1" res="7.9945791512727737e-03" rms="3.5657194256782532e-01" purity="8.4167218208312988e-01" nType="-99"/>
        </Node>
        <Node pos="r" depth="1" NCoef="0" IVar="0" Cut="1.4400985240936279e+00" cType="1" res="-1.9933083653450012e-01" rms="4.1719838976860046e-01" purity="2.4318051338195801e-01" nType="0">
          <Node pos="l" depth="2" NCoef="0" IVar="-1" Cut="0.0000000000000000e+00" cType="1" res="-1.8867108738049865e-03" rms="4.6684506535530090e-01" purity="3.4960430860519409e-01" nType="-99"/>
          <Node pos="r" depth="2" NCoef="0" IVar="-1" Cut="0.0000000000000000e+00" cType="1" res="-3.3273999579250813e-03" rms="3.6118721961975098e-01" purity="1.5773762762546539e-01" nType="-99"/>
        </Node>
      </Node>
    </BinaryTree>
    <BinaryTree type="DecisionTree" boostWeight="1.0000000000000000e+00" itree="66">
      <Node pos="s" depth="0" NCoef="0" IVar="0" Cut="1.0966830253601074e+00" cType="1" res="-1.0775430127978325e-02" rms="4.6923759579658508e-01" purity="5.1020532846450806e-01" nType="0">
        <Node pos="l" depth="1" NCoef="0" IVar="2" Cut="9.4031566381454468e-01" cType="1" res="9.0194702148437500e-02" rms="4.5813804864883423e-01" purity="6.6612738370895386e-01" nType="0">
          <Node pos="l" depth="2" NCoef="0" IVar="-1" Cut="0.0000000000000000e+00" cType="1" res="-5.0617888337001204e-04" rms="4.9667790532112122e-01" purity="4.8009493947029114e-01" nType="-99"/>
          <Node pos="r" depth="2" NCoef="0" IVar="-1" Cut="0.0000000000000000e+00" cType="1" res="4.1043092496693134e-03" rms="4.2892166972160339e-01" purity="7.4957656860351562e-01" nType="-99"/>
        </Node>
        <Node pos="r" depth="1" NCoef="0" IVar="8" Cut="2.4774303436279297e+00" cType="1" res="-1.4172108471393585e-01" rms="4.5073816180229187e-01" purity="3.0799394845962524e-01" nType="0">
          <Node pos="l" depth="2" NCoef="0" IVar="-1" Cut="0.0000000000000000e+00" cType="1" res="-1.1445620330050588e-03" rms="4.8021221160888672e-01" purity="3.9624258875846863e-01" nType="-99"/>
          <Node pos="r" depth="2" NCoef="0" IVar="-1" Cut="0.0000000000000000e+00" cType="1" res="-2.8974863234907389e-03" rms="3.9894244074821472e-01" purity="2.0589856803417206e-01" nType="-99"/>
        </Node>
      </Node>
    </BinaryTree>
    <BinaryTree type="DecisionTree" boostWeight="1.0000000000000000e+00" itree="67">
      <Node pos="s" depth="0" NCoef="0" IVar="8" Cut="2.5432631969451904e+00" cType="1" res="-1.1714902706444263e-02" rms="4.7162649035453796e-01" purity="5.1189661026000977e-01" nType="0">
        <Node pos="l" depth="1" NCoef="0" IVar="6" Cut="4.4437404632568359e+01" cType="1" res="3.0622385442256927e-02" rms="4.7522911429405212e-01" purity="5.7256799936294556e-01" nType="0">
          <Node pos="l" depth="2" NCoef="0" IVar="-1" Cut="0.0000000000000000e+00" cType="1" res="-2.1800843533128500e-03" rms="4.7929993271827698e-01" purity="3.9791604876518250e-01" nType="-99"/>
          <Node pos="r" depth="2" NCoef="0" IVar="-1" Cut="0.0000000000000000e+00" cType="1" res="1.5475858235731721e-03" rms="4.6503582596778870e-01" purity="6.1732006072998047e-01" nType="-99"/>
        </Node>
        <Node pos="r" depth="1" NCoef="0" IVar="-1" Cut="0.0000000000000000e+00" cType="1" res="-3.1597323250025511e-03" rms="3.7106591463088989e-01" purity="1.7360273003578186e-01" nType="-99"/>
      </Node>
    </BinaryTree>
    <BinaryTree type="DecisionTree" boostWeight="1.0000000000000000e+00" itree="68">
      <Node pos="s" depth="0" NCoef="0" IVar="0" Cut="1.1142597198486328e+00" cType="1" res="-5.6109204888343811e-03" rms="4.6988657116889954e-01" purity="5.1809388399124146e-01" nType="0">
        <Node pos="l" depth="1" NCoef="0" IVar="2" Cut="9.6246486902236938e-01" cType="1" res="7.6811090111732483e-02" rms="4.6153393387794495e-01" purity="6.5342891216278076e-01" nType="0">
          <Node pos="l" depth="2" NCoef="0" IVar="-1" Cut="0.0000000000000000e+00" cType="1" res="3.4290872281417251e-04" rms="4.8871570825576782e-01" purity="5.6751203536987305e-01" nType="-99"/>
          <Node pos="r" depth="2" NCoef="0" IVar="-1" Cut="0.0000000000000000e+00" cType="1" res="7.1630035527050495e-03" rms="3.6857357621192932e-01" purity="8.3319073915481567e-01" nType="-99"/>
        </Node>
        <Node pos="r" depth="1" NCoef="0" IVar="2" Cut="9.5006453990936279e-01" cType="1" res="-1.2333759665489197e-01" rms="4.5644581317901611e-01" purity="3.2478937506675720e-01" nType="0">
          <Node pos="l" depth="2" NCoef="0" IVar="-1" Cut="0.0000000000000000e+00" cType="1" res="-2.6192439254373312e-03" rms="4.1327634453773499e-01" purity="2.2548574209213257e-01" nType="-99"/>
          <Node pos="r" depth="2" NCoef="0" IVar="-1" Cut="0.0000000000000000e+00" cType="1" res="-5.8297853684052825e-04" rms="4.9056717753410339e-01" purity="4.4848755002021790e-01" nType="-99"/>
        </Node>
      </Node>
    </BinaryTree>
    <BinaryTree type="DecisionTree" boostWeight="1.0000000000000000e+00" itree="69">
      <Node pos="s" depth="0" NCoef="0" IVar="2" Cut="9.4031566381454468e-01" cType="1" res="-2.4204583838582039e-02" rms="4.7018676996231079e-01" purity="4.9892970919609070e-01" nType="0">
        <Node pos="l" depth="1" NCoef="0" IVar="0" Cut="9.7095334529876709e-01" cType="1" res="-1.4123189449310303e-01" rms="4.5283901691436768e-01" purity="3.2218822836875916e-01" nType="0">
          <Node pos="l" depth="2" NCoef="0" IVar="-1" Cut="0.0000000000000000e+00" cType="1" res="-5.8546330546960235e-04" rms="4.9509614706039429e-01" purity="4.7524431347846985e-01" nType="-99"/>
          <Node pos="r" depth="2" NCoef="0" IVar="-1" Cut="0.0000000000000000e+00" cType="1" res="-2.8109217528253794e-03" rms="4.0505614876747131e-01" purity="2.1546745300292969e-01" nType="-99"/>
        </Node>
        <Node pos="r" depth="1" NCoef="0" IVar="6" Cut="6.7999153137207031e+01" cType="1" res="4.3161939829587936e-02" rms="4.6676668524742126e-01" purity="6.0067057609558105e-01" nType="0">
          <Node pos="l" depth="2" NCoef="0" IVar="-1" Cut="0.0000000000000000e+00" cType="1" res="-8.4592163329944015e-04" rms="4.8155808448791504e-01" purity="5.1102757453918457e-01" nType="-99"/>
          <Node pos="r" depth="2" NCoef="0" IVar="-1" Cut="0.0000000000000000e+00" cType="1" res="2.9636477120220661e-03" rms="4.4020813703536987e-01" purity="6.7753285169601440e-01" nType="-99"/>
        </Node>
      </Node>
    </BinaryTree>
    <BinaryTree type="DecisionTree" boostWeight="1.0000000000000000e+00" itree="70">
      <Node pos="s" depth="0" NCoef="0" IVar="0" Cut="1.0316172838211060e+00" cType="1" res="-3.2049529254436493e-02" rms="4.7197693586349487e-01" purity="4.9162846803665161e-01" nType="0">
        <Node pos="l" depth="1" NCoef="0" IVar="2" Cut="9.4333225488662720e-01" cType="1" res="5.1566742360591888e-02" rms="4.6773463487625122e-01" purity="6.3328635692596436e-01" nType="0">
          <Node pos="l" depth="2" NCoef="0" IVar="-1" Cut="0.0000000000000000e+00" cType="1" res="-9.0194540098309517e-04" rms="4.9389666318893433e-01" purity="4.6298816800117493e-01" nType="-99"/>
          <Node pos="r" depth="2" NCoef="0" IVar="-1" Cut="0.0000000000000000e+00" cType="1" res="2.9872551094740629e-03" rms="4.4257566332817078e-01" purity="7.2553503513336182e-01" nType="-99"/>
        </Node>
        <Node pos="r" depth="1" NCoef="0" IVar="6" Cut="7.7199501037597656e+01" cType="1" res="-1.2192719429731369e-01" rms="4.5984131097793579e-01" purity="3.3936294913291931e-01" nType="0">
          <Node pos="l" depth="2" NCoef="0" IVar="-1" Cut="0.0000000000000000e+00" cType="1" res="-2.7124662883579731e-03" rms="4.3232205510139465e-01" purity="2.6995059847831726e-01" nType="-99"/>
          <Node pos="r" depth="2" NCoef="0" IVar="-1" Cut="0.0000000000000000e+00" cType="1" res="-9.9718547426164150e-04" rms="4.7450497746467590e-01" purity="4.0009057521820068e-01" nType="-99"/>
        </Node>
      </Node>
    </BinaryTree>
    <BinaryTree type="DecisionTree" boostWeight="1.0000000000000000e+00" itree="71">
      <Node pos="s" depth="0" NCoef="0" IVar="2" Cut="9.5211762189865112e-01" cType="1" res="-1.5958925709128380e-02" rms="4.7095331549644470e-01" purity="5.0700414180755615e-01" nType="0">
        <Node pos="l" depth="1" NCoef="0" IVar="0" Cut="9.4194483757019043e-01" cType="1" res="-9.7125582396984100e-02" rms="4.6519243717193604e-01" purity="3.7766280770301819e-01" nType="0">
          <Node pos="l" depth="2" NCoef="0" IVar="-1" Cut="0.0000000000000000e+00" cType="1" res="8.3135761087760329e-04" rms="4.8805823922157288e-01" purity="5.7395935058593750e-01" nType="-99"/>
          <Node pos="r" depth="2" NCoef="0" IVar="-1" Cut="0.0000000000000000e+00" cType="1" res="-2.4585118517279625e-03" rms="4.2988401651382446e-01" purity="2.5998267531394958e-01" nType="-99"/>
        </Node>
        <Node pos="r" depth="1" NCoef="0" IVar="3" Cut="1.3220454406738281e+02" cType="1" res="7.3442719876766205e-02" rms="4.6096435189247131e-01" purity="6.4946818351745605e-01" nType="0">
          <Node pos="l" depth="2" NCoef="0" IVar="-1" Cut="0.0000000000000000e+00" cType="1" res="2.9016628395766020e-03" rms="4.4843423366546631e-01" purity="6.9288921356201172e-01" nType="-99"/>
          <Node pos="r" depth="2" NCoef="0" IVar="-1" Cut="0.0000000000000000e+00" cType="1" res="-1.0951331350952387e-03" rms="4.7697463631629944e-01" purity="5.0968122482299805e-01" nType="-99"/>
        </Node>
      </Node>
    </BinaryTree>
    <BinaryTree type="DecisionTree" boostWeight="1.0000000000000000e+00" itree="72">
      <Node pos="s" depth="0" NCoef="0" IVar="0" Cut="1.4520409107208252e+00" cType="1" res="-6.1646915972232819e-02" rms="4.6803957223892212e-01" purity="4.5792201161384583e-01" nType="0">
        <Node pos="l" depth="1" NCoef="0" IVar="2" Cut="9.5268160104751587e-01" cType="1" res="-1.7575845122337341e-02" rms="4.7716081142425537e-01" purity="5.2483654022216797e-01" nType="0">
          <Node pos="l" depth="2" NCoef="0" IVar="-1" Cut="0.0000000000000000e+00" cType="1" res="-1.5320947859436274e-03" rms="4.7869488596916199e-01" purity="3.9809539914131165e-01" nType="-99"/>
          <Node pos="r" depth="2" NCoef="0" IVar="-1" Cut="0.0000000000000000e+00" cType="1" res="1.9522466463968158e-03" rms="4.5668041706085205e-01" purity="6.7309319972991943e-01" nType="-99"/>
        </Node>
        <Node pos="r" depth="1" NCoef="0" IVar="6" Cut="9.2231414794921875e+01" cType="1" res="-2.5178137421607971e-01" rms="3.7058797478675842e-01" purity="1.6923478245735168e-01" nType="0">
          <Node pos="l" depth="2" NCoef="0" IVar="-1" Cut="0.0000000000000000e+00" cType="1" res="-3.6634511779993773e-03" rms="3.1481271982192993e-01" purity="1.1458525806665421e-01" nType="-99"/>
          <Node pos="r" depth="2" NCoef="0" IVar="-1" Cut="0.0000000000000000e+00" cType="1" res="-2.4994411505758762e-03" rms="4.2280498147010803e-01" purity="2.4233466386795044e-01" nType="-99"/>
        </Node>
      </Node>
    </BinaryTree>
    <BinaryTree type="DecisionTree" boostWeight="1.0000000000000000e+00" itree="73">
      <Node pos="s" depth="0" NCoef="0" IVar="0" Cut="1.0672595500946045e+00" cType="1" res="-2.9002847149968147e-02" rms="4.6722227334976196e-01" purity="4.9363502860069275e-01" nType="0">
        <Node pos="l" depth="1" NCoef="0" IVar="2" Cut="9.7284775972366333e-01" cType="1" res="7.5033515691757202e-02" rms="4.6220541000366211e-01" purity="6.5787667036056519e-01" nType="0">
          <Node pos="l" depth="2" NCoef="0" IVar="-1" Cut="0.0000000000000000e+00" cType="1" res="9.0255984105169773e-04" rms="4.8011732101440430e-01" purity="6.0892647504806519e-01" nType="-99"/>
          <Node pos="r" depth="2" NCoef="0" IVar="-1" Cut="0.0000000000000000e+00" cType="1" res="7.3312087915837765e-03" rms="3.5846728086471558e-01" purity="8.4717780351638794e-01" nType="-99"/>
        </Node>
        <Node pos="r" depth="1" NCoef="0" IVar="2" Cut="9.3969899415969849e-01" cType="1" res="-1.5229690074920654e-01" rms="4.4248625636100769e-01" purity="2.9899138212203979e-01" nType="0">
          <Node pos="l" depth="2" NCoef="0" IVar="-1" Cut="0.0000000000000000e+00" cType="1" res="-3.0221417546272278e-03" rms="3.6777237057685852e-01" purity="1.6529680788516998e-01" nType="-99"/>
          <Node pos="r" depth="2" NCoef="0" IVar="-1" Cut="0.0000000000000000e+00" cType="1" res="-1.4158403500914574e-03" rms="4.7721955180168152e-01" purity="3.9236614108085632e-01" nType="-99"/>
        </Node>
      </Node>
    </BinaryTree>
    <BinaryTree type="DecisionTree" boostWeight="1.0000000000000000e+00" itree="74">
      <Node pos="s" depth="0" NCoef="0" IVar="0" Cut="1.4206843376159668e+00" cType="1" res="-2.0698521286249161e-02" rms="4.7024509310722351e-01" purity="5.0254583358764648e-01" nType="0">
        <Node pos="l" depth="1" NCoef="0" IVar="2" Cut="9.2688477039337158e-01" cType="1" res="2.0920433104038239e-02" rms="4.7494763135910034e-01" purity="5.6932818889617920e-01" nType="0">
          <Node pos="l" depth="2" NCoef="0" IVar="-1" Cut="0.0000000000000000e+00" cType="1" res="-2.0846847910434008e-03" rms="4.6785590052604675e-01" purity="3.3610543608665466e-01" nType="-99"/>
          <Node pos="r" depth="2" NCoef="0" IVar="-1" Cut="0.0000000000000000e+00" cType="1" res="1.2226643739268184e-03" rms="4.6898263692855835e-01" purity="6.1954772472381592e-01" nType="-99"/>
        </Node>
        <Node pos="r" depth="1" NCoef="0" IVar="1" Cut="4.2313006591796875e+02" cType="1" res="-1.9962690770626068e-01" rms="4.0318635106086731e-01" purity="2.1543511748313904e-01" nType="0">
          <Node pos="l" depth="2" NCoef="0" IVar="-1" Cut="0.0000000000000000e+00" cType="1" res="-3.3113812096416950e-03" rms="3.6040928959846497e-01" purity="1.6182821989059448e-01" nType="-99"/>
          <Node pos="r" depth="2" NCoef="0" IVar="-1" Cut="0.0000000000000000e+00" cType="1" res="-1.5399886760860682e-03" rms="4.5332857966423035e-01" purity="3.0957481265068054e-01" nType="-99"/>
        </Node>
      </Node>
    </BinaryTree>
    <BinaryTree type="DecisionTree" boostWeight="1.0000000000000000e+00" itree="75">
      <Node pos="s" depth="0" NCoef="0" IVar="0" Cut="1.0994540452957153e+00" cType="1" res="-2.8067365288734436e-02" rms="4.6792113780975342e-01" purity="4.9061560630798340e-01" nType="0">
        <Node pos="l" depth="1" NCoef="0" IVar="6" Cut="8.5878166198730469e+01" cType="1" res="5.3097423166036606e-02" rms="4.6842136979103088e-01" purity="6.3131213188171387e-01" nType="0">
          <Node pos="l" depth="2" NCoef="0" IVar="-1" Cut="0.0000000000000000e+00" cType="1" res="-1.0950968135148287e-04" rms="4.8553955554962158e-01" purity="5.6044173240661621e-01" nType="-99"/>
          <Node pos="r" depth="2" NCoef="0" IVar="-1" Cut="0.0000000000000000e+00" cType="1" res="5.0750677473843098e-03" rms="4.0790385007858276e-01" purity="7.7247905731201172e-01" nType="-99"/>
        </Node>
        <Node pos="r" depth="1" NCoef="0" IVar="2" Cut="9.5347034931182861e-01" cType="1" res="-1.3662286102771759e-01" rms="4.4466683268547058e-01" purity="3.0243822932243347e-01" nType="0">
          <Node pos="l" depth="2" NCoef="0" IVar="-1" Cut="0.0000000000000000e+00" cType="1" res="-2.6346715167164803e-03" rms="4.0199631452560425e-01" purity="2.1209424734115601e-01" nType="-99"/>
          <Node pos="r" depth="2" NCoef="0" IVar="-1" Cut="0.0000000000000000e+00" cType="1" res="-2.6102989795617759e-04" rms="4.9165207147598267e-01" purity="4.6994343400001526e-01" nType="-99"/>
        </Node>
      </Node>
    </BinaryTree>
    <BinaryTree type="DecisionTree" boostWeight="1.0000000000000000e+00" itree="76">
      <Node pos="s" depth="0" NCoef="0" IVar="8" Cut="2.3633279800415039e+00" cType="1" res="-2.2413389757275581e-02" rms="4.6790590882301331e-01" purity="5.0000417232513428e-01" nType="0">
        <Node pos="l" depth="1" NCoef="0" IVar="2" Cut="9.6826165914535522e-01" cType="1" res="3.4702133387327194e-02" rms="4.7075080871582031e-01" purity="5.8765441179275513e-01" nType="0">
          <Node pos="l" depth="2" NCoef="0" IVar="-1" Cut="0.0000000000000000e+00" cType="1" res="-2.2948802507016808e-04" rms="4.8374348878860474e-01" purity="5.2191406488418579e-01" nType="-99"/>
          <Node pos="r" depth="2" NCoef="0" IVar="-1" Cut="0.0000000000000000e+00" cType="1" res="6.4040883444249630e-03" rms="3.8337045907974243e-01" purity="8.1003600358963013e-01" nType="-99"/>
        </Node>
        <Node pos="r" depth="1" NCoef="0" IVar="2" Cut="9.3840563297271729e-01" cType="1" res="-1.7505428194999695e-01" rms="4.2400702834129333e-01" purity="2.6575931906700134e-01" nType="0">
          <Node pos="l" depth="2" NCoef="0" IVar="-1" Cut="0.0000000000000000e+00" cType="1" res="-3.3074752427637577e-03" rms="3.3718213438987732e-01" purity="1.3060237467288971e-01" nType="-99"/>
          <Node pos="r" depth="2" NCoef="0" IVar="-1" Cut="0.0000000000000000e+00" cType="1" res="-1.7032504547387362e-03" rms="4.6463751792907715e-01" purity="3.6371296644210815e-01" nType="-99"/>
        </Node>
      </Node>
    </BinaryTree>
    <BinaryTree type="DecisionTree" boostWeight="1.0000000000000000e+00" itree="77">
      <Node pos="s" depth="0" NCoef="0" IVar="2" Cut="9.5211762189865112e-01" cType="1" res="-2.6728199794888496e-02" rms="4.6979999542236328e-01" purity="4.9573737382888794e-01" nType="0">
        <Node pos="l" depth="1" NCoef="0" IVar="0" Cut="9.4753509759902954e-01" cType="1" res="-1.0341375321149826e-01" rms="4.6618622541427612e-01" purity="3.7092569470405579e-01" nType="0">
          <Node pos="l" depth="2" NCoef="0" IVar="-1" Cut="0.0000000000000000e+00" cType="1" res="5.7627938076620921e-05" rms="4.9306243658065796e-01" purity="5.3714150190353394e-01" nType="-99"/>
          <Node pos="r" depth="2" NCoef="0" IVar="-1" Cut="0.0000000000000000e+00" cType="1" res="-2.3456492926925421e-03" rms="4.3409302830696106e-01" purity="2.6297476887702942e-01" nType="-99"/>
        </Node>
        <Node pos="r" depth="1" NCoef="0" IVar="0" Cut="1.4212270975112915e+00" cType="1" res="6.2684796750545502e-02" rms="4.5804417133331299e-01" purity="6.4126396179199219e-01" nType="0">
          <Node pos="l" depth="2" NCoef="0" IVar="-1" Cut="0.0000000000000000e+00" cType="1" res="2.4330958258360624e-03" rms="4.4961068034172058e-01" purity="6.9495612382888794e-01" nType="-99"/>
          <Node pos="r" depth="2" NCoef="0" IVar="-1" Cut="0.0000000000000000e+00" cType="1" res="-1.9607422873377800e-03" rms="4.6312156319618225e-01" purity="3.2594797015190125e-01" nType="-99"/>
        </Node>
      </Node>
    </BinaryTree>
    <BinaryTree type="DecisionTree" boostWeight="1.0000000000000000e+00" itree="78">
      <Node pos="s" depth="0" NCoef="0" IVar="0" Cut="1.3747942447662354e+00" cType="1" res="-1.4812958426773548e-02" rms="4.6811366081237793e-01" purity="5.0991165637969971e-01" nType="0">
        <Node pos="l" depth="1" NCoef="0" IVar="2" Cut="9.6058106422424316e-01" cType="1" res="3.6345783621072769e-02" rms="4.7215232253074646e-01" purity="5.9260553121566772e-01" nType="0">
          <Node pos="l" depth="2" NCoef="0" IVar="-1" Cut="0.0000000000000000e+00" cType="1" res="-2.3835280444473028e-04" rms="4.8727580904960632e-01" purity="5.0971847772598267e-01" nType="-99"/>
          <Node pos="r" depth="2" NCoef="0" IVar="-1" Cut="0.0000000000000000e+00" cType="1" res="3.4862784668803215e-03" rms="4.3208163976669312e-01" purity="7.3450142145156860e-01" nType="-99"/>
        </Node>
        <Node pos="r" depth="1" NCoef="0" IVar="6" Cut="7.2791412353515625e+01" cType="1" res="-1.9420251250267029e-01" rms="4.0553271770477295e-01" purity="2.1994315087795258e-01" nType="0">
          <Node pos="l" depth="2" NCoef="0" IVar="-1" Cut="0.0000000000000000e+00" cType="1" res="-3.4512546844780445e-03" rms="3.1586843729019165e-01" purity="1.1690674722194672e-01" nType="-99"/>
          <Node pos="r" depth="2" NCoef="0" IVar="-1" Cut="0.0000000000000000e+00" cType="1" res="-1.5071609523147345e-03" rms="4.5322093367576599e-01" purity="3.1378817558288574e-01" nType="-99"/>
        </Node>
      </Node>
    </BinaryTree>
    <BinaryTree type="DecisionTree" boostWeight="1.0000000000000000e+00" itree="79">
      <Node pos="s" depth="0" NCoef="0" IVar="0" Cut="1.4581229686737061e+00" cType="1" res="-3.0498633161187172e-02" rms="4.6805441379547119e-01" purity="4.9341702461242676e-01" nType="0">
        <Node pos="l" depth="1" NCoef="0" IVar="2" Cut="9.5750874280929565e-01" cType="1" res="7.5946575962007046e-03" rms="4.7325506806373596e-01" purity="5.5447524785995483e-01" nType="0">
          <Node pos="l" depth="2" NCoef="0" IVar="-1" Cut="0.0000000000000000e+00" cType="1" res="-9.7666762303560972e-04" rms="4.8305994272232056e-01" purity="4.4810393452644348e-01" nType="-99"/>
          <Node pos="r" depth="2" NCoef="0" IVar="-1" Cut="0.0000000000000000e+00" cType="1" res="2.6313629932701588e-03" rms="4.4316169619560242e-01" purity="7.0334488153457642e-01" nType="-99"/>
        </Node>
        <Node pos="r" depth="1" NCoef="0" IVar="6" Cut="8.9166389465332031e+01" cType="1" res="-2.1671403944492340e-01" rms="3.9163047075271606e-01" purity="1.9493955373764038e-01" nType="0">
          <Node pos="l" depth="2" NCoef="0" IVar="-1" Cut="0.0000000000000000e+00" cType="1" res="-3.4379584249109030e-03" rms="3.1832262873649597e-01" purity="1.1833474040031433e-01" nType="-99"/>
          <Node pos="r" depth="2" NCoef="0" IVar="-1" Cut="0.0000000000000000e+00" cType="1" res="-1.6879823524504900e-03" rms="4.5415973663330078e-01" purity="3.0194190144538879e-01" nType="-99"/>
        </Node>
      </Node>
    </BinaryTree>
    <BinaryTree type="DecisionTree" boostWeight="1.0000000000000000e+00" itree="80">
      <Node pos="s" depth="0" NCoef="0" IVar="2" Cut="9.3849700689315796e-01" cType="1" res="-3.9328962564468384e-02" rms="4.6586397290229797e-01" purity="4.8147994279861450e-01" nType="0">
        <Node pos="l" depth="1" NCoef="0" IVar="6" Cut="4.9646221160888672e+01" cType="1" res="-1.6672655940055847e-01" rms="4.3782421946525574e-01" purity="2.8686645627021790e-01" nType="0">
          <Node pos="l" depth="2" NCoef="0" IVar="-1" Cut="0.0000000000000000e+00" cType="1" res="-3.3310416620224714e-03" rms="3.7588801980018616e-01" purity="1.7497734725475311e-01" nType="-99"/>
          <Node pos="r" depth="2" NCoef="0" IVar="-1" Cut="0.0000000000000000e+00" cType="1" res="-1.6926319804042578e-03" rms="4.5214426517486572e-01" purity="3.3419030904769897e-01" nType="-99"/>
        </Node>
        <Node pos="r" depth="1" NCoef="0" IVar="6" Cut="4.7099895477294922e+01" cType="1" res="3.0668724328279495e-02" rms="4.6597689390182495e-01" purity="5.8840894699096680e-01" nType="0">
          <Node pos="l" depth="2" NCoef="0" IVar="-1" Cut="0.0000000000000000e+00" cType="1" res="-2.2442638874053955e-03" rms="4.6649432182312012e-01" purity="4.0972325205802917e-01" nType="-99"/>
          <Node pos="r" depth="2" NCoef="0" IVar="-1" Cut="0.0000000000000000e+00" cType="1" res="1.7242750618606806e-03" rms="4.5596244931221008e-01" purity="6.3733917474746704e-01" nType="-99"/>
        </Node>
      </Node>
    </BinaryTree>
    <BinaryTree type="DecisionTree" boostWeight="1.0000000000000000e+00" itree="81">
      <Node pos="s" depth="0" NCoef="0" IVar="2" Cut="9.5431506633758545e-01" cType="1" res="-3.8598064333200455e-02" rms="4.6641296148300171e-01" purity="4.8426094651222229e-01" nType="0">
        <Node pos="l" depth="1" NCoef="0" IVar="0" Cut="7.1122258901596069e-01" cType="1" res="-1.2136051058769226e-01" rms="4.5780530571937561e-01" purity="3.5379198193550110e-01" nType="0">
          <Node pos="l" depth="2" NCoef="0" IVar="-1" Cut="0.0000000000000000e+00" cType="1" res="8.0723100109025836e-04" rms="4.8398545384407043e-01" purity="5.7403808832168579e-01" nType="-99"/>
          <Node pos="r" depth="2" NCoef="0" IVar="-1" Cut="0.0000000000000000e+00" cType="1" res="-2.3146020248532295e-03" rms="4.4115927815437317e-01" purity="2.9726219177246094e-01" nType="-99"/>
        </Node>
        <Node pos="r" depth="1" NCoef="0" IVar="8" Cut="2.4630284309387207e+00" cType="1" res="7.1359559893608093e-02" rms="4.5488396286964417e-01" purity="6.5760117769241333e-01" nType="0">
          <Node pos="l" depth="2" NCoef="0" IVar="-1" Cut="0.0000000000000000e+00" cType="1" res="2.8735150117427111e-03" rms="4.4539102911949158e-01" purity="7.1304517984390259e-01" nType="-99"/>
          <Node pos="r" depth="2" NCoef="0" IVar="-1" Cut="0.0000000000000000e+00" cType="1" res="-1.8469713395461440e-03" rms="4.6114930510520935e-01" purity="3.3961623907089233e-01" nType="-99"/>
        </Node>
      </Node>
    </BinaryTree>
    <BinaryTree type="DecisionTree" boostWeight="1.0000000000000000e+00" itree="82">
      <Node pos="s" depth="0" NCoef="0" IVar="0" Cut="1.1612598896026611e+00" cType="1" res="-2.0296264439821243e-02" rms="4.6631348133087158e-01" purity="5.0387740135192871e-01" nType="0">
        <Node pos="l" depth="1" NCoef="0" IVar="6" Cut="3.9914154052734375e+01" cType="1" res="5.1184765994548798e-02" rms="4.6737062931060791e-01" purity="6.2818020582199097e-01" nType="0">
          <Node pos="l" depth="2" NCoef="0" IVar="-1" Cut="0.0000000000000000e+00" cType="1" res="-2.0539264660328627e-03" rms="4.7842648625373840e-01" purity="4.1805961728096008e-01" nType="-99"/>
          <Node pos="r" depth="2" NCoef="0" IVar="-1" Cut="0.0000000000000000e+00" cType="1" res="1.8896227702498436e-03" rms="4.5940855145454407e-01" purity="6.6121518611907959e-01" nType="-99"/>
        </Node>
        <Node pos="r" depth="1" NCoef="0" IVar="2" Cut="9.4487059116363525e-01" cType="1" res="-1.4849692583084106e-01" rms="4.3598008155822754e-01" purity="2.8094133734703064e-01" nType="0">
          <Node pos="l" depth="2" NCoef="0" IVar="-1" Cut="0.0000000000000000e+00" cType="1" res="-2.9401627834886312e-03" rms="3.6577624082565308e-01" purity="1.6207602620124817e-01" nType="-99"/>
          <Node pos="r" depth="2" NCoef="0" IVar="-1" Cut="0.0000000000000000e+00" cType="1" res="-9.4719277694821358e-04" rms="4.8417443037033081e-01" purity="4.0834575891494751e-01" nType="-99"/>
        </Node>
      </Node>
    </BinaryTree>
    <BinaryTree type="DecisionTree" boostWeight="1.0000000000000000e+00" itree="83">
      <Node pos="s" depth="0" NCoef="0" IVar="0" Cut="1.0076739788055420e+00" cType="1" res="-3.4388307482004166e-02" rms="4.6615067124366760e-01" purity="4.8958942294120789e-01" nType="0">
        <Node pos="l" depth="1" NCoef="0" IVar="6" Cut="4.1041316986083984e+01" cType="1" res="6.8740427494049072e-02" rms="4.5975056290626526e-01" purity="6.5857470035552979e-01" nType="0">
          <Node pos="l" depth="2" NCoef="0" IVar="-1" Cut="0.0000000000000000e+00" cType="1" res="-1.5667936531826854e-03" rms="4.8267731070518494e-01" purity="4.6987047791481018e-01" nType="-99"/>
          <Node pos="r" depth="2" NCoef="0" IVar="-1" Cut="0.0000000000000000e+00" cType="1" res="2.4153941776603460e-03" rms="4.4973158836364746e-01" purity="6.9213032722473145e-01" nType="-99"/>
        </Node>
        <Node pos="r" depth="1" NCoef="0" IVar="2" Cut="9.4680076837539673e-01" cType="1" res="-1.3239662349224091e-01" rms="4.5079371333122253e-01" purity="3.2899439334869385e-01" nType="0">
          <Node pos="l" depth="2" NCoef="0" IVar="-1" Cut="0.0000000000000000e+00" cType="1" res="-2.6787507813423872e-03" rms="4.0632772445678711e-01" purity="2.1686866879463196e-01" nType="-99"/>
          <Node pos="r" depth="2" NCoef="0" IVar="-1" Cut="0.0000000000000000e+00" cType="1" res="-1.1497596278786659e-03" rms="4.7975361347198486e-01" purity="4.3430092930793762e-01" nType="-99"/>
        </Node>
      </Node>
    </BinaryTree>
    <BinaryTree type="DecisionTree" boostWeight="1.0000000000000000e+00" itree="84">
      <Node pos="s" depth="0" NCoef="0" IVar="0" Cut="1.2552602291107178e+00" cType="1" res="-1.7401305958628654e-02" rms="4.6669375896453857e-01" purity="5.0761026144027710e-01" nType="0">
        <Node pos="l" depth="1" NCoef="0" IVar="6" Cut="1.0002232360839844e+02" cType="1" res="3.5654846578836441e-02" rms="4.6938389539718628e-01" purity="6.0543012619018555e-01" nType="0">
          <Node pos="l" depth="2" NCoef="0" IVar="-1" Cut="0.0000000000000000e+00" cType="1" res="-2.2890671971254051e-04" rms="4.7880545258522034e-01" purity="5.4789590835571289e-01" nType="-99"/>
          <Node pos="r" depth="2" NCoef="0" IVar="-1" Cut="0.0000000000000000e+00" cType="1" res="5.4318467155098915e-03" rms="4.0932443737983704e-01" purity="7.7598828077316284e-01" nType="-99"/>
        </Node>
        <Node pos="r" depth="1" NCoef="0" IVar="2" Cut="9.5602124929428101e-01" cType="1" res="-1.4493888616561890e-01" rms="4.3441608548164368e-01" purity="2.7246874570846558e-01" nType="0">
          <Node pos="l" depth="2" NCoef="0" IVar="-1" Cut="0.0000000000000000e+00" cType="1" res="-2.6208627969026566e-03" rms="3.9285138249397278e-01" purity="1.9502712786197662e-01" nType="-99"/>
          <Node pos="r" depth="2" NCoef="0" IVar="-1" Cut="0.0000000000000000e+00" cType="1" res="-3.5153448698110878e-04" rms="4.9136018753051758e-01" purity="4.4283273816108704e-01" nType="-99"/>
        </Node>
      </Node>
    </BinaryTree>
    <BinaryTree type="DecisionTree" boostWeight="1.0000000000000000e+00" itree="85">
      <Node pos="s" depth="0" NCoef="0" IVar="0" Cut="1.0491220951080322e+00" cType="1" res="-3.0893011018633842e-02" rms="4.6584922075271606e-01" purity="4.8677012324333191e-01" nType="0">
        <Node pos="l" depth="1" NCoef="0" IVar="2" Cut="9.2614144086837769e-01" cType="1" res="5.5918067693710327e-02" rms="4.6242547035217285e-01" purity="6.3968640565872192e-01" nType="0">
          <Node pos="l" depth="2" NCoef="0" IVar="-1" Cut="0.0000000000000000e+00" cType="1" res="-1.8572665285319090e-03" rms="4.8019805550575256e-01" purity="3.7727928161621094e-01" nType="-99"/>
          <Node pos="r" depth="2" NCoef="0" IVar="-1" Cut="0.0000000000000000e+00" cType="1" res="2.4234256707131863e-03" rms="4.4892194867134094e-01" purity="6.9643074274063110e-01" nType="-99"/>
        </Node>
        <Node pos="r" depth="1" NCoef="0" IVar="2" Cut="9.4855207204818726e-01" cType="1" res="-1.2411233782768250e-01" rms="4.5127153396606445e-01" purity="3.2256585359573364e-01" nType="0">
          <Node pos="l" depth="2" NCoef="0" IVar="-1" Cut="0.0000000000000000e+00" cType="1" res="-2.5405939668416977e-03" rms="4.0623408555984497e-01" purity="2.1514955163002014e-01" nType="-99"/>
          <Node pos="r" depth="2" NCoef="0" IVar="-1" Cut="0.0000000000000000e+00" cType="1" res="-6.8145187105983496e-04" rms="4.8888593912124634e-01" purity="4.5682558417320251e-01" nType="-99"/>
        </Node>
      </Node>
    </BinaryTree>
    <BinaryTree type="DecisionTree" boostWeight="1.0000000000000000e+00" itree="86">
      <Node pos="s" depth="0" NCoef="0" IVar="0" Cut="1.2451779842376709e+00" cType="1" res="-4.3834965676069260e-02" rms="4.6142333745956421e-01" purity="4.7380673885345459e-01" nType="0">
        <Node pos="l" depth="1" NCoef="0" IVar="2" Cut="9.5389777421951294e-01" cType="1" res="2.6895394548773766e-02" rms="4.6897646784782410e-01" purity="5.9262621402740479e-01" nType="0">
          <Node pos="l" depth="2" NCoef="0" IVar="-1" Cut="0.0000000000000000e+00" cType="1" res="-8.2265771925449371e-04" rms="4.8820045590400696e-01" purity="4.6781596541404724e-01" nType="-99"/>
          <Node pos="r" depth="2" NCoef="0" IVar="-1" Cut="0.0000000000000000e+00" cType="1" res="3.3482143189758062e-03" rms="4.2803221940994263e-01" purity="7.4157816171646118e-01" nType="-99"/>
        </Node>
        <Node pos="r" depth="1" NCoef="0" IVar="2" Cut="9.6712797880172729e-01" cType="1" res="-1.9078792631626129e-01" rms="4.0782561898231506e-01" purity="2.2694140672683716e-01" nType="0">
          <Node pos="l" depth="2" NCoef="0" IVar="-1" Cut="0.0000000000000000e+00" cType="1" res="-2.8388539794832468e-03" rms="3.8253262639045715e-01" purity="1.8568155169487000e-01" nType="-99"/>
          <Node pos="r" depth="2" NCoef="0" IVar="-1" Cut="0.0000000000000000e+00" cType="1" res="-9.2077022418379784e-04" rms="4.8464262485504150e-01" purity="4.1801431775093079e-01" nType="-99"/>
        </Node>
      </Node>
    </BinaryTree>
    <BinaryTree type="DecisionTree" boostWeight="1.0000000000000000e+00" itree="87">
      <Node pos="s" depth="0" NCoef="0" IVar="0" Cut="1.2257379293441772e+00" cType="1" res="-3.1996268779039383e-02" rms="4.6206539869308472e-01" purity="4.8874926567077637e-01" nType="0">
        <Node pos="l" depth="1" NCoef="0" IVar="2" Cut="9.3849700689315796e-01" cType="1" res="3.9400998502969742e-02" rms="4.6691495180130005e-01" purity="6.1157339811325073e-01" nType="0">
          <Node pos="l" depth="2" NCoef="0" IVar="-1" Cut="0.0000000000000000e+00" cType="1" res="-1.4045678544789553e-03" rms="4.8578536510467529e-01" purity="4.0332913398742676e-01" nType="-99"/>
          <Node pos="r" depth="2" NCoef="0" IVar="-1" Cut="0.0000000000000000e+00" cType="1" res="2.4195294827222824e-03" rms="4.4740724563598633e-01" purity="6.9977784156799316e-01" nType="-99"/>
        </Node>
        <Node pos="r" depth="1" NCoef="0" IVar="8" Cut="2.3498897552490234e+00" cType="1" res="-1.7692944407463074e-01" rms="4.1593959927558899e-01" purity="2.3942200839519501e-01" nType="0">
          <Node pos="l" depth="2" NCoef="0" IVar="-1" Cut="0.0000000000000000e+00" cType="1" res="-8.0409098882228136e-04" rms="4.7587886452674866e-01" purity="3.8648760318756104e-01" nType="-99"/>
          <Node pos="r" depth="2" NCoef="0" IVar="-1" Cut="0.0000000000000000e+00" cType="1" res="-2.9437642078846693e-03" rms="3.7791845202445984e-01" purity="1.8064846098423004e-01" nType="-99"/>
        </Node>
      </Node>
    </BinaryTree>
    <BinaryTree type="DecisionTree" boostWeight="1.0000000000000000e+00" itree="88">
      <Node pos="s" depth="0" NCoef="0" IVar="2" Cut="9.2834138870239258e-01" cType="1" res="-1.4166582375764847e-02" rms="4.7113323211669922e-01" purity="5.1099675893783569e-01" nType="0">
        <Node pos="l" depth="1" NCoef="0" IVar="6" Cut="9.0227851867675781e+01" cType="1" res="-1.8445223569869995e-01" rms="4.3368950486183167e-01" purity="2.6315188407897949e-01" nType="0">
          <Node pos="l" depth="2" NCoef="0" IVar="-1" Cut="0.0000000000000000e+00" cType="1" res="-3.0037015676498413e-03" rms="4.0565738081932068e-01" purity="2.1204820275306702e-01" nType="-99"/>
          <Node pos="r" depth="2" NCoef="0" IVar="-1" Cut="0.0000000000000000e+00" cType="1" res="-1.1990780476480722e-03" rms="4.6903607249259949e-01" purity="3.7065899372100830e-01" nType="-99"/>
        </Node>
        <Node pos="r" depth="1" NCoef="0" IVar="0" Cut="1.0863596200942993e+00" cType="1" res="3.0235258862376213e-02" rms="4.7039151191711426e-01" purity="5.7562214136123657e-01" nType="0">
          <Node pos="l" depth="2" NCoef="0" IVar="-1" Cut="0.0000000000000000e+00" cType="1" res="2.5476156733930111e-03" rms="4.5289459824562073e-01" purity="7.0673996210098267e-01" nType="-99"/>
          <Node pos="r" depth="2" NCoef="0" IVar="-1" Cut="0.0000000000000000e+00" cType="1" res="-8.9313689386472106e-04" rms="4.7942563891410828e-01" purity="4.0104150772094727e-01" nType="-99"/>
        </Node>
      </Node>
    </BinaryTree>
    <BinaryTree type="DecisionTree" boostWeight="1.0000000000000000e+00" itree="89">
      <Node pos="s" depth="0" NCoef="0" IVar="2" Cut="9.4109064340591431e-01" cType="1" res="-4.9239717423915863e-02" rms="4.6610239148139954e-01" purity="4.7239375114440918e-01" nType="0">
        <Node pos="l" depth="1" NCoef="0" IVar="8" Cut="2.3607029914855957e+00" cType="1" res="-1.5260890126228333e-01" rms="4.4019225239753723e-01" purity="2.9625445604324341e-01" nType="0">
          <Node pos="l" depth="2" NCoef="0" IVar="-1" Cut="0.0000000000000000e+00" cType="1" res="-1.4734311262145638e-03" rms="4.7558352351188660e-01" purity="3.7789800763130188e-01" nType="-99"/>
          <Node pos="r" depth="2" NCoef="0" IVar="-1" Cut="0.0000000000000000e+00" cType="1" res="-3.1385195907205343e-03" rms="3.3823466300964355e-01" purity="1.3630309700965881e-01" nType="-99"/>
        </Node>
        <Node pos="r" depth="1" NCoef="0" IVar="6" Cut="4.9666011810302734e+01" cType="1" res="1.0323647409677505e-02" rms="4.7018885612487793e-01" purity="5.7388865947723389e-01" nType="0">
          <Node pos="l" depth="2" NCoef="0" IVar="-1" Cut="0.0000000000000000e+00" cType="1" res="-2.3583564907312393e-03" rms="4.7679802775382996e-01" purity="4.1723340749740601e-01" nType="-99"/>
          <Node pos="r" depth="2" NCoef="0" IVar="-1" Cut="0.0000000000000000e+00" cType="1" res="1.2616205494850874e-03" rms="4.5897346735000610e-01" purity="6.2260359525680542e-01" nType="-99"/>
        </Node>
      </Node>
    </BinaryTree>
    <BinaryTree type="DecisionTree" boostWeight="1.0000000000000000e+00" itree="90">
      <Node pos="s" depth="0" NCoef="0" IVar="0" Cut="1.4525589942932129e+00" cType="1" res="-2.9666049405932426e-02" rms="4.6789446473121643e-01" purity="4.9576267600059509e-01" nType="0">
        <Node pos="l" depth="1" NCoef="0" IVar="2" Cut="9.5553290843963623e-01" cType="1" res="8.4749544039368629e-03" rms="4.7445127367973328e-01" purity="5.5946725606918335e-01" nType="0">
          <Node pos="l" depth="2" NCoef="0" IVar="-1" Cut="0.0000000000000000e+00" cType="1" res="-8.8968721684068441e-04" rms="4.8479458689689636e-01" purity="4.4913217425346375e-01" nType="-99"/>
          <Node pos="r" depth="2" NCoef="0" IVar="-1" Cut="0.0000000000000000e+00" cType="1" res="2.3542942944914103e-03" rms="4.4875401258468628e-01" purity="7.0057374238967896e-01" nType="-99"/>
        </Node>
        <Node pos="r" depth="1" NCoef="0" IVar="8" Cut="2.5684120655059814e+00" cType="1" res="-2.1290053427219391e-01" rms="3.8558778166770935e-01" purity="1.8971708416938782e-01" nType="0">
          <Node pos="l" depth="2" NCoef="0" IVar="-1" Cut="0.0000000000000000e+00" cType="1" res="-2.1204627119004726e-03" rms="4.3629068136215210e-01" purity="2.6638826727867126e-01" nType="-99"/>
          <Node pos="r" depth="2" NCoef="0" IVar="-1" Cut="0.0000000000000000e+00" cType="1" res="-3.3222676720470190e-03" rms="3.3938062191009521e-01" purity="1.3638019561767578e-01" nType="-99"/>
        </Node>
      </Node>
    </BinaryTree>
    <BinaryTree type="DecisionTree" boostWeight="1.0000000000000000e+00" itree="91">
      <Node pos="s" depth="0" NCoef="0" IVar="0" Cut="1.1875315904617310e+00" cType="1" res="-3.6411765962839127e-02" rms="4.6143341064453125e-01" purity="4.8342823982238770e-01" nType="0">
        <Node pos="l" depth="1" NCoef="0" IVar="2" Cut="9.5618861913681030e-01" cType="1" res="4.4395696371793747e-02" rms="4.6460095047950745e-01" purity="6.2453699111938477e-01" nType="0">
          <Node pos="l" depth="2" NCoef="0" IVar="-1" Cut="0.0000000000000000e+00" cType="1" res="-4.3698991066776216e-04" rms="4.9051660299301147e-01" purity="5.0652599334716797e-01" nType="-99"/>
          <Node pos="r" depth="2" NCoef="0" IVar="-1" Cut="0.0000000000000000e+00" cType="1" res="4.0384647436439991e-03" rms="4.1515019536018372e-01" purity="7.6990306377410889e-01" nType="-99"/>
        </Node>
        <Node pos="r" depth="1" NCoef="0" IVar="0" Cut="1.4285069704055786e+00" cType="1" res="-1.6622975468635559e-01" rms="4.2528286576271057e-01" purity="2.5673562288284302e-01" nType="0">
          <Node pos="l" depth="2" NCoef="0" IVar="-1" Cut="0.0000000000000000e+00" cType="1" res="-1.4016339555382729e-03" rms="4.7279593348503113e-01" purity="3.5991498827934265e-01" nType="-99"/>
          <Node pos="r" depth="2" NCoef="0" IVar="-1" Cut="0.0000000000000000e+00" cType="1" res="-2.9277417343109846e-03" rms="3.7076723575592041e-01" purity="1.7258484661579132e-01" nType="-99"/>
        </Node>
      </Node>
    </BinaryTree>
    <BinaryTree type="DecisionTree" boostWeight="1.0000000000000000e+00" itree="92">
      <Node pos="s" depth="0" NCoef="0" IVar="0" Cut="1.0370304584503174e+00" cType="1" res="-1.1333019472658634e-02" rms="4.6477320790290833e-01" purity="5.1572275161743164e-01" nType="0">
        <Node pos="l" depth="1" NCoef="0" IVar="2" Cut="9.6134489774703979e-01" cType="1" res="6.9468654692173004e-02" rms="4.5742279291152954e-01" purity="6.6559207439422607e-01" nType="0">
          <Node pos="l" depth="2" NCoef="0" IVar="-1" Cut="0.0000000000000000e+00" cType="1" res="3.4468126250430942e-04" rms="4.8781651258468628e-01" purity="5.7551753520965576e-01" nType="-99"/>
          <Node pos="r" depth="2" NCoef="0" IVar="-1" Cut="0.0000000000000000e+00" cType="1" res="5.6443749926984310e-03" rms="3.8454657793045044e-01" purity="8.1860196590423584e-01" nType="-99"/>
        </Node>
        <Node pos="r" depth="1" NCoef="0" IVar="2" Cut="9.3456488847732544e-01" cType="1" res="-1.0222287476062775e-01" rms="4.5610734820365906e-01" purity="3.4714204072952271e-01" nType="0">
          <Node pos="l" depth="2" NCoef="0" IVar="-1" Cut="0.0000000000000000e+00" cType="1" res="-2.8768260963261127e-03" rms="3.6712384223937988e-01" purity="1.6914267838001251e-01" nType="-99"/>
          <Node pos="r" depth="2" NCoef="0" IVar="-1" Cut="0.0000000000000000e+00" cType="1" res="-6.5259356051683426e-04" rms="4.8378017544746399e-01" purity="4.4032090902328491e-01" nType="-99"/>
        </Node>
      </Node>
    </BinaryTree>
    <BinaryTree type="DecisionTree" boostWeight="1.0000000000000000e+00" itree="93">
      <Node pos="s" depth="0" NCoef="0" IVar="8" Cut="2.4906251430511475e+00" cType="1" res="-1.8222354352474213e-02" rms="4.6586525440216064e-01" purity="5.0652885437011719e-01" nType="0">
        <Node pos="l" depth="1" NCoef="0" IVar="2" Cut="9.6193355321884155e-01" cType="1" res="2.2026734426617622e-02" rms="4.7109258174896240e-01" purity="5.7584059238433838e-01" nType="0">
          <Node pos="l" depth="2" NCoef="0" IVar="-1" Cut="0.0000000000000000e+00" cType="1" res="-4.2018611566163599e-04" rms="4.8549222946166992e-01" purity="4.9496319890022278e-01" nType="-99"/>
          <Node pos="r" depth="2" NCoef="0" IVar="-1" Cut="0.0000000000000000e+00" cType="1" res="3.2200198620557785e-03" rms="4.2755126953125000e-01" purity="7.3451066017150879e-01" nType="-99"/>
        </Node>
        <Node pos="r" depth="1" NCoef="0" IVar="6" Cut="9.1802108764648438e+01" cType="1" res="-1.8109534680843353e-01" rms="4.0512695908546448e-01" purity="2.2605013847351074e-01" nType="0">
          <Node pos="l" depth="2" NCoef="0" IVar="-1" Cut="0.0000000000000000e+00" cType="1" res="-3.1243483535945415e-03" rms="3.5639944672584534e-01" purity="1.6135676205158234e-01" nType="-99"/>
          <Node pos="r" depth="2" NCoef="0" IVar="-1" Cut="0.0000000000000000e+00" cType="1" res="-1.5915384283289313e-03" rms="4.4651302695274353e-01" purity="3.0525588989257812e-01" nType="-99"/>
        </Node>
      </Node>
    </BinaryTree>
    <BinaryTree type="DecisionTree" boostWeight="1.0000000000000000e+00" itree="94">
      <Node pos="s" depth="0" NCoef="0" IVar="8" Cut="2.3938646316528320e+00" cType="1" res="-3.3834520727396011e-02" rms="4.6352183818817139e-01" purity="4.8770761489868164e-01" nType="0">
        <Node pos="l" depth="1" NCoef="0" IVar="2" Cut="9.4943219423294067e-01" cType="1" res="2.1106423810124397e-02" rms="4.6988782286643982e-01" purity="5.7962304353713989e-01" nType="0">
          <Node pos="l" depth="2" NCoef="0" IVar="-1" Cut="0.0000000000000000e+00" cType="1" res="-1.1266419896855950e-03" rms="4.8446744680404663e-01" purity="4.2409703135490417e-01" nType="-99"/>
          <Node pos="r" depth="2" NCoef="0" IVar="-1" Cut="0.0000000000000000e+00" cType="1" res="2.8751760255545378e-03" rms="4.4027918577194214e-01" purity="7.1915721893310547e-01" nType="-99"/>
        </Node>
        <Node pos="r" depth="1" NCoef="0" IVar="2" Cut="9.5631831884384155e-01" cType="1" res="-1.8412752449512482e-01" rms="4.0957593917846680e-01" purity="2.3626947402954102e-01" nType="0">
          <Node pos="l" depth="2" NCoef="0" IVar="-1" Cut="0.0000000000000000e+00" cType="1" res="-2.9455686453729868e-03" rms="3.6682555079460144e-01" purity="1.6502697765827179e-01" nType="-99"/>
          <Node pos="r" depth="2" NCoef="0" IVar="-1" Cut="0.0000000000000000e+00" cType="1" res="-1.2352660996839404e-03" rms="4.7305583953857422e-01" purity="3.9283147454261780e-01" nType="-99"/>
        </Node>
      </Node>
    </BinaryTree>
    <BinaryTree type="DecisionTree" boostWeight="1.0000000000000000e+00" itree="95">
      <Node pos="s" depth="0" NCoef="0" IVar="8" Cut="2.3990783691406250e+00" cType="1" res="-6.1815180815756321e-03" rms="4.6686151623725891e-01" purity="5.2011084556579590e-01" nType="0">
        <Node pos="l" depth="1" NCoef="0" IVar="6" Cut="8.0235931396484375e+01" cType="1" res="3.5432625561952591e-02" rms="4.6864777803421021e-01" purity="5.9314489364624023e-01" nType="0">
          <Node pos="l" depth="2" NCoef="0" IVar="-1" Cut="0.0000000000000000e+00" cType="1" res="-4.3076707515865564e-04" rms="4.7776153683662415e-01" purity="5.1854133605957031e-01" nType="-99"/>
          <Node pos="r" depth="2" NCoef="0" IVar="-1" Cut="0.0000000000000000e+00" cType="1" res="3.2882031518965960e-03" rms="4.3839585781097412e-01" purity="7.1078485250473022e-01" nType="-99"/>
        </Node>
        <Node pos="r" depth="1" NCoef="0" IVar="2" Cut="9.4202423095703125e-01" cType="1" res="-1.4225214719772339e-01" rms="4.3395611643791199e-01" purity="2.8130269050598145e-01" nType="0">
          <Node pos="l" depth="2" NCoef="0" IVar="-1" Cut="0.0000000000000000e+00" cType="1" res="-2.9870844446122646e-03" rms="3.3749622106552124e-01" purity="1.3469137251377106e-01" nType="-99"/>
          <Node pos="r" depth="2" NCoef="0" IVar="-1" Cut="0.0000000000000000e+00" cType="1" res="-6.9271755637601018e-04" rms="4.9254757165908813e-01" purity="4.2961835861206055e-01" nType="-99"/>
        </Node>
      </Node>
    </BinaryTree>
    <BinaryTree type="DecisionTree" boostWeight="1.0000000000000000e+00" itree="96">
      <Node pos="s" depth="0" NCoef="0" IVar="0" Cut="1.0535640716552734e+00" cType="1" res="-2.2342022508382797e-02" rms="4.6703490614891052e-01" purity="5.0294274091720581e-01" nType="0">
        <Node pos="l" depth="1" NCoef="0" IVar="5" Cut="4.1510864257812500e+02" cType="1" res="5.5064853280782700e-02" rms="4.6240150928497314e-01" purity="6.4732509851455688e-01" nType="0">
          <Node pos="l" depth="2" NCoef="0" IVar="-1" Cut="0.0000000000000000e+00" cType="1" res="-1.9171268213540316e-03" rms="4.7316199541091919e-01" purity="4.5936143398284912e-01" nType="-99"/>
          <Node pos="r" depth="2" NCoef="0" IVar="-1" Cut="0.0000000000000000e+00" cType="1" res="1.9305391469970345e-03" rms="4.5599511265754700e-01" purity="6.7404443025588989e-01" nType="-99"/>
        </Node>
        <Node pos="r" depth="1" NCoef="0" IVar="6" Cut="7.7883262634277344e+01" cType="1" res="-1.1276422441005707e-01" rms="4.5604461431503296e-01" purity="3.3428367972373962e-01" nType="0">
          <Node pos="l" depth="2" NCoef="0" IVar="-1" Cut="0.0000000000000000e+00" cType="1" res="-2.7646571397781372e-03" rms="4.1923952102661133e-01" purity="2.4777470529079437e-01" nType="-99"/>
          <Node pos="r" depth="2" NCoef="0" IVar="-1" Cut="0.0000000000000000e+00" cType="1" res="-5.1256304141134024e-04" rms="4.7438725829124451e-01" purity="4.1738542914390564e-01" nType="-99"/>
        </Node>
      </Node>
    </BinaryTree>
    <BinaryTree type="DecisionTree" boostWeight="1.0000000000000000e+00" itree="97">
      <Node pos="s" depth="0" NCoef="0" IVar="0" Cut="1.3374897241592407e+00" cType="1" res="-1.8330121412873268e-02" rms="4.6461826562881470e-01" purity="5.0480842590332031e-01" nType="0">
        <Node pos="l" depth="1" NCoef="0" IVar="6" Cut="4.6574245452880859e+01" cType="1" res="2.8293203562498093e-02" rms="4.6867436170578003e-01" purity="5.9045481681823730e-01" nType="0">
          <Node pos="l" depth="2" NCoef="0" IVar="-1" Cut="0.0000000000000000e+00" cType="1" res="-1.9190178718417883e-03" rms="4.7573047876358032e-01" purity="4.1799527406692505e-01" nType="-99"/>
          <Node pos="r" depth="2" NCoef="0" IVar="-1" Cut="0.0000000000000000e+00" cType="1" res="1.5570390969514847e-03" rms="4.5875558257102966e-01" purity="6.3645529747009277e-01" nType="-99"/>
        </Node>
        <Node pos="r" depth="1" NCoef="0" IVar="7" Cut="5.5474519729614258e-02" cType="1" res="-1.6040527820587158e-01" rms="4.2133733630180359e-01" purity="2.4381846189498901e-01" nType="0">
          <Node pos="l" depth="2" NCoef="0" IVar="-1" Cut="0.0000000000000000e+00" cType="1" res="-2.7442348655313253e-03" rms="3.8198369741439819e-01" purity="1.8612489104270935e-01" nType="-99"/>
          <Node pos="r" depth="2" NCoef="0" IVar="-1" Cut="0.0000000000000000e+00" cType="1" res="-1.1990508064627647e-03" rms="4.6257534623146057e-01" purity="3.2993996143341064e-01" nType="-99"/>
        </Node>
      </Node>
    </BinaryTree>
    <BinaryTree type="DecisionTree" boostWeight="1.0000000000000000e+00" itree="98">
      <Node pos="s" depth="0" NCoef="0" IVar="0" Cut="1.3720775842666626e+00" cType="1" res="-3.1471963971853256e-02" rms="4.6750512719154358e-01" purity="4.9894884228706360e-01" nType="0">
        <Node pos="l" depth="1" NCoef="0" IVar="6" Cut="9.3770095825195312e+01" cType="1" res="6.9131534546613693e-03" rms="4.7495090961456299e-01" purity="5.7260662317276001e-01" nType="0">
          <Node pos="l" depth="2" NCoef="0" IVar="-1" Cut="0.0000000000000000e+00" cType="1" res="-6.9486262509599328e-04" rms="4.8213464021682739e-01" purity="5.1835370063781738e-01" nType="-99"/>
          <Node pos="r" depth="2" NCoef="0" IVar="-1" Cut="0.0000000000000000e+00" cType="1" res="2.8049307875335217e-03" rms="4.4256335496902466e-01" purity="6.9461739063262939e-01" nType="-99"/>
        </Node>
        <Node pos="r" depth="1" NCoef="0" IVar="2" Cut="9.4433230161666870e-01" cType="1" res="-1.7111724615097046e-01" rms="4.1008633375167847e-01" purity="2.3098149895668030e-01" nType="0">
          <Node pos="l" depth="2" NCoef="0" IVar="-1" Cut="0.0000000000000000e+00" cType="1" res="-2.9572600033134222e-03" rms="3.3130961656570435e-01" purity="1.2863279879093170e-01" nType="-99"/>
          <Node pos="r" depth="2" NCoef="0" IVar="-1" Cut="0.0000000000000000e+00" cType="1" res="-1.6886483645066619e-03" rms="4.6148419380187988e-01" purity="3.2376739382743835e-01" nType="-99"/>
        </Node>
      </Node>
    </BinaryTree>
    <BinaryTree type="DecisionTree" boostWeight="1.0000000000000000e+00" itree="99">
      <Node pos="s" depth="0" NCoef="0" IVar="0" Cut="1.4670923948287964e+00" cType="1" res="-2.3458311334252357e-02" rms="4.6592089533805847e-01" purity="5.0053310394287109e-01" nType="0">
        <Node pos="l" depth="1" NCoef="0" IVar="2" Cut="9.4943219423294067e-01" cType="1" res="1.1393481865525246e-02" rms="4.7216320037841797e-01" purity="5.6201285123825073e-01" nType="0">
          <Node pos="l" depth="2" NCoef="0" IVar="-1" Cut="0.0000000000000000e+00" cType="1" res="-9.8508375231176615e-04" rms="4.8339864611625671e-01" purity="4.2933645844459534e-01" nType="-99"/>
          <Node pos="r" depth="2" NCoef="0" IVar="-1" Cut="0.0000000000000000e+00" cType="1" res="1.9259594846516848e-03" rms="4.5261225104331970e-01" purity="6.8045842647552490e-01" nType="-99"/>
        </Node>
        <Node pos="r" depth="1" NCoef="0" IVar="6" Cut="8.8529800415039062e+01" cType="1" res="-1.9469757378101349e-01" rms="3.9117744565010071e-01" purity="1.9846145808696747e-01" nType="0">
          <Node pos="l" depth="2" NCoef="0" IVar="-1" Cut="0.0000000000000000e+00" cType="1" res="-3.2320399768650532e-03" rms="3.4161055088043213e-01" purity="1.4299604296684265e-01" nType="-99"/>
          <Node pos="r" depth="2" NCoef="0" IVar="-1" Cut="0.0000000000000000e+00" cType="1" res="-1.8571976106613874e-03" rms="4.3313679099082947e-01" purity="2.6365262269973755e-01" nType="-99"/>
        </Node>
      </Node>
    </BinaryTree>
    <BinaryTree type="DecisionTree" boostWeight="1.0000000000000000e+00" itree="100">
      <Node pos="s" depth="0" NCoef="0" IVar="0" Cut="1.4665743112564087e+00" cType="1" res="-3.7724379450082779e-02" rms="4.6498239040374756e-01" purity="4.8799091577529907e-01" nType="0">
        <Node pos="l" depth="1" NCoef="0" IVar="6" Cut="8.2215270996093750e+01" cType="1" res="2.1596411243081093e-03" rms="4.7370079159736633e-01" purity="5.5703651905059814e-01" nType="0">
          <Node pos="l" depth="2" NCoef="0" IVar="-1" Cut="0.0000000000000000e+00" cType="1" res="-8.4085151320323348e-04" rms="4.7827586531639099e-01" purity="4.9465638399124146e-01" nType="-99"/>
          <Node pos="r" depth="2" NCoef="0" IVar="-1" Cut="0.0000000000000000e+00" cType="1" res="1.7797301989048719e-03" rms="4.5712012052536011e-01" purity="6.5165609121322632e-01" nType="-99"/>
        </Node>
        <Node pos="r" depth="1" NCoef="0" IVar="5" Cut="5.2805456542968750e+02" cType="1" res="-2.1723216772079468e-01" rms="3.7415611743927002e-01" purity="1.7723444104194641e-01" nType="0">
          <Node pos="l" depth="2" NCoef="0" IVar="-1" Cut="0.0000000000000000e+00" cType="1" res="-3.3768482971936464e-03" rms="3.0347022414207458e-01" purity="1.0723421722650528e-01" nType="-99"/>
          <Node pos="r" depth="2" NCoef="0" IVar="-1" Cut="0.0000000000000000e+00" cType="1" res="-1.6607011202722788e-03" rms="4.4023820757865906e-01" purity="2.8169655799865723e-01" nType="-99"/>
        </Node>
      </Node>
    </BinaryTree>
    <BinaryTree type="DecisionTree" boostWeight="1.0000000000000000e+00" itree="101">
      <Node pos="s" depth="0" NCoef="0" IVar="0" Cut="1.1453441381454468e+00" cType="1" res="-1.6946781426668167e-02" rms="4.6438854932785034e-01" purity="5.0641745328903198e-01" nType="0">
        <Node pos="l" depth="1" NCoef="0" IVar="6" Cut="4.8318782806396484e+01" cType="1" res="4.3004546314477921e-02" rms="4.6531346440315247e-01" purity="6.2863147258758545e-01" nType="0">
          <Node pos="l" depth="2" NCoef="0" IVar="-1" Cut="0.0000000000000000e+00" cType="1" res="-1.3850224204361439e-03" rms="4.7749561071395874e-01" purity="4.6511703729629517e-01" nType="-99"/>
          <Node pos="r" depth="2" NCoef="0" IVar="-1" Cut="0.0000000000000000e+00" cType="1" res="2.1297761704772711e-03" rms="4.5369476079940796e-01" purity="6.8231153488159180e-01" nType="-99"/>
        </Node>
        <Node pos="r" depth="1" NCoef="0" IVar="2" Cut="9.6885985136032104e-01" cType="1" res="-1.1311275511980057e-01" rms="4.4639018177986145e-01" purity="3.1037792563438416e-01" nType="0">
          <Node pos="l" depth="2" NCoef="0" IVar="-1" Cut="0.0000000000000000e+00" cType="1" res="-2.1582311019301414e-03" rms="4.2870968580245972e-01" purity="2.5664860010147095e-01" nType="-99"/>
          <Node pos="r" depth="2" NCoef="0" IVar="-1" Cut="0.0000000000000000e+00" cType="1" res="1.3621071120724082e-03" rms="4.7608137130737305e-01" purity="5.4102981090545654e-01" nType="-99"/>
        </Node>
      </Node>
    </BinaryTree>
    <BinaryTree type="DecisionTree" boostWeight="1.0000000000000000e+00" itree="102">
      <Node pos="s" depth="0" NCoef="0" IVar="2" Cut="9.4396460056304932e-01" cType="1" res="-3.4848235547542572e-02" rms="4.6460270881652832e-01" purity="4.8781013488769531e-01" nType="0">
        <Node pos="l" depth="1" NCoef="0" IVar="0" Cut="1.0799283981323242e+00" cType="1" res="-1.2327905744314194e-01" rms="4.4932633638381958e-01" purity="3.2486030459403992e-01" nType="0">
          <Node pos="l" depth="2" NCoef="0" IVar="-1" Cut="0.0000000000000000e+00" cType="1" res="-8.0618087667971849e-04" rms="4.9486771225929260e-01" purity="4.6675595641136169e-01" nType="-99"/>
          <Node pos="r" depth="2" NCoef="0" IVar="-1" Cut="0.0000000000000000e+00" cType="1" res="-2.5322732981294394e-03" rms="3.8922277092933655e-01" purity="1.9283038377761841e-01" nType="-99"/>
        </Node>
        <Node pos="r" depth="1" NCoef="0" IVar="0" Cut="1.0133068561553955e+00" cType="1" res="2.6704329997301102e-02" rms="4.6512556076049805e-01" purity="6.0123187303543091e-01" nType="0">
          <Node pos="l" depth="2" NCoef="0" IVar="-1" Cut="0.0000000000000000e+00" cType="1" res="2.5215437635779381e-03" rms="4.3831533193588257e-01" purity="7.2855222225189209e-01" nType="-99"/>
          <Node pos="r" depth="2" NCoef="0" IVar="-1" Cut="0.0000000000000000e+00" cType="1" res="-7.3383928975090384e-04" rms="4.8465922474861145e-01" purity="4.5755755901336670e-01" nType="-99"/>
        </Node>
      </Node>
    </BinaryTree>
    <BinaryTree type="DecisionTree" boostWeight="1.0000000000000000e+00" itree="103">
      <Node pos="s" depth="0" NCoef="0" IVar="8" Cut="2.4890952110290527e+00" cType="1" res="-2.6143616065382957e-02" rms="4.6517881751060486e-01" purity="4.9994128942489624e-01" nType="0">
        <Node pos="l" depth="1" NCoef="0" IVar="6" Cut="8.6249908447265625e+01" cType="1" res="1.4417278580367565e-02" rms="4.7157993912696838e-01" purity="5.6920158863067627e-01" nType="0">
          <Node pos="l" depth="2" NCoef="0" IVar="-1" Cut="0.0000000000000000e+00" cType="1" res="-7.4412568937987089e-04" rms="4.7910395264625549e-01" purity="4.9857938289642334e-01" nType="-99"/>
          <Node pos="r" depth="2" NCoef="0" IVar="-1" Cut="0.0000000000000000e+00" cType="1" res="3.2672444358468056e-03" rms="4.3551883101463318e-01" purity="7.1079665422439575e-01" nType="-99"/>
        </Node>
        <Node pos="r" depth="1" NCoef="0" IVar="5" Cut="5.2237988281250000e+02" cType="1" res="-2.0075668394565582e-01" rms="3.9115878939628601e-01" purity="2.0177792012691498e-01" nType="0">
          <Node pos="l" depth="2" NCoef="0" IVar="-1" Cut="0.0000000000000000e+00" cType="1" res="-3.4271087497472763e-03" rms="3.2455173134803772e-01" purity="1.2808455526828766e-01" nType="-99"/>
          <Node pos="r" depth="2" NCoef="0" IVar="-1" Cut="0.0000000000000000e+00" cType="1" res="-1.6477848403155804e-03" rms="4.5023015141487122e-01" purity="3.0269527435302734e-01" nType="-99"/>
        </Node>
      </Node>
    </BinaryTree>
    <BinaryTree type="DecisionTree" boostWeight="1.0000000000000000e+00" itree="104">
      <Node pos="s" depth="0" NCoef="0" IVar="0" Cut="1.4420455694198608e+00" cType="1" res="-1.8514426425099373e-02" rms="4.6575772762298584e-01" purity="5.0835800170898438e-01" nType="0">
        <Node pos="l" depth="1" NCoef="0" IVar="6" Cut="7.6444236755371094e+01" cType="1" res="1.6304783523082733e-02" rms="4.7125917673110962e-01" purity="5.7081741094589233e-01" nType="0">
          <Node pos="l" depth="2" NCoef="0" IVar="-1" Cut="0.0000000000000000e+00" cType="1" res="-8.3784718299284577e-04" rms="4.8149183392524719e-01" purity="4.9446550011634827e-01" nType="-99"/>
          <Node pos="r" depth="2" NCoef="0" IVar="-1" Cut="0.0000000000000000e+00" cType="1" res="2.2711262572556734e-03" rms="4.4558474421501160e-01" purity="6.6697508096694946e-01" nType="-99"/>
        </Node>
        <Node pos="r" depth="1" NCoef="0" IVar="1" Cut="3.9871997070312500e+02" cType="1" res="-1.8843045830726624e-01" rms="3.9621520042419434e-01" purity="2.0355941355228424e-01" nType="0">
          <Node pos="l" depth="2" NCoef="0" IVar="-1" Cut="0.0000000000000000e+00" cType="1" res="-3.0486285686492920e-03" rms="3.6369580030441284e-01" purity="1.6072438657283783e-01" nType="-99"/>
          <Node pos="r" depth="2" NCoef="0" IVar="-1" Cut="0.0000000000000000e+00" cType="1" res="-1.9477145979180932e-03" rms="4.3047690391540527e-01" purity="2.6306304335594177e-01" nType="-99"/>
        </Node>
      </Node>
    </BinaryTree>
    <BinaryTree type="DecisionTree" boostWeight="1.0000000000000000e+00" itree="105">
      <Node pos="s" depth="0" NCoef="0" IVar="2" Cut="9.5382696390151978e-01" cType="1" res="-2.9121693223714828e-02" rms="4.6347680687904358e-01" purity="4.9573880434036255e-01" nType="0">
        <Node pos="l" depth="1" NCoef="0" IVar="8" Cut="2.1533422470092773e+00" cType="1" res="-9.6056364476680756e-02" rms="4.5991900563240051e-01" purity="3.7032747268676758e-01" nType="0">
          <Node pos="l" depth="2" NCoef="0" IVar="-1" Cut="0.0000000000000000e+00" cType="1" res="-2.7930526994168758e-04" rms="4.8965993523597717e-01" purity="4.9828517436981201e-01" nType="-99"/>
          <Node pos="r" depth="2" NCoef="0" IVar="-1" Cut="0.0000000000000000e+00" cType="1" res="-2.2785777691751719e-03" rms="4.2374387383460999e-01" purity="2.6786205172538757e-01" nType="-99"/>
        </Node>
        <Node pos="r" depth="1" NCoef="0" IVar="8" Cut="2.4147408008575439e+00" cType="1" res="5.4596208035945892e-02" rms="4.5421078801155090e-01" purity="6.5259581804275513e-01" nType="0">
          <Node pos="l" depth="2" NCoef="0" IVar="-1" Cut="0.0000000000000000e+00" cType="1" res="2.3138173855841160e-03" rms="4.4481503963470459e-01" purity="7.1014446020126343e-01" nType="-99"/>
          <Node pos="r" depth="2" NCoef="0" IVar="-1" Cut="0.0000000000000000e+00" cType="1" res="-1.4112145872786641e-03" rms="4.7227177023887634e-01" purity="3.8218054175376892e-01" nType="-99"/>
        </Node>
      </Node>
    </BinaryTree>
    <BinaryTree type="DecisionTree" boostWeight="1.0000000000000000e+00" itree="106">
      <Node pos="s" depth="0" NCoef="0" IVar="0" Cut="1.0535640716552734e+00" cType="1" res="-2.2319037467241287e-02" rms="4.6733710169792175e-01" purity="5.0286012887954712e-01" nType="0">
        <Node pos="l" depth="1" NCoef="0" IVar="2" Cut="9.6036738157272339e-01" cType="1" res="4.1956089437007904e-02" rms="4.6617543697357178e-01" purity="6.3749843835830688e-01" nType="0">
          <Node pos="l" depth="2" NCoef="0" IVar="-1" Cut="0.0000000000000000e+00" cType="1" res="-5.1392937166383490e-05" rms="4.9233460426330566e-01" purity="5.5112266540527344e-01" nType="-99"/>
          <Node pos="r" depth="2" NCoef="0" IVar="-1" Cut="0.0000000000000000e+00" cType="1" res="4.1978359222412109e-03" rms="4.0251311659812927e-01" purity="7.9335778951644897e-01" nType="-99"/>
        </Node>
        <Node pos="r" depth="1" NCoef="0" IVar="2" Cut="9.3359810113906860e-01" cType="1" res="-1.0138826072216034e-01" rms="4.5651271939277649e-01" purity="3.3723226189613342e-01" nType="0">
          <Node pos="l" depth="2" NCoef="0" IVar="-1" Cut="0.0000000000000000e+00" cType="1" res="-2.4469203781336546e-03" rms="3.9416047930717468e-01" purity="1.9787156581878662e-01" nType="-99"/>
          <Node pos="r" depth="2" NCoef="0" IVar="-1" Cut="0.0000000000000000e+00" cType="1" res="-1.0927051771432161e-03" rms="4.7596073150634766e-01" purity="3.9630815386772156e-01" nType="-99"/>
        </Node>
      </Node>
    </BinaryTree>
    <BinaryTree type="DecisionTree" boostWeight="1.0000000000000000e+00" itree="107">
      <Node pos="s" depth="0" NCoef="0" IVar="2" Cut="9.3849700689315796e-01" cType="1" res="-3.1930070370435715e-02" rms="4.6193456649780273e-01" purity="4.8939451575279236e-01" nType="0">
        <Node pos="l" depth="1" NCoef="0" IVar="8" Cut="2.3650484085083008e+00" cType="1" res="-1.3888975977897644e-01" rms="4.4011732935905457e-01" purity="2.9988804459571838e-01" nType="0">
          <Node pos="l" depth="2" NCoef="0" IVar="-1" Cut="0.0000000000000000e+00" cType="1" res="-1.3346180785447359e-03" rms="4.7654783725738525e-01" purity="3.8371956348419189e-01" nType="-99"/>
          <Node pos="r" depth="2" NCoef="0" IVar="-1" Cut="0.0000000000000000e+00" cType="1" res="-2.9903429094702005e-03" rms="3.3684459328651428e-01" purity="1.3497118651866913e-01" nType="-99"/>
        </Node>
        <Node pos="r" depth="1" NCoef="0" IVar="0" Cut="1.2370985746383667e+00" cType="1" res="2.9265401884913445e-02" rms="4.6298271417617798e-01" purity="5.9781795740127563e-01" nType="0">
          <Node pos="l" depth="2" NCoef="0" IVar="-1" Cut="0.0000000000000000e+00" cType="1" res="1.7509451135993004e-03" rms="4.5327219367027283e-01" purity="6.8527269363403320e-01" nType="-99"/>
          <Node pos="r" depth="2" NCoef="0" IVar="-1" Cut="0.0000000000000000e+00" cType="1" res="-1.2387022143229842e-03" rms="4.7233015298843384e-01" purity="3.5776475071907043e-01" nType="-99"/>
        </Node>
      </Node>
    </BinaryTree>
    <BinaryTree type="DecisionTree" boostWeight="1.0000000000000000e+00" itree="108">
      <Node pos="s" depth="0" NCoef="0" IVar="8" Cut="2.3439304828643799e+00" cType="1" res="-3.0179901048541069e-02" rms="4.6595555543899536e-01" purity="4.9905022978782654e-01" nType="0">
        <Node pos="l" depth="1" NCoef="0" IVar="6" Cut="1.0105806732177734e+02" cType="1" res="1.3996663503348827e-02" rms="4.7103232145309448e-01" purity="5.7877999544143677e-01" nType="0">
          <Node pos="l" depth="2" NCoef="0" IVar="-1" Cut="0.0000000000000000e+00" cType="1" res="-6.6096574300900102e-04" rms="4.8106697201728821e-01" purity="5.1788181066513062e-01" nType="-99"/>
          <Node pos="r" depth="2" NCoef="0" IVar="-1" Cut="0.0000000000000000e+00" cType="1" res="6.3289678655564785e-03" rms="3.8110321760177612e-01" purity="8.0247706174850464e-01" nType="-99"/>
        </Node>
        <Node pos="r" depth="1" NCoef="0" IVar="2" Cut="9.5937991142272949e-01" cType="1" res="-1.4914630353450775e-01" rms="4.2999526858329773e-01" purity="2.8434002399444580e-01" nType="0">
          <Node pos="l" depth="2" NCoef="0" IVar="-1" Cut="0.0000000000000000e+00" cType="1" res="-2.5505751837044954e-03" rms="4.0765875577926636e-01" purity="2.2290037572383881e-01" nType="-99"/>
          <Node pos="r" depth="2" NCoef="0" IVar="-1" Cut="0.0000000000000000e+00" cType="1" res="-1.0506816906854510e-03" rms="4.6590694785118103e-01" purity="4.2573076486587524e-01" nType="-99"/>
        </Node>
      </Node>
    </BinaryTree>
    <BinaryTree type="DecisionTree" boostWeight="1.0000000000000000e+00" itree="109">
      <Node pos="s" depth="0" NCoef="0" IVar="0" Cut="1.1919002532958984e+00" cType="1" res="-1.9718065857887268e-02" rms="4.5815232396125793e-01" purity="5.0192600488662720e-01" nType="0">
        <Node pos="l" depth="1" NCoef="0" IVar="6" Cut="7.6459503173828125e+01" cType="1" res="4.3388903141021729e-02" rms="4.5941066741943359e-01" purity="6.2338852882385254e-01" nType="0">
          <Node pos="l" depth="2" NCoef="0" IVar="-1" Cut="0.0000000000000000e+00" cType="1" res="-8.5051130736246705e-04" rms="4.7997996211051941e-01" purity="5.0906151533126831e-01" nType="-99"/>
          <Node pos="r" depth="2" NCoef="0" IVar="-1" Cut="0.0000000000000000e+00" cType="1" res="5.4646572098135948e-03" rms="3.9315026998519897e-01" purity="7.8930550813674927e-01" nType="-99"/>
        </Node>
        <Node pos="r" depth="1" NCoef="0" IVar="6" Cut="5.9046848297119141e+01" cType="1" res="-1.3893643021583557e-01" rms="4.3126070499420166e-01" purity="2.7246531844139099e-01" nType="0">
          <Node pos="l" depth="2" NCoef="0" IVar="-1" Cut="0.0000000000000000e+00" cType="1" res="-3.1290350016206503e-03" rms="3.6438652873039246e-01" purity="1.6721086204051971e-01" nType="-99"/>
          <Node pos="r" depth="2" NCoef="0" IVar="-1" Cut="0.0000000000000000e+00" cType="1" res="-1.3553459430113435e-03" rms="4.5107144117355347e-01" purity="3.2151380181312561e-01" nType="-99"/>
        </Node>
      </Node>
    </BinaryTree>
    <BinaryTree type="DecisionTree" boostWeight="1.0000000000000000e+00" itree="110">
      <Node pos="s" depth="0" NCoef="0" IVar="8" Cut="2.5167510509490967e+00" cType="1" res="-2.5052163749933243e-02" rms="4.6009165048599243e-01" purity="4.9680975079536438e-01" nType="0">
        <Node pos="l" depth="1" NCoef="0" IVar="2" Cut="9.3130135536193848e-01" cType="1" res="9.0124411508440971e-03" rms="4.6697497367858887e-01" purity="5.5816376209259033e-01" nType="0">
          <Node pos="l" depth="2" NCoef="0" IVar="-1" Cut="0.0000000000000000e+00" cType="1" res="-1.7445363337174058e-03" rms="4.5919972658157349e-01" purity="3.3599278330802917e-01" nType="-99"/>
          <Node pos="r" depth="2" NCoef="0" IVar="-1" Cut="0.0000000000000000e+00" cType="1" res="1.0627696756273508e-03" rms="4.6226701140403748e-01" purity="6.2488389015197754e-01" nType="-99"/>
        </Node>
        <Node pos="r" depth="1" NCoef="0" IVar="-1" Cut="0.0000000000000000e+00" cType="1" res="-2.6523906271904707e-03" rms="3.8026079535484314e-01" purity="1.8886305391788483e-01" nType="-99"/>
      </Node>
    </BinaryTree>
    <BinaryTree type="DecisionTree" boostWeight="1.0000000000000000e+00" itree="111">
      <Node pos="s" depth="0" NCoef="0" IVar="0" Cut="8.9659273624420166e-01" cType="1" res="-3.2763347029685974e-02" rms="4.6471580862998962e-01" purity="4.9691596627235413e-01" nType="0">
        <Node pos="l" depth="1" NCoef="0" IVar="6" Cut="4.1848106384277344e+01" cType="1" res="5.3852956742048264e-02" rms="4.5871505141258240e-01" purity="6.5814810991287231e-01" nType="0">
          <Node pos="l" depth="2" NCoef="0" IVar="-1" Cut="0.0000000000000000e+00" cType="1" res="-2.3323667701333761e-03" rms="4.8503494262695312e-01" purity="4.2412194609642029e-01" nType="-99"/>
          <Node pos="r" depth="2" NCoef="0" IVar="-1" Cut="0.0000000000000000e+00" cType="1" res="2.4592049885541201e-03" rms="4.4257012009620667e-01" purity="7.0515263080596924e-01" nType="-99"/>
        </Node>
        <Node pos="r" depth="1" NCoef="0" IVar="2" Cut="9.5066118240356445e-01" cType="1" res="-8.9549005031585693e-02" rms="4.5983743667602539e-01" purity="3.9121219515800476e-01" nType="0">
          <Node pos="l" depth="2" NCoef="0" IVar="-1" Cut="0.0000000000000000e+00" cType="1" res="-2.2547857370227575e-03" rms="4.3218484520912170e-01" purity="2.6807585358619690e-01" nType="-99"/>
          <Node pos="r" depth="2" NCoef="0" IVar="-1" Cut="0.0000000000000000e+00" cType="1" res="-1.9648220040835440e-04" rms="4.7866818308830261e-01" purity="5.3806513547897339e-01" nType="-99"/>
        </Node>
      </Node>
    </BinaryTree>
    <BinaryTree type="DecisionTree" boostWeight="1.0000000000000000e+00" itree="112">
      <Node pos="s" depth="0" NCoef="0" IVar="8" Cut="2.3849716186523438e+00" cType="1" res="-4.6437419950962067e-02" rms="4.6673622727394104e-01" purity="4.8327460885047913e-01" nType="0">
        <Node pos="l" depth="1" NCoef="0" IVar="6" Cut="7.2303619384765625e+01" cType="1" res="-1.2095749378204346e-02" rms="4.7423613071441650e-01" purity="5.5104357004165649e-01" nType="0">
          <Node pos="l" depth="2" NCoef="0" IVar="-1" Cut="0.0000000000000000e+00" cType="1" res="-1.2693695025518537e-03" rms="4.7765192389488220e-01" purity="4.6723684668540955e-01" nType="-99"/>
          <Node pos="r" depth="2" NCoef="0" IVar="-1" Cut="0.0000000000000000e+00" cType="1" res="1.4288694364950061e-03" rms="4.5949038863182068e-01" purity="6.5290904045104980e-01" nType="-99"/>
        </Node>
        <Node pos="r" depth="1" NCoef="0" IVar="2" Cut="9.6346539258956909e-01" cType="1" res="-1.5628363192081451e-01" rms="4.2359280586242676e-01" purity="2.6650711894035339e-01" nType="0">
          <Node pos="l" depth="2" NCoef="0" IVar="-1" Cut="0.0000000000000000e+00" cType="1" res="-2.6891066227108240e-03" rms="4.0398716926574707e-01" purity="2.1338744461536407e-01" nType="-99"/>
          <Node pos="r" depth="2" NCoef="0" IVar="-1" Cut="0.0000000000000000e+00" cType="1" res="-7.4662599945440888e-04" rms="4.6217465400695801e-01" purity="4.3510609865188599e-01" nType="-99"/>
        </Node>
      </Node>
    </BinaryTree>
    <BinaryTree type="DecisionTree" boostWeight="1.0000000000000000e+00" itree="113">
      <Node pos="s" depth="0" NCoef="0" IVar="0" Cut="1.0672595500946045e+00" cType="1" res="-2.8871618211269379e-02" rms="4.5989796519279480e-01" purity="4.9159201979637146e-01" nType="0">
        <Node pos="l" depth="1" NCoef="0" IVar="6" Cut="3.8917613983154297e+01" cType="1" res="3.9958260953426361e-02" rms="4.5997700095176697e-01" purity="6.3633489608764648e-01" nType="0">
          <Node pos="l" depth="2" NCoef="0" IVar="-1" Cut="0.0000000000000000e+00" cType="1" res="-2.9009908903390169e-03" rms="4.6299451589584351e-01" purity="3.4252956509590149e-01" nType="-99"/>
          <Node pos="r" depth="2" NCoef="0" IVar="-1" Cut="0.0000000000000000e+00" cType="1" res="1.9293659133836627e-03" rms="4.4728595018386841e-01" purity="6.8224722146987915e-01" nType="-99"/>
        </Node>
        <Node pos="r" depth="1" NCoef="0" IVar="2" Cut="9.6599847078323364e-01" cType="1" res="-1.1224590241909027e-01" rms="4.4578936696052551e-01" purity="3.1626355648040771e-01" nType="0">
          <Node pos="l" depth="2" NCoef="0" IVar="-1" Cut="0.0000000000000000e+00" cType="1" res="-2.1242699585855007e-03" rms="4.2921486496925354e-01" purity="2.6277956366539001e-01" nType="-99"/>
          <Node pos="r" depth="2" NCoef="0" IVar="-1" Cut="0.0000000000000000e+00" cType="1" res="6.4817402744665742e-04" rms="4.7933286428451538e-01" purity="5.2740079164505005e-01" nType="-99"/>
        </Node>
      </Node>
    </BinaryTree>
    <BinaryTree type="DecisionTree" boostWeight="1.0000000000000000e+00" itree="114">
      <Node pos="s" depth="0" NCoef="0" IVar="6" Cut="4.5288505554199219e+01" cType="1" res="-3.9916299283504486e-03" rms="4.6273070573806763e-01" purity="5.2300012111663818e-01" nType="0">
        <Node pos="l" depth="1" NCoef="0" IVar="6" Cut="3.4886932373046875e+01" cType="1" res="-1.6770634055137634e-01" rms="4.4265982508659363e-01" purity="3.3430379629135132e-01" nType="0">
          <Node pos="l" depth="2" NCoef="0" IVar="-1" Cut="0.0000000000000000e+00" cType="1" res="-3.5649354103952646e-03" rms="4.0359130501747131e-01" purity="2.3580119013786316e-01" nType="-99"/>
          <Node pos="r" depth="2" NCoef="0" IVar="-1" Cut="0.0000000000000000e+00" cType="1" res="-1.6450043767690659e-03" rms="4.5989173650741577e-01" purity="4.1201192140579224e-01" nType="-99"/>
        </Node>
        <Node pos="r" depth="1" NCoef="0" IVar="3" Cut="1.0555178833007812e+02" cType="1" res="3.2522454857826233e-02" rms="4.5919659733772278e-01" purity="5.6508606672286987e-01" nType="0">
          <Node pos="l" depth="2" NCoef="0" IVar="-1" Cut="0.0000000000000000e+00" cType="1" res="-2.7123962063342333e-03" rms="4.2843717336654663e-01" purity="3.0185997486114502e-01" nType="-99"/>
          <Node pos="r" depth="2" NCoef="0" IVar="-1" Cut="0.0000000000000000e+00" cType="1" res="1.3435686705633998e-03" rms="4.5555502176284790e-01" purity="6.0083752870559692e-01" nType="-99"/>
        </Node>
      </Node>
    </BinaryTree>
    <BinaryTree type="DecisionTree" boostWeight="1.0000000000000000e+00" itree="115">
      <Node pos="s" depth="0" NCoef="0" IVar="0" Cut="1.4432610273361206e+00" cType="1" res="-2.2364282980561256e-02" rms="4.5822155475616455e-01" purity="5.0226503610610962e-01" nType="0">
        <Node pos="l" depth="1" NCoef="0" IVar="2" Cut="9.4396460056304932e-01" cType="1" res="1.7639404162764549e-02" rms="4.6541818976402283e-01" purity="5.7273787260055542e-01" nType="0">
          <Node pos="l" depth="2" NCoef="0" IVar="-1" Cut="0.0000000000000000e+00" cType="1" res="-1.3340308796614408e-03" rms="4.7118580341339111e-01" purity="3.8577318191528320e-01" nType="-99"/>
          <Node pos="r" depth="2" NCoef="0" IVar="-1" Cut="0.0000000000000000e+00" cType="1" res="2.1862061694264412e-03" rms="4.4923424720764160e-01" purity="6.9151717424392700e-01" nType="-99"/>
        </Node>
        <Node pos="r" depth="1" NCoef="0" IVar="1" Cut="3.7770886230468750e+02" cType="1" res="-2.0828334987163544e-01" rms="3.7023094296455383e-01" purity="1.7473922669887543e-01" nType="0">
          <Node pos="l" depth="2" NCoef="0" IVar="-1" Cut="0.0000000000000000e+00" cType="1" res="-3.1410527881234884e-03" rms="3.4172081947326660e-01" purity="1.4515276253223419e-01" nType="-99"/>
          <Node pos="r" depth="2" NCoef="0" IVar="-1" Cut="0.0000000000000000e+00" cType="1" res="-2.3787671234458685e-03" rms="3.9770892262458801e-01" purity="2.0883750915527344e-01" nType="-99"/>
        </Node>
      </Node>
    </BinaryTree>
    <BinaryTree type="DecisionTree" boostWeight="1.0000000000000000e+00" itree="116">
      <Node pos="s" depth="0" NCoef="0" IVar="0" Cut="7.9946070909500122e-01" cType="1" res="-7.4929706752300262e-03" rms="4.6351879835128784e-01" purity="5.1972758769989014e-01" nType="0">
        <Node pos="l" depth="1" NCoef="0" IVar="5" Cut="4.8481405639648438e+02" cType="1" res="1.1402955651283264e-01" rms="4.3403580784797668e-01" purity="7.1507722139358521e-01" nType="0">
          <Node pos="l" depth="2" NCoef="0" IVar="-1" Cut="0.0000000000000000e+00" cType="1" res="3.3352221362292767e-04" rms="4.6968224644660950e-01" purity="5.9222948551177979e-01" nType="-99"/>
          <Node pos="r" depth="2" NCoef="0" IVar="-1" Cut="0.0000000000000000e+00" cType="1" res="4.9507347866892815e-03" rms="4.0734833478927612e-01" purity="7.7478700876235962e-01" nType="-99"/>
        </Node>
        <Node pos="r" depth="1" NCoef="0" IVar="2" Cut="9.5417195558547974e-01" cType="1" res="-5.7670213282108307e-02" rms="4.6600511670112610e-01" purity="4.3906682729721069e-01" nType="0">
          <Node pos="l" depth="2" NCoef="0" IVar="-1" Cut="0.0000000000000000e+00" cType="1" res="-1.7052935436367989e-03" rms="4.5555865764617920e-01" purity="3.3551204204559326e-01" nType="-99"/>
          <Node pos="r" depth="2" NCoef="0" IVar="-1" Cut="0.0000000000000000e+00" cType="1" res="5.0101469969376922e-04" rms="4.6937415003776550e-01" purity="5.8974760770797729e-01" nType="-99"/>
        </Node>
      </Node>
    </BinaryTree>
    <BinaryTree type="DecisionTree" boostWeight="1.0000000000000000e+00" itree="117">
      <Node pos="s" depth="0" NCoef="0" IVar="0" Cut="1.2120879888534546e+00" cType="1" res="-9.3227196484804153e-03" rms="4.5749452710151672e-01" purity="5.1529276371002197e-01" nType="0">
        <Node pos="l" depth="1" NCoef="0" IVar="6" Cut="4.3188102722167969e+01" cType="1" res="6.3541844487190247e-02" rms="4.5868289470672607e-01" purity="6.5327590703964233e-01" nType="0">
          <Node pos="l" depth="2" NCoef="0" IVar="-1" Cut="0.0000000000000000e+00" cType="1" res="-9.3901529908180237e-04" rms="4.8702853918075562e-01" purity="4.9939596652984619e-01" nType="-99"/>
          <Node pos="r" depth="2" NCoef="0" IVar="-1" Cut="0.0000000000000000e+00" cType="1" res="2.0804340019822121e-03" rms="4.5057031512260437e-01" purity="6.7990732192993164e-01" nType="-99"/>
        </Node>
        <Node pos="r" depth="1" NCoef="0" IVar="2" Cut="9.4391262531280518e-01" cType="1" res="-1.4530026912689209e-01" rms="4.2293214797973633e-01" purity="2.5779277086257935e-01" nType="0">
          <Node pos="l" depth="2" NCoef="0" IVar="-1" Cut="0.0000000000000000e+00" cType="1" res="-2.6996438391506672e-03" rms="3.5325434803962708e-01" purity="1.4847935736179352e-01" nType="-99"/>
          <Node pos="r" depth="2" NCoef="0" IVar="-1" Cut="0.0000000000000000e+00" cType="1" res="-1.2904909672215581e-03" rms="4.7307130694389343e-01" purity="3.6615556478500366e-01" nType="-99"/>
        </Node>
      </Node>
    </BinaryTree>
    <BinaryTree type="DecisionTree" boostWeight="1.0000000000000000e+00" itree="118">
      <Node pos="s" depth="0" NCoef="0" IVar="0" Cut="1.0952585935592651e+00" cType="1" res="-2.6705097407102585e-02" rms="4.5786482095718384e-01" purity="4.9866434931755066e-01" nType="0">
        <Node pos="l" depth="1" NCoef="0" IVar="4" Cut="1.2745163726806641e+02" cType="1" res="3.8513883948326111e-02" rms="4.5827385783195496e-01" purity="6.3807451725006104e-01" nType="0">
          <Node pos="l" depth="2" NCoef="0" IVar="-1" Cut="0.0000000000000000e+00" cType="1" res="-2.5646069552749395e-03" rms="4.6858534216880798e-01" purity="4.1244173049926758e-01" nType="-99"/>
          <Node pos="r" depth="2" NCoef="0" IVar="-1" Cut="0.0000000000000000e+00" cType="1" res="1.7343658255413175e-03" rms="4.4844681024551392e-01" purity="6.7589640617370605e-01" nType="-99"/>
        </Node>
        <Node pos="r" depth="1" NCoef="0" IVar="2" Cut="9.7335994243621826e-01" cType="1" res="-1.1405473202466965e-01" rms="4.4250595569610596e-01" purity="3.1194835901260376e-01" nType="0">
          <Node pos="l" depth="2" NCoef="0" IVar="-1" Cut="0.0000000000000000e+00" cType="1" res="-2.1519435103982687e-03" rms="4.2714986205101013e-01" purity="2.6474884152412415e-01" nType="-99"/>
          <Node pos="r" depth="2" NCoef="0" IVar="-1" Cut="0.0000000000000000e+00" cType="1" res="2.4146146606653929e-03" rms="4.7193574905395508e-01" purity="6.0194939374923706e-01" nType="-99"/>
        </Node>
      </Node>
    </BinaryTree>
    <BinaryTree type="DecisionTree" boostWeight="1.0000000000000000e+00" itree="119">
      <Node pos="s" depth="0" NCoef="0" IVar="0" Cut="1.1997398138046265e+00" cType="1" res="-2.4661080911755562e-02" rms="4.5778876543045044e-01" purity="4.9797442555427551e-01" nType="0">
        <Node pos="l" depth="1" NCoef="0" IVar="2" Cut="9.6101379394531250e-01" cType="1" res="3.6265958100557327e-02" rms="4.6224799752235413e-01" purity="6.2170302867889404e-01" nType="0">
          <Node pos="l" depth="2" NCoef="0" IVar="-1" Cut="0.0000000000000000e+00" cType="1" res="-2.6771891862154007e-04" rms="4.8587688803672791e-01" purity="5.3194743394851685e-01" nType="-99"/>
          <Node pos="r" depth="2" NCoef="0" IVar="-1" Cut="0.0000000000000000e+00" cType="1" res="4.6797157265245914e-03" rms="3.9127874374389648e-01" purity="8.0242305994033813e-01" nType="-99"/>
        </Node>
        <Node pos="r" depth="1" NCoef="0" IVar="2" Cut="9.3016076087951660e-01" cType="1" res="-1.4221286773681641e-01" rms="4.2505815625190735e-01" purity="2.5925415754318237e-01" nType="0">
          <Node pos="l" depth="2" NCoef="0" IVar="-1" Cut="0.0000000000000000e+00" cType="1" res="-2.8915705624967813e-03" rms="3.2187756896018982e-01" purity="1.2106662988662720e-01" nType="-99"/>
          <Node pos="r" depth="2" NCoef="0" IVar="-1" Cut="0.0000000000000000e+00" cType="1" res="-1.5661714132875204e-03" rms="4.5871108770370483e-01" purity="3.2157969474792480e-01" nType="-99"/>
        </Node>
      </Node>
    </BinaryTree>
    <BinaryTree type="DecisionTree" boostWeight="1.0000000000000000e+00" itree="120">
      <Node pos="s" depth="0" NCoef="0" IVar="0" Cut="1.0076739788055420e+00" cType="1" res="-1.8813459202647209e-02" rms="4.6323904395103455e-01" purity="5.1152396202087402e-01" nType="0">
        <Node pos="l" depth="1" NCoef="0" IVar="6" Cut="6.1085639953613281e+01" cType="1" res="4.1227784007787704e-02" rms="4.5967772603034973e-01" purity="6.4883029460906982e-01" nType="0">
          <Node pos="l" depth="2" NCoef="0" IVar="-1" Cut="0.0000000000000000e+00" cType="1" res="-7.4158835923299193e-04" rms="4.8165524005889893e-01" purity="5.3789073228836060e-01" nType="-99"/>
          <Node pos="r" depth="2" NCoef="0" IVar="-1" Cut="0.0000000000000000e+00" cType="1" res="2.6870693545788527e-03" rms="4.3525052070617676e-01" purity="7.2630161046981812e-01" nType="-99"/>
        </Node>
        <Node pos="r" depth="1" NCoef="0" IVar="2" Cut="9.3110573291778564e-01" cType="1" res="-8.1151247024536133e-02" rms="4.5866557955741882e-01" purity="3.6896571516990662e-01" nType="0">
          <Node pos="l" depth="2" NCoef="0" IVar="-1" Cut="0.0000000000000000e+00" cType="1" res="-2.5238590314984322e-03" rms="3.8848987221717834e-01" purity="1.9396956264972687e-01" nType="-99"/>
          <Node pos="r" depth="2" NCoef="0" IVar="-1" Cut="0.0000000000000000e+00" cType="1" res="-7.5284269405528903e-04" rms="4.7597566246986389e-01" purity="4.3277534842491150e-01" nType="-99"/>
        </Node>
      </Node>
    </BinaryTree>
    <BinaryTree type="DecisionTree" boostWeight="1.0000000000000000e+00" itree="121">
      <Node pos="s" depth="0" NCoef="0" IVar="2" Cut="9.4333225488662720e-01" cType="1" res="-2.0019913092255592e-02" rms="4.6079462766647339e-01" purity="5.0503724813461304e-01" nType="0">
        <Node pos="l" depth="1" NCoef="0" IVar="0" Cut="8.4363400936126709e-01" cType="1" res="-1.1015361547470093e-01" rms="4.4906219840049744e-01" purity="3.3454790711402893e-01" nType="0">
          <Node pos="l" depth="2" NCoef="0" IVar="-1" Cut="0.0000000000000000e+00" cType="1" res="9.8368516773916781e-05" rms="4.8847913742065430e-01" purity="5.2749043703079224e-01" nType="-99"/>
          <Node pos="r" depth="2" NCoef="0" IVar="-1" Cut="0.0000000000000000e+00" cType="1" res="-2.1883642766624689e-03" rms="4.2157560586929321e-01" purity="2.5220760703086853e-01" nType="-99"/>
        </Node>
        <Node pos="r" depth="1" NCoef="0" IVar="0" Cut="1.4581229686737061e+00" cType="1" res="4.3914224952459335e-02" rms="4.5831587910652161e-01" purity="6.2596958875656128e-01" nType="0">
          <Node pos="l" depth="2" NCoef="0" IVar="-1" Cut="0.0000000000000000e+00" cType="1" res="1.8735135672613978e-03" rms="4.5364680886268616e-01" purity="6.8259322643280029e-01" nType="-99"/>
          <Node pos="r" depth="2" NCoef="0" IVar="-1" Cut="0.0000000000000000e+00" cType="1" res="-1.9625397399067879e-03" rms="4.4669586420059204e-01" purity="2.7709975838661194e-01" nType="-99"/>
        </Node>
      </Node>
    </BinaryTree>
    <BinaryTree type="DecisionTree" boostWeight="1.0000000000000000e+00" itree="122">
      <Node pos="s" depth="0" NCoef="0" IVar="2" Cut="9.5382696390151978e-01" cType="1" res="-2.4559050798416138e-02" rms="4.6123135089874268e-01" purity="4.9610498547554016e-01" nType="0">
        <Node pos="l" depth="1" NCoef="0" IVar="0" Cut="1.0206016302108765e+00" cType="1" res="-8.1944055855274200e-02" rms="4.5888921618461609e-01" purity="3.8010981678962708e-01" nType="0">
          <Node pos="l" depth="2" NCoef="0" IVar="-1" Cut="0.0000000000000000e+00" cType="1" res="1.0222185665043071e-04" rms="4.8734387755393982e-01" purity="5.4565048217773438e-01" nType="-99"/>
          <Node pos="r" depth="2" NCoef="0" IVar="-1" Cut="0.0000000000000000e+00" cType="1" res="-2.1307622082531452e-03" rms="4.2128029465675354e-01" purity="2.4571861326694489e-01" nType="-99"/>
        </Node>
        <Node pos="r" depth="1" NCoef="0" IVar="3" Cut="1.2246192932128906e+02" cType="1" res="5.1878474652767181e-02" rms="4.5318415760993958e-01" purity="6.5061193704605103e-01" nType="0">
          <Node pos="l" depth="2" NCoef="0" IVar="-1" Cut="0.0000000000000000e+00" cType="1" res="-1.6164091357495636e-04" rms="4.7304522991180420e-01" purity="5.8862495422363281e-01" nType="-99"/>
          <Node pos="r" depth="2" NCoef="0" IVar="-1" Cut="0.0000000000000000e+00" cType="1" res="2.8974243905395269e-03" rms="4.2680153250694275e-01" purity="7.0796477794647217e-01" nType="-99"/>
        </Node>
      </Node>
    </BinaryTree>
    <BinaryTree type="DecisionTree" boostWeight="1.0000000000000000e+00" itree="123">
      <Node pos="s" depth="0" NCoef="0" IVar="2" Cut="9.3870842456817627e-01" cType="1" res="-2.2643048316240311e-02" rms="4.5989319682121277e-01" purity="5.0695782899856567e-01" nType="0">
        <Node pos="l" depth="1" NCoef="0" IVar="0" Cut="1.3302949666976929e+00" cType="1" res="-1.2718366086483002e-01" rms="4.3990811705589294e-01" purity="3.1030645966529846e-01" nType="0">
          <Node pos="l" depth="2" NCoef="0" IVar="-1" Cut="0.0000000000000000e+00" cType="1" res="-1.1788713745772839e-03" rms="4.8198854923248291e-01" purity="4.0464097261428833e-01" nType="-99"/>
          <Node pos="r" depth="2" NCoef="0" IVar="-1" Cut="0.0000000000000000e+00" cType="1" res="-2.9580686241388321e-03" rms="3.0188032984733582e-01" purity="1.0445039719343185e-01" nType="-99"/>
        </Node>
        <Node pos="r" depth="1" NCoef="0" IVar="3" Cut="1.0618994140625000e+02" cType="1" res="3.2365407794713974e-02" rms="4.6063816547393799e-01" purity="6.1043429374694824e-01" nType="0">
          <Node pos="l" depth="2" NCoef="0" IVar="-1" Cut="0.0000000000000000e+00" cType="1" res="-2.4116500280797482e-03" rms="4.7581881284713745e-01" purity="4.0319362282752991e-01" nType="-99"/>
          <Node pos="r" depth="2" NCoef="0" IVar="-1" Cut="0.0000000000000000e+00" cType="1" res="1.2622883077710867e-03" rms="4.5403215289115906e-01" purity="6.3592487573623657e-01" nType="-99"/>
        </Node>
      </Node>
    </BinaryTree>
    <BinaryTree type="DecisionTree" boostWeight="1.0000000000000000e+00" itree="124">
      <Node pos="s" depth="0" NCoef="0" IVar="0" Cut="1.0446251630783081e+00" cType="1" res="-4.4555731117725372e-02" rms="4.6125558018684387e-01" purity="4.8061239719390869e-01" nType="0">
        <Node pos="l" depth="1" NCoef="0" IVar="6" Cut="8.1707473754882812e+01" cType="1" res="1.6131430864334106e-02" rms="4.6559113264083862e-01" purity="6.1964082717895508e-01" nType="0">
          <Node pos="l" depth="2" NCoef="0" IVar="-1" Cut="0.0000000000000000e+00" cType="1" res="-6.6726712975651026e-04" rms="4.8105597496032715e-01" purity="5.4408687353134155e-01" nType="-99"/>
          <Node pos="r" depth="2" NCoef="0" IVar="-1" Cut="0.0000000000000000e+00" cType="1" res="3.2235081307590008e-03" rms="4.2150926589965820e-01" purity="7.5560975074768066e-01" nType="-99"/>
        </Node>
        <Node pos="r" depth="1" NCoef="0" IVar="5" Cut="4.8906314086914062e+02" cType="1" res="-1.1416327953338623e-01" rms="4.4618177413940430e-01" purity="3.2114830613136292e-01" nType="0">
          <Node pos="l" depth="2" NCoef="0" IVar="-1" Cut="0.0000000000000000e+00" cType="1" res="-2.5828133802860975e-03" rms="4.1334629058837891e-01" purity="2.4187530577182770e-01" nType="-99"/>
          <Node pos="r" depth="2" NCoef="0" IVar="-1" Cut="0.0000000000000000e+00" cType="1" res="-8.4548274753615260e-04" rms="4.6325770020484924e-01" purity="3.8904830813407898e-01" nType="-99"/>
        </Node>
      </Node>
    </BinaryTree>
    <BinaryTree type="DecisionTree" boostWeight="1.0000000000000000e+00" itree="125">
      <Node pos="s" depth="0" NCoef="0" IVar="2" Cut="9.7257006168365479e-01" cType="1" res="-2.4850439280271530e-02" rms="4.5789828896522522e-01" purity="5.0166475772857666e-01" nType="0">
        <Node pos="l" depth="1" NCoef="0" IVar="0" Cut="1.0483460426330566e+00" cType="1" res="-6.0896646231412888e-02" rms="4.6393662691116333e-01" purity="4.4594919681549072e-01" nType="0">
          <Node pos="l" depth="2" NCoef="0" IVar="-1" Cut="0.0000000000000000e+00" cType="1" res="5.7064189604716375e-05" rms="4.8208391666412354e-01" purity="5.8635532855987549e-01" nType="-99"/>
          <Node pos="r" depth="2" NCoef="0" IVar="-1" Cut="0.0000000000000000e+00" cType="1" res="-1.9853680860251188e-03" rms="4.2981392145156860e-01" purity="2.8104683756828308e-01" nType="-99"/>
        </Node>
        <Node pos="r" depth="1" NCoef="0" IVar="6" Cut="5.3523391723632812e+01" cType="1" res="1.4414173364639282e-01" rms="3.8590759038925171e-01" purity="7.6287108659744263e-01" nType="0">
          <Node pos="l" depth="2" NCoef="0" IVar="-1" Cut="0.0000000000000000e+00" cType="1" res="7.4117495387326926e-05" rms="4.5847961306571960e-01" purity="6.1034518480300903e-01" nType="-99"/>
          <Node pos="r" depth="2" NCoef="0" IVar="-1" Cut="0.0000000000000000e+00" cType="1" res="7.4242614209651947e-03" rms="3.3413797616958618e-01" purity="8.2643020153045654e-01" nType="-99"/>
        </Node>
      </Node>
    </BinaryTree>
    <BinaryTree type="DecisionTree" boostWeight="1.0000000000000000e+00" itree="126">
      <Node pos="s" depth="0" NCoef="0" IVar="2" Cut="9.5417195558547974e-01" cType="1" res="-2.4194581434130669e-02" rms="4.6047976613044739e-01" purity="4.9976024031639099e-01" nType="0">
        <Node pos="l" depth="1" NCoef="0" IVar="0" Cut="9.3211781978607178e-01" cType="1" res="-8.6934663355350494e-02" rms="4.5777145028114319e-01" purity="3.7691223621368408e-01" nType="0">
          <Node pos="l" depth="2" NCoef="0" IVar="-1" Cut="0.0000000000000000e+00" cType="1" res="3.9450166514143348e-04" rms="4.8520356416702271e-01" purity="5.6600111722946167e-01" nType="-99"/>
          <Node pos="r" depth="2" NCoef="0" IVar="-1" Cut="0.0000000000000000e+00" cType="1" res="-2.1493053063750267e-03" rms="4.2699575424194336e-01" purity="2.6097038388252258e-01" nType="-99"/>
        </Node>
        <Node pos="r" depth="1" NCoef="0" IVar="3" Cut="1.0894091033935547e+02" cType="1" res="5.7835221290588379e-02" rms="4.5101851224899292e-01" purity="6.6037839651107788e-01" nType="0">
          <Node pos="l" depth="2" NCoef="0" IVar="-1" Cut="0.0000000000000000e+00" cType="1" res="-2.8383124154061079e-03" rms="4.9140027165412903e-01" purity="4.4751626253128052e-01" nType="-99"/>
          <Node pos="r" depth="2" NCoef="0" IVar="-1" Cut="0.0000000000000000e+00" cType="1" res="2.4111603852361441e-03" rms="4.3532395362854004e-01" purity="6.9544374942779541e-01" nType="-99"/>
        </Node>
      </Node>
    </BinaryTree>
    <BinaryTree type="DecisionTree" boostWeight="1.0000000000000000e+00" itree="127">
      <Node pos="s" depth="0" NCoef="0" IVar="0" Cut="1.0657989978790283e+00" cType="1" res="-2.2116713225841522e-02" rms="4.5521470904350281e-01" purity="5.0122809410095215e-01" nType="0">
        <Node pos="l" depth="1" NCoef="0" IVar="2" Cut="9.2361974716186523e-01" cType="1" res="5.5361181497573853e-02" rms="4.5271065831184387e-01" purity="6.6101437807083130e-01" nType="0">
          <Node pos="l" depth="2" NCoef="0" IVar="-1" Cut="0.0000000000000000e+00" cType="1" res="-1.8341350369155407e-03" rms="4.7445705533027649e-01" purity="3.7577858567237854e-01" nType="-99"/>
          <Node pos="r" depth="2" NCoef="0" IVar="-1" Cut="0.0000000000000000e+00" cType="1" res="2.1398593671619892e-03" rms="4.4345581531524658e-01" purity="7.0291584730148315e-01" nType="-99"/>
        </Node>
        <Node pos="r" depth="1" NCoef="0" IVar="2" Cut="9.4855207204818726e-01" cType="1" res="-1.1239273101091385e-01" rms="4.4127687811851501e-01" purity="3.1504765152931213e-01" nType="0">
          <Node pos="l" depth="2" NCoef="0" IVar="-1" Cut="0.0000000000000000e+00" cType="1" res="-2.4422390852123499e-03" rms="3.8452410697937012e-01" purity="1.9173276424407959e-01" nType="-99"/>
          <Node pos="r" depth="2" NCoef="0" IVar="-1" Cut="0.0000000000000000e+00" cType="1" res="-6.1407685279846191e-04" rms="4.8565670847892761e-01" purity="4.5313346385955811e-01" nType="-99"/>
        </Node>
      </Node>
    </BinaryTree>
    <BinaryTree type="DecisionTree" boostWeight="1.0000000000000000e+00" itree="128">
      <Node pos="s" depth="0" NCoef="0" IVar="0" Cut="1.2552602291107178e+00" cType="1" res="-2.3338599130511284e-02" rms="4.5402672886848450e-01" purity="5.0047922134399414e-01" nType="0">
        <Node pos="l" depth="1" NCoef="0" IVar="6" Cut="9.1454887390136719e+01" cType="1" res="2.6176881045103073e-02" rms="4.5939576625823975e-01" purity="6.0797744989395142e-01" nType="0">
          <Node pos="l" depth="2" NCoef="0" IVar="-1" Cut="0.0000000000000000e+00" cType="1" res="-5.5435590911656618e-04" rms="4.7389173507690430e-01" purity="5.3507041931152344e-01" nType="-99"/>
          <Node pos="r" depth="2" NCoef="0" IVar="-1" Cut="0.0000000000000000e+00" cType="1" res="4.7693429514765739e-03" rms="3.9339065551757812e-01" purity="7.8215074539184570e-01" nType="-99"/>
        </Node>
        <Node pos="r" depth="1" NCoef="0" IVar="2" Cut="9.3848109245300293e-01" cType="1" res="-1.3925386965274811e-01" rms="4.1890770196914673e-01" purity="2.4882692098617554e-01" nType="0">
          <Node pos="l" depth="2" NCoef="0" IVar="-1" Cut="0.0000000000000000e+00" cType="1" res="-2.7762742247432470e-03" rms="3.3028337359428406e-01" purity="1.2865738570690155e-01" nType="-99"/>
          <Node pos="r" depth="2" NCoef="0" IVar="-1" Cut="0.0000000000000000e+00" cType="1" res="-1.3861502520740032e-03" rms="4.6423822641372681e-01" purity="3.3265215158462524e-01" nType="-99"/>
        </Node>
      </Node>
    </BinaryTree>
    <BinaryTree type="DecisionTree" boostWeight="1.0000000000000000e+00" itree="129">
      <Node pos="s" depth="0" NCoef="0" IVar="8" Cut="2.3183107376098633e+00" cType="1" res="-2.5985373184084892e-02" rms="4.5849236845970154e-01" purity="5.0316601991653442e-01" nType="0">
        <Node pos="l" depth="1" NCoef="0" IVar="6" Cut="8.7681472778320312e+01" cType="1" res="2.8317183256149292e-02" rms="4.6542489528656006e-01" purity="6.0700064897537231e-01" nType="0">
          <Node pos="l" depth="2" NCoef="0" IVar="-1" Cut="0.0000000000000000e+00" cType="1" res="-2.0883085380773991e-04" rms="4.7842815518379211e-01" purity="5.4846167564392090e-01" nType="-99"/>
          <Node pos="r" depth="2" NCoef="0" IVar="-1" Cut="0.0000000000000000e+00" cType="1" res="3.0427742749452591e-03" rms="4.2587313055992126e-01" purity="7.2884649038314819e-01" nType="-99"/>
        </Node>
        <Node pos="r" depth="1" NCoef="0" IVar="2" Cut="9.6335679292678833e-01" cType="1" res="-1.3750709593296051e-01" rms="4.2257320880889893e-01" purity="2.8991988301277161e-01" nType="0">
          <Node pos="l" depth="2" NCoef="0" IVar="-1" Cut="0.0000000000000000e+00" cType="1" res="-2.5791011285036802e-03" rms="3.9702647924423218e-01" purity="2.1915473043918610e-01" nType="-99"/>
          <Node pos="r" depth="2" NCoef="0" IVar="-1" Cut="0.0000000000000000e+00" cType="1" res="4.0585806709714234e-04" rms="4.6246087551116943e-01" purity="5.1904469728469849e-01" nType="-99"/>
        </Node>
      </Node>
    </BinaryTree>
    <BinaryTree type="DecisionTree" boostWeight="1.0000000000000000e+00" itree="130">
      <Node pos="s" depth="0" NCoef="0" IVar="2" Cut="9.2756181955337524e-01" cType="1" res="-2.7693254873156548e-02" rms="4.6212288737297058e-01" purity="5.0225836038589478e-01" nType="0">
        <Node pos="l" depth="1" NCoef="0" IVar="1" Cut="3.9961526489257812e+02" cType="1" res="-1.6746300458908081e-01" rms="4.1703888773918152e-01" purity="2.5579646229743958e-01" nType="0">
          <Node pos="l" depth="2" NCoef="0" IVar="-1" Cut="0.0000000000000000e+00" cType="1" res="-2.8050197288393974e-03" rms="3.8627403974533081e-01" purity="1.9612109661102295e-01" nType="-99"/>
          <Node pos="r" depth="2" NCoef="0" IVar="-1" Cut="0.0000000000000000e+00" cType="1" res="-1.5686681726947427e-03" rms="4.4212326407432556e-01" purity="3.3052805066108704e-01" nType="-99"/>
        </Node>
        <Node pos="r" depth="1" NCoef="0" IVar="4" Cut="4.2830633544921875e+02" cType="1" res="6.0366755351424217e-03" rms="4.6612295508384705e-01" purity="5.6173574924468994e-01" nType="0">
          <Node pos="l" depth="2" NCoef="0" IVar="-1" Cut="0.0000000000000000e+00" cType="1" res="6.3454121118411422e-04" rms="4.6505606174468994e-01" purity="5.9540897607803345e-01" nType="-99"/>
          <Node pos="r" depth="2" NCoef="0" IVar="-1" Cut="0.0000000000000000e+00" cType="1" res="-2.7587332297116518e-03" rms="4.2922437191009521e-01" purity="2.7873152494430542e-01" nType="-99"/>
        </Node>
      </Node>
    </BinaryTree>
    <BinaryTree type="DecisionTree" boostWeight="1.0000000000000000e+00" itree="131">
      <Node pos="s" depth="0" NCoef="0" IVar="0" Cut="1.0470222234725952e+00" cType="1" res="-3.5058792680501938e-02" rms="4.5746833086013794e-01" purity="4.9000966548919678e-01" nType="0">
        <Node pos="l" depth="1" NCoef="0" IVar="6" Cut="9.6566864013671875e+01" cType="1" res="3.1097697094082832e-02" rms="4.6165895462036133e-01" purity="6.3980299234390259e-01" nType="0">
          <Node pos="l" depth="2" NCoef="0" IVar="-1" Cut="0.0000000000000000e+00" cType="1" res="-2.5150922010652721e-04" rms="4.8089295625686646e-01" purity="5.8012813329696655e-01" nType="-99"/>
          <Node pos="r" depth="2" NCoef="0" IVar="-1" Cut="0.0000000000000000e+00" cType="1" res="6.8446183577179909e-03" rms="3.5143142938613892e-01" purity="8.4326320886611938e-01" nType="-99"/>
        </Node>
        <Node pos="r" depth="1" NCoef="0" IVar="6" Cut="9.8843460083007812e+01" cType="1" res="-1.1307750642299652e-01" rms="4.3987107276916504e-01" purity="3.1335747241973877e-01" nType="0">
          <Node pos="l" depth="2" NCoef="0" IVar="-1" Cut="0.0000000000000000e+00" cType="1" res="-2.4554734118282795e-03" rms="4.1376355290412903e-01" purity="2.5325906276702881e-01" nType="-99"/>
          <Node pos="r" depth="2" NCoef="0" IVar="-1" Cut="0.0000000000000000e+00" cType="1" res="-5.8724537666421384e-05" rms="4.6877312660217285e-01" purity="4.3301203846931458e-01" nType="-99"/>
        </Node>
      </Node>
    </BinaryTree>
    <BinaryTree type="DecisionTree" boostWeight="1.0000000000000000e+00" itree="132">
      <Node pos="s" depth="0" NCoef="0" IVar="2" Cut="9.5746439695358276e-01" cType="1" res="-2.2329496219754219e-02" rms="4.6254727244377136e-01" purity="5.0680696964263916e-01" nType="0">
        <Node pos="l" depth="1" NCoef="0" IVar="0" Cut="8.3819139003753662e-01" cType="1" res="-7.1196988224983215e-02" rms="4.6334728598594666e-01" purity="4.0476703643798828e-01" nType="0">
          <Node pos="l" depth="2" NCoef="0" IVar="-1" Cut="0.0000000000000000e+00" cType="1" res="6.8826548522338271e-04" rms="4.8164343833923340e-01" purity="5.9168118238449097e-01" nType="-99"/>
          <Node pos="r" depth="2" NCoef="0" IVar="-1" Cut="0.0000000000000000e+00" cType="1" res="-1.8379761604592204e-03" rms="4.4557911157608032e-01" purity="3.1497538089752197e-01" nType="-99"/>
        </Node>
        <Node pos="r" depth="1" NCoef="0" IVar="6" Cut="4.6370311737060547e+01" cType="1" res="5.1442772150039673e-02" rms="4.5142480731010437e-01" purity="6.6085034608840942e-01" nType="0">
          <Node pos="l" depth="2" NCoef="0" IVar="-1" Cut="0.0000000000000000e+00" cType="1" res="-1.3429396785795689e-03" rms="4.7545903921127319e-01" purity="5.1749283075332642e-01" nType="-99"/>
          <Node pos="r" depth="2" NCoef="0" IVar="-1" Cut="0.0000000000000000e+00" cType="1" res="1.9551240839064121e-03" rms="4.4324260950088501e-01" purity="6.8819087743759155e-01" nType="-99"/>
        </Node>
      </Node>
    </BinaryTree>
    <BinaryTree type="DecisionTree" boostWeight="1.0000000000000000e+00" itree="133">
      <Node pos="s" depth="0" NCoef="0" IVar="8" Cut="2.4131782054901123e+00" cType="1" res="-2.1546456962823868e-02" rms="4.5811429619789124e-01" purity="5.0221097469329834e-01" nType="0">
        <Node pos="l" depth="1" NCoef="0" IVar="6" Cut="7.4904144287109375e+01" cType="1" res="1.7453104257583618e-02" rms="4.6307951211929321e-01" purity="5.7683759927749634e-01" nType="0">
          <Node pos="l" depth="2" NCoef="0" IVar="-1" Cut="0.0000000000000000e+00" cType="1" res="-6.8264466244727373e-04" rms="4.6922418475151062e-01" purity="4.9536278843879700e-01" nType="-99"/>
          <Node pos="r" depth="2" NCoef="0" IVar="-1" Cut="0.0000000000000000e+00" cType="1" res="2.3279432207345963e-03" rms="4.4463458657264709e-01" purity="6.8444979190826416e-01" nType="-99"/>
        </Node>
        <Node pos="r" depth="1" NCoef="0" IVar="6" Cut="9.0227851867675781e+01" cType="1" res="-1.5528738498687744e-01" rms="4.1361916065216064e-01" purity="2.4629430472850800e-01" nType="0">
          <Node pos="l" depth="2" NCoef="0" IVar="-1" Cut="0.0000000000000000e+00" cType="1" res="-3.2916755881160498e-03" rms="3.3281767368316650e-01" purity="1.3790008425712585e-01" nType="-99"/>
          <Node pos="r" depth="2" NCoef="0" IVar="-1" Cut="0.0000000000000000e+00" cType="1" res="-7.9040497075766325e-04" rms="4.6510174870491028e-01" purity="3.6733582615852356e-01" nType="-99"/>
        </Node>
      </Node>
    </BinaryTree>
    <BinaryTree type="DecisionTree" boostWeight="1.0000000000000000e+00" itree="134">
      <Node pos="s" depth="0" NCoef="0" IVar="2" Cut="9.4370275735855103e-01" cType="1" res="-2.0536137744784355e-02" rms="4.5872047543525696e-01" purity="5.0773167610168457e-01" nType="0">
        <Node pos="l" depth="1" NCoef="0" IVar="7" Cut="8.2188718020915985e-02" cType="1" res="-1.0642968863248825e-01" rms="4.4820052385330200e-01" purity="3.3527967333793640e-01" nType="0">
          <Node pos="l" depth="2" NCoef="0" IVar="-1" Cut="0.0000000000000000e+00" cType="1" res="-2.3113195784389973e-03" rms="4.2084541916847229e-01" purity="2.6314997673034668e-01" nType="-99"/>
          <Node pos="r" depth="2" NCoef="0" IVar="-1" Cut="0.0000000000000000e+00" cType="1" res="-4.7553380136378109e-04" rms="4.6927517652511597e-01" purity="4.2702198028564453e-01" nType="-99"/>
        </Node>
        <Node pos="r" depth="1" NCoef="0" IVar="0" Cut="1.4607017040252686e+00" cType="1" res="3.7237178534269333e-02" rms="4.5666360855102539e-01" purity="6.2372547388076782e-01" nType="0">
          <Node pos="l" depth="2" NCoef="0" IVar="-1" Cut="0.0000000000000000e+00" cType="1" res="1.5931010711938143e-03" rms="4.5226481556892395e-01" purity="6.7647755146026611e-01" nType="-99"/>
          <Node pos="r" depth="2" NCoef="0" IVar="-1" Cut="0.0000000000000000e+00" cType="1" res="-1.7928687157109380e-03" rms="4.5394232869148254e-01" purity="2.9449209570884705e-01" nType="-99"/>
        </Node>
      </Node>
    </BinaryTree>
    <BinaryTree type="DecisionTree" boostWeight="1.0000000000000000e+00" itree="135">
      <Node pos="s" depth="0" NCoef="0" IVar="0" Cut="1.2257379293441772e+00" cType="1" res="-1.2600864283740520e-02" rms="4.5530983805656433e-01" purity="5.1469534635543823e-01" nType="0">
        <Node pos="l" depth="1" NCoef="0" IVar="2" Cut="9.8365753889083862e-01" cType="1" res="4.3031960725784302e-02" rms="4.5709723234176636e-01" purity="6.3276427984237671e-01" nType="0">
          <Node pos="l" depth="2" NCoef="0" IVar="-1" Cut="0.0000000000000000e+00" cType="1" res="5.6102435337379575e-04" rms="4.6698048710823059e-01" purity="6.0706537961959839e-01" nType="-99"/>
          <Node pos="r" depth="2" NCoef="0" IVar="-1" Cut="0.0000000000000000e+00" cType="1" res="1.2015641666948795e-02" rms="2.3977328836917877e-01" purity="9.3432861566543579e-01" nType="-99"/>
        </Node>
        <Node pos="r" depth="1" NCoef="0" IVar="6" Cut="1.0674278259277344e+02" cType="1" res="-1.3279533386230469e-01" rms="4.2737591266632080e-01" purity="2.5960800051689148e-01" nType="0">
          <Node pos="l" depth="2" NCoef="0" IVar="-1" Cut="0.0000000000000000e+00" cType="1" res="-2.3632273077964783e-03" rms="4.0230870246887207e-01" purity="2.1614797413349152e-01" nType="-99"/>
          <Node pos="r" depth="2" NCoef="0" IVar="-1" Cut="0.0000000000000000e+00" cType="1" res="-6.4362981356680393e-04" rms="4.6740606427192688e-01" purity="3.5974511504173279e-01" nType="-99"/>
        </Node>
      </Node>
    </BinaryTree>
    <BinaryTree type="DecisionTree" boostWeight="1.0000000000000000e+00" itree="136">
      <Node pos="s" depth="0" NCoef="0" IVar="2" Cut="9.4909822940826416e-01" cType="1" res="-2.7222882956266403e-02" rms="4.5588591694831848e-01" purity="4.9735057353973389e-01" nType="0">
        <Node pos="l" depth="1" NCoef="0" IVar="0" Cut="1.0362902879714966e+00" cType="1" res="-9.8012156784534454e-02" rms="4.4549566507339478e-01" purity="3.4470012784004211e-01" nType="0">
          <Node pos="l" depth="2" NCoef="0" IVar="-1" Cut="0.0000000000000000e+00" cType="1" res="-1.3341997691895813e-04" rms="4.9126631021499634e-01" purity="5.2666234970092773e-01" nType="-99"/>
          <Node pos="r" depth="2" NCoef="0" IVar="-1" Cut="0.0000000000000000e+00" cType="1" res="-2.3155696690082550e-03" rms="3.9022752642631531e-01" purity="1.9898998737335205e-01" nType="-99"/>
        </Node>
        <Node pos="r" depth="1" NCoef="0" IVar="6" Cut="6.1433586120605469e+01" cType="1" res="4.1414182633161545e-02" rms="4.5534926652908325e-01" purity="6.4535993337631226e-01" nType="0">
          <Node pos="l" depth="2" NCoef="0" IVar="-1" Cut="0.0000000000000000e+00" cType="1" res="-7.5272639514878392e-04" rms="4.7825774550437927e-01" purity="5.4743939638137817e-01" nType="-99"/>
          <Node pos="r" depth="2" NCoef="0" IVar="-1" Cut="0.0000000000000000e+00" cType="1" res="2.3053765762597322e-03" rms="4.3676078319549561e-01" purity="6.9843465089797974e-01" nType="-99"/>
        </Node>
      </Node>
    </BinaryTree>
    <BinaryTree type="DecisionTree" boostWeight="1.0000000000000000e+00" itree="137">
      <Node pos="s" depth="0" NCoef="0" IVar="2" Cut="9.3918973207473755e-01" cType="1" res="-3.1504020094871521e-02" rms="4.5682755112648010e-01" purity="4.9377635121345520e-01" nType="0">
        <Node pos="l" depth="1" NCoef="0" IVar="8" Cut="2.2402999401092529e+00" cType="1" res="-1.2813849747180939e-01" rms="4.4061726331710815e-01" purity="3.0436035990715027e-01" nType="0">
          <Node pos="l" depth="2" NCoef="0" IVar="-1" Cut="0.0000000000000000e+00" cType="1" res="-1.1268316302448511e-03" rms="4.8420464992523193e-01" purity="4.1278719902038574e-01" nType="-99"/>
          <Node pos="r" depth="2" NCoef="0" IVar="-1" Cut="0.0000000000000000e+00" cType="1" res="-2.5973704177886248e-03" rms="3.7348127365112305e-01" purity="1.7877303063869476e-01" nType="-99"/>
        </Node>
        <Node pos="r" depth="1" NCoef="0" IVar="0" Cut="1.2892304658889771e+00" cType="1" res="2.0877175033092499e-02" rms="4.5691522955894470e-01" purity="5.9645026922225952e-01" nType="0">
          <Node pos="l" depth="2" NCoef="0" IVar="-1" Cut="0.0000000000000000e+00" cType="1" res="1.6580038936808705e-03" rms="4.5069274306297302e-01" purity="6.9108647108078003e-01" nType="-99"/>
          <Node pos="r" depth="2" NCoef="0" IVar="-1" Cut="0.0000000000000000e+00" cType="1" res="-1.6549668507650495e-03" rms="4.5164522528648376e-01" purity="3.1126657128334045e-01" nType="-99"/>
        </Node>
      </Node>
    </BinaryTree>
    <BinaryTree type="DecisionTree" boostWeight="1.0000000000000000e+00" itree="138">
      <Node pos="s" depth="0" NCoef="0" IVar="2" Cut="9.2612105607986450e-01" cType="1" res="-2.2028015926480293e-02" rms="4.5673695206642151e-01" purity="5.0347721576690674e-01" nType="0">
        <Node pos="l" depth="1" NCoef="0" IVar="4" Cut="2.0390135192871094e+02" cType="1" res="-1.6416670382022858e-01" rms="4.2329287528991699e-01" purity="2.6220425963401794e-01" nType="0">
          <Node pos="l" depth="2" NCoef="0" IVar="-1" Cut="0.0000000000000000e+00" cType="1" res="-2.8228336013853550e-03" rms="4.0877798199653625e-01" purity="2.2540029883384705e-01" nType="-99"/>
          <Node pos="r" depth="2" NCoef="0" IVar="-1" Cut="0.0000000000000000e+00" cType="1" res="-1.4814470196142793e-03" rms="4.3139639496803284e-01" purity="3.0855378508567810e-01" nType="-99"/>
        </Node>
        <Node pos="r" depth="1" NCoef="0" IVar="0" Cut="1.0896453857421875e+00" cType="1" res="1.1553076095879078e-02" rms="4.5788776874542236e-01" purity="5.6047934293746948e-01" nType="0">
          <Node pos="l" depth="2" NCoef="0" IVar="-1" Cut="0.0000000000000000e+00" cType="1" res="1.9160389201715589e-03" rms="4.4687330722808838e-01" purity="7.0111906528472900e-01" nType="-99"/>
          <Node pos="r" depth="2" NCoef="0" IVar="-1" Cut="0.0000000000000000e+00" cType="1" res="-1.1741766938939691e-03" rms="4.6000540256500244e-01" purity="3.6628854274749756e-01" nType="-99"/>
        </Node>
      </Node>
    </BinaryTree>
    <BinaryTree type="DecisionTree" boostWeight="1.0000000000000000e+00" itree="139">
      <Node pos="s" depth="0" NCoef="0" IVar="8" Cut="2.5568878650665283e+00" cType="1" res="-2.6517309248447418e-02" rms="4.5359817147254944e-01" purity="4.9427795410156250e-01" nType="0">
        <Node pos="l" depth="1" NCoef="0" IVar="2" Cut="9.4356739521026611e-01" cType="1" res="3.4259737003594637e-03" rms="4.6066763997077942e-01" purity="5.4988181591033936e-01" nType="0">
          <Node pos="l" depth="2" NCoef="0" IVar="-1" Cut="0.0000000000000000e+00" cType="1" res="-1.1911202454939485e-03" rms="4.6471422910690308e-01" purity="3.7829318642616272e-01" nType="-99"/>
          <Node pos="r" depth="2" NCoef="0" IVar="-1" Cut="0.0000000000000000e+00" cType="1" res="1.3210698962211609e-03" rms="4.5092943310737610e-01" purity="6.5576291084289551e-01" nType="-99"/>
        </Node>
        <Node pos="r" depth="1" NCoef="0" IVar="-1" Cut="0.0000000000000000e+00" cType="1" res="-2.8166701085865498e-03" rms="3.5986083745956421e-01" purity="1.6122546792030334e-01" nType="-99"/>
      </Node>
    </BinaryTree>
    <BinaryTree type="DecisionTree" boostWeight="1.0000000000000000e+00" itree="140">
      <Node pos="s" depth="0" NCoef="0" IVar="0" Cut="1.4432610273361206e+00" cType="1" res="-1.1447260156273842e-02" rms="4.5970374345779419e-01" purity="5.1917821168899536e-01" nType="0">
        <Node pos="l" depth="1" NCoef="0" IVar="2" Cut="9.4869709014892578e-01" cType="1" res="2.2780947387218475e-02" rms="4.6785736083984375e-01" purity="5.8872133493423462e-01" nType="0">
          <Node pos="l" depth="2" NCoef="0" IVar="-1" Cut="0.0000000000000000e+00" cType="1" res="-4.5444729039445519e-04" rms="4.8132687807083130e-01" purity="4.5505383610725403e-01" nType="-99"/>
          <Node pos="r" depth="2" NCoef="0" IVar="-1" Cut="0.0000000000000000e+00" cType="1" res="1.6344565665349364e-03" rms="4.5384034514427185e-01" purity="6.8946945667266846e-01" nType="-99"/>
        </Node>
        <Node pos="r" depth="1" NCoef="0" IVar="5" Cut="5.3297839355468750e+02" cType="1" res="-1.7338433861732483e-01" rms="3.7918302416801453e-01" purity="1.9016271829605103e-01" nType="0">
          <Node pos="l" depth="2" NCoef="0" IVar="-1" Cut="0.0000000000000000e+00" cType="1" res="-2.9494261834770441e-03" rms="3.3575615286827087e-01" purity="1.3575506210327148e-01" nType="-99"/>
          <Node pos="r" depth="2" NCoef="0" IVar="-1" Cut="0.0000000000000000e+00" cType="1" res="-1.4319005422294140e-03" rms="4.1939222812652588e-01" purity="2.6439604163169861e-01" nType="-99"/>
        </Node>
      </Node>
    </BinaryTree>
    <BinaryTree type="DecisionTree" boostWeight="1.0000000000000000e+00" itree="141">
      <Node pos="s" depth="0" NCoef="0" IVar="0" Cut="1.0202592611312866e+00" cType="1" res="-3.1302811112254858e-03" rms="4.5583337545394897e-01" purity="5.2302581071853638e-01" nType="0">
        <Node pos="l" depth="1" NCoef="0" IVar="4" Cut="1.2715361785888672e+02" cType="1" res="7.8088305890560150e-02" rms="4.4360324740409851e-01" purity="6.9187313318252563e-01" nType="0">
          <Node pos="l" depth="2" NCoef="0" IVar="-1" Cut="0.0000000000000000e+00" cType="1" res="-1.4304741052910686e-03" rms="4.7768902778625488e-01" purity="4.9709901213645935e-01" nType="-99"/>
          <Node pos="r" depth="2" NCoef="0" IVar="-1" Cut="0.0000000000000000e+00" cType="1" res="2.8554664459079504e-03" rms="4.3253701925277710e-01" purity="7.2384375333786011e-01" nType="-99"/>
        </Node>
        <Node pos="r" depth="1" NCoef="0" IVar="2" Cut="9.3110573291778564e-01" cType="1" res="-8.1942640244960785e-02" rms="4.5370247960090637e-01" purity="3.5918071866035461e-01" nType="0">
          <Node pos="l" depth="2" NCoef="0" IVar="-1" Cut="0.0000000000000000e+00" cType="1" res="-2.5252019986510277e-03" rms="3.6122867465019226e-01" purity="1.6096024215221405e-01" nType="-99"/>
          <Node pos="r" depth="2" NCoef="0" IVar="-1" Cut="0.0000000000000000e+00" cType="1" res="-7.1107153780758381e-04" rms="4.7526580095291138e-01" purity="4.2834535241127014e-01" nType="-99"/>
        </Node>
      </Node>
    </BinaryTree>
    <BinaryTree type="DecisionTree" boostWeight="1.0000000000000000e+00" itree="142">
      <Node pos="s" depth="0" NCoef="0" IVar="8" Cut="2.4657459259033203e+00" cType="1" res="-2.2926561534404755e-02" rms="4.5790636539459229e-01" purity="5.0280034542083740e-01" nType="0">
        <Node pos="l" depth="1" NCoef="0" IVar="2" Cut="9.6310114860534668e-01" cType="1" res="1.1276495642960072e-02" rms="4.6347162127494812e-01" purity="5.7035577297210693e-01" nType="0">
          <Node pos="l" depth="2" NCoef="0" IVar="-1" Cut="0.0000000000000000e+00" cType="1" res="-7.6614087447524071e-04" rms="4.8024654388427734e-01" purity="4.7472605109214783e-01" nType="-99"/>
          <Node pos="r" depth="2" NCoef="0" IVar="-1" Cut="0.0000000000000000e+00" cType="1" res="4.3556974269449711e-03" rms="3.9870366454124451e-01" purity="7.8150343894958496e-01" nType="-99"/>
        </Node>
        <Node pos="r" depth="1" NCoef="0" IVar="6" Cut="9.6338150024414062e+01" cType="1" res="-1.6296982765197754e-01" rms="4.0531593561172485e-01" purity="2.2619713842868805e-01" nType="0">
          <Node pos="l" depth="2" NCoef="0" IVar="-1" Cut="0.0000000000000000e+00" cType="1" res="-2.9019783250987530e-03" rms="3.4930136799812317e-01" purity="1.5133388340473175e-01" nType="-99"/>
          <Node pos="r" depth="2" NCoef="0" IVar="-1" Cut="0.0000000000000000e+00" cType="1" res="-1.3296067481860518e-03" rms="4.5792415738105774e-01" purity="3.2759481668472290e-01" nType="-99"/>
        </Node>
      </Node>
    </BinaryTree>
    <BinaryTree type="DecisionTree" boostWeight="1.0000000000000000e+00" itree="143">
      <Node pos="s" depth="0" NCoef="0" IVar="2" Cut="9.3563270568847656e-01" cType="1" res="-2.0840311422944069e-02" rms="4.5239219069480896e-01" purity="5.0040590763092041e-01" nType="0">
        <Node pos="l" depth="1" NCoef="0" IVar="8" Cut="2.1262707710266113e+00" cType="1" res="-1.4645241200923920e-01" rms="4.2513391375541687e-01" purity="2.7301001548767090e-01" nType="0">
          <Node pos="l" depth="2" NCoef="0" IVar="-1" Cut="0.0000000000000000e+00" cType="1" res="-1.1271290713921189e-03" rms="4.8264810442924500e-01" purity="4.0496385097503662e-01" nType="-99"/>
          <Node pos="r" depth="2" NCoef="0" IVar="-1" Cut="0.0000000000000000e+00" cType="1" res="-2.5902444031089544e-03" rms="3.7016350030899048e-01" purity="1.7897120118141174e-01" nType="-99"/>
        </Node>
        <Node pos="r" depth="1" NCoef="0" IVar="5" Cut="4.8914834594726562e+02" cType="1" res="3.9248656481504440e-02" rms="4.5270591974258423e-01" purity="6.0918509960174561e-01" nType="0">
          <Node pos="l" depth="2" NCoef="0" IVar="-1" Cut="0.0000000000000000e+00" cType="1" res="-7.3669222183525562e-04" rms="4.6043610572814941e-01" purity="5.0260275602340698e-01" nType="-99"/>
          <Node pos="r" depth="2" NCoef="0" IVar="-1" Cut="0.0000000000000000e+00" cType="1" res="2.3352820426225662e-03" rms="4.4004851579666138e-01" purity="6.7991077899932861e-01" nType="-99"/>
        </Node>
      </Node>
    </BinaryTree>
    <BinaryTree type="DecisionTree" boostWeight="1.0000000000000000e+00" itree="144">
      <Node pos="s" depth="0" NCoef="0" IVar="2" Cut="9.6046912670135498e-01" cType="1" res="-3.0808258801698685e-02" rms="4.5576021075248718e-01" purity="4.9677148461341858e-01" nType="0">
        <Node pos="l" depth="1" NCoef="0" IVar="8" Cut="2.3846695423126221e+00" cType="1" res="-8.0995664000511169e-02" rms="4.6043774485588074e-01" purity="4.0141221880912781e-01" nType="0">
          <Node pos="l" depth="2" NCoef="0" IVar="-1" Cut="0.0000000000000000e+00" cType="1" res="-7.9640140756964684e-04" rms="4.7934925556182861e-01" purity="4.7702875733375549e-01" nType="-99"/>
          <Node pos="r" depth="2" NCoef="0" IVar="-1" Cut="0.0000000000000000e+00" cType="1" res="-2.4988830555230379e-03" rms="3.8819923996925354e-01" purity="1.9663549959659576e-01" nType="-99"/>
        </Node>
        <Node pos="r" depth="1" NCoef="0" IVar="8" Cut="2.4314510822296143e+00" cType="1" res="7.1790799498558044e-02" rms="4.2811286449432373e-01" purity="6.9171619415283203e-01" nType="0">
          <Node pos="l" depth="2" NCoef="0" IVar="-1" Cut="0.0000000000000000e+00" cType="1" res="3.5107084549963474e-03" rms="4.0948984026908875e-01" purity="7.6657027006149292e-01" nType="-99"/>
          <Node pos="r" depth="2" NCoef="0" IVar="-1" Cut="0.0000000000000000e+00" cType="1" res="-1.3513248413801193e-03" rms="4.6811994910240173e-01" purity="3.8204103708267212e-01" nType="-99"/>
        </Node>
      </Node>
    </BinaryTree>
    <BinaryTree type="DecisionTree" boostWeight="1.0000000000000000e+00" itree="145">
      <Node pos="s" depth="0" NCoef="0" IVar="2" Cut="9.5216596126556396e-01" cType="1" res="-1.6443166881799698e-02" rms="4.5722097158432007e-01" purity="5.0758939981460571e-01" nType="0">
        <Node pos="l" depth="1" NCoef="0" IVar="5" Cut="4.8966333007812500e+02" cType="1" res="-7.9168513417243958e-02" rms="4.5785978436470032e-01" purity="3.7167850136756897e-01" nType="0">
          <Node pos="l" depth="2" NCoef="0" IVar="-1" Cut="0.0000000000000000e+00" cType="1" res="-2.0951561164110899e-03" rms="4.3230372667312622e-01" purity="2.8281009197235107e-01" nType="-99"/>
          <Node pos="r" depth="2" NCoef="0" IVar="-1" Cut="0.0000000000000000e+00" cType="1" res="-5.3043622756376863e-04" rms="4.6847850084304810e-01" purity="4.3229317665100098e-01" nType="-99"/>
        </Node>
        <Node pos="r" depth="1" NCoef="0" IVar="8" Cut="2.4890952110290527e+00" cType="1" res="5.5469065904617310e-02" rms="4.4575637578964233e-01" purity="6.6340607404708862e-01" nType="0">
          <Node pos="l" depth="2" NCoef="0" IVar="-1" Cut="0.0000000000000000e+00" cType="1" res="2.3403167724609375e-03" rms="4.3889400362968445e-01" purity="7.1947318315505981e-01" nType="-99"/>
          <Node pos="r" depth="2" NCoef="0" IVar="-1" Cut="0.0000000000000000e+00" cType="1" res="-1.5983146149665117e-03" rms="4.5472842454910278e-01" purity="3.2557854056358337e-01" nType="-99"/>
        </Node>
      </Node>
    </BinaryTree>
    <BinaryTree type="DecisionTree" boostWeight="1.0000000000000000e+00" itree="146">
      <Node pos="s" depth="0" NCoef="0" IVar="2" Cut="9.4463658332824707e-01" cType="1" res="-5.2329778671264648e-02" rms="4.5398488640785217e-01" purity="4.7014093399047852e-01" nType="0">
        <Node pos="l" depth="1" NCoef="0" IVar="0" Cut="9.7095334529876709e-01" cType="1" res="-1.3080435991287231e-01" rms="4.3479517102241516e-01" purity="3.0329009890556335e-01" nType="0">
          <Node pos="l" depth="2" NCoef="0" IVar="-1" Cut="0.0000000000000000e+00" cType="1" res="-7.9613155685365200e-04" rms="4.8839285969734192e-01" purity="4.7212979197502136e-01" nType="-99"/>
          <Node pos="r" depth="2" NCoef="0" IVar="-1" Cut="0.0000000000000000e+00" cType="1" res="-2.4409727193415165e-03" rms="3.8988691568374634e-01" purity="1.9959564507007599e-01" nType="-99"/>
        </Node>
        <Node pos="r" depth="1" NCoef="0" IVar="5" Cut="4.9681295776367188e+02" cType="1" res="2.4464223533868790e-03" rms="4.5902961492538452e-01" purity="5.8660489320755005e-01" nType="0">
          <Node pos="l" depth="2" NCoef="0" IVar="-1" Cut="0.0000000000000000e+00" cType="1" res="-1.4055423671379685e-03" rms="4.6878936886787415e-01" purity="4.7944727540016174e-01" nType="-99"/>
          <Node pos="r" depth="2" NCoef="0" IVar="-1" Cut="0.0000000000000000e+00" cType="1" res="1.7163946758955717e-03" rms="4.4091108441352844e-01" purity="6.7580598592758179e-01" nType="-99"/>
        </Node>
      </Node>
    </BinaryTree>
    <BinaryTree type="DecisionTree" boostWeight="1.0000000000000000e+00" itree="147">
      <Node pos="s" depth="0" NCoef="0" IVar="0" Cut="1.0672595500946045e+00" cType="1" res="-1.1905704624950886e-02" rms="4.5046362280845642e-01" purity="5.1275205612182617e-01" nType="0">
        <Node pos="l" depth="1" NCoef="0" IVar="0" Cut="5.1446759700775146e-01" cType="1" res="6.5209023654460907e-02" rms="4.4714143872261047e-01" purity="6.8010634183883667e-01" nType="0">
          <Node pos="l" depth="2" NCoef="0" IVar="-1" Cut="0.0000000000000000e+00" cType="1" res="7.5288177467882633e-03" rms="3.5898041725158691e-01" purity="8.4229212999343872e-01" nType="-99"/>
          <Node pos="r" depth="2" NCoef="0" IVar="-1" Cut="0.0000000000000000e+00" cType="1" res="9.9619699176400900e-04" rms="4.5467960834503174e-01" purity="6.5488630533218384e-01" nType="-99"/>
        </Node>
        <Node pos="r" depth="1" NCoef="0" IVar="6" Cut="4.9507663726806641e+01" cType="1" res="-1.0311348736286163e-01" rms="4.3714088201522827e-01" purity="3.1481307744979858e-01" nType="0">
          <Node pos="l" depth="2" NCoef="0" IVar="-1" Cut="0.0000000000000000e+00" cType="1" res="-3.2424582168459892e-03" rms="3.6912372708320618e-01" purity="1.7534480988979340e-01" nType="-99"/>
          <Node pos="r" depth="2" NCoef="0" IVar="-1" Cut="0.0000000000000000e+00" cType="1" res="-1.0488289408385754e-03" rms="4.4698125123977661e-01" purity="3.5423687100410461e-01" nType="-99"/>
        </Node>
      </Node>
    </BinaryTree>
    <BinaryTree type="DecisionTree" boostWeight="1.0000000000000000e+00" itree="148">
      <Node pos="s" depth="0" NCoef="0" IVar="0" Cut="1.1142597198486328e+00" cType="1" res="-3.4866638481616974e-02" rms="4.5616501569747925e-01" purity="4.8398783802986145e-01" nType="0">
        <Node pos="l" depth="1" NCoef="0" IVar="4" Cut="1.3323847961425781e+02" cType="1" res="1.9118783995509148e-02" rms="4.6487292647361755e-01" purity="6.3035339117050171e-01" nType="0">
          <Node pos="l" depth="2" NCoef="0" IVar="-1" Cut="0.0000000000000000e+00" cType="1" res="-2.1514738909900188e-03" rms="4.7553825378417969e-01" purity="4.3983420729637146e-01" nType="-99"/>
          <Node pos="r" depth="2" NCoef="0" IVar="-1" Cut="0.0000000000000000e+00" cType="1" res="1.1993756052106619e-03" rms="4.5748028159141541e-01" purity="6.6716593503952026e-01" nType="-99"/>
        </Node>
        <Node pos="r" depth="1" NCoef="0" IVar="2" Cut="9.6296477317810059e-01" cType="1" res="-1.0367113351821899e-01" rms="4.3521961569786072e-01" purity="2.9744476079940796e-01" nType="0">
          <Node pos="l" depth="2" NCoef="0" IVar="-1" Cut="0.0000000000000000e+00" cType="1" res="-2.0156302489340305e-03" rms="4.1263490915298462e-01" purity="2.3471251130104065e-01" nType="-99"/>
          <Node pos="r" depth="2" NCoef="0" IVar="-1" Cut="0.0000000000000000e+00" cType="1" res="6.4444064628332853e-04" rms="4.8225024342536926e-01" purity="5.1735126972198486e-01" nType="-99"/>
        </Node>
      </Node>
    </BinaryTree>
    <BinaryTree type="DecisionTree" boostWeight="1.0000000000000000e+00" itree="149">
      <Node pos="s" depth="0" NCoef="0" IVar="0" Cut="1.0976848602294922e+00" cType="1" res="-3.0752342194318771e-02" rms="4.5373535156250000e-01" purity="4.9279427528381348e-01" nType="0">
        <Node pos="l" depth="1" NCoef="0" IVar="6" Cut="5.4702213287353516e+01" cType="1" res="3.5774569958448410e-02" rms="4.5488581061363220e-01" purity="6.4630424976348877e-01" nType="0">
          <Node pos="l" depth="2" NCoef="0" IVar="-1" Cut="0.0000000000000000e+00" cType="1" res="-1.2517391005530953e-03" rms="4.8206138610839844e-01" purity="5.0452744960784912e-01" nType="-99"/>
          <Node pos="r" depth="2" NCoef="0" IVar="-1" Cut="0.0000000000000000e+00" cType="1" res="2.3523084819316864e-03" rms="4.3103703856468201e-01" purity="7.1808093786239624e-01" nType="-99"/>
        </Node>
        <Node pos="r" depth="1" NCoef="0" IVar="6" Cut="9.9262329101562500e+01" cType="1" res="-1.1586376279592514e-01" rms="4.3775820732116699e-01" purity="2.9640081524848938e-01" nType="0">
          <Node pos="l" depth="2" NCoef="0" IVar="-1" Cut="0.0000000000000000e+00" cType="1" res="-2.3477959912270308e-03" rms="4.1034007072448730e-01" purity="2.3751518130302429e-01" nType="-99"/>
          <Node pos="r" depth="2" NCoef="0" IVar="-1" Cut="0.0000000000000000e+00" cType="1" res="1.2172934657428414e-04" rms="4.7328677773475647e-01" purity="4.3284213542938232e-01" nType="-99"/>
        </Node>
      </Node>
    </BinaryTree>
    <BinaryTree type="DecisionTree" boostWeight="1.0000000000000000e+00" itree="150">
      <Node pos="s" depth="0" NCoef="0" IVar="0" Cut="1.2082600593566895e+00" cType="1" res="-3.4181576222181320e-02" rms="4.5605835318565369e-01" purity="4.8932862281799316e-01" nType="0">
        <Node pos="l" depth="1" NCoef="0" IVar="6" Cut="8.6663093566894531e+01" cType="1" res="9.8016988486051559e-03" rms="4.6773940324783325e-01" purity="6.0620111227035522e-01" nType="0">
          <Node pos="l" depth="2" NCoef="0" IVar="-1" Cut="0.0000000000000000e+00" cType="1" res="-7.5434450991451740e-04" rms="4.8276191949844360e-01" purity="5.3346377611160278e-01" nType="-99"/>
          <Node pos="r" depth="2" NCoef="0" IVar="-1" Cut="0.0000000000000000e+00" cType="1" res="3.1091081909835339e-03" rms="4.2122110724449158e-01" purity="7.4757826328277588e-01" nType="-99"/>
        </Node>
        <Node pos="r" depth="1" NCoef="0" IVar="2" Cut="9.3962001800537109e-01" cType="1" res="-1.1936371028423309e-01" rms="4.1962826251983643e-01" purity="2.6298233866691589e-01" nType="0">
          <Node pos="l" depth="2" NCoef="0" IVar="-1" Cut="0.0000000000000000e+00" cType="1" res="-2.6296772994101048e-03" rms="3.2646036148071289e-01" purity="1.2486857175827026e-01" nType="-99"/>
          <Node pos="r" depth="2" NCoef="0" IVar="-1" Cut="0.0000000000000000e+00" cType="1" res="-7.4640504317358136e-04" rms="4.7492069005966187e-01" purity="3.8523781299591064e-01" nType="-99"/>
        </Node>
      </Node>
    </BinaryTree>
    <BinaryTree type="DecisionTree" boostWeight="1.0000000000000000e+00" itree="151">
      <Node pos="s" depth="0" NCoef="0" IVar="2" Cut="9.4039005041122437e-01" cType="1" res="-2.2931698709726334e-02" rms="4.5412957668304443e-01" purity="5.0372385978698730e-01" nType="0">
        <Node pos="l" depth="1" NCoef="0" IVar="8" Cut="2.3180904388427734e+00" cType="1" res="-1.1552313715219498e-01" rms="4.3583002686500549e-01" purity="3.0851835012435913e-01" nType="0">
          <Node pos="l" depth="2" NCoef="0" IVar="-1" Cut="0.0000000000000000e+00" cType="1" res="-8.6565472884103656e-04" rms="4.8400452733039856e-01" purity="4.2677274346351624e-01" nType="-99"/>
          <Node pos="r" depth="2" NCoef="0" IVar="-1" Cut="0.0000000000000000e+00" cType="1" res="-2.7250403072685003e-03" rms="3.3007735013961792e-01" purity="1.3047151267528534e-01" nType="-99"/>
        </Node>
        <Node pos="r" depth="1" NCoef="0" IVar="3" Cut="1.3806135559082031e+02" cType="1" res="3.0547216534614563e-02" rms="4.5588195323944092e-01" purity="6.1647057533264160e-01" nType="0">
          <Node pos="l" depth="2" NCoef="0" IVar="-1" Cut="0.0000000000000000e+00" cType="1" res="1.4819423668086529e-03" rms="4.4691944122314453e-01" purity="6.4968657493591309e-01" nType="-99"/>
          <Node pos="r" depth="2" NCoef="0" IVar="-1" Cut="0.0000000000000000e+00" cType="1" res="-2.4906543549150229e-03" rms="4.6965798735618591e-01" purity="4.3563148379325867e-01" nType="-99"/>
        </Node>
      </Node>
    </BinaryTree>
    <BinaryTree type="DecisionTree" boostWeight="1.0000000000000000e+00" itree="152">
      <Node pos="s" depth="0" NCoef="0" IVar="2" Cut="9.4322127103805542e-01" cType="1" res="-3.0734855681657791e-02" rms="4.5487150549888611e-01" purity="4.9301016330718994e-01" nType="0">
        <Node pos="l" depth="1" NCoef="0" IVar="0" Cut="9.3617701530456543e-01" cType="1" res="-1.1781166493892670e-01" rms="4.3725746870040894e-01" purity="3.1344872713088989e-01" nType="0">
          <Node pos="l" depth="2" NCoef="0" IVar="-1" Cut="0.0000000000000000e+00" cType="1" res="-5.7425966951996088e-04" rms="4.8750790953636169e-01" purity="4.8582306504249573e-01" nType="-99"/>
          <Node pos="r" depth="2" NCoef="0" IVar="-1" Cut="0.0000000000000000e+00" cType="1" res="-2.3106862790882587e-03" rms="3.9453992247581482e-01" purity="2.0707839727401733e-01" nType="-99"/>
        </Node>
        <Node pos="r" depth="1" NCoef="0" IVar="6" Cut="4.6574245452880859e+01" cType="1" res="2.7066782116889954e-02" rms="4.5712673664093018e-01" purity="6.1220318078994751e-01" nType="0">
          <Node pos="l" depth="2" NCoef="0" IVar="-1" Cut="0.0000000000000000e+00" cType="1" res="-1.9894733559340239e-03" rms="4.6629083156585693e-01" purity="4.3720757961273193e-01" nType="-99"/>
          <Node pos="r" depth="2" NCoef="0" IVar="-1" Cut="0.0000000000000000e+00" cType="1" res="1.4834054745733738e-03" rms="4.4896245002746582e-01" purity="6.5214878320693970e-01" nType="-99"/>
        </Node>
      </Node>
    </BinaryTree>
    <BinaryTree type="DecisionTree" boostWeight="1.0000000000000000e+00" itree="153">
      <Node pos="s" depth="0" NCoef="0" IVar="0" Cut="1.0219841003417969e+00" cType="1" res="-3.3174064010381699e-02" rms="4.5887267589569092e-01" purity="4.9797034263610840e-01" nType="0">
        <Node pos="l" depth="1" NCoef="0" IVar="6" Cut="9.6148712158203125e+01" cType="1" res="2.3733191192150116e-02" rms="4.6201258897781372e-01" purity="6.4077365398406982e-01" nType="0">
          <Node pos="l" depth="2" NCoef="0" IVar="-1" Cut="0.0000000000000000e+00" cType="1" res="-1.3408630911726505e-04" rms="4.7932645678520203e-01" purity="5.8983004093170166e-01" nType="-99"/>
          <Node pos="r" depth="2" NCoef="0" IVar="-1" Cut="0.0000000000000000e+00" cType="1" res="4.2593353427946568e-03" rms="3.8691344857215881e-01" purity="8.0266278982162476e-01" nType="-99"/>
        </Node>
        <Node pos="r" depth="1" NCoef="0" IVar="5" Cut="4.7422937011718750e+02" cType="1" res="-9.5566205680370331e-02" rms="4.4715833663940430e-01" purity="3.4140336513519287e-01" nType="0">
          <Node pos="l" depth="2" NCoef="0" IVar="-1" Cut="0.0000000000000000e+00" cType="1" res="-2.6000195648521185e-03" rms="4.1279387474060059e-01" purity="2.4634455144405365e-01" nType="-99"/>
          <Node pos="r" depth="2" NCoef="0" IVar="-1" Cut="0.0000000000000000e+00" cType="1" res="-6.9528730819001794e-04" rms="4.5885062217712402e-01" purity="4.0052789449691772e-01" nType="-99"/>
        </Node>
      </Node>
    </BinaryTree>
    <BinaryTree type="DecisionTree" boostWeight="1.0000000000000000e+00" itree="154">
      <Node pos="s" depth="0" NCoef="0" IVar="2" Cut="9.7130256891250610e-01" cType="1" res="-2.2287353873252869e-02" rms="4.5567125082015991e-01" purity="5.0150722265243530e-01" nType="0">
        <Node pos="l" depth="1" NCoef="0" IVar="0" Cut="1.0780010223388672e+00" cType="1" res="-5.2478715777397156e-02" rms="4.6141201257705688e-01" purity="4.4404965639114380e-01" nType="0">
          <Node pos="l" depth="2" NCoef="0" IVar="-1" Cut="0.0000000000000000e+00" cType="1" res="3.2170351914828643e-05" rms="4.7643285989761353e-01" purity="5.8525854349136353e-01" nType="-99"/>
          <Node pos="r" depth="2" NCoef="0" IVar="-1" Cut="0.0000000000000000e+00" cType="1" res="-1.6955886967480183e-03" rms="4.3515717983245850e-01" purity="2.8094270825386047e-01" nType="-99"/>
        </Node>
        <Node pos="r" depth="1" NCoef="0" IVar="3" Cut="1.3035662841796875e+02" cType="1" res="1.0703686624765396e-01" rms="4.0553128719329834e-01" purity="7.4762594699859619e-01" nType="0">
          <Node pos="l" depth="2" NCoef="0" IVar="-1" Cut="0.0000000000000000e+00" cType="1" res="5.1024989224970341e-03" rms="3.7284344434738159e-01" purity="7.9691314697265625e-01" nType="-99"/>
          <Node pos="r" depth="2" NCoef="0" IVar="-1" Cut="0.0000000000000000e+00" cType="1" res="-2.7400889666751027e-04" rms="4.6194940805435181e-01" purity="6.1568319797515869e-01" nType="-99"/>
        </Node>
      </Node>
    </BinaryTree>
    <BinaryTree type="DecisionTree" boostWeight="1.0000000000000000e+00" itree="155">
      <Node pos="s" depth="0" NCoef="0" IVar="8" Cut="2.4847466945648193e+00" cType="1" res="-2.1525027230381966e-02" rms="4.5715805888175964e-01" purity="5.0529712438583374e-01" nType="0">
        <Node pos="l" depth="1" NCoef="0" IVar="2" Cut="9.5200645923614502e-01" cType="1" res="7.1337702684104443e-03" rms="4.6575975418090820e-01" purity="5.6998234987258911e-01" nType="0">
          <Node pos="l" depth="2" NCoef="0" IVar="-1" Cut="0.0000000000000000e+00" cType="1" res="-7.5887172715738416e-04" rms="4.7858902812004089e-01" purity="4.4152018427848816e-01" nType="-99"/>
          <Node pos="r" depth="2" NCoef="0" IVar="-1" Cut="0.0000000000000000e+00" cType="1" res="1.7141820862889290e-03" rms="4.4568344950675964e-01" purity="7.0221126079559326e-01" nType="-99"/>
        </Node>
        <Node pos="r" depth="1" NCoef="0" IVar="2" Cut="9.4801062345504761e-01" cType="1" res="-1.5266689658164978e-01" rms="3.8949954509735107e-01" purity="2.0929923653602600e-01" nType="0">
          <Node pos="l" depth="2" NCoef="0" IVar="-1" Cut="0.0000000000000000e+00" cType="1" res="-2.5739215780049562e-03" rms="3.3432471752166748e-01" purity="1.3322804868221283e-01" nType="-99"/>
          <Node pos="r" depth="2" NCoef="0" IVar="-1" Cut="0.0000000000000000e+00" cType="1" res="-1.4586290344595909e-03" rms="4.5743158459663391e-01" purity="3.2887744903564453e-01" nType="-99"/>
        </Node>
      </Node>
    </BinaryTree>
    <BinaryTree type="DecisionTree" boostWeight="1.0000000000000000e+00" itree="156">
      <Node pos="s" depth="0" NCoef="0" IVar="6" Cut="4.6568489074707031e+01" cType="1" res="-4.4218100607395172e-02" rms="4.6219548583030701e-01" purity="4.8520210385322571e-01" nType="0">
        <Node pos="l" depth="1" NCoef="0" IVar="7" Cut="8.6886979639530182e-02" cType="1" res="-1.7044377326965332e-01" rms="4.4097086787223816e-01" purity="3.2968047261238098e-01" nType="0">
          <Node pos="l" depth="2" NCoef="0" IVar="-1" Cut="0.0000000000000000e+00" cType="1" res="-3.4080566838383675e-03" rms="3.9769965410232544e-01" purity="2.2258295118808746e-01" nType="-99"/>
          <Node pos="r" depth="2" NCoef="0" IVar="-1" Cut="0.0000000000000000e+00" cType="1" res="-1.4759572222828865e-03" rms="4.6555185317993164e-01" purity="4.3972975015640259e-01" nType="-99"/>
        </Node>
        <Node pos="r" depth="1" NCoef="0" IVar="2" Cut="9.7798901796340942e-01" cType="1" res="-1.0213974863290787e-02" rms="4.6188768744468689e-01" purity="5.2709823846817017e-01" nType="0">
          <Node pos="l" depth="2" NCoef="0" IVar="-1" Cut="0.0000000000000000e+00" cType="1" res="-6.1135698342695832e-04" rms="4.7000709176063538e-01" purity="4.9106845259666443e-01" nType="-99"/>
          <Node pos="r" depth="2" NCoef="0" IVar="-1" Cut="0.0000000000000000e+00" cType="1" res="5.8641280047595501e-03" rms="3.4627336263656616e-01" purity="8.1204950809478760e-01" nType="-99"/>
        </Node>
      </Node>
    </BinaryTree>
    <BinaryTree type="DecisionTree" boostWeight="1.0000000000000000e+00" itree="157">
      <Node pos="s" depth="0" NCoef="0" IVar="8" Cut="2.3990783691406250e+00" cType="1" res="-2.0099302753806114e-02" rms="4.5398902893066406e-01" purity="5.0207102298736572e-01" nType="0">
        <Node pos="l" depth="1" NCoef="0" IVar="6" Cut="7.8342018127441406e+01" cType="1" res="1.5792610123753548e-02" rms="4.6233642101287842e-01" purity="5.8554810285568237e-01" nType="0">
          <Node pos="l" depth="2" NCoef="0" IVar="-1" Cut="0.0000000000000000e+00" cType="1" res="-5.8678607456386089e-04" rms="4.7232925891876221e-01" purity="5.1096117496490479e-01" nType="-99"/>
          <Node pos="r" depth="2" NCoef="0" IVar="-1" Cut="0.0000000000000000e+00" cType="1" res="2.2823619656264782e-03" rms="4.3831372261047363e-01" purity="6.9529861211776733e-01" nType="-99"/>
        </Node>
        <Node pos="r" depth="1" NCoef="0" IVar="6" Cut="9.2886314392089844e+01" cType="1" res="-1.2759721279144287e-01" rms="4.0961328148841858e-01" purity="2.5205323100090027e-01" nType="0">
          <Node pos="l" depth="2" NCoef="0" IVar="-1" Cut="0.0000000000000000e+00" cType="1" res="-2.7435710653662682e-03" rms="3.5964757204055786e-01" purity="1.7480757832527161e-01" nType="-99"/>
          <Node pos="r" depth="2" NCoef="0" IVar="-1" Cut="0.0000000000000000e+00" cType="1" res="-9.0072001330554485e-04" rms="4.4632375240325928e-01" purity="3.3503228425979614e-01" nType="-99"/>
        </Node>
      </Node>
    </BinaryTree>
    <BinaryTree type="DecisionTree" boostWeight="1.0000000000000000e+00" itree="158">
      <Node pos="s" depth="0" NCoef="0" IVar="3" Cut="1.0258023071289062e+02" cType="1" res="-2.1836822852492332e-02" rms="4.5925545692443848e-01" purity="5.0572329759597778e-01" nType="0">
        <Node pos="l" depth="1" NCoef="0" IVar="-1" Cut="0.0000000000000000e+00" cType="1" res="-3.2574140932410955e-03" rms="4.3450570106506348e-01" purity="2.8327155113220215e-01" nType="-99"/>
        <Node pos="r" depth="1" NCoef="0" IVar="0" Cut="1.0952585935592651e+00" cType="1" res="-4.6522598713636398e-03" rms="4.5766916871070862e-01" purity="5.2624988555908203e-01" nType="0">
          <Node pos="l" depth="2" NCoef="0" IVar="-1" Cut="0.0000000000000000e+00" cType="1" res="1.1159671703353524e-03" rms="4.5391139388084412e-01" purity="6.6228330135345459e-01" nType="-99"/>
          <Node pos="r" depth="2" NCoef="0" IVar="-1" Cut="0.0000000000000000e+00" cType="1" res="-1.1706742225214839e-03" rms="4.5359069108963013e-01" purity="3.3704930543899536e-01" nType="-99"/>
        </Node>
      </Node>
    </BinaryTree>
    <BinaryTree type="DecisionTree" boostWeight="1.0000000000000000e+00" itree="159">
      <Node pos="s" depth="0" NCoef="0" IVar="0" Cut="1.2427314519882202e+00" cType="1" res="-1.3747845776379108e-02" rms="4.5221462845802307e-01" purity="5.1334470510482788e-01" nType="0">
        <Node pos="l" depth="1" NCoef="0" IVar="7" Cut="1.0989465564489365e-01" cType="1" res="3.0368659645318985e-02" rms="4.5792812108993530e-01" purity="6.2443768978118896e-01" nType="0">
          <Node pos="l" depth="2" NCoef="0" IVar="-1" Cut="0.0000000000000000e+00" cType="1" res="-3.9469954208470881e-04" rms="4.6549549698829651e-01" purity="5.7130855321884155e-01" nType="-99"/>
          <Node pos="r" depth="2" NCoef="0" IVar="-1" Cut="0.0000000000000000e+00" cType="1" res="2.6766741648316383e-03" rms="4.3680843710899353e-01" purity="7.0219683647155762e-01" nType="-99"/>
        </Node>
        <Node pos="r" depth="1" NCoef="0" IVar="2" Cut="9.4971179962158203e-01" cType="1" res="-1.1017003655433655e-01" rms="4.2377063632011414e-01" purity="2.7053698897361755e-01" nType="0">
          <Node pos="l" depth="2" NCoef="0" IVar="-1" Cut="0.0000000000000000e+00" cType="1" res="-2.3325420916080475e-03" rms="3.6538589000701904e-01" purity="1.6609509289264679e-01" nType="-99"/>
          <Node pos="r" depth="2" NCoef="0" IVar="-1" Cut="0.0000000000000000e+00" cType="1" res="-6.4059445867314935e-04" rms="4.7896063327789307e-01" purity="4.0476310253143311e-01" nType="-99"/>
        </Node>
      </Node>
    </BinaryTree>
    <BinaryTree type="DecisionTree" boostWeight="1.0000000000000000e+00" itree="160">
      <Node pos="s" depth="0" NCoef="0" IVar="2" Cut="9.2979884147644043e-01" cType="1" res="-1.6146374866366386e-02" rms="4.5412981510162354e-01" purity="5.1135355234146118e-01" nType="0">
        <Node pos="l" depth="1" NCoef="0" IVar="8" Cut="2.2259554862976074e+00" cType="1" res="-1.2892039120197296e-01" rms="4.2789816856384277e-01" purity="2.8264603018760681e-01" nType="0">
          <Node pos="l" depth="2" NCoef="0" IVar="-1" Cut="0.0000000000000000e+00" cType="1" res="-8.1995700020343065e-04" rms="4.7954714298248291e-01" purity="4.1429769992828369e-01" nType="-99"/>
          <Node pos="r" depth="2" NCoef="0" IVar="-1" Cut="0.0000000000000000e+00" cType="1" res="-2.6445535477250814e-03" rms="3.5408127307891846e-01" purity="1.5404613316059113e-01" nType="-99"/>
        </Node>
        <Node pos="r" depth="1" NCoef="0" IVar="0" Cut="1.5196189880371094e+00" cType="1" res="1.6062295064330101e-02" rms="4.5625892281532288e-01" purity="5.7667326927185059e-01" nType="0">
          <Node pos="l" depth="2" NCoef="0" IVar="-1" Cut="0.0000000000000000e+00" cType="1" res="9.3689456116408110e-04" rms="4.5855358242988586e-01" purity="6.3083541393280029e-01" nType="-99"/>
          <Node pos="r" depth="2" NCoef="0" IVar="-1" Cut="0.0000000000000000e+00" cType="1" res="-2.0504356361925602e-03" rms="4.0919470787048340e-01" purity="2.2681304812431335e-01" nType="-99"/>
        </Node>
      </Node>
    </BinaryTree>
    <BinaryTree type="DecisionTree" boostWeight="1.0000000000000000e+00" itree="161">
      <Node pos="s" depth="0" NCoef="0" IVar="6" Cut="5.6170211791992188e+01" cType="1" res="-4.6555388718843460e-02" rms="4.6184331178665161e-01" purity="4.7995105385780334e-01" nType="0">
        <Node pos="l" depth="1" NCoef="0" IVar="7" Cut="1.3829214870929718e-01" cType="1" res="-1.2707296013832092e-01" rms="4.6411940455436707e-01" purity="3.8717478513717651e-01" nType="0">
          <Node pos="l" depth="2" NCoef="0" IVar="-1" Cut="0.0000000000000000e+00" cType="1" res="-2.4776621721684933e-03" rms="4.5175915956497192e-01" purity="3.3501103520393372e-01" nType="-99"/>
          <Node pos="r" depth="2" NCoef="0" IVar="-1" Cut="0.0000000000000000e+00" cType="1" res="-6.9683871697634459e-04" rms="4.8261493444442749e-01" purity="5.2110880613327026e-01" nType="-99"/>
        </Node>
        <Node pos="r" depth="1" NCoef="0" IVar="8" Cut="2.1179790496826172e+00" cType="1" res="-8.1706726923584938e-03" rms="4.5577460527420044e-01" purity="5.2417975664138794e-01" nType="0">
          <Node pos="l" depth="2" NCoef="0" IVar="-1" Cut="0.0000000000000000e+00" cType="1" res="2.3745135404169559e-03" rms="4.4186672568321228e-01" purity="7.0485877990722656e-01" nType="-99"/>
          <Node pos="r" depth="2" NCoef="0" IVar="-1" Cut="0.0000000000000000e+00" cType="1" res="-1.1289075482636690e-03" rms="4.5427885651588440e-01" purity="4.1931745409965515e-01" nType="-99"/>
        </Node>
      </Node>
    </BinaryTree>
    <BinaryTree type="DecisionTree" boostWeight="1.0000000000000000e+00" itree="162">
      <Node pos="s" depth="0" NCoef="0" IVar="2" Cut="9.4322127103805542e-01" cType="1" res="-4.8808511346578598e-03" rms="4.5123410224914551e-01" purity="5.2336823940277100e-01" nType="0">
        <Node pos="l" depth="1" NCoef="0" IVar="5" Cut="4.7579287719726562e+02" cType="1" res="-8.6564026772975922e-02" rms="4.5166093111038208e-01" purity="3.4755834937095642e-01" nType="0">
          <Node pos="l" depth="2" NCoef="0" IVar="-1" Cut="0.0000000000000000e+00" cType="1" res="-2.2401099558919668e-03" rms="3.9875447750091553e-01" purity="2.3239219188690186e-01" nType="-99"/>
          <Node pos="r" depth="2" NCoef="0" IVar="-1" Cut="0.0000000000000000e+00" cType="1" res="-6.9481617538258433e-04" rms="4.7376221418380737e-01" purity="4.1422435641288757e-01" nType="-99"/>
        </Node>
        <Node pos="r" depth="1" NCoef="0" IVar="8" Cut="2.5302083492279053e+00" cType="1" res="4.7943152487277985e-02" rms="4.4300991296768188e-01" purity="6.3706338405609131e-01" nType="0">
          <Node pos="l" depth="2" NCoef="0" IVar="-1" Cut="0.0000000000000000e+00" cType="1" res="2.0462514366954565e-03" rms="4.3643018603324890e-01" purity="6.9561213254928589e-01" nType="-99"/>
          <Node pos="r" depth="2" NCoef="0" IVar="-1" Cut="0.0000000000000000e+00" cType="1" res="-2.0286687649786472e-03" rms="4.4050401449203491e-01" purity="2.7280789613723755e-01" nType="-99"/>
        </Node>
      </Node>
    </BinaryTree>
    <BinaryTree type="DecisionTree" boostWeight="1.0000000000000000e+00" itree="163">
      <Node pos="s" depth="0" NCoef="0" IVar="5" Cut="4.6531134033203125e+02" cType="1" res="2.4089505895972252e-03" rms="4.5694544911384583e-01" purity="5.3066217899322510e-01" nType="0">
        <Node pos="l" depth="1" NCoef="0" IVar="8" Cut="2.4073450565338135e+00" cType="1" res="-8.6019627749919891e-02" rms="4.5532599091529846e-01" purity="4.0553507208824158e-01" nType="0">
          <Node pos="l" depth="2" NCoef="0" IVar="-1" Cut="0.0000000000000000e+00" cType="1" res="-7.2641420410946012e-04" rms="4.7890543937683105e-01" purity="5.0506180524826050e-01" nType="-99"/>
          <Node pos="r" depth="2" NCoef="0" IVar="-1" Cut="0.0000000000000000e+00" cType="1" res="-2.6785766240209341e-03" rms="3.7180998921394348e-01" purity="1.7385134100914001e-01" nType="-99"/>
        </Node>
        <Node pos="r" depth="1" NCoef="0" IVar="4" Cut="3.7723956298828125e+02" cType="1" res="4.1971452534198761e-02" rms="4.5210224390029907e-01" purity="5.8664333820343018e-01" nType="0">
          <Node pos="l" depth="2" NCoef="0" IVar="-1" Cut="0.0000000000000000e+00" cType="1" res="1.8409253098070621e-03" rms="4.4603261351585388e-01" purity="6.3850539922714233e-01" nType="-99"/>
          <Node pos="r" depth="2" NCoef="0" IVar="-1" Cut="0.0000000000000000e+00" cType="1" res="-2.0321055781096220e-03" rms="4.4411268830299377e-01" purity="3.5440328717231750e-01" nType="-99"/>
        </Node>
      </Node>
    </BinaryTree>
    <BinaryTree type="DecisionTree" boostWeight="1.0000000000000000e+00" itree="164">
      <Node pos="s" depth="0" NCoef="0" IVar="8" Cut="2.4699933528900146e+00" cType="1" res="-3.7243116647005081e-02" rms="4.5085576176643372e-01" purity="4.8683828115463257e-01" nType="0">
        <Node pos="l" depth="1" NCoef="0" IVar="6" Cut="9.6339782714843750e+01" cType="1" res="-3.2085592392832041e-03" rms="4.6159863471984863e-01" purity="5.6091493368148804e-01" nType="0">
          <Node pos="l" depth="2" NCoef="0" IVar="-1" Cut="0.0000000000000000e+00" cType="1" res="-8.4288138896226883e-04" rms="4.6952381730079651e-01" purity="5.0351756811141968e-01" nType="-99"/>
          <Node pos="r" depth="2" NCoef="0" IVar="-1" Cut="0.0000000000000000e+00" cType="1" res="2.8548135887831450e-03" rms="4.1965594887733459e-01" purity="7.1386754512786865e-01" nType="-99"/>
        </Node>
        <Node pos="r" depth="1" NCoef="0" IVar="8" Cut="2.6213018894195557e+00" cType="1" res="-1.7411853373050690e-01" rms="3.7477412819862366e-01" purity="1.8892690539360046e-01" nType="0">
          <Node pos="l" depth="2" NCoef="0" IVar="-1" Cut="0.0000000000000000e+00" cType="1" res="-1.8445571186020970e-03" rms="4.2577892541885376e-01" purity="2.7746301889419556e-01" nType="-99"/>
          <Node pos="r" depth="2" NCoef="0" IVar="-1" Cut="0.0000000000000000e+00" cType="1" res="-2.8683445416390896e-03" rms="3.3334618806838989e-01" purity="1.3192811608314514e-01" nType="-99"/>
        </Node>
      </Node>
    </BinaryTree>
    <BinaryTree type="DecisionTree" boostWeight="1.0000000000000000e+00" itree="165">
      <Node pos="s" depth="0" NCoef="0" IVar="0" Cut="1.1810281276702881e+00" cType="1" res="-1.4888332225382328e-02" rms="4.5301884412765503e-01" purity="5.1518601179122925e-01" nType="0">
        <Node pos="l" depth="1" NCoef="0" IVar="6" Cut="9.1454887390136719e+01" cType="1" res="3.0197052285075188e-02" rms="4.5648321509361267e-01" purity="6.3876414299011230e-01" nType="0">
          <Node pos="l" depth="2" NCoef="0" IVar="-1" Cut="0.0000000000000000e+00" cType="1" res="-2.6083190459758043e-04" rms="4.7502502799034119e-01" purity="5.7300943136215210e-01" nType="-99"/>
          <Node pos="r" depth="2" NCoef="0" IVar="-1" Cut="0.0000000000000000e+00" cType="1" res="4.4510993175208569e-03" rms="3.9062225818634033e-01" purity="7.9497414827346802e-01" nType="-99"/>
        </Node>
        <Node pos="r" depth="1" NCoef="0" IVar="2" Cut="9.6707677841186523e-01" cType="1" res="-9.6422791481018066e-02" rms="4.3497589230537415e-01" purity="2.9170173406600952e-01" nType="0">
          <Node pos="l" depth="2" NCoef="0" IVar="-1" Cut="0.0000000000000000e+00" cType="1" res="-1.8256941111758351e-03" rms="4.1723820567131042e-01" purity="2.4379907548427582e-01" nType="-99"/>
          <Node pos="r" depth="2" NCoef="0" IVar="-1" Cut="0.0000000000000000e+00" cType="1" res="3.3363283728249371e-04" rms="4.8663622140884399e-01" purity="4.9361953139305115e-01" nType="-99"/>
        </Node>
      </Node>
    </BinaryTree>
    <BinaryTree type="DecisionTree" boostWeight="1.0000000000000000e+00" itree="166">
      <Node pos="s" depth="0" NCoef="0" IVar="2" Cut="9.3017476797103882e-01" cType="1" res="-2.1518519148230553e-02" rms="4.5639529824256897e-01" purity="5.0602018833160400e-01" nType="0">
        <Node pos="l" depth="1" NCoef="0" IVar="8" Cut="2.2122519016265869e+00" cType="1" res="-1.2398865818977356e-01" rms="4.2643743753433228e-01" purity="2.8591600060462952e-01" nType="0">
          <Node pos="l" depth="2" NCoef="0" IVar="-1" Cut="0.0000000000000000e+00" cType="1" res="-5.3685577586293221e-04" rms="4.7946482896804810e-01" purity="4.3430718779563904e-01" nType="-99"/>
          <Node pos="r" depth="2" NCoef="0" IVar="-1" Cut="0.0000000000000000e+00" cType="1" res="-2.7442206628620625e-03" rms="3.5337799787521362e-01" purity="1.5233832597732544e-01" nType="-99"/>
        </Node>
        <Node pos="r" depth="1" NCoef="0" IVar="3" Cut="1.1124991607666016e+02" cType="1" res="1.0214639827609062e-02" rms="4.6068251132965088e-01" purity="5.7418245077133179e-01" nType="0">
          <Node pos="l" depth="2" NCoef="0" IVar="-1" Cut="0.0000000000000000e+00" cType="1" res="-1.9205227727070451e-03" rms="4.7756001353263855e-01" purity="4.3383666872978210e-01" nType="-99"/>
          <Node pos="r" depth="2" NCoef="0" IVar="-1" Cut="0.0000000000000000e+00" cType="1" res="8.1598421093076468e-04" rms="4.5292061567306519e-01" purity="6.0480272769927979e-01" nType="-99"/>
        </Node>
      </Node>
    </BinaryTree>
    <BinaryTree type="DecisionTree" boostWeight="1.0000000000000000e+00" itree="167">
      <Node pos="s" depth="0" NCoef="0" IVar="0" Cut="1.6501344442367554e+00" cType="1" res="-1.5807477757334709e-02" rms="4.5662024617195129e-01" purity="5.0894200801849365e-01" nType="0">
        <Node pos="l" depth="1" NCoef="0" IVar="2" Cut="9.2714911699295044e-01" cType="1" res="4.5790215954184532e-03" rms="4.6330019831657410e-01" purity="5.5122017860412598e-01" nType="0">
          <Node pos="l" depth="2" NCoef="0" IVar="-1" Cut="0.0000000000000000e+00" cType="1" res="-1.4654023107141256e-03" rms="4.4321203231811523e-01" purity="3.2121789455413818e-01" nType="-99"/>
          <Node pos="r" depth="2" NCoef="0" IVar="-1" Cut="0.0000000000000000e+00" cType="1" res="6.0570210916921496e-04" rms="4.6465846896171570e-01" purity="6.0220408439636230e-01" nType="-99"/>
        </Node>
        <Node pos="r" depth="1" NCoef="0" IVar="-1" Cut="0.0000000000000000e+00" cType="1" res="-2.5612264871597290e-03" rms="3.5139784216880798e-01" purity="1.5197552740573883e-01" nType="-99"/>
      </Node>
    </BinaryTree>
    <BinaryTree type="DecisionTree" boostWeight="1.0000000000000000e+00" itree="168">
      <Node pos="s" depth="0" NCoef="0" IVar="0" Cut="1.4408175945281982e+00" cType="1" res="-2.7216149494051933e-02" rms="4.5558699965476990e-01" purity="4.9973511695861816e-01" nType="0">
        <Node pos="l" depth="1" NCoef="0" IVar="6" Cut="8.6491058349609375e+01" cType="1" res="7.5817941688001156e-03" rms="4.6737179160118103e-01" purity="5.7666927576065063e-01" nType="0">
          <Node pos="l" depth="2" NCoef="0" IVar="-1" Cut="0.0000000000000000e+00" cType="1" res="-7.4701820267364383e-04" rms="4.7893136739730835e-01" purity="5.1335197687149048e-01" nType="-99"/>
          <Node pos="r" depth="2" NCoef="0" IVar="-1" Cut="0.0000000000000000e+00" cType="1" res="2.4839863181114197e-03" rms="4.3306115269660950e-01" purity="6.9077360630035400e-01" nType="-99"/>
        </Node>
        <Node pos="r" depth="1" NCoef="0" IVar="1" Cut="3.9115545654296875e+02" cType="1" res="-1.7200148105621338e-01" rms="3.6919188499450684e-01" purity="1.7963165044784546e-01" nType="0">
          <Node pos="l" depth="2" NCoef="0" IVar="-1" Cut="0.0000000000000000e+00" cType="1" res="-3.0044168233871460e-03" rms="3.1807062029838562e-01" purity="1.2534667551517487e-01" nType="-99"/>
          <Node pos="r" depth="2" NCoef="0" IVar="-1" Cut="0.0000000000000000e+00" cType="1" res="-1.5336096985265613e-03" rms="4.2596641182899475e-01" purity="2.6293933391571045e-01" nType="-99"/>
        </Node>
      </Node>
    </BinaryTree>
    <BinaryTree type="DecisionTree" boostWeight="1.0000000000000000e+00" itree="169">
      <Node pos="s" depth="0" NCoef="0" IVar="2" Cut="9.5200645923614502e-01" cType="1" res="-4.5007962733507156e-02" rms="4.5157933235168457e-01" purity="4.8271495103836060e-01" nType="0">
        <Node pos="l" depth="1" NCoef="0" IVar="6" Cut="7.8266906738281250e+01" cType="1" res="-1.0591176897287369e-01" rms="4.5120075345039368e-01" purity="3.5026967525482178e-01" nType="0">
          <Node pos="l" depth="2" NCoef="0" IVar="-1" Cut="0.0000000000000000e+00" cType="1" res="-2.3025474511086941e-03" rms="4.3260529637336731e-01" purity="2.8301891684532166e-01" nType="-99"/>
          <Node pos="r" depth="2" NCoef="0" IVar="-1" Cut="0.0000000000000000e+00" cType="1" res="-5.6674447841942310e-04" rms="4.6425881981849670e-01" purity="4.3829590082168579e-01" nType="-99"/>
        </Node>
        <Node pos="r" depth="1" NCoef="0" IVar="0" Cut="1.4205689430236816e+00" cType="1" res="2.5191681459546089e-02" rms="4.4171759486198425e-01" purity="6.3537561893463135e-01" nType="0">
          <Node pos="l" depth="2" NCoef="0" IVar="-1" Cut="0.0000000000000000e+00" cType="1" res="1.7862755339592695e-03" rms="4.3523752689361572e-01" purity="7.1091306209564209e-01" nType="-99"/>
          <Node pos="r" depth="2" NCoef="0" IVar="-1" Cut="0.0000000000000000e+00" cType="1" res="-2.5542671792209148e-03" rms="4.1969415545463562e-01" purity="2.3775121569633484e-01" nType="-99"/>
        </Node>
      </Node>
    </BinaryTree>
    <BinaryTree type="DecisionTree" boostWeight="1.0000000000000000e+00" itree="170">
      <Node pos="s" depth="0" NCoef="0" IVar="0" Cut="1.0076739788055420e+00" cType="1" res="-3.0776008963584900e-02" rms="4.5595693588256836e-01" purity="4.9562281370162964e-01" nType="0">
        <Node pos="l" depth="1" NCoef="0" IVar="7" Cut="1.4400346577167511e-01" cType="1" res="2.4513166397809982e-02" rms="4.6087715029716492e-01" purity="6.4368391036987305e-01" nType="0">
          <Node pos="l" depth="2" NCoef="0" IVar="-1" Cut="0.0000000000000000e+00" cType="1" res="-1.2230558786541224e-04" rms="4.6738624572753906e-01" purity="6.1091554164886475e-01" nType="-99"/>
          <Node pos="r" depth="2" NCoef="0" IVar="-1" Cut="0.0000000000000000e+00" cType="1" res="3.0538453720510006e-03" rms="4.3074995279312134e-01" purity="7.3661458492279053e-01" nType="-99"/>
        </Node>
        <Node pos="r" depth="1" NCoef="0" IVar="6" Cut="7.3063781738281250e+01" cType="1" res="-8.7500303983688354e-02" rms="4.4375073909759521e-01" purity="3.4371849894523621e-01" nType="0">
          <Node pos="l" depth="2" NCoef="0" IVar="-1" Cut="0.0000000000000000e+00" cType="1" res="-2.2434694692492485e-03" rms="4.1530740261077881e-01" purity="2.6042115688323975e-01" nType="-99"/>
          <Node pos="r" depth="2" NCoef="0" IVar="-1" Cut="0.0000000000000000e+00" cType="1" res="-6.2291248468682170e-04" rms="4.5770752429962158e-01" purity="4.0741342306137085e-01" nType="-99"/>
        </Node>
      </Node>
    </BinaryTree>
    <BinaryTree type="DecisionTree" boostWeight="1.0000000000000000e+00" itree="171">
      <Node pos="s" depth="0" NCoef="0" IVar="8" Cut="2.3853490352630615e+00" cType="1" res="-3.2707646489143372e-02" rms="4.5797127485275269e-01" purity="4.8815450072288513e-01" nType="0">
        <Node pos="l" depth="1" NCoef="0" IVar="6" Cut="7.6408889770507812e+01" cType="1" res="-2.0610475912690163e-03" rms="4.6497204899787903e-01" purity="5.6067395210266113e-01" nType="0">
          <Node pos="l" depth="2" NCoef="0" IVar="-1" Cut="0.0000000000000000e+00" cType="1" res="-8.1058073556050658e-04" rms="4.7329673171043396e-01" purity="4.8497933149337769e-01" nType="-99"/>
          <Node pos="r" depth="2" NCoef="0" IVar="-1" Cut="0.0000000000000000e+00" cType="1" res="1.5644886298105121e-03" rms="4.4520872831344604e-01" purity="6.7154365777969360e-01" nType="-99"/>
        </Node>
        <Node pos="r" depth="1" NCoef="0" IVar="5" Cut="4.9004330444335938e+02" cType="1" res="-1.2289043515920639e-01" rms="4.2406061291694641e-01" purity="2.7475371956825256e-01" nType="0">
          <Node pos="l" depth="2" NCoef="0" IVar="-1" Cut="0.0000000000000000e+00" cType="1" res="-2.8148379642516375e-03" rms="3.7810173630714417e-01" purity="1.8848386406898499e-01" nType="-99"/>
          <Node pos="r" depth="2" NCoef="0" IVar="-1" Cut="0.0000000000000000e+00" cType="1" res="-6.9827429251745343e-04" rms="4.5095637440681458e-01" purity="3.6095175147056580e-01" nType="-99"/>
        </Node>
      </Node>
    </BinaryTree>
    <BinaryTree type="DecisionTree" boostWeight="1.0000000000000000e+00" itree="172">
      <Node pos="s" depth="0" NCoef="0" IVar="0" Cut="1.0076739788055420e+00" cType="1" res="-2.9198499396443367e-02" rms="4.5253357291221619e-01" purity="4.9471729993820190e-01" nType="0">
        <Node pos="l" depth="1" NCoef="0" IVar="6" Cut="7.7398513793945312e+01" cType="1" res="3.9476182311773300e-02" rms="4.5355519652366638e-01" purity="6.6477012634277344e-01" nType="0">
          <Node pos="l" depth="2" NCoef="0" IVar="-1" Cut="0.0000000000000000e+00" cType="1" res="-3.8374526775442064e-04" rms="4.8092782497406006e-01" purity="5.7326662540435791e-01" nType="-99"/>
          <Node pos="r" depth="2" NCoef="0" IVar="-1" Cut="0.0000000000000000e+00" cType="1" res="4.2774626053869724e-03" rms="3.9453515410423279e-01" purity="7.9988229274749756e-01" nType="-99"/>
        </Node>
        <Node pos="r" depth="1" NCoef="0" IVar="6" Cut="6.3957462310791016e+01" cType="1" res="-9.2032127082347870e-02" rms="4.4235336780548096e-01" purity="3.3912816643714905e-01" nType="0">
          <Node pos="l" depth="2" NCoef="0" IVar="-1" Cut="0.0000000000000000e+00" cType="1" res="-2.4268096312880516e-03" rms="4.0471637248992920e-01" purity="2.4074895679950714e-01" nType="-99"/>
          <Node pos="r" depth="2" NCoef="0" IVar="-1" Cut="0.0000000000000000e+00" cType="1" res="-8.1913906615227461e-04" rms="4.5515653491020203e-01" purity="3.9105620980262756e-01" nType="-99"/>
        </Node>
      </Node>
    </BinaryTree>
    <BinaryTree type="DecisionTree" boostWeight="1.0000000000000000e+00" itree="173">
      <Node pos="s" depth="0" NCoef="0" IVar="0" Cut="1.4415274858474731e+00" cType="1" res="-2.9038604348897934e-02" rms="4.4710278511047363e-01" purity="4.9152186512947083e-01" nType="0">
        <Node pos="l" depth="1" NCoef="0" IVar="2" Cut="9.6019333600997925e-01" cType="1" res="8.7728435173630714e-03" rms="4.5953804254531860e-01" purity="5.7433843612670898e-01" nType="0">
          <Node pos="l" depth="2" NCoef="0" IVar="-1" Cut="0.0000000000000000e+00" cType="1" res="-7.5641460716724396e-04" rms="4.7671070694923401e-01" purity="4.6910360455513000e-01" nType="-99"/>
          <Node pos="r" depth="2" NCoef="0" IVar="-1" Cut="0.0000000000000000e+00" cType="1" res="3.5007707774639130e-03" rms="4.0777018666267395e-01" purity="7.7347970008850098e-01" nType="-99"/>
        </Node>
        <Node pos="r" depth="1" NCoef="0" IVar="6" Cut="9.3849845886230469e+01" cType="1" res="-1.7779448628425598e-01" rms="3.5748165845870972e-01" purity="1.6570907831192017e-01" nType="0">
          <Node pos="l" depth="2" NCoef="0" IVar="-1" Cut="0.0000000000000000e+00" cType="1" res="-2.8574364259839058e-03" rms="2.9537284374237061e-01" purity="1.0673478990793228e-01" nType="-99"/>
          <Node pos="r" depth="2" NCoef="0" IVar="-1" Cut="0.0000000000000000e+00" cType="1" res="-1.6134844627231359e-03" rms="4.2192107439041138e-01" purity="2.5015306472778320e-01" nType="-99"/>
        </Node>
      </Node>
    </BinaryTree>
    <BinaryTree type="DecisionTree" boostWeight="1.0000000000000000e+00" itree="174">
      <Node pos="s" depth="0" NCoef="0" IVar="0" Cut="8.2911723852157593e-01" cType="1" res="-3.5072717815637589e-02" rms="4.5404702425003052e-01" purity="4.9054247140884399e-01" nType="0">
        <Node pos="l" depth="1" NCoef="0" IVar="5" Cut="4.7700210571289062e+02" cType="1" res="5.6250970810651779e-02" rms="4.4224348664283752e-01" purity="6.7815291881561279e-01" nType="0">
          <Node pos="l" depth="2" NCoef="0" IVar="-1" Cut="0.0000000000000000e+00" cType="1" res="-1.0263066506013274e-03" rms="4.7347655892372131e-01" purity="5.3365969657897949e-01" nType="-99"/>
          <Node pos="r" depth="2" NCoef="0" IVar="-1" Cut="0.0000000000000000e+00" cType="1" res="3.5078497603535652e-03" rms="4.1244328022003174e-01" purity="7.5489223003387451e-01" nType="-99"/>
        </Node>
        <Node pos="r" depth="1" NCoef="0" IVar="2" Cut="9.5200645923614502e-01" cType="1" res="-7.9387284815311432e-02" rms="4.5308011770248413e-01" purity="3.9950510859489441e-01" nType="0">
          <Node pos="l" depth="2" NCoef="0" IVar="-1" Cut="0.0000000000000000e+00" cType="1" res="-2.0326981320977211e-03" rms="4.2920085787773132e-01" purity="2.6645505428314209e-01" nType="-99"/>
          <Node pos="r" depth="2" NCoef="0" IVar="-1" Cut="0.0000000000000000e+00" cType="1" res="-1.0619904787745327e-04" rms="4.7033128142356873e-01" purity="5.6361413002014160e-01" nType="-99"/>
        </Node>
      </Node>
    </BinaryTree>
    <BinaryTree type="DecisionTree" boostWeight="1.0000000000000000e+00" itree="175">
      <Node pos="s" depth="0" NCoef="0" IVar="0" Cut="1.4630206823348999e+00" cType="1" res="-2.0571224391460419e-02" rms="4.5560333132743835e-01" purity="5.0703501701354980e-01" nType="0">
        <Node pos="l" depth="1" NCoef="0" IVar="2" Cut="9.3539702892303467e-01" cType="1" res="4.1810432448983192e-03" rms="4.6412479877471924e-01" purity="5.6653892993927002e-01" nType="0">
          <Node pos="l" depth="2" NCoef="0" IVar="-1" Cut="0.0000000000000000e+00" cType="1" res="-1.1353575391694903e-03" rms="4.6393096446990967e-01" purity="3.6714619398117065e-01" nType="-99"/>
          <Node pos="r" depth="2" NCoef="0" IVar="-1" Cut="0.0000000000000000e+00" cType="1" res="8.6105486843734980e-04" rms="4.6055650711059570e-01" purity="6.4617908000946045e-01" nType="-99"/>
        </Node>
        <Node pos="r" depth="1" NCoef="0" IVar="-1" Cut="0.0000000000000000e+00" cType="1" res="-2.1978286094963551e-03" rms="3.8209262490272522e-01" purity="1.9332286715507507e-01" nType="-99"/>
      </Node>
    </BinaryTree>
    <BinaryTree type="DecisionTree" boostWeight="1.0000000000000000e+00" itree="176">
      <Node pos="s" depth="0" NCoef="0" IVar="0" Cut="1.3753616809844971e+00" cType="1" res="-1.5518097206950188e-02" rms="4.5191201567649841e-01" purity="5.1140671968460083e-01" nType="0">
        <Node pos="l" depth="1" NCoef="0" IVar="2" Cut="9.2932945489883423e-01" cType="1" res="2.1191623061895370e-02" rms="4.5911884307861328e-01" purity="5.9802722930908203e-01" nType="0">
          <Node pos="l" depth="2" NCoef="0" IVar="-1" Cut="0.0000000000000000e+00" cType="1" res="-1.3522212393581867e-03" rms="4.6126574277877808e-01" purity="3.5910084843635559e-01" nType="-99"/>
          <Node pos="r" depth="2" NCoef="0" IVar="-1" Cut="0.0000000000000000e+00" cType="1" res="1.2246831320226192e-03" rms="4.5418167114257812e-01" purity="6.5876877307891846e-01" nType="-99"/>
        </Node>
        <Node pos="r" depth="1" NCoef="0" IVar="1" Cut="3.4573907470703125e+02" cType="1" res="-1.3761590421199799e-01" rms="4.0372866392135620e-01" purity="2.2330407798290253e-01" nType="0">
          <Node pos="l" depth="2" NCoef="0" IVar="-1" Cut="0.0000000000000000e+00" cType="1" res="-2.7828367892652750e-03" rms="3.3557099103927612e-01" purity="1.3795208930969238e-01" nType="-99"/>
          <Node pos="r" depth="2" NCoef="0" IVar="-1" Cut="0.0000000000000000e+00" cType="1" res="-1.2880063150078058e-03" rms="4.3892976641654968e-01" purity="2.8508830070495605e-01" nType="-99"/>
        </Node>
      </Node>
    </BinaryTree>
    <BinaryTree type="DecisionTree" boostWeight="1.0000000000000000e+00" itree="177">
      <Node pos="s" depth="0" NCoef="0" IVar="2" Cut="9.6867448091506958e-01" cType="1" res="-3.1610403209924698e-02" rms="4.5380017161369324e-01" purity="4.9541342258453369e-01" nType="0">
        <Node pos="l" depth="1" NCoef="0" IVar="0" Cut="5.8775705099105835e-01" cType="1" res="-6.4143672585487366e-02" rms="4.5909062027931213e-01" purity="4.3083512783050537e-01" nType="0">
          <Node pos="l" depth="2" NCoef="0" IVar="-1" Cut="0.0000000000000000e+00" cType="1" res="3.4503848291933537e-03" rms="4.2763826251029968e-01" purity="7.3382604122161865e-01" nType="-99"/>
          <Node pos="r" depth="2" NCoef="0" IVar="-1" Cut="0.0000000000000000e+00" cType="1" res="-1.4783315127715468e-03" rms="4.5703697204589844e-01" purity="3.9273208379745483e-01" nType="-99"/>
        </Node>
        <Node pos="r" depth="1" NCoef="0" IVar="6" Cut="5.7974838256835938e+01" cType="1" res="8.3944372832775116e-02" rms="4.1432851552963257e-01" purity="7.2478896379470825e-01" nType="0">
          <Node pos="l" depth="2" NCoef="0" IVar="-1" Cut="0.0000000000000000e+00" cType="1" res="-4.1983995470218360e-04" rms="4.7801601886749268e-01" purity="6.1398953199386597e-01" nType="-99"/>
          <Node pos="r" depth="2" NCoef="0" IVar="-1" Cut="0.0000000000000000e+00" cType="1" res="4.5069884508848190e-03" rms="3.6649325489997864e-01" purity="7.8195130825042725e-01" nType="-99"/>
        </Node>
      </Node>
    </BinaryTree>
    <BinaryTree type="DecisionTree" boostWeight="1.0000000000000000e+00" itree="178">
      <Node pos="s" depth="0" NCoef="0" IVar="6" Cut="5.1446346282958984e+01" cType="1" res="-2.9197352007031441e-02" rms="4.5018988847732544e-01" purity="4.9245604872703552e-01" nType="0">
        <Node pos="l" depth="1" NCoef="0" IVar="6" Cut="3.5325065612792969e+01" cType="1" res="-1.4665542542934418e-01" rms="4.5550578832626343e-01" purity="3.5943800210952759e-01" nType="0">
          <Node pos="l" depth="2" NCoef="0" IVar="-1" Cut="0.0000000000000000e+00" cType="1" res="-3.5063647665083408e-03" rms="4.3796005845069885e-01" purity="2.6849520206451416e-01" nType="-99"/>
          <Node pos="r" depth="2" NCoef="0" IVar="-1" Cut="0.0000000000000000e+00" cType="1" res="-1.8106772331520915e-03" rms="4.5725473761558533e-01" purity="3.9656418561935425e-01" nType="-99"/>
        </Node>
        <Node pos="r" depth="1" NCoef="0" IVar="0" Cut="1.1649410724639893e+00" cType="1" res="1.3583362102508545e-02" rms="4.4052493572235107e-01" purity="5.4090404510498047e-01" nType="0">
          <Node pos="l" depth="2" NCoef="0" IVar="-1" Cut="0.0000000000000000e+00" cType="1" res="2.1090109366923571e-03" rms="4.3436726927757263e-01" purity="7.0379155874252319e-01" nType="-99"/>
          <Node pos="r" depth="2" NCoef="0" IVar="-1" Cut="0.0000000000000000e+00" cType="1" res="-1.2879496207460761e-03" rms="4.3194991350173950e-01" purity="2.9655307531356812e-01" nType="-99"/>
        </Node>
      </Node>
    </BinaryTree>
    <BinaryTree type="DecisionTree" boostWeight="1.0000000000000000e+00" itree="179">
      <Node pos="s" depth="0" NCoef="0" IVar="0" Cut="1.4665743112564087e+00" cType="1" res="-9.5841735601425171e-03" rms="4.5639592409133911e-01" purity="5.1757901906967163e-01" nType="0">
        <Node pos="l" depth="1" NCoef="0" IVar="3" Cut="1.3777198791503906e+02" cType="1" res="1.6991022974252701e-02" rms="4.6379429101943970e-01" purity="5.8021080493927002e-01" nType="0">
          <Node pos="l" depth="2" NCoef="0" IVar="-1" Cut="0.0000000000000000e+00" cType="1" res="8.9591869618743658e-04" rms="4.6185672283172607e-01" purity="6.0946446657180786e-01" nType="-99"/>
          <Node pos="r" depth="2" NCoef="0" IVar="-1" Cut="0.0000000000000000e+00" cType="1" res="-2.1281188819557428e-03" rms="4.5170381665229797e-01" purity="4.0727463364601135e-01" nType="-99"/>
        </Node>
        <Node pos="r" depth="1" NCoef="0" IVar="7" Cut="4.7133702784776688e-02" cType="1" res="-1.4432290196418762e-01" rms="3.8992995023727417e-01" purity="2.0002998411655426e-01" nType="0">
          <Node pos="l" depth="2" NCoef="0" IVar="-1" Cut="0.0000000000000000e+00" cType="1" res="-1.8021095311269164e-03" rms="3.9763736724853516e-01" purity="2.1356947720050812e-01" nType="-99"/>
          <Node pos="r" depth="2" NCoef="0" IVar="-1" Cut="0.0000000000000000e+00" cType="1" res="-2.3579667322337627e-03" rms="3.8202044367790222e-01" purity="1.8872718513011932e-01" nType="-99"/>
        </Node>
      </Node>
    </BinaryTree>
    <BinaryTree type="DecisionTree" boostWeight="1.0000000000000000e+00" itree="180">
      <Node pos="s" depth="0" NCoef="0" IVar="5" Cut="4.1698690795898438e+02" cType="1" res="-2.4632805958390236e-02" rms="4.5371204614639282e-01" purity="5.0060772895812988e-01" nType="0">
        <Node pos="l" depth="1" NCoef="0" IVar="2" Cut="9.5259100198745728e-01" cType="1" res="-1.4508640766143799e-01" rms="4.2995423078536987e-01" purity="3.2886964082717896e-01" nType="0">
          <Node pos="l" depth="2" NCoef="0" IVar="-1" Cut="0.0000000000000000e+00" cType="1" res="-3.0113821849226952e-03" rms="3.8017919659614563e-01" purity="1.9205334782600403e-01" nType="-99"/>
          <Node pos="r" depth="2" NCoef="0" IVar="-1" Cut="0.0000000000000000e+00" cType="1" res="-9.4117457047104836e-04" rms="4.6930736303329468e-01" purity="5.0467294454574585e-01" nType="-99"/>
        </Node>
        <Node pos="r" depth="1" NCoef="0" IVar="2" Cut="9.2622256278991699e-01" cType="1" res="2.7558682486414909e-03" rms="4.5450964570045471e-01" purity="5.3965741395950317e-01" nType="0">
          <Node pos="l" depth="2" NCoef="0" IVar="-1" Cut="0.0000000000000000e+00" cType="1" res="-1.7882183892652392e-03" rms="4.2534637451171875e-01" purity="2.7831956744194031e-01" nType="-99"/>
          <Node pos="r" depth="2" NCoef="0" IVar="-1" Cut="0.0000000000000000e+00" cType="1" res="6.5515824826434255e-04" rms="4.5608365535736084e-01" purity="5.9550577402114868e-01" nType="-99"/>
        </Node>
      </Node>
    </BinaryTree>
    <BinaryTree type="DecisionTree" boostWeight="1.0000000000000000e+00" itree="181">
      <Node pos="s" depth="0" NCoef="0" IVar="7" Cut="5.4748963564634323e-02" cType="1" res="-2.4144761264324188e-02" rms="4.5848363637924194e-01" purity="5.0167649984359741e-01" nType="0">
        <Node pos="l" depth="1" NCoef="0" IVar="5" Cut="7.0673413085937500e+02" cType="1" res="-1.1096516251564026e-01" rms="4.4954451918601990e-01" purity="3.7053754925727844e-01" nType="0">
          <Node pos="l" depth="2" NCoef="0" IVar="-1" Cut="0.0000000000000000e+00" cType="1" res="-2.3935083299875259e-03" rms="4.3405899405479431e-01" purity="2.9637810587882996e-01" nType="-99"/>
          <Node pos="r" depth="2" NCoef="0" IVar="-1" Cut="0.0000000000000000e+00" cType="1" res="-2.0409024727996439e-04" rms="4.6387562155723572e-01" purity="5.2323424816131592e-01" nType="-99"/>
        </Node>
        <Node pos="r" depth="1" NCoef="0" IVar="5" Cut="4.3610275268554688e+02" cType="1" res="2.0368751138448715e-02" rms="4.5664289593696594e-01" purity="5.6891244649887085e-01" nType="0">
          <Node pos="l" depth="2" NCoef="0" IVar="-1" Cut="0.0000000000000000e+00" cType="1" res="-1.5900772996246815e-03" rms="4.5766091346740723e-01" purity="4.0198868513107300e-01" nType="-99"/>
          <Node pos="r" depth="2" NCoef="0" IVar="-1" Cut="0.0000000000000000e+00" cType="1" res="1.6682106070220470e-03" rms="4.4744920730590820e-01" purity="6.3916885852813721e-01" nType="-99"/>
        </Node>
      </Node>
    </BinaryTree>
    <BinaryTree type="DecisionTree" boostWeight="1.0000000000000000e+00" itree="182">
      <Node pos="s" depth="0" NCoef="0" IVar="6" Cut="5.0352119445800781e+01" cType="1" res="-3.2881069928407669e-02" rms="4.5155060291290283e-01" purity="4.9004170298576355e-01" nType="0">
        <Node pos="l" depth="1" NCoef="0" IVar="7" Cut="1.2806190550327301e-01" cType="1" res="-1.3726112246513367e-01" rms="4.5934969186782837e-01" purity="3.6535125970840454e-01" nType="0">
          <Node pos="l" depth="2" NCoef="0" IVar="-1" Cut="0.0000000000000000e+00" cType="1" res="-2.6065679267048836e-03" rms="4.4619417190551758e-01" purity="3.1333422660827637e-01" nType="-99"/>
          <Node pos="r" depth="2" NCoef="0" IVar="-1" Cut="0.0000000000000000e+00" cType="1" res="-9.3119224766269326e-04" rms="4.7729018330574036e-01" purity="4.8734918236732483e-01" nType="-99"/>
        </Node>
        <Node pos="r" depth="1" NCoef="0" IVar="2" Cut="9.7061729431152344e-01" cType="1" res="2.3258640430867672e-03" rms="4.4338166713714600e-01" purity="5.3209918737411499e-01" nType="0">
          <Node pos="l" depth="2" NCoef="0" IVar="-1" Cut="0.0000000000000000e+00" cType="1" res="-6.1848532641306520e-04" rms="4.5273005962371826e-01" purity="4.6599173545837402e-01" nType="-99"/>
          <Node pos="r" depth="2" NCoef="0" IVar="-1" Cut="0.0000000000000000e+00" cType="1" res="6.3774045556783676e-03" rms="3.5594576597213745e-01" purity="8.2959377765655518e-01" nType="-99"/>
        </Node>
      </Node>
    </BinaryTree>
    <BinaryTree type="DecisionTree" boostWeight="1.0000000000000000e+00" itree="183">
      <Node pos="s" depth="0" NCoef="0" IVar="2" Cut="9.7005665302276611e-01" cType="1" res="-2.3384079337120056e-02" rms="4.5245492458343506e-01" purity="4.9942952394485474e-01" nType="0">
        <Node pos="l" depth="1" NCoef="0" IVar="0" Cut="1.2145277261734009e+00" cType="1" res="-5.3686715662479401e-02" rms="4.5876002311706543e-01" purity="4.4018915295600891e-01" nType="0">
          <Node pos="l" depth="2" NCoef="0" IVar="-1" Cut="0.0000000000000000e+00" cType="1" res="-1.8144183559343219e-04" rms="4.8200601339340210e-01" purity="5.6356465816497803e-01" nType="-99"/>
          <Node pos="r" depth="2" NCoef="0" IVar="-1" Cut="0.0000000000000000e+00" cType="1" res="-1.9471731502562761e-03" rms="4.0084767341613770e-01" purity="2.1713818609714508e-01" nType="-99"/>
        </Node>
        <Node pos="r" depth="1" NCoef="0" IVar="6" Cut="6.0824909210205078e+01" cType="1" res="9.8959013819694519e-02" rms="4.0353992581367493e-01" purity="7.3860496282577515e-01" nType="0">
          <Node pos="l" depth="2" NCoef="0" IVar="-1" Cut="0.0000000000000000e+00" cType="1" res="-6.9660844746977091e-04" rms="4.5123320817947388e-01" purity="5.7999891042709351e-01" nType="-99"/>
          <Node pos="r" depth="2" NCoef="0" IVar="-1" Cut="0.0000000000000000e+00" cType="1" res="6.8469885736703873e-03" rms="3.4629684686660767e-01" purity="8.3927798271179199e-01" nType="-99"/>
        </Node>
      </Node>
    </BinaryTree>
    <BinaryTree type="DecisionTree" boostWeight="1.0000000000000000e+00" itree="184">
      <Node pos="s" depth="0" NCoef="0" IVar="8" Cut="2.4991970062255859e+00" cType="1" res="-3.2862674444913864e-02" rms="4.4879671931266785e-01" purity="4.8507446050643921e-01" nType="0">
        <Node pos="l" depth="1" NCoef="0" IVar="2" Cut="9.2708492279052734e-01" cType="1" res="-2.3602619767189026e-03" rms="4.6074578166007996e-01" purity="5.5591106414794922e-01" nType="0">
          <Node pos="l" depth="2" NCoef="0" IVar="-1" Cut="0.0000000000000000e+00" cType="1" res="-1.6960382927209139e-03" rms="4.4250380992889404e-01" purity="3.0377450585365295e-01" nType="-99"/>
          <Node pos="r" depth="2" NCoef="0" IVar="-1" Cut="0.0000000000000000e+00" cType="1" res="4.8854440683498979e-04" rms="4.6088290214538574e-01" purity="6.0838037729263306e-01" nType="-99"/>
        </Node>
        <Node pos="r" depth="1" NCoef="0" IVar="4" Cut="3.0244683837890625e+02" cType="1" res="-1.6612482070922852e-01" rms="3.6347317695617676e-01" purity="1.7559626698493958e-01" nType="0">
          <Node pos="l" depth="2" NCoef="0" IVar="-1" Cut="0.0000000000000000e+00" cType="1" res="-1.5960828168317676e-03" rms="4.2034330964088440e-01" purity="2.5110751390457153e-01" nType="-99"/>
          <Node pos="r" depth="2" NCoef="0" IVar="-1" Cut="0.0000000000000000e+00" cType="1" res="-3.0276118777692318e-03" rms="3.0887031555175781e-01" purity="1.2163626402616501e-01" nType="-99"/>
        </Node>
      </Node>
    </BinaryTree>
    <BinaryTree type="DecisionTree" boostWeight="1.0000000000000000e+00" itree="185">
      <Node pos="s" depth="0" NCoef="0" IVar="8" Cut="2.4754247665405273e+00" cType="1" res="-2.3481588810682297e-02" rms="4.5406866073608398e-01" purity="5.0211620330810547e-01" nType="0">
        <Node pos="l" depth="1" NCoef="0" IVar="6" Cut="6.1433586120605469e+01" cType="1" res="3.9261123165488243e-03" rms="4.6487385034561157e-01" purity="5.6995922327041626e-01" nType="0">
          <Node pos="l" depth="2" NCoef="0" IVar="-1" Cut="0.0000000000000000e+00" cType="1" res="-8.7855366291478276e-04" rms="4.7231647372245789e-01" purity="4.7882452607154846e-01" nType="-99"/>
          <Node pos="r" depth="2" NCoef="0" IVar="-1" Cut="0.0000000000000000e+00" cType="1" res="9.7181374439969659e-04" rms="4.5595410466194153e-01" purity="6.3411122560501099e-01" nType="-99"/>
        </Node>
        <Node pos="r" depth="1" NCoef="0" IVar="2" Cut="9.5155364274978638e-01" cType="1" res="-1.4242841303348541e-01" rms="3.8167732954025269e-01" purity="2.0768401026725769e-01" nType="0">
          <Node pos="l" depth="2" NCoef="0" IVar="-1" Cut="0.0000000000000000e+00" cType="1" res="-2.4807869922369719e-03" rms="3.2317045331001282e-01" purity="1.2584955990314484e-01" nType="-99"/>
          <Node pos="r" depth="2" NCoef="0" IVar="-1" Cut="0.0000000000000000e+00" cType="1" res="-1.1959495022892952e-03" rms="4.6346762776374817e-01" purity="3.5964912176132202e-01" nType="-99"/>
        </Node>
      </Node>
    </BinaryTree>
    <BinaryTree type="DecisionTree" boostWeight="1.0000000000000000e+00" itree="186">
      <Node pos="s" depth="0" NCoef="0" IVar="6" Cut="7.9502471923828125e+01" cType="1" res="-3.1536240130662918e-02" rms="4.5491907000541687e-01" purity="4.9833482503890991e-01" nType="0">
        <Node pos="l" depth="1" NCoef="0" IVar="2" Cut="9.5157533884048462e-01" cType="1" res="-8.1818610429763794e-02" rms="4.6176093816757202e-01" purity="4.2971923947334290e-01" nType="0">
          <Node pos="l" depth="2" NCoef="0" IVar="-1" Cut="0.0000000000000000e+00" cType="1" res="-1.9208323210477829e-03" rms="4.4466185569763184e-01" purity="3.0993559956550598e-01" nType="-99"/>
          <Node pos="r" depth="2" NCoef="0" IVar="-1" Cut="0.0000000000000000e+00" cType="1" res="-5.9352774405851960e-04" rms="4.7467452287673950e-01" purity="5.6673699617385864e-01" nType="-99"/>
        </Node>
        <Node pos="r" depth="1" NCoef="0" IVar="2" Cut="9.3910819292068481e-01" cType="1" res="3.7774443626403809e-02" rms="4.3590942025184631e-01" purity="5.9291642904281616e-01" nType="0">
          <Node pos="l" depth="2" NCoef="0" IVar="-1" Cut="0.0000000000000000e+00" cType="1" res="-9.2030304949730635e-04" rms="4.4313222169876099e-01" purity="3.6901018023490906e-01" nType="-99"/>
          <Node pos="r" depth="2" NCoef="0" IVar="-1" Cut="0.0000000000000000e+00" cType="1" res="2.2575082257390022e-03" rms="4.2508921027183533e-01" purity="7.0163798332214355e-01" nType="-99"/>
        </Node>
      </Node>
    </BinaryTree>
    <BinaryTree type="DecisionTree" boostWeight="1.0000000000000000e+00" itree="187">
      <Node pos="s" depth="0" NCoef="0" IVar="4" Cut="3.4682147216796875e+02" cType="1" res="-3.6298193037509918e-02" rms="4.5340728759765625e-01" purity="4.9113804101943970e-01" nType="0">
        <Node pos="l" depth="1" NCoef="0" IVar="6" Cut="5.1825416564941406e+01" cType="1" res="-8.7661780416965485e-03" rms="4.5689159631729126e-01" purity="5.3555858135223389e-01" nType="0">
          <Node pos="l" depth="2" NCoef="0" IVar="-1" Cut="0.0000000000000000e+00" cType="1" res="-1.7882930114865303e-03" rms="4.5474600791931152e-01" purity="3.9995247125625610e-01" nType="-99"/>
          <Node pos="r" depth="2" NCoef="0" IVar="-1" Cut="0.0000000000000000e+00" cType="1" res="7.3150353273376822e-04" rms="4.5117440819740295e-01" purity="5.9274536371231079e-01" nType="-99"/>
        </Node>
        <Node pos="r" depth="1" NCoef="0" IVar="6" Cut="1.0705471801757812e+02" cType="1" res="-1.5652947127819061e-01" rms="4.1708686947822571e-01" purity="2.9715520143508911e-01" nType="0">
          <Node pos="l" depth="2" NCoef="0" IVar="-1" Cut="0.0000000000000000e+00" cType="1" res="-3.0804399866610765e-03" rms="3.8994511961936951e-01" purity="2.2018566727638245e-01" nType="-99"/>
          <Node pos="r" depth="2" NCoef="0" IVar="-1" Cut="0.0000000000000000e+00" cType="1" res="-1.1503589339554310e-03" rms="4.4361332058906555e-01" purity="4.2984098196029663e-01" nType="-99"/>
        </Node>
      </Node>
    </BinaryTree>
    <BinaryTree type="DecisionTree" boostWeight="1.0000000000000000e+00" itree="188">
      <Node pos="s" depth="0" NCoef="0" IVar="2" Cut="9.4381958246231079e-01" cType="1" res="-4.0510771796107292e-03" rms="4.5135578513145447e-01" purity="5.1872164011001587e-01" nType="0">
        <Node pos="l" depth="1" NCoef="0" IVar="0" Cut="1.1620296239852905e+00" cType="1" res="-6.9982901215553284e-02" rms="4.4765329360961914e-01" purity="3.5175347328186035e-01" nType="0">
          <Node pos="l" depth="2" NCoef="0" IVar="-1" Cut="0.0000000000000000e+00" cType="1" res="-2.7408974710851908e-04" rms="4.8803240060806274e-01" purity="4.8432466387748718e-01" nType="-99"/>
          <Node pos="r" depth="2" NCoef="0" IVar="-1" Cut="0.0000000000000000e+00" cType="1" res="-2.0207390189170837e-03" rms="3.7572163343429565e-01" purity="1.7578734457492828e-01" nType="-99"/>
        </Node>
        <Node pos="r" depth="1" NCoef="0" IVar="8" Cut="2.0744698047637939e+00" cType="1" res="4.0911506861448288e-02" rms="4.4833678007125854e-01" purity="6.3258647918701172e-01" nType="0">
          <Node pos="l" depth="2" NCoef="0" IVar="-1" Cut="0.0000000000000000e+00" cType="1" res="3.9864918217062950e-03" rms="3.9188078045845032e-01" purity="7.7318149805068970e-01" nType="-99"/>
          <Node pos="r" depth="2" NCoef="0" IVar="-1" Cut="0.0000000000000000e+00" cType="1" res="-2.4053668312262744e-04" rms="4.7202005982398987e-01" purity="5.4685068130493164e-01" nType="-99"/>
        </Node>
      </Node>
    </BinaryTree>
    <BinaryTree type="DecisionTree" boostWeight="1.0000000000000000e+00" itree="189">
      <Node pos="s" depth="0" NCoef="0" IVar="0" Cut="1.4391399621963501e+00" cType="1" res="-1.9579136744141579e-02" rms="4.4870391488075256e-01" purity="5.0545060634613037e-01" nType="0">
        <Node pos="l" depth="1" NCoef="0" IVar="2" Cut="9.4943219423294067e-01" cType="1" res="1.1836366727948189e-02" rms="4.5965805649757385e-01" purity="5.8064347505569458e-01" nType="0">
          <Node pos="l" depth="2" NCoef="0" IVar="-1" Cut="0.0000000000000000e+00" cType="1" res="-8.3603657549247146e-04" rms="4.7334086894989014e-01" purity="4.2599520087242126e-01" nType="-99"/>
          <Node pos="r" depth="2" NCoef="0" IVar="-1" Cut="0.0000000000000000e+00" cType="1" res="1.9009463721886277e-03" rms="4.4072705507278442e-01" purity="7.1331238746643066e-01" nType="-99"/>
        </Node>
        <Node pos="r" depth="1" NCoef="0" IVar="5" Cut="5.4241192626953125e+02" cType="1" res="-1.5589518845081329e-01" rms="3.6782452464103699e-01" purity="1.7917877435684204e-01" nType="0">
          <Node pos="l" depth="2" NCoef="0" IVar="-1" Cut="0.0000000000000000e+00" cType="1" res="-2.9961981344968081e-03" rms="3.0430597066879272e-01" purity="1.1195426434278488e-01" nType="-99"/>
          <Node pos="r" depth="2" NCoef="0" IVar="-1" Cut="0.0000000000000000e+00" cType="1" res="-9.5891847740858793e-04" rms="4.2722347378730774e-01" purity="2.7759760618209839e-01" nType="-99"/>
        </Node>
      </Node>
    </BinaryTree>
    <BinaryTree type="DecisionTree" boostWeight="1.0000000000000000e+00" itree="190">
      <Node pos="s" depth="0" NCoef="0" IVar="2" Cut="9.5369148254394531e-01" cType="1" res="-2.0292844623327255e-02" rms="4.4831883907318115e-01" purity="5.0039207935333252e-01" nType="0">
        <Node pos="l" depth="1" NCoef="0" IVar="7" Cut="6.0863628983497620e-02" cType="1" res="-7.7376410365104675e-02" rms="4.4731864333152771e-01" purity="3.7007695436477661e-01" nType="0">
          <Node pos="l" depth="2" NCoef="0" IVar="-1" Cut="0.0000000000000000e+00" cType="1" res="-2.2629585582762957e-03" rms="4.2065411806106567e-01" purity="2.6150214672088623e-01" nType="-99"/>
          <Node pos="r" depth="2" NCoef="0" IVar="-1" Cut="0.0000000000000000e+00" cType="1" res="-4.3575922609306872e-04" rms="4.5637381076812744e-01" purity="4.4046983122825623e-01" nType="-99"/>
        </Node>
        <Node pos="r" depth="1" NCoef="0" IVar="5" Cut="4.4781457519531250e+02" cType="1" res="5.8583609759807587e-02" rms="4.3761119246482849e-01" purity="6.8045783042907715e-01" nType="0">
          <Node pos="l" depth="2" NCoef="0" IVar="-1" Cut="0.0000000000000000e+00" cType="1" res="-3.8426631363108754e-04" rms="4.6841979026794434e-01" purity="5.5017966032028198e-01" nType="-99"/>
          <Node pos="r" depth="2" NCoef="0" IVar="-1" Cut="0.0000000000000000e+00" cType="1" res="2.6802406646311283e-03" rms="4.2149257659912109e-01" purity="7.3043584823608398e-01" nType="-99"/>
        </Node>
      </Node>
    </BinaryTree>
    <BinaryTree type="DecisionTree" boostWeight="1.0000000000000000e+00" itree="191">
      <Node pos="s" depth="0" NCoef="0" IVar="0" Cut="1.2283977270126343e+00" cType="1" res="-2.6439709588885307e-02" rms="4.5116814970970154e-01" purity="4.9576011300086975e-01" nType="0">
        <Node pos="l" depth="1" NCoef="0" IVar="6" Cut="7.9062973022460938e+01" cType="1" res="1.1923028156161308e-02" rms="4.5848935842514038e-01" purity="6.1152929067611694e-01" nType="0">
          <Node pos="l" depth="2" NCoef="0" IVar="-1" Cut="0.0000000000000000e+00" cType="1" res="-6.5452646231278777e-04" rms="4.7760084271430969e-01" purity="5.3474479913711548e-01" nType="-99"/>
          <Node pos="r" depth="2" NCoef="0" IVar="-1" Cut="0.0000000000000000e+00" cType="1" res="2.1532427053898573e-03" rms="4.2300266027450562e-01" purity="7.1638983488082886e-01" nType="-99"/>
        </Node>
        <Node pos="r" depth="1" NCoef="0" IVar="8" Cut="2.2471446990966797e+00" cType="1" res="-1.0183008760213852e-01" rms="4.2648437619209290e-01" purity="2.6825070381164551e-01" nType="0">
          <Node pos="l" depth="2" NCoef="0" IVar="-1" Cut="0.0000000000000000e+00" cType="1" res="-1.3431336265057325e-04" rms="4.6752756834030151e-01" purity="3.8602665066719055e-01" nType="-99"/>
          <Node pos="r" depth="2" NCoef="0" IVar="-1" Cut="0.0000000000000000e+00" cType="1" res="-1.8064192263409495e-03" rms="4.1244801878929138e-01" purity="2.3913222551345825e-01" nType="-99"/>
        </Node>
      </Node>
    </BinaryTree>
    <BinaryTree type="DecisionTree" boostWeight="1.0000000000000000e+00" itree="192">
      <Node pos="s" depth="0" NCoef="0" IVar="1" Cut="2.8428155517578125e+02" cType="1" res="-2.6847982779145241e-02" rms="4.5782482624053955e-01" purity="5.0592237710952759e-01" nType="0">
        <Node pos="l" depth="1" NCoef="0" IVar="-1" Cut="0.0000000000000000e+00" cType="1" res="-2.5420286692678928e-03" rms="4.2207208275794983e-01" purity="2.9486581683158875e-01" nType="-99"/>
        <Node pos="r" depth="1" NCoef="0" IVar="4" Cut="2.9872631835937500e+02" cType="1" res="-4.3500093743205070e-03" rms="4.5924121141433716e-01" purity="5.3942519426345825e-01" nType="0">
          <Node pos="l" depth="2" NCoef="0" IVar="-1" Cut="0.0000000000000000e+00" cType="1" res="6.2420009635388851e-04" rms="4.5776546001434326e-01" purity="5.9440386295318604e-01" nType="-99"/>
          <Node pos="r" depth="2" NCoef="0" IVar="-1" Cut="0.0000000000000000e+00" cType="1" res="-1.6643472481518984e-03" rms="4.5168608427047729e-01" purity="3.9056885242462158e-01" nType="-99"/>
        </Node>
      </Node>
    </BinaryTree>
    <BinaryTree type="DecisionTree" boostWeight="1.0000000000000000e+00" itree="193">
      <Node pos="s" depth="0" NCoef="0" IVar="2" Cut="9.2705643177032471e-01" cType="1" res="-2.7152387425303459e-02" rms="4.4890993833541870e-01" purity="4.9408012628555298e-01" nType="0">
        <Node pos="l" depth="1" NCoef="0" IVar="1" Cut="4.4026327514648438e+02" cType="1" res="-1.6085886955261230e-01" rms="4.0923348069190979e-01" purity="2.3545923829078674e-01" nType="0">
          <Node pos="l" depth="2" NCoef="0" IVar="-1" Cut="0.0000000000000000e+00" cType="1" res="-2.5301647838205099e-03" rms="3.8896504044532776e-01" purity="1.9230331480503082e-01" nType="-99"/>
          <Node pos="r" depth="2" NCoef="0" IVar="-1" Cut="0.0000000000000000e+00" cType="1" res="-1.4975746162235737e-03" rms="4.3665471673011780e-01" purity="3.1421017646789551e-01" nType="-99"/>
        </Node>
        <Node pos="r" depth="1" NCoef="0" IVar="0" Cut="6.4500474929809570e-01" cType="1" res="8.1004034727811813e-03" rms="4.5226198434829712e-01" purity="5.6226760149002075e-01" nType="0">
          <Node pos="l" depth="2" NCoef="0" IVar="-1" Cut="0.0000000000000000e+00" cType="1" res="4.4938153587281704e-03" rms="3.8450726866722107e-01" purity="7.9286116361618042e-01" nType="-99"/>
          <Node pos="r" depth="2" NCoef="0" IVar="-1" Cut="0.0000000000000000e+00" cType="1" res="-3.6946299951523542e-04" rms="4.5996212959289551e-01" purity="5.1634621620178223e-01" nType="-99"/>
        </Node>
      </Node>
    </BinaryTree>
    <BinaryTree type="DecisionTree" boostWeight="1.0000000000000000e+00" itree="194">
      <Node pos="s" depth="0" NCoef="0" IVar="4" Cut="3.9982815551757812e+02" cType="1" res="-3.8486320525407791e-02" rms="4.5223346352577209e-01" purity="4.8493444919586182e-01" nType="0">
        <Node pos="l" depth="1" NCoef="0" IVar="5" Cut="4.7072021484375000e+02" cType="1" res="-1.5798177570104599e-02" rms="4.5539689064025879e-01" purity="5.2175730466842651e-01" nType="0">
          <Node pos="l" depth="2" NCoef="0" IVar="-1" Cut="0.0000000000000000e+00" cType="1" res="-1.5568525996059179e-03" rms="4.4875305891036987e-01" purity="3.9323726296424866e-01" nType="-99"/>
          <Node pos="r" depth="2" NCoef="0" IVar="-1" Cut="0.0000000000000000e+00" cType="1" res="6.2201422406360507e-04" rms="4.5346507430076599e-01" purity="5.9548753499984741e-01" nType="-99"/>
        </Node>
        <Node pos="r" depth="1" NCoef="0" IVar="-1" Cut="0.0000000000000000e+00" cType="1" res="-2.7037069667130709e-03" rms="4.0376675128936768e-01" purity="2.5397598743438721e-01" nType="-99"/>
      </Node>
    </BinaryTree>
    <BinaryTree type="DecisionTree" boostWeight="1.0000000000000000e+00" itree="195">
      <Node pos="s" depth="0" NCoef="0" IVar="8" Cut="2.3633279800415039e+00" cType="1" res="-1.8497627228498459e-02" rms="4.4833770394325256e-01" purity="5.0451362133026123e-01" nType="0">
        <Node pos="l" depth="1" NCoef="0" IVar="2" Cut="9.2612105607986450e-01" cType="1" res="2.1551378071308136e-02" rms="4.5709431171417236e-01" purity="6.0167926549911499e-01" nType="0">
          <Node pos="l" depth="2" NCoef="0" IVar="-1" Cut="0.0000000000000000e+00" cType="1" res="-1.7133086221292615e-03" rms="4.5396649837493896e-01" purity="3.1880939006805420e-01" nType="-99"/>
          <Node pos="r" depth="2" NCoef="0" IVar="-1" Cut="0.0000000000000000e+00" cType="1" res="1.3375986600294709e-03" rms="4.5199218392372131e-01" purity="6.6206383705139160e-01" nType="-99"/>
        </Node>
        <Node pos="r" depth="1" NCoef="0" IVar="5" Cut="5.3562084960937500e+02" cType="1" res="-1.1918368190526962e-01" rms="4.0853863954544067e-01" purity="2.6023223996162415e-01" nType="0">
          <Node pos="l" depth="2" NCoef="0" IVar="-1" Cut="0.0000000000000000e+00" cType="1" res="-2.3910135496407747e-03" rms="3.8438153266906738e-01" purity="2.1371419727802277e-01" nType="-99"/>
          <Node pos="r" depth="2" NCoef="0" IVar="-1" Cut="0.0000000000000000e+00" cType="1" res="-9.2116830637678504e-04" rms="4.3116495013237000e-01" purity="3.2327324151992798e-01" nType="-99"/>
        </Node>
      </Node>
    </BinaryTree>
    <BinaryTree type="DecisionTree" boostWeight="1.0000000000000000e+00" itree="196">
      <Node pos="s" depth="0" NCoef="0" IVar="0" Cut="1.0535640716552734e+00" cType="1" res="-4.4874463230371475e-02" rms="4.5108568668365479e-01" purity="4.8140808939933777e-01" nType="0">
        <Node pos="l" depth="1" NCoef="0" IVar="6" Cut="3.8381660461425781e+01" cType="1" res="3.3065767493098974e-03" rms="4.5922496914863586e-01" purity="6.2469291687011719e-01" nType="0">
          <Node pos="l" depth="2" NCoef="0" IVar="-1" Cut="0.0000000000000000e+00" cType="1" res="-3.0972782988101244e-03" rms="4.5364826917648315e-01" purity="3.2776907086372375e-01" nType="-99"/>
          <Node pos="r" depth="2" NCoef="0" IVar="-1" Cut="0.0000000000000000e+00" cType="1" res="9.3453191220760345e-04" rms="4.5081588625907898e-01" purity="6.6999536752700806e-01" nType="-99"/>
        </Node>
        <Node pos="r" depth="1" NCoef="0" IVar="2" Cut="9.6849077939987183e-01" cType="1" res="-1.0248979926109314e-01" rms="4.3419200181961060e-01" purity="3.1006672978401184e-01" nType="0">
          <Node pos="l" depth="2" NCoef="0" IVar="-1" Cut="0.0000000000000000e+00" cType="1" res="-1.8658366752788424e-03" rms="4.2183446884155273e-01" purity="2.5841215252876282e-01" nType="-99"/>
          <Node pos="r" depth="2" NCoef="0" IVar="-1" Cut="0.0000000000000000e+00" cType="1" res="-1.7421311349608004e-04" rms="4.6676239371299744e-01" purity="5.0736594200134277e-01" nType="-99"/>
        </Node>
      </Node>
    </BinaryTree>
    <BinaryTree type="DecisionTree" boostWeight="1.0000000000000000e+00" itree="197">
      <Node pos="s" depth="0" NCoef="0" IVar="0" Cut="1.2068703174591064e+00" cType="1" res="-3.7257466465234756e-02" rms="4.4638976454734802e-01" purity="4.8238223791122437e-01" nType="0">
        <Node pos="l" depth="1" NCoef="0" IVar="6" Cut="7.6444236755371094e+01" cType="1" res="5.0512962043285370e-03" rms="4.5637246966362000e-01" purity="6.0600680112838745e-01" nType="0">
          <Node pos="l" depth="2" NCoef="0" IVar="-1" Cut="0.0000000000000000e+00" cType="1" res="-9.2333857901394367e-04" rms="4.7496917843818665e-01" purity="5.1273411512374878e-01" nType="-99"/>
          <Node pos="r" depth="2" NCoef="0" IVar="-1" Cut="0.0000000000000000e+00" cType="1" res="2.4729776196181774e-03" rms="4.1672378778457642e-01" purity="7.3731923103332520e-01" nType="-99"/>
        </Node>
        <Node pos="r" depth="1" NCoef="0" IVar="6" Cut="1.0674278259277344e+02" cType="1" res="-1.1589003354310989e-01" rms="4.1593828797340393e-01" purity="2.5262108445167542e-01" nType="0">
          <Node pos="l" depth="2" NCoef="0" IVar="-1" Cut="0.0000000000000000e+00" cType="1" res="-2.1972788963466883e-03" rms="3.9303928613662720e-01" purity="2.1049594879150391e-01" nType="-99"/>
          <Node pos="r" depth="2" NCoef="0" IVar="-1" Cut="0.0000000000000000e+00" cType="1" res="-4.1305643389932811e-04" rms="4.5483165979385376e-01" purity="3.5676553845405579e-01" nType="-99"/>
        </Node>
      </Node>
    </BinaryTree>
    <BinaryTree type="DecisionTree" boostWeight="1.0000000000000000e+00" itree="198">
      <Node pos="s" depth="0" NCoef="0" IVar="0" Cut="1.4410302639007568e+00" cType="1" res="-3.4151908010244370e-02" rms="4.4598826766014099e-01" purity="4.8454725742340088e-01" nType="0">
        <Node pos="l" depth="1" NCoef="0" IVar="6" Cut="4.9849658966064453e+01" cType="1" res="-2.3061416577547789e-03" rms="4.5976167917251587e-01" purity="5.6362247467041016e-01" nType="0">
          <Node pos="l" depth="2" NCoef="0" IVar="-1" Cut="0.0000000000000000e+00" cType="1" res="-1.9419362070038915e-03" rms="4.6601817011833191e-01" purity="4.0976783633232117e-01" nType="-99"/>
          <Node pos="r" depth="2" NCoef="0" IVar="-1" Cut="0.0000000000000000e+00" cType="1" res="8.3708117017522454e-04" rms="4.5120793581008911e-01" purity="6.1525267362594604e-01" nType="-99"/>
        </Node>
        <Node pos="r" depth="1" NCoef="0" IVar="6" Cut="9.0081382751464844e+01" cType="1" res="-1.6234447062015533e-01" rms="3.5801070928573608e-01" purity="1.6623646020889282e-01" nType="0">
          <Node pos="l" depth="2" NCoef="0" IVar="-1" Cut="0.0000000000000000e+00" cType="1" res="-2.7997645083814859e-03" rms="3.1075757741928101e-01" purity="1.1998668313026428e-01" nType="-99"/>
          <Node pos="r" depth="2" NCoef="0" IVar="-1" Cut="0.0000000000000000e+00" cType="1" res="-1.7421685624867678e-03" rms="4.0603408217430115e-01" purity="2.2577707469463348e-01" nType="-99"/>
        </Node>
      </Node>
    </BinaryTree>
    <BinaryTree type="DecisionTree" boostWeight="1.0000000000000000e+00" itree="199">
      <Node pos="s" depth="0" NCoef="0" IVar="0" Cut="5.9174495935440063e-01" cType="1" res="-1.5989394858479500e-02" rms="4.4735977053642273e-01" purity="5.0884711742401123e-01" nType="0">
        <Node pos="l" depth="1" NCoef="0" IVar="0" Cut="4.5845019817352295e-01" cType="1" res="1.4019528031349182e-01" rms="3.9308241009712219e-01" purity="7.7491033077239990e-01" nType="0">
          <Node pos="l" depth="2" NCoef="0" IVar="-1" Cut="0.0000000000000000e+00" cType="1" res="2.1511826198548079e-03" rms="4.3137454986572266e-01" purity="7.1048837900161743e-01" nType="-99"/>
          <Node pos="r" depth="2" NCoef="0" IVar="-1" Cut="0.0000000000000000e+00" cType="1" res="5.6028286926448345e-03" rms="3.5831218957901001e-01" purity="8.1854462623596191e-01" nType="-99"/>
        </Node>
        <Node pos="r" depth="1" NCoef="0" IVar="7" Cut="5.7213250547647476e-02" cType="1" res="-3.8982652127742767e-02" rms="4.5025163888931274e-01" purity="4.6967768669128418e-01" nType="0">
          <Node pos="l" depth="2" NCoef="0" IVar="-1" Cut="0.0000000000000000e+00" cType="1" res="-1.8080704612657428e-03" rms="4.2559060454368591e-01" purity="3.4634900093078613e-01" nType="-99"/>
          <Node pos="r" depth="2" NCoef="0" IVar="-1" Cut="0.0000000000000000e+00" cType="1" res="9.3754599220119417e-05" rms="4.5945179462432861e-01" purity="5.4572647809982300e-01" nType="-99"/>
        </Node>
      </Node>
    </BinaryTree>
    <BinaryTree type="DecisionTree" boostWeight="1.0000000000000000e+00" itree="200">
      <Node pos="s" depth="0" NCoef="0" IVar="2" Cut="9.4529312849044800e-01" cType="1" res="-3.8062822073698044e-02" rms="4.4923362135887146e-01" purity="4.8312556743621826e-01" nType="0">
        <Node pos="l" depth="1" NCoef="0" IVar="0" Cut="9.3632388114929199e-01" cType="1" res="-1.0659466683864594e-01" rms="4.3214026093482971e-01" purity="3.1204628944396973e-01" nType="0">
          <Node pos="l" depth="2" NCoef="0" IVar="-1" Cut="0.0000000000000000e+00" cType="1" res="-6.5358140273019671e-04" rms="4.8702731728553772e-01" purity="4.8766955733299255e-01" nType="-99"/>
          <Node pos="r" depth="2" NCoef="0" IVar="-1" Cut="0.0000000000000000e+00" cType="1" res="-2.0336364395916462e-03" rms="3.9294919371604919e-01" purity="2.1389897167682648e-01" nType="-99"/>
        </Node>
        <Node pos="r" depth="1" NCoef="0" IVar="3" Cut="1.3419886779785156e+02" cType="1" res="1.4843052253127098e-02" rms="4.5499077439308167e-01" purity="6.1519694328308105e-01" nType="0">
          <Node pos="l" depth="2" NCoef="0" IVar="-1" Cut="0.0000000000000000e+00" cType="1" res="1.2909601209685206e-03" rms="4.4360646605491638e-01" purity="6.5576076507568359e-01" nType="-99"/>
          <Node pos="r" depth="2" NCoef="0" IVar="-1" Cut="0.0000000000000000e+00" cType="1" res="-2.1742163226008415e-03" rms="4.7237744927406311e-01" purity="4.6658632159233093e-01" nType="-99"/>
        </Node>
      </Node>
    </BinaryTree>
    <BinaryTree type="DecisionTree" boostWeight="1.0000000000000000e+00" itree="201">
      <Node pos="s" depth="0" NCoef="0" IVar="0" Cut="1.2489639520645142e+00" cType="1" res="-1.9343007355928421e-02" rms="4.5034870505332947e-01" purity="5.1266938447952271e-01" nType="0">
        <Node pos="l" depth="1" NCoef="0" IVar="2" Cut="9.2471683025360107e-01" cType="1" res="1.5478513203561306e-02" rms="4.5905068516731262e-01" purity="6.1560583114624023e-01" nType="0">
          <Node pos="l" depth="2" NCoef="0" IVar="-1" Cut="0.0000000000000000e+00" cType="1" res="-1.7537182429805398e-03" rms="4.6084463596343994e-01" purity="3.3165112137794495e-01" nType="-99"/>
          <Node pos="r" depth="2" NCoef="0" IVar="-1" Cut="0.0000000000000000e+00" cType="1" res="8.9241628302261233e-04" rms="4.5529729127883911e-01" purity="6.5809571743011475e-01" nType="-99"/>
        </Node>
        <Node pos="r" depth="1" NCoef="0" IVar="2" Cut="9.6183979511260986e-01" cType="1" res="-1.0520265996456146e-01" rms="4.1586032509803772e-01" purity="2.5885832309722900e-01" nType="0">
          <Node pos="l" depth="2" NCoef="0" IVar="-1" Cut="0.0000000000000000e+00" cType="1" res="-2.1138160955160856e-03" rms="3.8198706507682800e-01" purity="1.8912480771541595e-01" nType="-99"/>
          <Node pos="r" depth="2" NCoef="0" IVar="-1" Cut="0.0000000000000000e+00" cType="1" res="-2.4677618057467043e-04" rms="4.7697558999061584e-01" purity="4.2993876338005066e-01" nType="-99"/>
        </Node>
      </Node>
    </BinaryTree>
    <BinaryTree type="DecisionTree" boostWeight="1.0000000000000000e+00" itree="202">
      <Node pos="s" depth="0" NCoef="0" IVar="4" Cut="3.5698583984375000e+02" cType="1" res="-2.2322352975606918e-02" rms="4.5327848196029663e-01" purity="5.0383079051971436e-01" nType="0">
        <Node pos="l" depth="1" NCoef="0" IVar="6" Cut="4.1230785369873047e+01" cType="1" res="8.8552990928292274e-03" rms="4.5461624860763550e-01" purity="5.5291002988815308e-01" nType="0">
          <Node pos="l" depth="2" NCoef="0" IVar="-1" Cut="0.0000000000000000e+00" cType="1" res="-1.8982645124197006e-03" rms="4.5334407687187195e-01" purity="3.8149642944335938e-01" nType="-99"/>
          <Node pos="r" depth="2" NCoef="0" IVar="-1" Cut="0.0000000000000000e+00" cType="1" res="6.5662700217217207e-04" rms="4.5145475864410400e-01" purity="5.8170288801193237e-01" nType="-99"/>
        </Node>
        <Node pos="r" depth="1" NCoef="0" IVar="6" Cut="9.0386154174804688e+01" cType="1" res="-1.6081163287162781e-01" rms="4.2020165920257568e-01" purity="2.8582355380058289e-01" nType="0">
          <Node pos="l" depth="2" NCoef="0" IVar="-1" Cut="0.0000000000000000e+00" cType="1" res="-3.3047993201762438e-03" rms="3.6809790134429932e-01" purity="1.7217931151390076e-01" nType="-99"/>
          <Node pos="r" depth="2" NCoef="0" IVar="-1" Cut="0.0000000000000000e+00" cType="1" res="-1.4941301196813583e-03" rms="4.5351439714431763e-01" purity="3.9817577600479126e-01" nType="-99"/>
        </Node>
      </Node>
    </BinaryTree>
    <BinaryTree type="DecisionTree" boostWeight="1.0000000000000000e+00" itree="203">
      <Node pos="s" depth="0" NCoef="0" IVar="8" Cut="2.4176111221313477e+00" cType="1" res="-2.7244454249739647e-02" rms="4.4825306534767151e-01" purity="4.9529471993446350e-01" nType="0">
        <Node pos="l" depth="1" NCoef="0" IVar="6" Cut="4.9291080474853516e+01" cType="1" res="7.2060469537973404e-03" rms="4.6040835976600647e-01" purity="5.8402705192565918e-01" nType="0">
          <Node pos="l" depth="2" NCoef="0" IVar="-1" Cut="0.0000000000000000e+00" cType="1" res="-1.7259242013096809e-03" rms="4.7296246886253357e-01" purity="4.1849553585052490e-01" nType="-99"/>
          <Node pos="r" depth="2" NCoef="0" IVar="-1" Cut="0.0000000000000000e+00" cType="1" res="1.0438499739393592e-03" rms="4.5031866431236267e-01" purity="6.3897716999053955e-01" nType="-99"/>
        </Node>
        <Node pos="r" depth="1" NCoef="0" IVar="2" Cut="9.3778765201568604e-01" cType="1" res="-1.3203522562980652e-01" rms="3.9082345366477966e-01" purity="2.2539077699184418e-01" nType="0">
          <Node pos="l" depth="2" NCoef="0" IVar="-1" Cut="0.0000000000000000e+00" cType="1" res="-2.6876484043896198e-03" rms="2.9170209169387817e-01" purity="9.5538370311260223e-02" nType="-99"/>
          <Node pos="r" depth="2" NCoef="0" IVar="-1" Cut="0.0000000000000000e+00" cType="1" res="-1.2607037788257003e-03" rms="4.5589989423751831e-01" purity="3.4414300322532654e-01" nType="-99"/>
        </Node>
      </Node>
    </BinaryTree>
    <BinaryTree type="DecisionTree" boostWeight="1.0000000000000000e+00" itree="204">
      <Node pos="s" depth="0" NCoef="0" IVar="8" Cut="2.4004344940185547e+00" cType="1" res="-2.2480005398392677e-02" rms="4.4666716456413269e-01" purity="4.9905505776405334e-01" nType="0">
        <Node pos="l" depth="1" NCoef="0" IVar="6" Cut="8.2043334960937500e+01" cType="1" res="7.8694261610507965e-03" rms="4.5526251196861267e-01" purity="5.7840937376022339e-01" nType="0">
          <Node pos="l" depth="2" NCoef="0" IVar="-1" Cut="0.0000000000000000e+00" cType="1" res="-8.6608773563057184e-04" rms="4.6748271584510803e-01" purity="4.9395000934600830e-01" nType="-99"/>
          <Node pos="r" depth="2" NCoef="0" IVar="-1" Cut="0.0000000000000000e+00" cType="1" res="3.3051786012947559e-03" rms="4.1239267587661743e-01" purity="7.3753070831298828e-01" nType="-99"/>
        </Node>
        <Node pos="r" depth="1" NCoef="0" IVar="2" Cut="9.4908076524734497e-01" cType="1" res="-1.2044586241245270e-01" rms="4.0238898992538452e-01" purity="2.4290490150451660e-01" nType="0">
          <Node pos="l" depth="2" NCoef="0" IVar="-1" Cut="0.0000000000000000e+00" cType="1" res="-2.5886616203933954e-03" rms="3.3542227745056152e-01" purity="1.3327863812446594e-01" nType="-99"/>
          <Node pos="r" depth="2" NCoef="0" IVar="-1" Cut="0.0000000000000000e+00" cType="1" res="-6.0373300220817327e-04" rms="4.7671306133270264e-01" purity="4.1541820764541626e-01" nType="-99"/>
        </Node>
      </Node>
    </BinaryTree>
    <BinaryTree type="DecisionTree" boostWeight="1.0000000000000000e+00" itree="205">
      <Node pos="s" depth="0" NCoef="0" IVar="8" Cut="2.5959012508392334e+00" cType="1" res="-2.5835720822215080e-02" rms="4.5468986034393311e-01" purity="5.0030595064163208e-01" nType="0">
        <Node pos="l" depth="1" NCoef="0" IVar="2" Cut="9.7616600990295410e-01" cType="1" res="-5.1105339080095291e-03" rms="4.6386739611625671e-01" purity="5.5189740657806396e-01" nType="0">
          <Node pos="l" depth="2" NCoef="0" IVar="-1" Cut="0.0000000000000000e+00" cType="1" res="-5.0144351553171873e-04" rms="4.7280803322792053e-01" purity="5.1129519939422607e-01" nType="-99"/>
          <Node pos="r" depth="2" NCoef="0" IVar="-1" Cut="0.0000000000000000e+00" cType="1" res="4.6685747802257538e-03" rms="3.7861642241477966e-01" purity="8.0608350038528442e-01" nType="-99"/>
        </Node>
        <Node pos="r" depth="1" NCoef="0" IVar="-1" Cut="0.0000000000000000e+00" cType="1" res="-2.3588791955262423e-03" rms="3.6282339692115784e-01" purity="1.6722603142261505e-01" nType="-99"/>
      </Node>
    </BinaryTree>
    <BinaryTree type="DecisionTree" boostWeight="1.0000000000000000e+00" itree="206">
      <Node pos="s" depth="0" NCoef="0" IVar="4" Cut="3.7057479858398438e+02" cType="1" res="-2.3398479446768761e-02" rms="4.4932827353477478e-01" purity="4.9848034977912903e-01" nType="0">
        <Node pos="l" depth="1" NCoef="0" IVar="2" Cut="9.4046533107757568e-01" cType="1" res="4.2554233223199844e-03" rms="4.5264759659767151e-01" purity="5.4299736022949219e-01" nType="0">
          <Node pos="l" depth="2" NCoef="0" IVar="-1" Cut="0.0000000000000000e+00" cType="1" res="-1.0436485754325986e-03" rms="4.5191654562950134e-01" purity="3.5516464710235596e-01" nType="-99"/>
          <Node pos="r" depth="2" NCoef="0" IVar="-1" Cut="0.0000000000000000e+00" cType="1" res="1.0744060855358839e-03" rms="4.4822126626968384e-01" purity="6.4454060792922974e-01" nType="-99"/>
        </Node>
        <Node pos="r" depth="1" NCoef="0" IVar="2" Cut="9.4784814119338989e-01" cType="1" res="-1.5972065925598145e-01" rms="4.0593534708023071e-01" purity="2.7902963757514954e-01" nType="0">
          <Node pos="l" depth="2" NCoef="0" IVar="-1" Cut="0.0000000000000000e+00" cType="1" res="-3.2011454459279776e-03" rms="3.2403033971786499e-01" purity="1.3736733794212341e-01" nType="-99"/>
          <Node pos="r" depth="2" NCoef="0" IVar="-1" Cut="0.0000000000000000e+00" cType="1" res="-1.6821173485368490e-03" rms="4.7386181354522705e-01" purity="4.4319355487823486e-01" nType="-99"/>
        </Node>
      </Node>
    </BinaryTree>
    <BinaryTree type="DecisionTree" boostWeight="1.0000000000000000e+00" itree="207">
      <Node pos="s" depth="0" NCoef="0" IVar="0" Cut="1.0213418006896973e+00" cType="1" res="-1.4141683466732502e-02" rms="4.4782367348670959e-01" purity="5.0721150636672974e-01" nType="0">
        <Node pos="l" depth="1" NCoef="0" IVar="3" Cut="1.3711311340332031e+02" cType="1" res="3.4269150346517563e-02" rms="4.5013949275016785e-01" purity="6.5975761413574219e-01" nType="0">
          <Node pos="l" depth="2" NCoef="0" IVar="-1" Cut="0.0000000000000000e+00" cType="1" res="1.4731775736436248e-03" rms="4.4038578867912292e-01" purity="6.8377584218978882e-01" nType="-99"/>
          <Node pos="r" depth="2" NCoef="0" IVar="-1" Cut="0.0000000000000000e+00" cType="1" res="-1.8832933856174350e-03" rms="4.8154154419898987e-01" purity="5.2469521760940552e-01" nType="-99"/>
        </Node>
        <Node pos="r" depth="1" NCoef="0" IVar="6" Cut="9.5423927307128906e+01" cType="1" res="-6.6475778818130493e-02" rms="4.3934682011604309e-01" purity="3.4230279922485352e-01" nType="0">
          <Node pos="l" depth="2" NCoef="0" IVar="-1" Cut="0.0000000000000000e+00" cType="1" res="-1.8168467795476317e-03" rms="4.1544583439826965e-01" purity="2.7431294322013855e-01" nType="-99"/>
          <Node pos="r" depth="2" NCoef="0" IVar="-1" Cut="0.0000000000000000e+00" cType="1" res="3.7354923551902175e-04" rms="4.6407589316368103e-01" purity="4.5636245608329773e-01" nType="-99"/>
        </Node>
      </Node>
    </BinaryTree>
    <BinaryTree type="DecisionTree" boostWeight="1.0000000000000000e+00" itree="208">
      <Node pos="s" depth="0" NCoef="0" IVar="3" Cut="1.0555178833007812e+02" cType="1" res="-2.9278140515089035e-02" rms="4.5602691173553467e-01" purity="4.9782043695449829e-01" nType="0">
        <Node pos="l" depth="1" NCoef="0" IVar="-1" Cut="0.0000000000000000e+00" cType="1" res="-2.6982540730386972e-03" rms="4.2824563384056091e-01" purity="3.0082148313522339e-01" nType="-99"/>
        <Node pos="r" depth="1" NCoef="0" IVar="3" Cut="1.3220939636230469e+02" cType="1" res="-1.2123946100473404e-02" rms="4.5613324642181396e-01" purity="5.2100700139999390e-01" nType="0">
          <Node pos="l" depth="2" NCoef="0" IVar="-1" Cut="0.0000000000000000e+00" cType="1" res="4.4127836008556187e-04" rms="4.5213443040847778e-01" purity="5.6143963336944580e-01" nType="-99"/>
          <Node pos="r" depth="2" NCoef="0" IVar="-1" Cut="0.0000000000000000e+00" cType="1" res="-1.6832593828439713e-03" rms="4.5596620440483093e-01" purity="4.2404839396476746e-01" nType="-99"/>
        </Node>
      </Node>
    </BinaryTree>
    <BinaryTree type="DecisionTree" boostWeight="1.0000000000000000e+00" itree="209">
      <Node pos="s" depth="0" NCoef="0" IVar="0" Cut="1.4509683847427368e+00" cType="1" res="-2.2382734343409538e-02" rms="4.5401296019554138e-01" purity="5.0188714265823364e-01" nType="0">
        <Node pos="l" depth="1" NCoef="0" IVar="3" Cut="1.0628453063964844e+02" cType="1" res="-2.5574536994099617e-04" rms="4.6223792433738708e-01" purity="5.6252741813659668e-01" nType="0">
          <Node pos="l" depth="2" NCoef="0" IVar="-1" Cut="0.0000000000000000e+00" cType="1" res="-2.2256190422922373e-03" rms="4.4960650801658630e-01" purity="3.7572255730628967e-01" nType="-99"/>
          <Node pos="r" depth="2" NCoef="0" IVar="-1" Cut="0.0000000000000000e+00" cType="1" res="3.7550355773419142e-04" rms="4.6083530783653259e-01" purity="5.8584988117218018e-01" nType="-99"/>
        </Node>
        <Node pos="r" depth="1" NCoef="0" IVar="8" Cut="2.5810711383819580e+00" cType="1" res="-1.3110125064849854e-01" rms="3.9354085922241211e-01" purity="2.0393791794776917e-01" nType="0">
          <Node pos="l" depth="2" NCoef="0" IVar="-1" Cut="0.0000000000000000e+00" cType="1" res="-1.5434015076607466e-03" rms="4.2641401290893555e-01" purity="2.6174649596214294e-01" nType="-99"/>
          <Node pos="r" depth="2" NCoef="0" IVar="-1" Cut="0.0000000000000000e+00" cType="1" res="-2.3118124809116125e-03" rms="3.6249104142189026e-01" purity="1.5668798983097076e-01" nType="-99"/>
        </Node>
      </Node>
    </BinaryTree>
    <BinaryTree type="DecisionTree" boostWeight="1.0000000000000000e+00" itree="210">
      <Node pos="s" depth="0" NCoef="0" IVar="3" Cut="1.0370185089111328e+02" cType="1" res="-2.1150790154933929e-02" rms="4.5484727621078491e-01" purity="5.0852608680725098e-01" nType="0">
        <Node pos="l" depth="1" NCoef="0" IVar="-1" Cut="0.0000000000000000e+00" cType="1" res="-2.8765776660293341e-03" rms="3.9866107702255249e-01" purity="2.5645729899406433e-01" nType="-99"/>
        <Node pos="r" depth="1" NCoef="0" IVar="3" Cut="1.4079714965820312e+02" cType="1" res="-3.2506424468010664e-03" rms="4.5701259374618530e-01" purity="5.3602623939514160e-01" nType="0">
          <Node pos="l" depth="2" NCoef="0" IVar="-1" Cut="0.0000000000000000e+00" cType="1" res="3.5206545726396143e-04" rms="4.5760113000869751e-01" purity="5.6066477298736572e-01" nType="-99"/>
          <Node pos="r" depth="2" NCoef="0" IVar="-1" Cut="0.0000000000000000e+00" cType="1" res="-2.5458000600337982e-03" rms="4.2307183146476746e-01" purity="3.4896379709243774e-01" nType="-99"/>
        </Node>
      </Node>
    </BinaryTree>
    <BinaryTree type="DecisionTree" boostWeight="1.0000000000000000e+00" itree="211">
      <Node pos="s" depth="0" NCoef="0" IVar="6" Cut="5.3928260803222656e+01" cType="1" res="-1.0559141635894775e-02" rms="4.4878679513931274e-01" purity="5.1000702381134033e-01" nType="0">
        <Node pos="l" depth="1" NCoef="0" IVar="8" Cut="2.0493831634521484e+00" cType="1" res="-9.5493659377098083e-02" rms="4.5143568515777588e-01" purity="3.9714378118515015e-01" nType="0">
          <Node pos="l" depth="2" NCoef="0" IVar="-1" Cut="0.0000000000000000e+00" cType="1" res="-7.8810245031490922e-04" rms="4.7447189688682556e-01" purity="5.0519472360610962e-01" nType="-99"/>
          <Node pos="r" depth="2" NCoef="0" IVar="-1" Cut="0.0000000000000000e+00" cType="1" res="-2.2293615620583296e-03" rms="4.2331892251968384e-01" purity="2.9792866110801697e-01" nType="-99"/>
        </Node>
        <Node pos="r" depth="1" NCoef="0" IVar="8" Cut="2.1179790496826172e+00" cType="1" res="2.3113956674933434e-02" rms="4.4324970245361328e-01" purity="5.5475270748138428e-01" nType="0">
          <Node pos="l" depth="2" NCoef="0" IVar="-1" Cut="0.0000000000000000e+00" cType="1" res="3.1069682445377111e-03" rms="4.0587663650512695e-01" purity="7.3126238584518433e-01" nType="-99"/>
          <Node pos="r" depth="2" NCoef="0" IVar="-1" Cut="0.0000000000000000e+00" cType="1" res="-5.7277525775134563e-04" rms="4.5495200157165527e-01" purity="4.5317333936691284e-01" nType="-99"/>
        </Node>
      </Node>
    </BinaryTree>
    <BinaryTree type="DecisionTree" boostWeight="1.0000000000000000e+00" itree="212">
      <Node pos="s" depth="0" NCoef="0" IVar="6" Cut="4.1848106384277344e+01" cType="1" res="-2.9053643345832825e-02" rms="4.5087870955467224e-01" purity="4.8980215191841125e-01" nType="0">
        <Node pos="l" depth="1" NCoef="0" IVar="7" Cut="1.0101313889026642e-01" cType="1" res="-1.3741853833198547e-01" rms="4.4360092282295227e-01" purity="3.3502158522605896e-01" nType="0">
          <Node pos="l" depth="2" NCoef="0" IVar="-1" Cut="0.0000000000000000e+00" cType="1" res="-2.9344321228563786e-03" rms="4.1146513819694519e-01" purity="2.4409574270248413e-01" nType="-99"/>
          <Node pos="r" depth="2" NCoef="0" IVar="-1" Cut="0.0000000000000000e+00" cType="1" res="-8.1681262236088514e-04" rms="4.6556022763252258e-01" purity="4.4947108626365662e-01" nType="-99"/>
        </Node>
        <Node pos="r" depth="1" NCoef="0" IVar="8" Cut="2.3555057048797607e+00" cType="1" res="-8.7277228012681007e-03" rms="4.4932937622070312e-01" purity="5.1883423328399658e-01" nType="0">
          <Node pos="l" depth="2" NCoef="0" IVar="-1" Cut="0.0000000000000000e+00" cType="1" res="6.1024224851280451e-04" rms="4.5497414469718933e-01" purity="6.1453706026077271e-01" nType="-99"/>
          <Node pos="r" depth="2" NCoef="0" IVar="-1" Cut="0.0000000000000000e+00" cType="1" res="-1.4991093194112182e-03" rms="4.2423284053802490e-01" purity="2.9567825794219971e-01" nType="-99"/>
        </Node>
      </Node>
    </BinaryTree>
    <BinaryTree type="DecisionTree" boostWeight="1.0000000000000000e+00" itree="213">
      <Node pos="s" depth="0" NCoef="0" IVar="0" Cut="1.4460250139236450e+00" cType="1" res="-2.0315431058406830e-02" rms="4.4554957747459412e-01" purity="5.0050038099288940e-01" nType="0">
        <Node pos="l" depth="1" NCoef="0" IVar="6" Cut="8.5066139221191406e+01" cType="1" res="8.1064337864518166e-03" rms="4.5632934570312500e-01" purity="5.7423490285873413e-01" nType="0">
          <Node pos="l" depth="2" NCoef="0" IVar="-1" Cut="0.0000000000000000e+00" cType="1" res="-6.4231158467009664e-04" rms="4.6580138802528381e-01" purity="5.0901991128921509e-01" nType="-99"/>
          <Node pos="r" depth="2" NCoef="0" IVar="-1" Cut="0.0000000000000000e+00" cType="1" res="2.0888454746454954e-03" rms="4.3084564805030823e-01" purity="6.8486577272415161e-01" nType="-99"/>
        </Node>
        <Node pos="r" depth="1" NCoef="0" IVar="5" Cut="4.9481512451171875e+02" cType="1" res="-1.4285735785961151e-01" rms="3.7161546945571899e-01" purity="1.8259081244468689e-01" nType="0">
          <Node pos="l" depth="2" NCoef="0" IVar="-1" Cut="0.0000000000000000e+00" cType="1" res="-2.7237581089138985e-03" rms="3.2124954462051392e-01" purity="1.2734743952751160e-01" nType="-99"/>
          <Node pos="r" depth="2" NCoef="0" IVar="-1" Cut="0.0000000000000000e+00" cType="1" res="-1.4476720243692398e-03" rms="4.1392940282821655e-01" purity="2.4352979660034180e-01" nType="-99"/>
        </Node>
      </Node>
    </BinaryTree>
    <BinaryTree type="DecisionTree" boostWeight="1.0000000000000000e+00" itree="214">
      <Node pos="s" depth="0" NCoef="0" IVar="0" Cut="8.3225858211517334e-01" cType="1" res="-1.7121380195021629e-02" rms="4.5020374655723572e-01" purity="5.0821280479431152e-01" nType="0">
        <Node pos="l" depth="1" NCoef="0" IVar="6" Cut="4.7716632843017578e+01" cType="1" res="5.1323339343070984e-02" rms="4.4343066215515137e-01" purity="6.8763631582260132e-01" nType="0">
          <Node pos="l" depth="2" NCoef="0" IVar="-1" Cut="0.0000000000000000e+00" cType="1" res="-8.4403273649513721e-04" rms="4.8514321446418762e-01" purity="5.3157585859298706e-01" nType="-99"/>
          <Node pos="r" depth="2" NCoef="0" IVar="-1" Cut="0.0000000000000000e+00" cType="1" res="2.2684189025312662e-03" rms="4.2640739679336548e-01" purity="7.3314446210861206e-01" nType="-99"/>
        </Node>
        <Node pos="r" depth="1" NCoef="0" IVar="2" Cut="9.6850258111953735e-01" cType="1" res="-5.2188318222761154e-02" rms="4.4961601495742798e-01" purity="4.1628712415695190e-01" nType="0">
          <Node pos="l" depth="2" NCoef="0" IVar="-1" Cut="0.0000000000000000e+00" cType="1" res="-1.2831841595470905e-03" rms="4.4553697109222412e-01" purity="3.5814046859741211e-01" nType="-99"/>
          <Node pos="r" depth="2" NCoef="0" IVar="-1" Cut="0.0000000000000000e+00" cType="1" res="8.9554215082898736e-04" rms="4.5364323258399963e-01" purity="6.2930983304977417e-01" nType="-99"/>
        </Node>
      </Node>
    </BinaryTree>
    <BinaryTree type="DecisionTree" boostWeight="1.0000000000000000e+00" itree="215">
      <Node pos="s" depth="0" NCoef="0" IVar="0" Cut="1.2427314519882202e+00" cType="1" res="-1.6624722629785538e-02" rms="4.5109155774116516e-01" purity="5.0381952524185181e-01" nType="0">
        <Node pos="l" depth="1" NCoef="0" IVar="6" Cut="3.9031093597412109e+01" cType="1" res="1.6936162486672401e-02" rms="4.5840439200401306e-01" purity="6.1639821529388428e-01" nType="0">
          <Node pos="l" depth="2" NCoef="0" IVar="-1" Cut="0.0000000000000000e+00" cType="1" res="-2.2547086700797081e-03" rms="4.5947441458702087e-01" purity="3.6681464314460754e-01" nType="-99"/>
          <Node pos="r" depth="2" NCoef="0" IVar="-1" Cut="0.0000000000000000e+00" cType="1" res="9.4609992811456323e-04" rms="4.5392212271690369e-01" purity="6.5103489160537720e-01" nType="-99"/>
        </Node>
        <Node pos="r" depth="1" NCoef="0" IVar="7" Cut="9.9415197968482971e-02" cType="1" res="-8.5555121302604675e-02" rms="4.2750251293182373e-01" purity="2.7259516716003418e-01" nType="0">
          <Node pos="l" depth="2" NCoef="0" IVar="-1" Cut="0.0000000000000000e+00" cType="1" res="-1.6865658108144999e-03" rms="4.1113016009330750e-01" purity="2.4053335189819336e-01" nType="-99"/>
          <Node pos="r" depth="2" NCoef="0" IVar="-1" Cut="0.0000000000000000e+00" cType="1" res="-1.2493394024204463e-04" rms="4.6592268347740173e-01" purity="3.7158420681953430e-01" nType="-99"/>
        </Node>
      </Node>
    </BinaryTree>
    <BinaryTree type="DecisionTree" boostWeight="1.0000000000000000e+00" itree="216">
      <Node pos="s" depth="0" NCoef="0" IVar="6" Cut="4.7412212371826172e+01" cType="1" res="-2.5292189791798592e-02" rms="4.4962659478187561e-01" purity="4.9469760060310364e-01" nType="0">
        <Node pos="l" depth="1" NCoef="0" IVar="5" Cut="4.8502929687500000e+02" cType="1" res="-1.2725421786308289e-01" rms="4.4521385431289673e-01" purity="3.5558524727821350e-01" nType="0">
          <Node pos="l" depth="2" NCoef="0" IVar="-1" Cut="0.0000000000000000e+00" cType="1" res="-2.6868549175560474e-03" rms="4.1673666238784790e-01" purity="2.8759539127349854e-01" nType="-99"/>
          <Node pos="r" depth="2" NCoef="0" IVar="-1" Cut="0.0000000000000000e+00" cType="1" res="-5.5635615717619658e-04" rms="4.8345541954040527e-01" purity="4.9295571446418762e-01" nType="-99"/>
        </Node>
        <Node pos="r" depth="1" NCoef="0" IVar="0" Cut="7.2673171758651733e-01" cType="1" res="3.3004740253090858e-03" rms="4.4669729471206665e-01" purity="5.3370815515518188e-01" nType="0">
          <Node pos="l" depth="2" NCoef="0" IVar="-1" Cut="0.0000000000000000e+00" cType="1" res="4.1695083491504192e-03" rms="4.0628299117088318e-01" purity="7.8183424472808838e-01" nType="-99"/>
          <Node pos="r" depth="2" NCoef="0" IVar="-1" Cut="0.0000000000000000e+00" cType="1" res="-5.6285411119461060e-04" rms="4.5128783583641052e-01" purity="4.6725758910179138e-01" nType="-99"/>
        </Node>
      </Node>
    </BinaryTree>
    <BinaryTree type="DecisionTree" boostWeight="1.0000000000000000e+00" itree="217">
      <Node pos="s" depth="0" NCoef="0" IVar="6" Cut="9.2631439208984375e+01" cType="1" res="-2.9579728841781616e-02" rms="4.5196339488029480e-01" purity="4.9732872843742371e-01" nType="0">
        <Node pos="l" depth="1" NCoef="0" IVar="4" Cut="3.0511935424804688e+02" cType="1" res="-6.6584534943103790e-02" rms="4.5677021145820618e-01" purity="4.4671392440795898e-01" nType="0">
          <Node pos="l" depth="2" NCoef="0" IVar="-1" Cut="0.0000000000000000e+00" cType="1" res="-7.7619345393031836e-04" rms="4.6451473236083984e-01" purity="4.9092039465904236e-01" nType="-99"/>
          <Node pos="r" depth="2" NCoef="0" IVar="-1" Cut="0.0000000000000000e+00" cType="1" res="-2.6229885406792164e-03" rms="4.0181261301040649e-01" purity="2.5151360034942627e-01" nType="-99"/>
        </Node>
        <Node pos="r" depth="1" NCoef="0" IVar="0" Cut="1.4393992424011230e+00" cType="1" res="4.6312298625707626e-02" rms="4.3213945627212524e-01" purity="6.0113316774368286e-01" nType="0">
          <Node pos="l" depth="2" NCoef="0" IVar="-1" Cut="0.0000000000000000e+00" cType="1" res="2.6223566383123398e-03" rms="4.2552986741065979e-01" purity="7.1775424480438232e-01" nType="-99"/>
          <Node pos="r" depth="2" NCoef="0" IVar="-1" Cut="0.0000000000000000e+00" cType="1" res="-1.2742945691570640e-03" rms="4.2520132660865784e-01" purity="2.5707495212554932e-01" nType="-99"/>
        </Node>
      </Node>
    </BinaryTree>
    <BinaryTree type="DecisionTree" boostWeight="1.0000000000000000e+00" itree="218">
      <Node pos="s" depth="0" NCoef="0" IVar="3" Cut="1.0030964660644531e+02" cType="1" res="-2.1250324323773384e-02" rms="4.5685225725173950e-01" purity="5.1336783170700073e-01" nType="0">
        <Node pos="l" depth="1" NCoef="0" IVar="-1" Cut="0.0000000000000000e+00" cType="1" res="-2.9535524081438780e-03" rms="4.0055620670318604e-01" purity="2.5388252735137939e-01" nType="-99"/>
        <Node pos="r" depth="1" NCoef="0" IVar="3" Cut="1.3924990844726562e+02" cType="1" res="-6.7821056582033634e-03" rms="4.5803093910217285e-01" purity="5.3426420688629150e-01" nType="0">
          <Node pos="l" depth="2" NCoef="0" IVar="-1" Cut="0.0000000000000000e+00" cType="1" res="3.8915901677682996e-04" rms="4.5566377043724060e-01" purity="5.6395822763442993e-01" nType="-99"/>
          <Node pos="r" depth="2" NCoef="0" IVar="-1" Cut="0.0000000000000000e+00" cType="1" res="-2.5402856990695000e-03" rms="4.4563302397727966e-01" purity="3.6720329523086548e-01" nType="-99"/>
        </Node>
      </Node>
    </BinaryTree>
    <BinaryTree type="DecisionTree" boostWeight="1.0000000000000000e+00" itree="219">
      <Node pos="s" depth="0" NCoef="0" IVar="3" Cut="1.0287924194335938e+02" cType="1" res="-2.9978934675455093e-02" rms="4.4740599393844604e-01" purity="4.9204170703887939e-01" nType="0">
        <Node pos="l" depth="1" NCoef="0" IVar="-1" Cut="0.0000000000000000e+00" cType="1" res="-2.9774233698844910e-03" rms="4.1279232501983643e-01" purity="2.6562118530273438e-01" nType="-99"/>
        <Node pos="r" depth="1" NCoef="0" IVar="2" Cut="9.4392269849777222e-01" cType="1" res="-1.2301025912165642e-02" rms="4.4727018475532532e-01" purity="5.1597589254379272e-01" nType="0">
          <Node pos="l" depth="2" NCoef="0" IVar="-1" Cut="0.0000000000000000e+00" cType="1" res="-1.2479831930249929e-03" rms="4.4326648116111755e-01" purity="3.4456714987754822e-01" nType="-99"/>
          <Node pos="r" depth="2" NCoef="0" IVar="-1" Cut="0.0000000000000000e+00" cType="1" res="9.4185193302109838e-04" rms="4.4369241595268250e-01" purity="6.4151859283447266e-01" nType="-99"/>
        </Node>
      </Node>
    </BinaryTree>
    <BinaryTree type="DecisionTree" boostWeight="1.0000000000000000e+00" itree="220">
      <Node pos="s" depth="0" NCoef="0" IVar="2" Cut="9.4370275735855103e-01" cType="1" res="-2.8133483603596687e-02" rms="4.4652590155601501e-01" purity="4.9230763316154480e-01" nType="0">
        <Node pos="l" depth="1" NCoef="0" IVar="7" Cut="1.1145243793725967e-01" cType="1" res="-8.9620761573314667e-02" rms="4.3896228075027466e-01" purity="3.2493379712104797e-01" nType="0">
          <Node pos="l" depth="2" NCoef="0" IVar="-1" Cut="0.0000000000000000e+00" cType="1" res="-1.9025577930733562e-03" rms="4.2170685529708862e-01" purity="2.7535071969032288e-01" nType="-99"/>
          <Node pos="r" depth="2" NCoef="0" IVar="-1" Cut="0.0000000000000000e+00" cType="1" res="-5.0202663260279223e-05" rms="4.6771451830863953e-01" purity="4.4714558124542236e-01" nType="-99"/>
        </Node>
        <Node pos="r" depth="1" NCoef="0" IVar="0" Cut="1.4507646560668945e+00" cType="1" res="1.6740983352065086e-02" rms="4.4665467739105225e-01" purity="6.1445981264114380e-01" nType="0">
          <Node pos="l" depth="2" NCoef="0" IVar="-1" Cut="0.0000000000000000e+00" cType="1" res="1.0650063632056117e-03" rms="4.4537037611007690e-01" purity="6.7366653680801392e-01" nType="-99"/>
          <Node pos="r" depth="2" NCoef="0" IVar="-1" Cut="0.0000000000000000e+00" cType="1" res="-1.9708112813532352e-03" rms="4.2680364847183228e-01" purity="2.5017747282981873e-01" nType="-99"/>
        </Node>
      </Node>
    </BinaryTree>
    <BinaryTree type="DecisionTree" boostWeight="1.0000000000000000e+00" itree="221">
      <Node pos="s" depth="0" NCoef="0" IVar="0" Cut="1.4432610273361206e+00" cType="1" res="-2.2690033540129662e-02" rms="4.4847157597541809e-01" purity="4.9554473161697388e-01" nType="0">
        <Node pos="l" depth="1" NCoef="0" IVar="2" Cut="9.5644730329513550e-01" cType="1" res="5.7038362137973309e-03" rms="4.5952889323234558e-01" purity="5.7039874792098999e-01" nType="0">
          <Node pos="l" depth="2" NCoef="0" IVar="-1" Cut="0.0000000000000000e+00" cType="1" res="-7.0799078093841672e-04" rms="4.7384920716285706e-01" purity="4.5633319020271301e-01" nType="-99"/>
          <Node pos="r" depth="2" NCoef="0" IVar="-1" Cut="0.0000000000000000e+00" cType="1" res="2.3491559550166130e-03" rms="4.2777463793754578e-01" purity="7.4284362792968750e-01" nType="-99"/>
        </Node>
        <Node pos="r" depth="1" NCoef="0" IVar="5" Cut="4.9481512451171875e+02" cType="1" res="-1.3913917541503906e-01" rms="3.7826380133628845e-01" purity="1.8855297565460205e-01" nType="0">
          <Node pos="l" depth="2" NCoef="0" IVar="-1" Cut="0.0000000000000000e+00" cType="1" res="-2.5993471499532461e-03" rms="3.4780299663543701e-01" purity="1.4890992641448975e-01" nType="-99"/>
          <Node pos="r" depth="2" NCoef="0" IVar="-1" Cut="0.0000000000000000e+00" cType="1" res="-1.5680488431826234e-03" rms="4.0109074115753174e-01" purity="2.2596144676208496e-01" nType="-99"/>
        </Node>
      </Node>
    </BinaryTree>
    <BinaryTree type="DecisionTree" boostWeight="1.0000000000000000e+00" itree="222">
      <Node pos="s" depth="0" NCoef="0" IVar="2" Cut="9.3542242050170898e-01" cType="1" res="-3.1124450266361237e-02" rms="4.4307172298431396e-01" purity="4.8810720443725586e-01" nType="0">
        <Node pos="l" depth="1" NCoef="0" IVar="7" Cut="7.8269347548484802e-02" cType="1" res="-1.4657065272331238e-01" rms="4.1291680932044983e-01" purity="2.5242450833320618e-01" nType="0">
          <Node pos="l" depth="2" NCoef="0" IVar="-1" Cut="0.0000000000000000e+00" cType="1" res="-2.6492734905332327e-03" rms="3.8668724894523621e-01" purity="1.9764308631420135e-01" nType="-99"/>
          <Node pos="r" depth="2" NCoef="0" IVar="-1" Cut="0.0000000000000000e+00" cType="1" res="-1.3387760845944285e-03" rms="4.3873038887977600e-01" purity="3.2478237152099609e-01" nType="-99"/>
        </Node>
        <Node pos="r" depth="1" NCoef="0" IVar="3" Cut="1.0864683532714844e+02" cType="1" res="2.5653121992945671e-02" rms="4.4635057449340820e-01" purity="6.0401833057403564e-01" nType="0">
          <Node pos="l" depth="2" NCoef="0" IVar="-1" Cut="0.0000000000000000e+00" cType="1" res="-2.2552912123501301e-03" rms="4.6161586046218872e-01" purity="4.2074266076087952e-01" nType="-99"/>
          <Node pos="r" depth="2" NCoef="0" IVar="-1" Cut="0.0000000000000000e+00" cType="1" res="1.2471121735870838e-03" rms="4.3881836533546448e-01" purity="6.3492482900619507e-01" nType="-99"/>
        </Node>
      </Node>
    </BinaryTree>
    <BinaryTree type="DecisionTree" boostWeight="1.0000000000000000e+00" itree="223">
      <Node pos="s" depth="0" NCoef="0" IVar="5" Cut="7.0673413085937500e+02" cType="1" res="-2.9596414417028427e-02" rms="4.5094230771064758e-01" purity="4.9192044138908386e-01" nType="0">
        <Node pos="l" depth="1" NCoef="0" IVar="3" Cut="1.3962269592285156e+02" cType="1" res="-5.4291930049657822e-02" rms="4.5442512631416321e-01" purity="4.5419800281524658e-01" nType="0">
          <Node pos="l" depth="2" NCoef="0" IVar="-1" Cut="0.0000000000000000e+00" cType="1" res="-6.6506187431514263e-04" rms="4.5528247952461243e-01" purity="4.7984975576400757e-01" nType="-99"/>
          <Node pos="r" depth="2" NCoef="0" IVar="-1" Cut="0.0000000000000000e+00" cType="1" res="-3.0404911376535892e-03" rms="4.1788405179977417e-01" purity="2.6379168033599854e-01" nType="-99"/>
        </Node>
        <Node pos="r" depth="1" NCoef="0" IVar="4" Cut="4.0413018798828125e+02" cType="1" res="7.0263959467411041e-02" rms="4.2209017276763916e-01" purity="6.4445722103118896e-01" nType="0">
          <Node pos="l" depth="2" NCoef="0" IVar="-1" Cut="0.0000000000000000e+00" cType="1" res="3.3770133741199970e-03" rms="4.1099473834037781e-01" purity="7.3248767852783203e-01" nType="-99"/>
          <Node pos="r" depth="2" NCoef="0" IVar="-1" Cut="0.0000000000000000e+00" cType="1" res="-6.2513671582564712e-04" rms="4.2937648296356201e-01" purity="4.4319286942481995e-01" nType="-99"/>
        </Node>
      </Node>
    </BinaryTree>
    <BinaryTree type="DecisionTree" boostWeight="1.0000000000000000e+00" itree="224">
      <Node pos="s" depth="0" NCoef="0" IVar="3" Cut="1.0046376037597656e+02" cType="1" res="-2.8932496905326843e-02" rms="4.4560125470161438e-01" purity="4.8872515559196472e-01" nType="0">
        <Node pos="l" depth="1" NCoef="0" IVar="-1" Cut="0.0000000000000000e+00" cType="1" res="-3.3939473796635866e-03" rms="3.7135004997253418e-01" purity="1.9798232614994049e-01" nType="-99"/>
        <Node pos="r" depth="1" NCoef="0" IVar="0" Cut="1.2886081933975220e+00" cType="1" res="-1.0864749550819397e-02" rms="4.4712114334106445e-01" purity="5.1446598768234253e-01" nType="0">
          <Node pos="l" depth="2" NCoef="0" IVar="-1" Cut="0.0000000000000000e+00" cType="1" res="5.1642733160406351e-04" rms="4.5413801074028015e-01" purity="6.1386990547180176e-01" nType="-99"/>
          <Node pos="r" depth="2" NCoef="0" IVar="-1" Cut="0.0000000000000000e+00" cType="1" res="-1.5350019093602896e-03" rms="4.1411465406417847e-01" purity="2.4512954056262970e-01" nType="-99"/>
        </Node>
      </Node>
    </BinaryTree>
    <BinaryTree type="DecisionTree" boostWeight="1.0000000000000000e+00" itree="225">
      <Node pos="s" depth="0" NCoef="0" IVar="1" Cut="2.8846426391601562e+02" cType="1" res="-3.4785434603691101e-02" rms="4.5610034465789795e-01" purity="4.9548244476318359e-01" nType="0">
        <Node pos="l" depth="1" NCoef="0" IVar="-1" Cut="0.0000000000000000e+00" cType="1" res="-2.4142377078533173e-03" rms="4.2133200168609619e-01" purity="2.9403030872344971e-01" nType="-99"/>
        <Node pos="r" depth="1" NCoef="0" IVar="8" Cut="2.5963377952575684e+00" cType="1" res="-1.5343189239501953e-02" rms="4.5844429731369019e-01" purity="5.2772831916809082e-01" nType="0">
          <Node pos="l" depth="2" NCoef="0" IVar="-1" Cut="0.0000000000000000e+00" cType="1" res="9.2916789071750827e-06" rms="4.6546882390975952e-01" purity="5.7020074129104614e-01" nType="-99"/>
          <Node pos="r" depth="2" NCoef="0" IVar="-1" Cut="0.0000000000000000e+00" cType="1" res="-2.2144571412354708e-03" rms="3.7059691548347473e-01" purity="1.7619024217128754e-01" nType="-99"/>
        </Node>
      </Node>
    </BinaryTree>
    <BinaryTree type="DecisionTree" boostWeight="1.0000000000000000e+00" itree="226">
      <Node pos="s" depth="0" NCoef="0" IVar="2" Cut="9.2756181955337524e-01" cType="1" res="-3.6558967083692551e-02" rms="4.5014679431915283e-01" purity="4.8717296123504639e-01" nType="0">
        <Node pos="l" depth="1" NCoef="0" IVar="0" Cut="9.7085261344909668e-01" cType="1" res="-1.4602226018905640e-01" rms="3.9715337753295898e-01" purity="2.3526437580585480e-01" nType="0">
          <Node pos="l" depth="2" NCoef="0" IVar="-1" Cut="0.0000000000000000e+00" cType="1" res="-9.7561790607869625e-04" rms="4.8321267962455750e-01" purity="4.2564710974693298e-01" nType="-99"/>
          <Node pos="r" depth="2" NCoef="0" IVar="-1" Cut="0.0000000000000000e+00" cType="1" res="-2.5146147236227989e-03" rms="3.3218985795974731e-01" purity="1.3160106539726257e-01" nType="-99"/>
        </Node>
        <Node pos="r" depth="1" NCoef="0" IVar="3" Cut="1.3517864990234375e+02" cType="1" res="-7.8503424301743507e-03" rms="4.5873910188674927e-01" purity="5.5324029922485352e-01" nType="0">
          <Node pos="l" depth="2" NCoef="0" IVar="-1" Cut="0.0000000000000000e+00" cType="1" res="2.2789838840253651e-04" rms="4.5656669139862061e-01" purity="5.7774055004119873e-01" nType="-99"/>
          <Node pos="r" depth="2" NCoef="0" IVar="-1" Cut="0.0000000000000000e+00" cType="1" res="-1.5933956019580364e-03" rms="4.5968723297119141e-01" purity="4.5055261254310608e-01" nType="-99"/>
        </Node>
      </Node>
    </BinaryTree>
    <BinaryTree type="DecisionTree" boostWeight="1.0000000000000000e+00" itree="227">
      <Node pos="s" depth="0" NCoef="0" IVar="0" Cut="1.4490398168563843e+00" cType="1" res="-3.0334676921484061e-05" rms="4.4699317216873169e-01" purity="5.2164459228515625e-01" nType="0">
        <Node pos="l" depth="1" NCoef="0" IVar="4" Cut="1.3556314086914062e+02" cType="1" res="3.2893437892198563e-02" rms="4.5612728595733643e-01" purity="5.9899735450744629e-01" nType="0">
          <Node pos="l" depth="2" NCoef="0" IVar="-1" Cut="0.0000000000000000e+00" cType="1" res="-1.6166828572750092e-03" rms="4.5477071404457092e-01" purity="4.3836930394172668e-01" nType="-99"/>
          <Node pos="r" depth="2" NCoef="0" IVar="-1" Cut="0.0000000000000000e+00" cType="1" res="1.2971903197467327e-03" rms="4.5268651843070984e-01" purity="6.2610715627670288e-01" nType="-99"/>
        </Node>
        <Node pos="r" depth="1" NCoef="0" IVar="7" Cut="4.7099526971578598e-02" cType="1" res="-1.4768078923225403e-01" rms="3.6898037791252136e-01" purity="1.7474721372127533e-01" nType="0">
          <Node pos="l" depth="2" NCoef="0" IVar="-1" Cut="0.0000000000000000e+00" cType="1" res="-1.9097280455753207e-03" rms="3.8963374495506287e-01" purity="2.0000523328781128e-01" nType="-99"/>
          <Node pos="r" depth="2" NCoef="0" IVar="-1" Cut="0.0000000000000000e+00" cType="1" res="-2.3789145052433014e-03" rms="3.4944581985473633e-01" purity="1.5384024381637573e-01" nType="-99"/>
        </Node>
      </Node>
    </BinaryTree>
    <BinaryTree type="DecisionTree" boostWeight="1.0000000000000000e+00" itree="228">
      <Node pos="s" depth="0" NCoef="0" IVar="6" Cut="1.0795433807373047e+02" cType="1" res="-2.3245649412274361e-02" rms="4.5377358794212341e-01" purity="5.0281262397766113e-01" nType="0">
        <Node pos="l" depth="1" NCoef="0" IVar="3" Cut="1.0616471862792969e+02" cType="1" res="-5.1219493150711060e-02" rms="4.5685613155364990e-01" purity="4.6583753824234009e-01" nType="0">
          <Node pos="l" depth="2" NCoef="0" IVar="-1" Cut="0.0000000000000000e+00" cType="1" res="-2.7170653920620680e-03" rms="4.3923726677894592e-01" purity="3.1447589397430420e-01" nType="-99"/>
          <Node pos="r" depth="2" NCoef="0" IVar="-1" Cut="0.0000000000000000e+00" cType="1" res="-6.0608889907598495e-04" rms="4.5667970180511475e-01" purity="4.9057891964912415e-01" nType="-99"/>
        </Node>
        <Node pos="r" depth="1" NCoef="0" IVar="2" Cut="9.3774235248565674e-01" cType="1" res="8.0343663692474365e-02" rms="4.2648231983184814e-01" purity="6.3973402976989746e-01" nType="0">
          <Node pos="l" depth="2" NCoef="0" IVar="-1" Cut="0.0000000000000000e+00" cType="1" res="-1.5632403083145618e-03" rms="4.5177504420280457e-01" purity="3.3772969245910645e-01" nType="-99"/>
          <Node pos="r" depth="2" NCoef="0" IVar="-1" Cut="0.0000000000000000e+00" cType="1" res="5.2937264554202557e-03" rms="3.9070644974708557e-01" purity="7.7566623687744141e-01" nType="-99"/>
        </Node>
      </Node>
    </BinaryTree>
    <BinaryTree type="DecisionTree" boostWeight="1.0000000000000000e+00" itree="229">
      <Node pos="s" depth="0" NCoef="0" IVar="5" Cut="4.8618496704101562e+02" cType="1" res="-2.8409283608198166e-02" rms="4.4848698377609253e-01" purity="4.8846811056137085e-01" nType="0">
        <Node pos="l" depth="1" NCoef="0" IVar="6" Cut="4.7941616058349609e+01" cType="1" res="-9.7953304648399353e-02" rms="4.4449043273925781e-01" purity="3.8762924075126648e-01" nType="0">
          <Node pos="l" depth="2" NCoef="0" IVar="-1" Cut="0.0000000000000000e+00" cType="1" res="-3.0674552544951439e-03" rms="4.3271917104721069e-01" purity="2.8585898876190186e-01" nType="-99"/>
          <Node pos="r" depth="2" NCoef="0" IVar="-1" Cut="0.0000000000000000e+00" cType="1" res="-6.2508042901754379e-04" rms="4.3936845660209656e-01" purity="4.4977951049804688e-01" nType="-99"/>
        </Node>
        <Node pos="r" depth="1" NCoef="0" IVar="7" Cut="1.3104200363159180e-01" cType="1" res="1.5280212275683880e-02" rms="4.4546100497245789e-01" purity="5.5181783437728882e-01" nType="0">
          <Node pos="l" depth="2" NCoef="0" IVar="-1" Cut="0.0000000000000000e+00" cType="1" res="-3.3346898271702230e-04" rms="4.5197635889053345e-01" purity="5.0109869241714478e-01" nType="-99"/>
          <Node pos="r" depth="2" NCoef="0" IVar="-1" Cut="0.0000000000000000e+00" cType="1" res="4.6289702877402306e-03" rms="3.8895905017852783e-01" purity="7.6696413755416870e-01" nType="-99"/>
        </Node>
      </Node>
    </BinaryTree>
    <BinaryTree type="DecisionTree" boostWeight="1.0000000000000000e+00" itree="230">
      <Node pos="s" depth="0" NCoef="0" IVar="6" Cut="7.6163520812988281e+01" cType="1" res="-1.0335253551602364e-02" rms="4.4781884551048279e-01" purity="5.1508134603500366e-01" nType="0">
        <Node pos="l" depth="1" NCoef="0" IVar="0" Cut="1.1453441381454468e+00" cType="1" res="-5.9555184096097946e-02" rms="4.5469266176223755e-01" purity="4.4627320766448975e-01" nType="0">
          <Node pos="l" depth="2" NCoef="0" IVar="-1" Cut="0.0000000000000000e+00" cType="1" res="-4.7513347817584872e-04" rms="4.7180557250976562e-01" purity="5.5302649736404419e-01" nType="-99"/>
          <Node pos="r" depth="2" NCoef="0" IVar="-1" Cut="0.0000000000000000e+00" cType="1" res="-2.0019402727484703e-03" rms="4.0717637538909912e-01" purity="2.2591854631900787e-01" nType="-99"/>
        </Node>
        <Node pos="r" depth="1" NCoef="0" IVar="8" Cut="2.5015509128570557e+00" cType="1" res="4.5096293091773987e-02" rms="4.3330600857734680e-01" purity="5.9257322549819946e-01" nType="0">
          <Node pos="l" depth="2" NCoef="0" IVar="-1" Cut="0.0000000000000000e+00" cType="1" res="2.2706948220729828e-03" rms="4.2944401502609253e-01" purity="6.9203925132751465e-01" nType="-99"/>
          <Node pos="r" depth="2" NCoef="0" IVar="-1" Cut="0.0000000000000000e+00" cType="1" res="-1.3215953949838877e-03" rms="4.2178711295127869e-01" purity="2.6151302456855774e-01" nType="-99"/>
        </Node>
      </Node>
    </BinaryTree>
    <BinaryTree type="DecisionTree" boostWeight="1.0000000000000000e+00" itree="231">
      <Node pos="s" depth="0" NCoef="0" IVar="3" Cut="1.0255906677246094e+02" cType="1" res="-1.9173875451087952e-02" rms="4.5269414782524109e-01" purity="5.1052528619766235e-01" nType="0">
        <Node pos="l" depth="1" NCoef="0" IVar="-1" Cut="0.0000000000000000e+00" cType="1" res="-3.0496865510940552e-03" rms="3.8940793275833130e-01" purity="2.3751223087310791e-01" nType="-99"/>
        <Node pos="r" depth="1" NCoef="0" IVar="2" Cut="9.4073206186294556e-01" cType="1" res="-5.1008549053221941e-04" rms="4.5431342720985413e-01" purity="5.3773713111877441e-01" nType="0">
          <Node pos="l" depth="2" NCoef="0" IVar="-1" Cut="0.0000000000000000e+00" cType="1" res="-1.1774353915825486e-03" rms="4.4656255841255188e-01" purity="3.4065473079681396e-01" nType="-99"/>
          <Node pos="r" depth="2" NCoef="0" IVar="-1" Cut="0.0000000000000000e+00" cType="1" res="9.5389661146327853e-04" rms="4.5336347818374634e-01" purity="6.3909602165222168e-01" nType="-99"/>
        </Node>
      </Node>
    </BinaryTree>
    <BinaryTree type="DecisionTree" boostWeight="1.0000000000000000e+00" itree="232">
      <Node pos="s" depth="0" NCoef="0" IVar="0" Cut="8.3225858211517334e-01" cType="1" res="-2.4464091286063194e-02" rms="4.4326171278953552e-01" purity="4.9579414725303650e-01" nType="0">
        <Node pos="l" depth="1" NCoef="0" IVar="2" Cut="9.7557824850082397e-01" cType="1" res="5.9964291751384735e-02" rms="4.3232682347297668e-01" purity="6.9750845432281494e-01" nType="0">
          <Node pos="l" depth="2" NCoef="0" IVar="-1" Cut="0.0000000000000000e+00" cType="1" res="7.6485658064484596e-04" rms="4.5910245180130005e-01" purity="6.4662379026412964e-01" nType="-99"/>
          <Node pos="r" depth="2" NCoef="0" IVar="-1" Cut="0.0000000000000000e+00" cType="1" res="1.0770251974463463e-02" rms="2.2654668986797333e-01" purity="9.4020938873291016e-01" nType="-99"/>
        </Node>
        <Node pos="r" depth="1" NCoef="0" IVar="6" Cut="5.2013351440429688e+01" cType="1" res="-6.6173695027828217e-02" rms="4.4266217947006226e-01" purity="3.9614251255989075e-01" nType="0">
          <Node pos="l" depth="2" NCoef="0" IVar="-1" Cut="0.0000000000000000e+00" cType="1" res="-2.3605299647897482e-03" rms="4.2151078581809998e-01" purity="2.8442230820655823e-01" nType="-99"/>
          <Node pos="r" depth="2" NCoef="0" IVar="-1" Cut="0.0000000000000000e+00" cType="1" res="-6.5962242661044002e-04" rms="4.4586339592933655e-01" purity="4.3485409021377563e-01" nType="-99"/>
        </Node>
      </Node>
    </BinaryTree>
    <BinaryTree type="DecisionTree" boostWeight="1.0000000000000000e+00" itree="233">
      <Node pos="s" depth="0" NCoef="0" IVar="0" Cut="1.4285544157028198e+00" cType="1" res="-3.2015748322010040e-02" rms="4.4336560368537903e-01" purity="4.8584631085395813e-01" nType="0">
        <Node pos="l" depth="1" NCoef="0" IVar="2" Cut="9.2372542619705200e-01" cType="1" res="-3.5016553010791540e-03" rms="4.5755162835121155e-01" purity="5.6399840116500854e-01" nType="0">
          <Node pos="l" depth="2" NCoef="0" IVar="-1" Cut="0.0000000000000000e+00" cType="1" res="-1.7098685493692756e-03" rms="4.4844418764114380e-01" purity="3.0796566605567932e-01" nType="-99"/>
          <Node pos="r" depth="2" NCoef="0" IVar="-1" Cut="0.0000000000000000e+00" cType="1" res="3.8017920451238751e-04" rms="4.5626983046531677e-01" purity="6.0976660251617432e-01" nType="-99"/>
        </Node>
        <Node pos="r" depth="1" NCoef="0" IVar="1" Cut="3.8238665771484375e+02" cType="1" res="-1.4758253097534180e-01" rms="3.5794320702552795e-01" purity="1.6909807920455933e-01" nType="0">
          <Node pos="l" depth="2" NCoef="0" IVar="-1" Cut="0.0000000000000000e+00" cType="1" res="-2.6141158305108547e-03" rms="3.2003277540206909e-01" purity="1.2436117976903915e-01" nType="-99"/>
          <Node pos="r" depth="2" NCoef="0" IVar="-1" Cut="0.0000000000000000e+00" cType="1" res="-1.6404518391937017e-03" rms="3.9308583736419678e-01" purity="2.2113975882530212e-01" nType="-99"/>
        </Node>
      </Node>
    </BinaryTree>
    <BinaryTree type="DecisionTree" boostWeight="1.0000000000000000e+00" itree="234">
      <Node pos="s" depth="0" NCoef="0" IVar="0" Cut="1.3962608575820923e+00" cType="1" res="-1.0348617099225521e-02" rms="4.4765368103981018e-01" purity="5.1062625646591187e-01" nType="0">
        <Node pos="l" depth="1" NCoef="0" IVar="3" Cut="1.0618994140625000e+02" cType="1" res="1.7310615628957748e-02" rms="4.5668444037437439e-01" purity="5.8880448341369629e-01" nType="0">
          <Node pos="l" depth="2" NCoef="0" IVar="-1" Cut="0.0000000000000000e+00" cType="1" res="-2.0975212100893259e-03" rms="4.4568613171577454e-01" purity="3.8284406065940857e-01" nType="-99"/>
          <Node pos="r" depth="2" NCoef="0" IVar="-1" Cut="0.0000000000000000e+00" cType="1" res="8.1049272557720542e-04" rms="4.5452722907066345e-01" purity="6.1326712369918823e-01" nType="-99"/>
        </Node>
        <Node pos="r" depth="1" NCoef="0" IVar="6" Cut="9.1877738952636719e+01" cType="1" res="-1.1519591510295868e-01" rms="3.9438933134078979e-01" purity="2.1427793800830841e-01" nType="0">
          <Node pos="l" depth="2" NCoef="0" IVar="-1" Cut="0.0000000000000000e+00" cType="1" res="-2.3583392612636089e-03" rms="3.5391700267791748e-01" purity="1.6105651855468750e-01" nType="-99"/>
          <Node pos="r" depth="2" NCoef="0" IVar="-1" Cut="0.0000000000000000e+00" cType="1" res="-9.5270085148513317e-04" rms="4.3466824293136597e-01" purity="2.8280279040336609e-01" nType="-99"/>
        </Node>
      </Node>
    </BinaryTree>
    <BinaryTree type="DecisionTree" boostWeight="1.0000000000000000e+00" itree="235">
      <Node pos="s" depth="0" NCoef="0" IVar="6" Cut="9.6719741821289062e+01" cType="1" res="-2.4416055530309677e-02" rms="4.5045524835586548e-01" purity="4.9896687269210815e-01" nType="0">
        <Node pos="l" depth="1" NCoef="0" IVar="0" Cut="7.7120774984359741e-01" cType="1" res="-5.7335454970598221e-02" rms="4.5569697022438049e-01" purity="4.5192778110504150e-01" nType="0">
          <Node pos="l" depth="2" NCoef="0" IVar="-1" Cut="0.0000000000000000e+00" cType="1" res="6.2147813150659204e-04" rms="4.5662966370582581e-01" purity="6.3473880290985107e-01" nType="-99"/>
          <Node pos="r" depth="2" NCoef="0" IVar="-1" Cut="0.0000000000000000e+00" cType="1" res="-1.6014085849747062e-03" rms="4.5014530420303345e-01" purity="3.6967262625694275e-01" nType="-99"/>
        </Node>
        <Node pos="r" depth="1" NCoef="0" IVar="2" Cut="9.4243276119232178e-01" cType="1" res="5.8869674801826477e-02" rms="4.2569327354431152e-01" purity="6.1797529458999634e-01" nType="0">
          <Node pos="l" depth="2" NCoef="0" IVar="-1" Cut="0.0000000000000000e+00" cType="1" res="-4.7141453251242638e-04" rms="4.5208647847175598e-01" purity="4.0354818105697632e-01" nType="-99"/>
          <Node pos="r" depth="2" NCoef="0" IVar="-1" Cut="0.0000000000000000e+00" cType="1" res="3.2555421348661184e-03" rms="4.0177887678146362e-01" purity="7.4046921730041504e-01" nType="-99"/>
        </Node>
      </Node>
    </BinaryTree>
    <BinaryTree type="DecisionTree" boostWeight="1.0000000000000000e+00" itree="236">
      <Node pos="s" depth="0" NCoef="0" IVar="8" Cut="2.5441443920135498e+00" cType="1" res="-1.3008099049329758e-02" rms="4.4485569000244141e-01" purity="5.0164574384689331e-01" nType="0">
        <Node pos="l" depth="1" NCoef="0" IVar="6" Cut="8.7580406188964844e+01" cType="1" res="1.0956080630421638e-02" rms="4.5436340570449829e-01" purity="5.6550586223602295e-01" nType="0">
          <Node pos="l" depth="2" NCoef="0" IVar="-1" Cut="0.0000000000000000e+00" cType="1" res="-5.1523552974686027e-04" rms="4.6060851216316223e-01" purity="4.9800655245780945e-01" nType="-99"/>
          <Node pos="r" depth="2" NCoef="0" IVar="-1" Cut="0.0000000000000000e+00" cType="1" res="2.1880017593502998e-03" rms="4.3398204445838928e-01" purity="6.8994390964508057e-01" nType="-99"/>
        </Node>
        <Node pos="r" depth="1" NCoef="0" IVar="-1" Cut="0.0000000000000000e+00" cType="1" res="-1.9937374163419008e-03" rms="3.7204742431640625e-01" purity="1.8449056148529053e-01" nType="-99"/>
      </Node>
    </BinaryTree>
    <BinaryTree type="DecisionTree" boostWeight="1.0000000000000000e+00" itree="237">
      <Node pos="s" depth="0" NCoef="0" IVar="7" Cut="1.4371816813945770e-01" cType="1" res="-1.7600815743207932e-02" rms="4.4670259952545166e-01" purity="5.0289124250411987e-01" nType="0">
        <Node pos="l" depth="1" NCoef="0" IVar="2" Cut="9.6368014812469482e-01" cType="1" res="-4.6137005090713501e-02" rms="4.4806200265884399e-01" purity="4.6032205224037170e-01" nType="0">
          <Node pos="l" depth="2" NCoef="0" IVar="-1" Cut="0.0000000000000000e+00" cType="1" res="-1.3424050994217396e-03" rms="4.5174577832221985e-01" purity="3.8150864839553833e-01" nType="-99"/>
          <Node pos="r" depth="2" NCoef="0" IVar="-1" Cut="0.0000000000000000e+00" cType="1" res="1.0407568188384175e-03" rms="4.2686063051223755e-01" purity="6.5856748819351196e-01" nType="-99"/>
        </Node>
        <Node pos="r" depth="1" NCoef="0" IVar="0" Cut="1.0401922464370728e+00" cType="1" res="9.1478124260902405e-02" rms="4.2412611842155457e-01" purity="6.6561096906661987e-01" nType="0">
          <Node pos="l" depth="2" NCoef="0" IVar="-1" Cut="0.0000000000000000e+00" cType="1" res="4.3538990430533886e-03" rms="3.9681097865104675e-01" purity="7.8265881538391113e-01" nType="-99"/>
          <Node pos="r" depth="2" NCoef="0" IVar="-1" Cut="0.0000000000000000e+00" cType="1" res="-7.1730981289874762e-05" rms="4.5776790380477905e-01" purity="4.3874037265777588e-01" nType="-99"/>
        </Node>
      </Node>
    </BinaryTree>
    <BinaryTree type="DecisionTree" boostWeight="1.0000000000000000e+00" itree="238">
      <Node pos="s" depth="0" NCoef="0" IVar="3" Cut="1.0762046051025391e+02" cType="1" res="-2.5322806090116501e-02" rms="4.4748762249946594e-01" purity="4.9656549096107483e-01" nType="0">
        <Node pos="l" depth="1" NCoef="0" IVar="0" Cut="9.8588764667510986e-01" cType="1" res="-1.5474933385848999e-01" rms="4.2509755492210388e-01" purity="3.0551072955131531e-01" nType="0">
          <Node pos="l" depth="2" NCoef="0" IVar="-1" Cut="0.0000000000000000e+00" cType="1" res="-2.8974686283618212e-03" rms="4.7598972916603088e-01" purity="4.1310563683509827e-01" nType="-99"/>
          <Node pos="r" depth="2" NCoef="0" IVar="-1" Cut="0.0000000000000000e+00" cType="1" res="-2.1123616024851799e-03" rms="3.8216197490692139e-01" purity="2.2649528086185455e-01" nType="-99"/>
        </Node>
        <Node pos="r" depth="1" NCoef="0" IVar="3" Cut="1.4457505798339844e+02" cType="1" res="-4.3544787913560867e-03" rms="4.4750067591667175e-01" purity="5.2751821279525757e-01" nType="0">
          <Node pos="l" depth="2" NCoef="0" IVar="-1" Cut="0.0000000000000000e+00" cType="1" res="2.5427411310374737e-04" rms="4.4721856713294983e-01" purity="5.4952329397201538e-01" nType="-99"/>
          <Node pos="r" depth="2" NCoef="0" IVar="-1" Cut="0.0000000000000000e+00" cType="1" res="-2.5305612944066525e-03" rms="4.2101418972015381e-01" purity="3.2437121868133545e-01" nType="-99"/>
        </Node>
      </Node>
    </BinaryTree>
    <BinaryTree type="DecisionTree" boostWeight="1.0000000000000000e+00" itree="239">
      <Node pos="s" depth="0" NCoef="0" IVar="2" Cut="9.2871975898742676e-01" cType="1" res="-2.6284402236342430e-02" rms="4.5281991362571716e-01" purity="4.9992102384567261e-01" nType="0">
        <Node pos="l" depth="1" NCoef="0" IVar="0" Cut="8.7467509508132935e-01" cType="1" res="-1.1083299666643143e-01" rms="4.2147338390350342e-01" purity="2.7947908639907837e-01" nType="0">
          <Node pos="l" depth="2" NCoef="0" IVar="-1" Cut="0.0000000000000000e+00" cType="1" res="-3.5360397305339575e-04" rms="4.9227842688560486e-01" purity="4.7966277599334717e-01" nType="-99"/>
          <Node pos="r" depth="2" NCoef="0" IVar="-1" Cut="0.0000000000000000e+00" cType="1" res="-2.1002003923058510e-03" rms="3.8233032822608948e-01" purity="1.9686441123485565e-01" nType="-99"/>
        </Node>
        <Node pos="r" depth="1" NCoef="0" IVar="6" Cut="9.2544235229492188e+01" cType="1" res="-1.1066637234762311e-03" rms="4.5874226093292236e-01" purity="5.6556642055511475e-01" nType="0">
          <Node pos="l" depth="2" NCoef="0" IVar="-1" Cut="0.0000000000000000e+00" cType="1" res="-6.8267207825556397e-04" rms="4.7033295035362244e-01" purity="5.1570230722427368e-01" nType="-99"/>
          <Node pos="r" depth="2" NCoef="0" IVar="-1" Cut="0.0000000000000000e+00" cType="1" res="1.6694199293851852e-03" rms="4.2711043357849121e-01" purity="6.6605788469314575e-01" nType="-99"/>
        </Node>
      </Node>
    </BinaryTree>
    <BinaryTree type="DecisionTree" boostWeight="1.0000000000000000e+00" itree="240">
      <Node pos="s" depth="0" NCoef="0" IVar="2" Cut="9.3055015802383423e-01" cType="1" res="-2.3060522973537445e-02" rms="4.4622296094894409e-01" purity="4.9158817529678345e-01" nType="0">
        <Node pos="l" depth="1" NCoef="0" IVar="7" Cut="5.3562521934509277e-02" cType="1" res="-1.1479438096284866e-01" rms="4.1752937436103821e-01" purity="2.6610994338989258e-01" nType="0">
          <Node pos="l" depth="2" NCoef="0" IVar="-1" Cut="0.0000000000000000e+00" cType="1" res="-2.6369686238467693e-03" rms="3.5905903577804565e-01" purity="1.6543175280094147e-01" nType="-99"/>
          <Node pos="r" depth="2" NCoef="0" IVar="-1" Cut="0.0000000000000000e+00" cType="1" res="-9.1948395129293203e-04" rms="4.5049616694450378e-01" purity="3.4601026773452759e-01" nType="-99"/>
        </Node>
        <Node pos="r" depth="1" NCoef="0" IVar="6" Cut="7.6444236755371094e+01" cType="1" res="5.4108235053718090e-03" rms="4.5098200440406799e-01" purity="5.6156963109970093e-01" nType="0">
          <Node pos="l" depth="2" NCoef="0" IVar="-1" Cut="0.0000000000000000e+00" cType="1" res="-8.6914154235273600e-04" rms="4.6945801377296448e-01" purity="4.9065506458282471e-01" nType="-99"/>
          <Node pos="r" depth="2" NCoef="0" IVar="-1" Cut="0.0000000000000000e+00" cType="1" res="1.5028140041977167e-03" rms="4.2337107658386230e-01" purity="6.3869053125381470e-01" nType="-99"/>
        </Node>
      </Node>
    </BinaryTree>
    <BinaryTree type="DecisionTree" boostWeight="1.0000000000000000e+00" itree="241">
      <Node pos="s" depth="0" NCoef="0" IVar="3" Cut="1.0587245941162109e+02" cType="1" res="-1.1606310494244099e-02" rms="4.4798508286476135e-01" purity="5.1115721464157104e-01" nType="0">
        <Node pos="l" depth="1" NCoef="0" IVar="-1" Cut="0.0000000000000000e+00" cType="1" res="-2.3731826804578304e-03" rms="4.2202025651931763e-01" purity="3.0592462420463562e-01" nType="-99"/>
        <Node pos="r" depth="1" NCoef="0" IVar="0" Cut="1.4415274858474731e+00" cType="1" res="6.4577627927064896e-03" rms="4.4833603501319885e-01" purity="5.3890621662139893e-01" nType="0">
          <Node pos="l" depth="2" NCoef="0" IVar="-1" Cut="0.0000000000000000e+00" cType="1" res="6.6853832686319947e-04" rms="4.5673477649688721e-01" purity="6.0948562622070312e-01" nType="-99"/>
          <Node pos="r" depth="2" NCoef="0" IVar="-1" Cut="0.0000000000000000e+00" cType="1" res="-1.5694516478106380e-03" rms="3.9015820622444153e-01" purity="2.1296429634094238e-01" nType="-99"/>
        </Node>
      </Node>
    </BinaryTree>
    <BinaryTree type="DecisionTree" boostWeight="1.0000000000000000e+00" itree="242">
      <Node pos="s" depth="0" NCoef="0" IVar="8" Cut="2.1588008403778076e+00" cType="1" res="-1.6779178753495216e-02" rms="4.5370492339134216e-01" purity="5.0457602739334106e-01" nType="0">
        <Node pos="l" depth="1" NCoef="0" IVar="6" Cut="5.8442142486572266e+01" cType="1" res="2.5116173550486565e-02" rms="4.5633962750434875e-01" purity="6.1390167474746704e-01" nType="0">
          <Node pos="l" depth="2" NCoef="0" IVar="-1" Cut="0.0000000000000000e+00" cType="1" res="-8.9152780128642917e-04" rms="4.8012617230415344e-01" purity="4.8933351039886475e-01" nType="-99"/>
          <Node pos="r" depth="2" NCoef="0" IVar="-1" Cut="0.0000000000000000e+00" cType="1" res="2.1973859984427691e-03" rms="4.2970627546310425e-01" purity="7.0671284198760986e-01" nType="-99"/>
        </Node>
        <Node pos="r" depth="1" NCoef="0" IVar="2" Cut="9.6719509363174438e-01" cType="1" res="-5.7245653122663498e-02" rms="4.4743642210960388e-01" purity="3.9897903800010681e-01" nType="0">
          <Node pos="l" depth="2" NCoef="0" IVar="-1" Cut="0.0000000000000000e+00" cType="1" res="-1.3274358352646232e-03" rms="4.4870588183403015e-01" purity="3.4188207983970642e-01" nType="-99"/>
          <Node pos="r" depth="2" NCoef="0" IVar="-1" Cut="0.0000000000000000e+00" cType="1" res="4.4555382919497788e-04" rms="4.3449586629867554e-01" purity="5.8905255794525146e-01" nType="-99"/>
        </Node>
      </Node>
    </BinaryTree>
    <BinaryTree type="DecisionTree" boostWeight="1.0000000000000000e+00" itree="243">
      <Node pos="s" depth="0" NCoef="0" IVar="2" Cut="9.4031566381454468e-01" cType="1" res="-7.1866004727780819e-03" rms="4.4359150528907776e-01" purity="5.1229077577590942e-01" nType="0">
        <Node pos="l" depth="1" NCoef="0" IVar="3" Cut="1.2122380065917969e+02" cType="1" res="-8.1235617399215698e-02" rms="4.3675705790519714e-01" purity="3.1572619080543518e-01" nType="0">
          <Node pos="l" depth="2" NCoef="0" IVar="-1" Cut="0.0000000000000000e+00" cType="1" res="-1.0154276242246851e-04" rms="4.4378831982612610e-01" purity="3.7278613448143005e-01" nType="-99"/>
          <Node pos="r" depth="2" NCoef="0" IVar="-1" Cut="0.0000000000000000e+00" cType="1" res="-1.8116317223757505e-03" rms="4.2680805921554565e-01" purity="2.8321388363838196e-01" nType="-99"/>
        </Node>
        <Node pos="r" depth="1" NCoef="0" IVar="3" Cut="1.0378489685058594e+02" cType="1" res="3.4570220857858658e-02" rms="4.4196221232414246e-01" purity="6.2313503026962280e-01" nType="0">
          <Node pos="l" depth="2" NCoef="0" IVar="-1" Cut="0.0000000000000000e+00" cType="1" res="-2.7978688012808561e-03" rms="4.3561926484107971e-01" purity="3.5737556219100952e-01" nType="-99"/>
          <Node pos="r" depth="2" NCoef="0" IVar="-1" Cut="0.0000000000000000e+00" cType="1" res="1.4117219252511859e-03" rms="4.3716493248939514e-01" purity="6.5178734064102173e-01" nType="-99"/>
        </Node>
      </Node>
    </BinaryTree>
    <BinaryTree type="DecisionTree" boostWeight="1.0000000000000000e+00" itree="244">
      <Node pos="s" depth="0" NCoef="0" IVar="0" Cut="1.2552602291107178e+00" cType="1" res="-3.8647118955850601e-02" rms="4.4730186462402344e-01" purity="4.8063749074935913e-01" nType="0">
        <Node pos="l" depth="1" NCoef="0" IVar="7" Cut="2.1025824546813965e-01" cType="1" res="1.2124678323743865e-04" rms="4.6304672956466675e-01" purity="5.9734743833541870e-01" nType="0">
          <Node pos="l" depth="2" NCoef="0" IVar="-1" Cut="0.0000000000000000e+00" cType="1" res="-3.3365111448802054e-04" rms="4.6716076135635376e-01" purity="5.7930743694305420e-01" nType="-99"/>
          <Node pos="r" depth="2" NCoef="0" IVar="-1" Cut="0.0000000000000000e+00" cType="1" res="5.1418496295809746e-03" rms="3.8061219453811646e-01" purity="7.8611898422241211e-01" nType="-99"/>
        </Node>
        <Node pos="r" depth="1" NCoef="0" IVar="4" Cut="4.0999353027343750e+02" cType="1" res="-1.2530446052551270e-01" rms="3.9644825458526611e-01" purity="2.1976056694984436e-01" nType="0">
          <Node pos="l" depth="2" NCoef="0" IVar="-1" Cut="0.0000000000000000e+00" cType="1" res="-1.4386202674359083e-03" rms="4.1342982649803162e-01" purity="2.5287547707557678e-01" nType="-99"/>
          <Node pos="r" depth="2" NCoef="0" IVar="-1" Cut="0.0000000000000000e+00" cType="1" res="-2.8624064289033413e-03" rms="3.3964648842811584e-01" purity="1.3904643058776855e-01" nType="-99"/>
        </Node>
      </Node>
    </BinaryTree>
    <BinaryTree type="DecisionTree" boostWeight="1.0000000000000000e+00" itree="245">
      <Node pos="s" depth="0" NCoef="0" IVar="5" Cut="4.6461853027343750e+02" cType="1" res="-3.3571392297744751e-02" rms="4.5060434937477112e-01" purity="4.8448055982589722e-01" nType="0">
        <Node pos="l" depth="1" NCoef="0" IVar="2" Cut="9.7085410356521606e-01" cType="1" res="-1.0902813076972961e-01" rms="4.3645104765892029e-01" purity="3.5964703559875488e-01" nType="0">
          <Node pos="l" depth="2" NCoef="0" IVar="-1" Cut="0.0000000000000000e+00" cType="1" res="-1.9830302335321903e-03" rms="4.2844292521476746e-01" purity="3.0687651038169861e-01" nType="-99"/>
          <Node pos="r" depth="2" NCoef="0" IVar="-1" Cut="0.0000000000000000e+00" cType="1" res="-2.9264006298035383e-04" rms="4.5979669690132141e-01" purity="6.0647910833358765e-01" nType="-99"/>
        </Node>
        <Node pos="r" depth="1" NCoef="0" IVar="3" Cut="1.4151107788085938e+02" cType="1" res="3.1999289058148861e-03" rms="4.5280861854553223e-01" purity="5.4531401395797729e-01" nType="0">
          <Node pos="l" depth="2" NCoef="0" IVar="-1" Cut="0.0000000000000000e+00" cType="1" res="6.1062845634296536e-04" rms="4.5282596349716187e-01" purity="5.7670289278030396e-01" nType="-99"/>
          <Node pos="r" depth="2" NCoef="0" IVar="-1" Cut="0.0000000000000000e+00" cType="1" res="-2.5535887107253075e-03" rms="4.1990411281585693e-01" purity="3.4292083978652954e-01" nType="-99"/>
        </Node>
      </Node>
    </BinaryTree>
    <BinaryTree type="DecisionTree" boostWeight="1.0000000000000000e+00" itree="246">
      <Node pos="s" depth="0" NCoef="0" IVar="0" Cut="1.4285544157028198e+00" cType="1" res="-1.9629744812846184e-02" rms="4.4540488719940186e-01" purity="5.0071972608566284e-01" nType="0">
        <Node pos="l" depth="1" NCoef="0" IVar="6" Cut="3.7428462982177734e+01" cType="1" res="6.5542571246623993e-03" rms="4.5653417706489563e-01" purity="5.7702785730361938e-01" nType="0">
          <Node pos="l" depth="2" NCoef="0" IVar="-1" Cut="0.0000000000000000e+00" cType="1" res="-1.8478289712220430e-03" rms="4.7058463096618652e-01" purity="3.8878843188285828e-01" nType="-99"/>
          <Node pos="r" depth="2" NCoef="0" IVar="-1" Cut="0.0000000000000000e+00" cType="1" res="4.3523139902390540e-04" rms="4.5317029953002930e-01" purity="5.9733843803405762e-01" nType="-99"/>
        </Node>
        <Node pos="r" depth="1" NCoef="0" IVar="6" Cut="9.0892364501953125e+01" cType="1" res="-1.2587970495223999e-01" rms="3.7892255187034607e-01" purity="1.9107504189014435e-01" nType="0">
          <Node pos="l" depth="2" NCoef="0" IVar="-1" Cut="0.0000000000000000e+00" cType="1" res="-2.5630290620028973e-03" rms="3.2914352416992188e-01" purity="1.3378578424453735e-01" nType="-99"/>
          <Node pos="r" depth="2" NCoef="0" IVar="-1" Cut="0.0000000000000000e+00" cType="1" res="-1.0968323331326246e-03" rms="4.2514711618423462e-01" purity="2.6167151331901550e-01" nType="-99"/>
        </Node>
      </Node>
    </BinaryTree>
    <BinaryTree type="DecisionTree" boostWeight="1.0000000000000000e+00" itree="247">
      <Node pos="s" depth="0" NCoef="0" IVar="6" Cut="4.1848106384277344e+01" cType="1" res="-1.9777681678533554e-02" rms="4.4492858648300171e-01" purity="4.9630594253540039e-01" nType="0">
        <Node pos="l" depth="1" NCoef="0" IVar="4" Cut="1.7351783752441406e+02" cType="1" res="-1.5873189270496368e-01" rms="4.3440499901771545e-01" purity="3.1243041157722473e-01" nType="0">
          <Node pos="l" depth="2" NCoef="0" IVar="-1" Cut="0.0000000000000000e+00" cType="1" res="-1.6551819862797856e-03" rms="4.8538097739219666e-01" purity="4.3016186356544495e-01" nType="-99"/>
          <Node pos="r" depth="2" NCoef="0" IVar="-1" Cut="0.0000000000000000e+00" cType="1" res="-3.0275736935436726e-03" rms="3.8244357705116272e-01" purity="2.1937078237533569e-01" nType="-99"/>
        </Node>
        <Node pos="r" depth="1" NCoef="0" IVar="8" Cut="2.2808554172515869e+00" cType="1" res="3.3128997310996056e-03" rms="4.4244489073753357e-01" purity="5.2686125040054321e-01" nType="0">
          <Node pos="l" depth="2" NCoef="0" IVar="-1" Cut="0.0000000000000000e+00" cType="1" res="1.2542823096737266e-03" rms="4.4418722391128540e-01" purity="6.5582126379013062e-01" nType="-99"/>
          <Node pos="r" depth="2" NCoef="0" IVar="-1" Cut="0.0000000000000000e+00" cType="1" res="-1.1998882982879877e-03" rms="4.2896535992622375e-01" purity="3.2638835906982422e-01" nType="-99"/>
        </Node>
      </Node>
    </BinaryTree>
    <BinaryTree type="DecisionTree" boostWeight="1.0000000000000000e+00" itree="248">
      <Node pos="s" depth="0" NCoef="0" IVar="6" Cut="9.4148368835449219e+01" cType="1" res="-2.4809980764985085e-02" rms="4.5067811012268066e-01" purity="4.9916303157806396e-01" nType="0">
        <Node pos="l" depth="1" NCoef="0" IVar="2" Cut="9.2380201816558838e-01" cType="1" res="-6.4473502337932587e-02" rms="4.5733550190925598e-01" purity="4.4291704893112183e-01" nType="0">
          <Node pos="l" depth="2" NCoef="0" IVar="-1" Cut="0.0000000000000000e+00" cType="1" res="-2.1811269689351320e-03" rms="3.8638103008270264e-01" purity="2.0784883201122284e-01" nType="-99"/>
          <Node pos="r" depth="2" NCoef="0" IVar="-1" Cut="0.0000000000000000e+00" cType="1" res="-9.1659603640437126e-04" rms="4.6689239144325256e-01" purity="4.8524945974349976e-01" nType="-99"/>
        </Node>
        <Node pos="r" depth="1" NCoef="0" IVar="0" Cut="1.2594093084335327e+00" cType="1" res="7.2049282491207123e-02" rms="4.1847968101501465e-01" purity="6.3651704788208008e-01" nType="0">
          <Node pos="l" depth="2" NCoef="0" IVar="-1" Cut="0.0000000000000000e+00" cType="1" res="4.5184274204075336e-03" rms="3.8798522949218750e-01" purity="7.9912751913070679e-01" nType="-99"/>
          <Node pos="r" depth="2" NCoef="0" IVar="-1" Cut="0.0000000000000000e+00" cType="1" res="-4.5375581248663366e-04" rms="4.5319804549217224e-01" purity="3.3391427993774414e-01" nType="-99"/>
        </Node>
      </Node>
    </BinaryTree>
    <BinaryTree type="DecisionTree" boostWeight="1.0000000000000000e+00" itree="249">
      <Node pos="s" depth="0" NCoef="0" IVar="6" Cut="3.8917613983154297e+01" cType="1" res="-1.3238202780485153e-02" rms="4.5548599958419800e-01" purity="5.0463730096817017e-01" nType="0">
        <Node pos="l" depth="1" NCoef="0" IVar="-1" Cut="0.0000000000000000e+00" cType="1" res="-2.3451077286154032e-03" rms="4.5246019959449768e-01" purity="3.0302780866622925e-01" nType="-99"/>
        <Node pos="r" depth="1" NCoef="0" IVar="8" Cut="2.6655700206756592e+00" cType="1" res="3.7122033536434174e-03" rms="4.5300322771072388e-01" purity="5.2971357107162476e-01" nType="0">
          <Node pos="l" depth="2" NCoef="0" IVar="-1" Cut="0.0000000000000000e+00" cType="1" res="4.2243822827003896e-04" rms="4.5975306630134583e-01" purity="5.7076525688171387e-01" nType="-99"/>
          <Node pos="r" depth="2" NCoef="0" IVar="-1" Cut="0.0000000000000000e+00" cType="1" res="-2.0968627650290728e-03" rms="3.5863703489303589e-01" purity="1.6219948232173920e-01" nType="-99"/>
        </Node>
      </Node>
    </BinaryTree>
    <BinaryTree type="DecisionTree" boostWeight="1.0000000000000000e+00" itree="250">
      <Node pos="s" depth="0" NCoef="0" IVar="0" Cut="8.4363400936126709e-01" cType="1" res="-7.7443551272153854e-03" rms="4.4833600521087646e-01" purity="5.1740717887878418e-01" nType="0">
        <Node pos="l" depth="1" NCoef="0" IVar="7" Cut="1.8909929692745209e-01" cType="1" res="5.3260605782270432e-02" rms="4.3770247697830200e-01" purity="6.9065177440643311e-01" nType="0">
          <Node pos="l" depth="2" NCoef="0" IVar="-1" Cut="0.0000000000000000e+00" cType="1" res="5.7435629423707724e-04" rms="4.4738912582397461e-01" purity="6.5755164623260498e-01" nType="-99"/>
          <Node pos="r" depth="2" NCoef="0" IVar="-1" Cut="0.0000000000000000e+00" cType="1" res="8.7556960061192513e-03" rms="3.3231714367866516e-01" purity="8.7483131885528564e-01" nType="-99"/>
        </Node>
        <Node pos="r" depth="1" NCoef="0" IVar="3" Cut="1.4018576049804688e+02" cType="1" res="-4.0604706853628159e-02" rms="4.5055046677589417e-01" purity="4.2408892512321472e-01" nType="0">
          <Node pos="l" depth="2" NCoef="0" IVar="-1" Cut="0.0000000000000000e+00" cType="1" res="-4.1221140418201685e-04" rms="4.5327264070510864e-01" purity="4.4748982787132263e-01" nType="-99"/>
          <Node pos="r" depth="2" NCoef="0" IVar="-1" Cut="0.0000000000000000e+00" cType="1" res="-2.6375581510365009e-03" rms="4.0684485435485840e-01" purity="2.5631767511367798e-01" nType="-99"/>
        </Node>
      </Node>
    </BinaryTree>
    <BinaryTree type="DecisionTree" boostWeight="1.0000000000000000e+00" itree="251">
      <Node pos="s" depth="0" NCoef="0" IVar="8" Cut="2.2296895980834961e+00" cType="1" res="-3.4141778945922852e-02" rms="4.4811061024665833e-01" purity="4.8418712615966797e-01" nType="0">
        <Node pos="l" depth="1" NCoef="0" IVar="3" Cut="1.3654472351074219e+02" cType="1" res="1.3580376282334328e-02" rms="4.6001452207565308e-01" purity="6.0356575250625610e-01" nType="0">
          <Node pos="l" depth="2" NCoef="0" IVar="-1" Cut="0.0000000000000000e+00" cType="1" res="9.1824308037757874e-04" rms="4.5216402411460876e-01" purity="6.3045895099639893e-01" nType="-99"/>
          <Node pos="r" depth="2" NCoef="0" IVar="-1" Cut="0.0000000000000000e+00" cType="1" res="-2.4053580127656460e-03" rms="4.7801285982131958e-01" purity="4.4595256447792053e-01" nType="-99"/>
        </Node>
        <Node pos="r" depth="1" NCoef="0" IVar="2" Cut="9.6348989009857178e-01" cType="1" res="-9.9642597138881683e-02" rms="4.2255103588104248e-01" purity="3.2033458352088928e-01" nType="0">
          <Node pos="l" depth="2" NCoef="0" IVar="-1" Cut="0.0000000000000000e+00" cType="1" res="-1.9834609702229500e-03" rms="4.1041269898414612e-01" purity="2.5600019097328186e-01" nType="-99"/>
          <Node pos="r" depth="2" NCoef="0" IVar="-1" Cut="0.0000000000000000e+00" cType="1" res="-5.0475267926231027e-04" rms="4.4817236065864563e-01" purity="5.1054048538208008e-01" nType="-99"/>
        </Node>
      </Node>
    </BinaryTree>
    <BinaryTree type="DecisionTree" boostWeight="1.0000000000000000e+00" itree="252">
      <Node pos="s" depth="0" NCoef="0" IVar="2" Cut="9.3029558658599854e-01" cType="1" res="-3.1376089900732040e-02" rms="4.4630116224288940e-01" purity="4.8702535033226013e-01" nType="0">
        <Node pos="l" depth="1" NCoef="0" IVar="8" Cut="2.2391750812530518e+00" cType="1" res="-1.2007634341716766e-01" rms="4.1554820537567139e-01" purity="2.6266413927078247e-01" nType="0">
          <Node pos="l" depth="2" NCoef="0" IVar="-1" Cut="0.0000000000000000e+00" cType="1" res="-1.0238512186333537e-03" rms="4.7756034135818481e-01" purity="3.9418247342109680e-01" nType="-99"/>
          <Node pos="r" depth="2" NCoef="0" IVar="-1" Cut="0.0000000000000000e+00" cType="1" res="-2.4238650221377611e-03" rms="3.3464601635932922e-01" purity="1.3254302740097046e-01" nType="-99"/>
        </Node>
        <Node pos="r" depth="1" NCoef="0" IVar="6" Cut="4.9236736297607422e+01" cType="1" res="-2.9997762758284807e-03" rms="4.5204162597656250e-01" purity="5.5880123376846313e-01" nType="0">
          <Node pos="l" depth="2" NCoef="0" IVar="-1" Cut="0.0000000000000000e+00" cType="1" res="-1.9608652219176292e-03" rms="4.6295440196990967e-01" purity="4.0945702791213989e-01" nType="-99"/>
          <Node pos="r" depth="2" NCoef="0" IVar="-1" Cut="0.0000000000000000e+00" cType="1" res="7.6737173367291689e-04" rms="4.4270882010459900e-01" purity="6.0568070411682129e-01" nType="-99"/>
        </Node>
      </Node>
    </BinaryTree>
    <BinaryTree type="DecisionTree" boostWeight="1.0000000000000000e+00" itree="253">
      <Node pos="s" depth="0" NCoef="0" IVar="2" Cut="9.2686605453491211e-01" cType="1" res="-1.0912107303738594e-02" rms="4.4476026296615601e-01" purity="5.1514840126037598e-01" nType="0">
        <Node pos="l" depth="1" NCoef="0" IVar="2" Cut="9.1899442672729492e-01" cType="1" res="-1.1002737283706665e-01" rms="4.2735031247138977e-01" purity="2.7360257506370544e-01" nType="0">
          <Node pos="l" depth="2" NCoef="0" IVar="-1" Cut="0.0000000000000000e+00" cType="1" res="-3.2955719507299364e-04" rms="4.5615166425704956e-01" purity="3.6001527309417725e-01" nType="-99"/>
          <Node pos="r" depth="2" NCoef="0" IVar="-1" Cut="0.0000000000000000e+00" cType="1" res="-2.7356049977242947e-03" rms="3.7505984306335449e-01" purity="1.8696506321430206e-01" nType="-99"/>
        </Node>
        <Node pos="r" depth="1" NCoef="0" IVar="3" Cut="1.0763102722167969e+02" cType="1" res="1.3385146856307983e-02" rms="4.4557288289070129e-01" purity="5.7436126470565796e-01" nType="0">
          <Node pos="l" depth="2" NCoef="0" IVar="-1" Cut="0.0000000000000000e+00" cType="1" res="-2.3220365401357412e-03" rms="4.5328488945960999e-01" purity="3.8275429606437683e-01" nType="-99"/>
          <Node pos="r" depth="2" NCoef="0" IVar="-1" Cut="0.0000000000000000e+00" cType="1" res="7.9155788989737630e-04" rms="4.4070753455162048e-01" purity="6.0159373283386230e-01" nType="-99"/>
        </Node>
      </Node>
    </BinaryTree>
    <BinaryTree type="DecisionTree" boostWeight="1.0000000000000000e+00" itree="254">
      <Node pos="s" depth="0" NCoef="0" IVar="2" Cut="9.4073206186294556e-01" cType="1" res="-2.4880483746528625e-02" rms="4.4324058294296265e-01" purity="4.9693018198013306e-01" nType="0">
        <Node pos="l" depth="1" NCoef="0" IVar="6" Cut="5.6690361022949219e+01" cType="1" res="-9.8727636039257050e-02" rms="4.2976808547973633e-01" purity="3.0244177579879761e-01" nType="0">
          <Node pos="l" depth="2" NCoef="0" IVar="-1" Cut="0.0000000000000000e+00" cType="1" res="-2.4239900521934032e-03" rms="4.0020290017127991e-01" purity="2.1062496304512024e-01" nType="-99"/>
          <Node pos="r" depth="2" NCoef="0" IVar="-1" Cut="0.0000000000000000e+00" cType="1" res="-9.2997960746288300e-04" rms="4.3898329138755798e-01" purity="3.5306903719902039e-01" nType="-99"/>
        </Node>
        <Node pos="r" depth="1" NCoef="0" IVar="6" Cut="4.6422935485839844e+01" cType="1" res="1.8226156011223793e-02" rms="4.4529351592063904e-01" purity="6.1045849323272705e-01" nType="0">
          <Node pos="l" depth="2" NCoef="0" IVar="-1" Cut="0.0000000000000000e+00" cType="1" res="-1.7165781464427710e-03" rms="4.5324289798736572e-01" purity="4.3999928236007690e-01" nType="-99"/>
          <Node pos="r" depth="2" NCoef="0" IVar="-1" Cut="0.0000000000000000e+00" cType="1" res="1.1248576920479536e-03" rms="4.3938517570495605e-01" purity="6.4991015195846558e-01" nType="-99"/>
        </Node>
      </Node>
    </BinaryTree>
    <BinaryTree type="DecisionTree" boostWeight="1.0000000000000000e+00" itree="255">
      <Node pos="s" depth="0" NCoef="0" IVar="6" Cut="5.4117397308349609e+01" cType="1" res="-2.6932111009955406e-02" rms="4.4897791743278503e-01" purity="4.9452385306358337e-01" nType="0">
        <Node pos="l" depth="1" NCoef="0" IVar="7" Cut="1.5205225348472595e-01" cType="1" res="-1.0039011389017105e-01" rms="4.5700928568840027e-01" purity="3.9528065919876099e-01" nType="0">
          <Node pos="l" depth="2" NCoef="0" IVar="-1" Cut="0.0000000000000000e+00" cType="1" res="-2.1483914460986853e-03" rms="4.4920372962951660e-01" purity="3.4780639410018921e-01" nType="-99"/>
          <Node pos="r" depth="2" NCoef="0" IVar="-1" Cut="0.0000000000000000e+00" cType="1" res="-2.9437468037940562e-04" rms="4.6846312284469604e-01" purity="5.3243410587310791e-01" nType="-99"/>
        </Node>
        <Node pos="r" depth="1" NCoef="0" IVar="8" Cut="2.2296895980834961e+00" cType="1" res="2.6533084455877542e-03" rms="4.4226917624473572e-01" purity="5.3449440002441406e-01" nType="0">
          <Node pos="l" depth="2" NCoef="0" IVar="-1" Cut="0.0000000000000000e+00" cType="1" res="1.6237217932939529e-03" rms="4.4278720021247864e-01" purity="6.8726330995559692e-01" nType="-99"/>
          <Node pos="r" depth="2" NCoef="0" IVar="-1" Cut="0.0000000000000000e+00" cType="1" res="-1.0135523043572903e-03" rms="4.3357688188552856e-01" purity="3.7470045685768127e-01" nType="-99"/>
        </Node>
      </Node>
    </BinaryTree>
    <BinaryTree type="DecisionTree" boostWeight="1.0000000000000000e+00" itree="256">
      <Node pos="s" depth="0" NCoef="0" IVar="3" Cut="1.0081282806396484e+02" cType="1" res="-2.4222122505307198e-02" rms="4.4881001114845276e-01" purity="4.9986404180526733e-01" nType="0">
        <Node pos="l" depth="1" NCoef="0" IVar="-1" Cut="0.0000000000000000e+00" cType="1" res="-2.9582860879600048e-03" rms="3.8891854882240295e-01" purity="2.3302720487117767e-01" nType="-99"/>
        <Node pos="r" depth="1" NCoef="0" IVar="0" Cut="1.0370304584503174e+00" cType="1" res="-8.6486041545867920e-03" rms="4.5038855075836182e-01" purity="5.2335488796234131e-01" nType="0">
          <Node pos="l" depth="2" NCoef="0" IVar="-1" Cut="0.0000000000000000e+00" cType="1" res="8.4486475680023432e-04" rms="4.4752058386802673e-01" purity="6.6809427738189697e-01" nType="-99"/>
          <Node pos="r" depth="2" NCoef="0" IVar="-1" Cut="0.0000000000000000e+00" cType="1" res="-9.3715073307976127e-04" rms="4.4892382621765137e-01" purity="3.5876587033271790e-01" nType="-99"/>
        </Node>
      </Node>
    </BinaryTree>
    <BinaryTree type="DecisionTree" boostWeight="1.0000000000000000e+00" itree="257">
      <Node pos="s" depth="0" NCoef="0" IVar="8" Cut="2.4890952110290527e+00" cType="1" res="-4.6941157430410385e-02" rms="4.5034503936767578e-01" purity="4.7556856274604797e-01" nType="0">
        <Node pos="l" depth="1" NCoef="0" IVar="2" Cut="9.4850206375122070e-01" cType="1" res="-2.6010889559984207e-02" rms="4.6327272057533264e-01" purity="5.4246950149536133e-01" nType="0">
          <Node pos="l" depth="2" NCoef="0" IVar="-1" Cut="0.0000000000000000e+00" cType="1" res="-1.2000949354842305e-03" rms="4.7405141592025757e-01" purity="4.0013721585273743e-01" nType="-99"/>
          <Node pos="r" depth="2" NCoef="0" IVar="-1" Cut="0.0000000000000000e+00" cType="1" res="3.3873796928673983e-04" rms="4.5060583949089050e-01" purity="6.5807706117630005e-01" nType="-99"/>
        </Node>
        <Node pos="r" depth="1" NCoef="0" IVar="0" Cut="1.5423371791839600e+00" cType="1" res="-1.3563668727874756e-01" rms="3.7820151448249817e-01" purity="1.9206455349922180e-01" nType="0">
          <Node pos="l" depth="2" NCoef="0" IVar="-1" Cut="0.0000000000000000e+00" cType="1" res="-1.5862329164519906e-03" rms="4.2760938405990601e-01" purity="2.7138623595237732e-01" nType="-99"/>
          <Node pos="r" depth="2" NCoef="0" IVar="-1" Cut="0.0000000000000000e+00" cType="1" res="-2.4158735759556293e-03" rms="3.2540258765220642e-01" purity="1.2225337326526642e-01" nType="-99"/>
        </Node>
      </Node>
    </BinaryTree>
    <BinaryTree type="DecisionTree" boostWeight="1.0000000000000000e+00" itree="258">
      <Node pos="s" depth="0" NCoef="0" IVar="3" Cut="1.4451118469238281e+02" cType="1" res="-1.7872802913188934e-02" rms="4.5206630229949951e-01" purity="5.0148338079452515e-01" nType="0">
        <Node pos="l" depth="1" NCoef="0" IVar="8" Cut="2.3493351936340332e+00" cType="1" res="-3.8148446474224329e-03" rms="4.5338448882102966e-01" purity="5.2067166566848755e-01" nType="0">
          <Node pos="l" depth="2" NCoef="0" IVar="-1" Cut="0.0000000000000000e+00" cType="1" res="5.5704894475638866e-04" rms="4.6166104078292847e-01" purity="6.0535621643066406e-01" nType="-99"/>
          <Node pos="r" depth="2" NCoef="0" IVar="-1" Cut="0.0000000000000000e+00" cType="1" res="-1.2110701063647866e-03" rms="4.2332750558853149e-01" purity="3.0547201633453369e-01" nType="-99"/>
        </Node>
        <Node pos="r" depth="1" NCoef="0" IVar="-1" Cut="0.0000000000000000e+00" cType="1" res="-2.6995399966835976e-03" rms="4.1137382388114929e-01" purity="3.0440577864646912e-01" nType="-99"/>
      </Node>
    </BinaryTree>
    <BinaryTree type="DecisionTree" boostWeight="1.0000000000000000e+00" itree="259">
      <Node pos="s" depth="0" NCoef="0" IVar="5" Cut="4.9153161621093750e+02" cType="1" res="4.4467439875006676e-03" rms="4.4512724876403809e-01" purity="5.1954877376556396e-01" nType="0">
        <Node pos="l" depth="1" NCoef="0" IVar="6" Cut="5.4262630462646484e+01" cType="1" res="-6.0958862304687500e-02" rms="4.4571995735168457e-01" purity="4.1664445400238037e-01" nType="0">
          <Node pos="l" depth="2" NCoef="0" IVar="-1" Cut="0.0000000000000000e+00" cType="1" res="-2.1295840851962566e-03" rms="4.3334653973579407e-01" purity="3.3167994022369385e-01" nType="-99"/>
          <Node pos="r" depth="2" NCoef="0" IVar="-1" Cut="0.0000000000000000e+00" cType="1" res="7.1461647166870534e-05" rms="4.4620975852012634e-01" purity="4.9009636044502258e-01" nType="-99"/>
        </Node>
        <Node pos="r" depth="1" NCoef="0" IVar="8" Cut="2.4566040039062500e+00" cType="1" res="5.2588243037462234e-02" rms="4.3850114941596985e-01" purity="5.9529101848602295e-01" nType="0">
          <Node pos="l" depth="2" NCoef="0" IVar="-1" Cut="0.0000000000000000e+00" cType="1" res="2.2414091508835554e-03" rms="4.3915134668350220e-01" purity="6.7690557241439819e-01" nType="-99"/>
          <Node pos="r" depth="2" NCoef="0" IVar="-1" Cut="0.0000000000000000e+00" cType="1" res="-1.5048274071887136e-03" rms="4.0518325567245483e-01" purity="2.4542784690856934e-01" nType="-99"/>
        </Node>
      </Node>
    </BinaryTree>
    <BinaryTree type="DecisionTree" boostWeight="1.0000000000000000e+00" itree="260">
      <Node pos="s" depth="0" NCoef="0" IVar="3" Cut="1.0061682128906250e+02" cType="1" res="-2.0074384286999702e-02" rms="4.5269542932510376e-01" purity="5.0327628850936890e-01" nType="0">
        <Node pos="l" depth="1" NCoef="0" IVar="-1" Cut="0.0000000000000000e+00" cType="1" res="-2.6493002660572529e-03" rms="4.2010527849197388e-01" purity="2.6174241304397583e-01" nType="-99"/>
        <Node pos="r" depth="1" NCoef="0" IVar="3" Cut="1.3383743286132812e+02" cType="1" res="-7.0491745136678219e-03" rms="4.5282509922981262e-01" purity="5.2318841218948364e-01" nType="0">
          <Node pos="l" depth="2" NCoef="0" IVar="-1" Cut="0.0000000000000000e+00" cType="1" res="3.6647103843279183e-04" rms="4.4876363873481750e-01" purity="5.5465489625930786e-01" nType="-99"/>
          <Node pos="r" depth="2" NCoef="0" IVar="-1" Cut="0.0000000000000000e+00" cType="1" res="-1.6562539385631680e-03" rms="4.5674762129783630e-01" purity="4.1498789191246033e-01" nType="-99"/>
        </Node>
      </Node>
    </BinaryTree>
    <BinaryTree type="DecisionTree" boostWeight="1.0000000000000000e+00" itree="261">
      <Node pos="s" depth="0" NCoef="0" IVar="3" Cut="1.0255906677246094e+02" cType="1" res="-2.0986454561352730e-02" rms="4.4825339317321777e-01" purity="5.0310218334197998e-01" nType="0">
        <Node pos="l" depth="1" NCoef="0" IVar="-1" Cut="0.0000000000000000e+00" cType="1" res="-2.7667630929499865e-03" rms="4.2403692007064819e-01" purity="2.7077448368072510e-01" nType="-99"/>
        <Node pos="r" depth="1" NCoef="0" IVar="3" Cut="1.3549516296386719e+02" cType="1" res="-5.1900120452046394e-03" rms="4.4744399189949036e-01" purity="5.2587330341339111e-01" nType="0">
          <Node pos="l" depth="2" NCoef="0" IVar="-1" Cut="0.0000000000000000e+00" cType="1" res="4.6519594616256654e-04" rms="4.4227135181427002e-01" purity="5.6124889850616455e-01" nType="-99"/>
          <Node pos="r" depth="2" NCoef="0" IVar="-1" Cut="0.0000000000000000e+00" cType="1" res="-2.1286122500896454e-03" rms="4.5137831568717957e-01" purity="3.7905800342559814e-01" nType="-99"/>
        </Node>
      </Node>
    </BinaryTree>
    <BinaryTree type="DecisionTree" boostWeight="1.0000000000000000e+00" itree="262">
      <Node pos="s" depth="0" NCoef="0" IVar="5" Cut="4.1514559936523438e+02" cType="1" res="-2.9572902247309685e-02" rms="4.4413933157920837e-01" purity="4.9149057269096375e-01" nType="0">
        <Node pos="l" depth="1" NCoef="0" IVar="0" Cut="1.0789811611175537e+00" cType="1" res="-1.3523109257221222e-01" rms="4.2856109142303467e-01" purity="3.2332360744476318e-01" nType="0">
          <Node pos="l" depth="2" NCoef="0" IVar="-1" Cut="0.0000000000000000e+00" cType="1" res="-1.3412950793281198e-03" rms="4.7041791677474976e-01" purity="4.9550148844718933e-01" nType="-99"/>
          <Node pos="r" depth="2" NCoef="0" IVar="-1" Cut="0.0000000000000000e+00" cType="1" res="-2.6044039987027645e-03" rms="3.8505199551582336e-01" purity="1.8773443996906281e-01" nType="-99"/>
        </Node>
        <Node pos="r" depth="1" NCoef="0" IVar="3" Cut="1.3737191772460938e+02" cType="1" res="-7.1764099411666393e-03" rms="4.4415485858917236e-01" purity="5.2713710069656372e-01" nType="0">
          <Node pos="l" depth="2" NCoef="0" IVar="-1" Cut="0.0000000000000000e+00" cType="1" res="3.2389038824476302e-04" rms="4.4270563125610352e-01" purity="5.5498683452606201e-01" nType="-99"/>
          <Node pos="r" depth="2" NCoef="0" IVar="-1" Cut="0.0000000000000000e+00" cType="1" res="-2.0725242793560028e-03" rms="4.3540304899215698e-01" purity="3.9512684941291809e-01" nType="-99"/>
        </Node>
      </Node>
    </BinaryTree>
    <BinaryTree type="DecisionTree" boostWeight="1.0000000000000000e+00" itree="263">
      <Node pos="s" depth="0" NCoef="0" IVar="8" Cut="2.5714344978332520e+00" cType="1" res="-3.0199147760868073e-02" rms="4.5162427425384521e-01" purity="4.9739673733711243e-01" nType="0">
        <Node pos="l" depth="1" NCoef="0" IVar="6" Cut="9.8960212707519531e+01" cType="1" res="-1.2922156602144241e-02" rms="4.6012124419212341e-01" purity="5.4884839057922363e-01" nType="0">
          <Node pos="l" depth="2" NCoef="0" IVar="-1" Cut="0.0000000000000000e+00" cType="1" res="-8.0050557153299451e-04" rms="4.6876490116119385e-01" purity="4.9673867225646973e-01" nType="-99"/>
          <Node pos="r" depth="2" NCoef="0" IVar="-1" Cut="0.0000000000000000e+00" cType="1" res="1.7656978452578187e-03" rms="4.2587739229202271e-01" purity="6.9128495454788208e-01" nType="-99"/>
        </Node>
        <Node pos="r" depth="1" NCoef="0" IVar="-1" Cut="0.0000000000000000e+00" cType="1" res="-2.1076018456369638e-03" rms="3.7796214222908020e-01" purity="1.7948198318481445e-01" nType="-99"/>
      </Node>
    </BinaryTree>
    <BinaryTree type="DecisionTree" boostWeight="1.0000000000000000e+00" itree="264">
      <Node pos="s" depth="0" NCoef="0" IVar="8" Cut="2.3514041900634766e+00" cType="1" res="-3.0740104615688324e-02" rms="4.4756844639778137e-01" purity="4.8618143796920776e-01" nType="0">
        <Node pos="l" depth="1" NCoef="0" IVar="6" Cut="5.2671863555908203e+01" cType="1" res="-1.2946677161380649e-03" rms="4.5800581574440002e-01" purity="5.7807844877243042e-01" nType="0">
          <Node pos="l" depth="2" NCoef="0" IVar="-1" Cut="0.0000000000000000e+00" cType="1" res="-1.2302236864343286e-03" rms="4.6184033155441284e-01" purity="4.3267437815666199e-01" nType="-99"/>
          <Node pos="r" depth="2" NCoef="0" IVar="-1" Cut="0.0000000000000000e+00" cType="1" res="7.6733768219128251e-04" rms="4.5257800817489624e-01" purity="6.4529746770858765e-01" nType="-99"/>
        </Node>
        <Node pos="r" depth="1" NCoef="0" IVar="2" Cut="9.3755066394805908e-01" cType="1" res="-1.0000266879796982e-01" rms="4.1382107138633728e-01" purity="2.7001807093620300e-01" nType="0">
          <Node pos="l" depth="2" NCoef="0" IVar="-1" Cut="0.0000000000000000e+00" cType="1" res="-2.2719504777342081e-03" rms="3.3439779281616211e-01" purity="1.3576178252696991e-01" nType="-99"/>
          <Node pos="r" depth="2" NCoef="0" IVar="-1" Cut="0.0000000000000000e+00" cType="1" res="-1.0588733712211251e-03" rms="4.5967668294906616e-01" purity="3.6798828840255737e-01" nType="-99"/>
        </Node>
      </Node>
    </BinaryTree>
    <BinaryTree type="DecisionTree" boostWeight="1.0000000000000000e+00" itree="265">
      <Node pos="s" depth="0" NCoef="0" IVar="0" Cut="1.1001695394515991e+00" cType="1" res="-7.9361498355865479e-03" rms="4.4051811099052429e-01" purity="5.0646263360977173e-01" nType="0">
        <Node pos="l" depth="1" NCoef="0" IVar="6" Cut="7.6444236755371094e+01" cType="1" res="3.6932460963726044e-02" rms="4.4432759284973145e-01" purity="6.6302013397216797e-01" nType="0">
          <Node pos="l" depth="2" NCoef="0" IVar="-1" Cut="0.0000000000000000e+00" cType="1" res="-8.3860402810387313e-05" rms="4.7601035237312317e-01" purity="5.7495731115341187e-01" nType="-99"/>
          <Node pos="r" depth="2" NCoef="0" IVar="-1" Cut="0.0000000000000000e+00" cType="1" res="3.3636752050369978e-03" rms="3.8744550943374634e-01" purity="7.8842568397521973e-01" nType="-99"/>
        </Node>
        <Node pos="r" depth="1" NCoef="0" IVar="2" Cut="9.5892924070358276e-01" cType="1" res="-6.4131483435630798e-02" rms="4.2913296818733215e-01" purity="3.1038340926170349e-01" nType="0">
          <Node pos="l" depth="2" NCoef="0" IVar="-1" Cut="0.0000000000000000e+00" cType="1" res="-1.6391508979722857e-03" rms="4.0130770206451416e-01" purity="2.2266516089439392e-01" nType="-99"/>
          <Node pos="r" depth="2" NCoef="0" IVar="-1" Cut="0.0000000000000000e+00" cType="1" res="5.8502447791397572e-04" rms="4.7204431891441345e-01" purity="5.0594198703765869e-01" nType="-99"/>
        </Node>
      </Node>
    </BinaryTree>
    <BinaryTree type="DecisionTree" boostWeight="1.0000000000000000e+00" itree="266">
      <Node pos="s" depth="0" NCoef="0" IVar="2" Cut="9.7772669792175293e-01" cType="1" res="-3.1879700720310211e-02" rms="4.4568300247192383e-01" purity="4.8589131236076355e-01" nType="0">
        <Node pos="l" depth="1" NCoef="0" IVar="8" Cut="2.1746609210968018e+00" cType="1" res="-4.9143850803375244e-02" rms="4.5043581724166870e-01" purity="4.4621878862380981e-01" nType="0">
          <Node pos="l" depth="2" NCoef="0" IVar="-1" Cut="0.0000000000000000e+00" cType="1" res="-2.7926804250455461e-05" rms="4.6995842456817627e-01" purity="5.7673025131225586e-01" nType="-99"/>
          <Node pos="r" depth="2" NCoef="0" IVar="-1" Cut="0.0000000000000000e+00" cType="1" res="-1.5942405443638563e-03" rms="4.2527392506599426e-01" purity="3.1839227676391602e-01" nType="-99"/>
        </Node>
        <Node pos="r" depth="1" NCoef="0" IVar="3" Cut="1.2156692504882812e+02" cType="1" res="8.7423764169216156e-02" rms="3.9103457331657410e-01" purity="7.6004743576049805e-01" nType="0">
          <Node pos="l" depth="2" NCoef="0" IVar="-1" Cut="0.0000000000000000e+00" cType="1" res="5.6705076713114977e-04" rms="4.4085648655891418e-01" purity="6.8163412809371948e-01" nType="-99"/>
          <Node pos="r" depth="2" NCoef="0" IVar="-1" Cut="0.0000000000000000e+00" cType="1" res="5.2124643698334694e-03" rms="3.3878067135810852e-01" purity="8.2001787424087524e-01" nType="-99"/>
        </Node>
      </Node>
    </BinaryTree>
    <BinaryTree type="DecisionTree" boostWeight="1.0000000000000000e+00" itree="267">
      <Node pos="s" depth="0" NCoef="0" IVar="1" Cut="2.8849142456054688e+02" cType="1" res="-3.0414154753088951e-02" rms="4.4853317737579346e-01" purity="4.9032509326934814e-01" nType="0">
        <Node pos="l" depth="1" NCoef="0" IVar="7" Cut="1.1416809260845184e-01" cType="1" res="-1.4484116435050964e-01" rms="4.0544521808624268e-01" purity="2.6806944608688354e-01" nType="0">
          <Node pos="l" depth="2" NCoef="0" IVar="-1" Cut="0.0000000000000000e+00" cType="1" res="-2.5686302687972784e-03" rms="3.5611057281494141e-01" purity="1.8304921686649323e-01" nType="-99"/>
          <Node pos="r" depth="2" NCoef="0" IVar="-1" Cut="0.0000000000000000e+00" cType="1" res="-1.5158904716372490e-03" rms="4.6304199099540710e-01" purity="3.9215260744094849e-01" nType="-99"/>
        </Node>
        <Node pos="r" depth="1" NCoef="0" IVar="3" Cut="1.4003033447265625e+02" cType="1" res="-8.6610596626996994e-03" rms="4.5300641655921936e-01" purity="5.3257691860198975e-01" nType="0">
          <Node pos="l" depth="2" NCoef="0" IVar="-1" Cut="0.0000000000000000e+00" cType="1" res="1.5637051546946168e-04" rms="4.5747539401054382e-01" purity="5.5978459119796753e-01" nType="-99"/>
          <Node pos="r" depth="2" NCoef="0" IVar="-1" Cut="0.0000000000000000e+00" cType="1" res="-1.8273086752742529e-03" rms="4.1038039326667786e-01" purity="3.6282661557197571e-01" nType="-99"/>
        </Node>
      </Node>
    </BinaryTree>
    <BinaryTree type="DecisionTree" boostWeight="1.0000000000000000e+00" itree="268">
      <Node pos="s" depth="0" NCoef="0" IVar="2" Cut="9.3371409177780151e-01" cType="1" res="-1.2955834157764912e-02" rms="4.4716826081275940e-01" purity="5.0565844774246216e-01" nType="0">
        <Node pos="l" depth="1" NCoef="0" IVar="6" Cut="9.2445343017578125e+01" cType="1" res="-1.0042939335107803e-01" rms="4.2245021462440491e-01" purity="2.8207105398178101e-01" nType="0">
          <Node pos="l" depth="2" NCoef="0" IVar="-1" Cut="0.0000000000000000e+00" cType="1" res="-2.0156265236437321e-03" rms="4.0412071347236633e-01" purity="2.3527780175209045e-01" nType="-99"/>
          <Node pos="r" depth="2" NCoef="0" IVar="-1" Cut="0.0000000000000000e+00" cType="1" res="-1.4580310380551964e-04" rms="4.4355723261833191e-01" purity="3.7773111462593079e-01" nType="-99"/>
        </Node>
        <Node pos="r" depth="1" NCoef="0" IVar="3" Cut="1.4386180114746094e+02" cType="1" res="2.1532809361815453e-02" rms="4.5191612839698792e-01" purity="5.9381341934204102e-01" nType="0">
          <Node pos="l" depth="2" NCoef="0" IVar="-1" Cut="0.0000000000000000e+00" cType="1" res="8.6770299822092056e-04" rms="4.5117598772048950e-01" purity="6.1446720361709595e-01" nType="-99"/>
          <Node pos="r" depth="2" NCoef="0" IVar="-1" Cut="0.0000000000000000e+00" cType="1" res="-2.4035100359469652e-03" rms="4.2983502149581909e-01" purity="3.8129225373268127e-01" nType="-99"/>
        </Node>
      </Node>
    </BinaryTree>
    <BinaryTree type="DecisionTree" boostWeight="1.0000000000000000e+00" itree="269">
      <Node pos="s" depth="0" NCoef="0" IVar="0" Cut="8.1843960285186768e-01" cType="1" res="-9.8283477127552032e-03" rms="4.4719436764717102e-01" purity="5.1656335592269897e-01" nType="0">
        <Node pos="l" depth="1" NCoef="0" IVar="4" Cut="2.1122366333007812e+02" cType="1" res="4.7558199614286423e-02" rms="4.4049876928329468e-01" purity="6.9003349542617798e-01" nType="0">
          <Node pos="l" depth="2" NCoef="0" IVar="-1" Cut="0.0000000000000000e+00" cType="1" res="1.1919197277165949e-04" rms="4.5838731527328491e-01" purity="6.3239252567291260e-01" nType="-99"/>
          <Node pos="r" depth="2" NCoef="0" IVar="-1" Cut="0.0000000000000000e+00" cType="1" res="5.9688789770007133e-03" rms="3.7276130914688110e-01" purity="8.3214479684829712e-01" nType="-99"/>
        </Node>
        <Node pos="r" depth="1" NCoef="0" IVar="6" Cut="6.7151031494140625e+01" cType="1" res="-3.7149310111999512e-02" rms="4.4777023792266846e-01" purity="4.3397656083106995e-01" nType="0">
          <Node pos="l" depth="2" NCoef="0" IVar="-1" Cut="0.0000000000000000e+00" cType="1" res="-1.6908649122342467e-03" rms="4.4837325811386108e-01" purity="3.4305542707443237e-01" nType="-99"/>
          <Node pos="r" depth="2" NCoef="0" IVar="-1" Cut="0.0000000000000000e+00" cType="1" res="6.4505220507271588e-05" rms="4.4265523552894592e-01" purity="4.9094390869140625e-01" nType="-99"/>
        </Node>
      </Node>
    </BinaryTree>
    <BinaryTree type="DecisionTree" boostWeight="1.0000000000000000e+00" itree="270">
      <Node pos="s" depth="0" NCoef="0" IVar="2" Cut="9.6118295192718506e-01" cType="1" res="-3.0578764155507088e-02" rms="4.4520258903503418e-01" purity="4.8759537935256958e-01" nType="0">
        <Node pos="l" depth="1" NCoef="0" IVar="6" Cut="9.4719825744628906e+01" cType="1" res="-7.6219663023948669e-02" rms="4.4917628169059753e-01" purity="3.8814961910247803e-01" nType="0">
          <Node pos="l" depth="2" NCoef="0" IVar="-1" Cut="0.0000000000000000e+00" cType="1" res="-1.7455460038036108e-03" rms="4.4440096616744995e-01" purity="3.4301885962486267e-01" nType="-99"/>
          <Node pos="r" depth="2" NCoef="0" IVar="-1" Cut="0.0000000000000000e+00" cType="1" res="3.5634482628665864e-05" rms="4.5037180185317993e-01" purity="4.9193188548088074e-01" nType="-99"/>
        </Node>
        <Node pos="r" depth="1" NCoef="0" IVar="3" Cut="1.1844304656982422e+02" cType="1" res="7.5340509414672852e-02" rms="4.1701850295066833e-01" purity="7.1838009357452393e-01" nType="0">
          <Node pos="l" depth="2" NCoef="0" IVar="-1" Cut="0.0000000000000000e+00" cType="1" res="6.4784580899868160e-05" rms="4.4827166199684143e-01" purity="6.4572185277938843e-01" nType="-99"/>
          <Node pos="r" depth="2" NCoef="0" IVar="-1" Cut="0.0000000000000000e+00" cType="1" res="3.6227670498192310e-03" rms="3.9525282382965088e-01" purity="7.5503522157669067e-01" nType="-99"/>
        </Node>
      </Node>
    </BinaryTree>
    <BinaryTree type="DecisionTree" boostWeight="1.0000000000000000e+00" itree="271">
      <Node pos="s" depth="0" NCoef="0" IVar="3" Cut="1.4451118469238281e+02" cType="1" res="-2.8955282643437386e-02" rms="4.4741329550743103e-01" purity="4.9110388755798340e-01" nType="0">
        <Node pos="l" depth="1" NCoef="0" IVar="5" Cut="4.9540237426757812e+02" cType="1" res="-1.1761893518269062e-02" rms="4.4930046796798706e-01" purity="5.1638150215148926e-01" nType="0">
          <Node pos="l" depth="2" NCoef="0" IVar="-1" Cut="0.0000000000000000e+00" cType="1" res="-1.1542041320353746e-03" rms="4.5564115047454834e-01" purity="4.2393067479133606e-01" nType="-99"/>
          <Node pos="r" depth="2" NCoef="0" IVar="-1" Cut="0.0000000000000000e+00" cType="1" res="6.1417493270710111e-04" rms="4.4053989648818970e-01" purity="5.8456200361251831e-01" nType="-99"/>
        </Node>
        <Node pos="r" depth="1" NCoef="0" IVar="-1" Cut="0.0000000000000000e+00" cType="1" res="-3.1807462219148874e-03" rms="3.8281616568565369e-01" purity="2.2517594695091248e-01" nType="-99"/>
      </Node>
    </BinaryTree>
    <BinaryTree type="DecisionTree" boostWeight="1.0000000000000000e+00" itree="272">
      <Node pos="s" depth="0" NCoef="0" IVar="2" Cut="9.5216596126556396e-01" cType="1" res="-1.6011614352464676e-02" rms="4.3395078182220459e-01" purity="4.9497166275978088e-01" nType="0">
        <Node pos="l" depth="1" NCoef="0" IVar="5" Cut="4.1422918701171875e+02" cType="1" res="-7.1696206927299500e-02" rms="4.4004297256469727e-01" purity="3.5487392544746399e-01" nType="0">
          <Node pos="l" depth="2" NCoef="0" IVar="-1" Cut="0.0000000000000000e+00" cType="1" res="-2.3679458536207676e-03" rms="3.7829881906509399e-01" purity="2.0371437072753906e-01" nType="-99"/>
          <Node pos="r" depth="2" NCoef="0" IVar="-1" Cut="0.0000000000000000e+00" cType="1" res="-8.2291662693023682e-04" rms="4.5170795917510986e-01" purity="3.9427804946899414e-01" nType="-99"/>
        </Node>
        <Node pos="r" depth="1" NCoef="0" IVar="0" Cut="1.2586228847503662e+00" cType="1" res="5.7601027190685272e-02" rms="4.1443520784378052e-01" purity="6.8017494678497314e-01" nType="0">
          <Node pos="l" depth="2" NCoef="0" IVar="-1" Cut="0.0000000000000000e+00" cType="1" res="3.1995195895433426e-03" rms="3.9225625991821289e-01" purity="7.8369098901748657e-01" nType="-99"/>
          <Node pos="r" depth="2" NCoef="0" IVar="-1" Cut="0.0000000000000000e+00" cType="1" res="-8.3656585775315762e-04" rms="4.5854669809341431e-01" purity="3.6977541446685791e-01" nType="-99"/>
        </Node>
      </Node>
    </BinaryTree>
    <BinaryTree type="DecisionTree" boostWeight="1.0000000000000000e+00" itree="273">
      <Node pos="s" depth="0" NCoef="0" IVar="6" Cut="1.0221609497070312e+02" cType="1" res="-3.8454677909612656e-02" rms="4.4581082463264465e-01" purity="4.7992283105850220e-01" nType="0">
        <Node pos="l" depth="1" NCoef="0" IVar="4" Cut="2.9514923095703125e+02" cType="1" res="-6.7020133137702942e-02" rms="4.4942054152488708e-01" purity="4.3775567412376404e-01" nType="0">
          <Node pos="l" depth="2" NCoef="0" IVar="-1" Cut="0.0000000000000000e+00" cType="1" res="-7.6240825001150370e-04" rms="4.5947524905204773e-01" purity="4.9012631177902222e-01" nType="-99"/>
          <Node pos="r" depth="2" NCoef="0" IVar="-1" Cut="0.0000000000000000e+00" cType="1" res="-2.6181424036622047e-03" rms="3.9140966534614563e-01" purity="2.3675610125064850e-01" nType="-99"/>
        </Node>
        <Node pos="r" depth="1" NCoef="0" IVar="8" Cut="2.2008943557739258e+00" cType="1" res="4.1333943605422974e-02" rms="4.2552974820137024e-01" purity="5.9770345687866211e-01" nType="0">
          <Node pos="l" depth="2" NCoef="0" IVar="-1" Cut="0.0000000000000000e+00" cType="1" res="6.8139950744807720e-03" rms="3.1785345077514648e-01" purity="8.6135762929916382e-01" nType="-99"/>
          <Node pos="r" depth="2" NCoef="0" IVar="-1" Cut="0.0000000000000000e+00" cType="1" res="-5.2098883315920830e-04" rms="4.6085646748542786e-01" purity="4.5254388451576233e-01" nType="-99"/>
        </Node>
      </Node>
    </BinaryTree>
    <BinaryTree type="DecisionTree" boostWeight="1.0000000000000000e+00" itree="274">
      <Node pos="s" depth="0" NCoef="0" IVar="8" Cut="2.4890952110290527e+00" cType="1" res="-3.1301490962505341e-02" rms="4.4553983211517334e-01" purity="4.8357075452804565e-01" nType="0">
        <Node pos="l" depth="1" NCoef="0" IVar="3" Cut="1.3367147827148438e+02" cType="1" res="-7.5477757491171360e-03" rms="4.5916268229484558e-01" purity="5.5740129947662354e-01" nType="0">
          <Node pos="l" depth="2" NCoef="0" IVar="-1" Cut="0.0000000000000000e+00" cType="1" res="4.0499703027307987e-04" rms="4.5254039764404297e-01" purity="5.8403164148330688e-01" nType="-99"/>
          <Node pos="r" depth="2" NCoef="0" IVar="-1" Cut="0.0000000000000000e+00" cType="1" res="-1.9856027793139219e-03" rms="4.7050103545188904e-01" purity="4.5391896367073059e-01" nType="-99"/>
        </Node>
        <Node pos="r" depth="1" NCoef="0" IVar="6" Cut="9.0892364501953125e+01" cType="1" res="-1.2708474695682526e-01" rms="3.7061968445777893e-01" purity="1.8586033582687378e-01" nType="0">
          <Node pos="l" depth="2" NCoef="0" IVar="-1" Cut="0.0000000000000000e+00" cType="1" res="-2.6551997289061546e-03" rms="2.9298228025436401e-01" purity="1.0549157112836838e-01" nType="-99"/>
          <Node pos="r" depth="2" NCoef="0" IVar="-1" Cut="0.0000000000000000e+00" cType="1" res="-1.1388151906430721e-03" rms="4.3394169211387634e-01" purity="2.7610304951667786e-01" nType="-99"/>
        </Node>
      </Node>
    </BinaryTree>
    <BinaryTree type="DecisionTree" boostWeight="1.0000000000000000e+00" itree="275">
      <Node pos="s" depth="0" NCoef="0" IVar="6" Cut="9.1833160400390625e+01" cType="1" res="-3.7427224218845367e-02" rms="4.4376119971275330e-01" purity="4.7615793347358704e-01" nType="0">
        <Node pos="l" depth="1" NCoef="0" IVar="0" Cut="5.9599953889846802e-01" cType="1" res="-7.4259832501411438e-02" rms="4.5003145933151245e-01" purity="4.2539834976196289e-01" nType="0">
          <Node pos="l" depth="2" NCoef="0" IVar="-1" Cut="0.0000000000000000e+00" cType="1" res="1.2729008449241519e-03" rms="4.5313456654548645e-01" purity="6.7389380931854248e-01" nType="-99"/>
          <Node pos="r" depth="2" NCoef="0" IVar="-1" Cut="0.0000000000000000e+00" cType="1" res="-1.6268223989754915e-03" rms="4.4601410627365112e-01" purity="3.8408163189888000e-01" nType="-99"/>
        </Node>
        <Node pos="r" depth="1" NCoef="0" IVar="8" Cut="2.1881134510040283e+00" cType="1" res="4.2292974889278412e-02" rms="4.1893020272254944e-01" purity="5.8602148294448853e-01" nType="0">
          <Node pos="l" depth="2" NCoef="0" IVar="-1" Cut="0.0000000000000000e+00" cType="1" res="5.1693511195480824e-03" rms="3.4473606944084167e-01" purity="8.1595945358276367e-01" nType="-99"/>
          <Node pos="r" depth="2" NCoef="0" IVar="-1" Cut="0.0000000000000000e+00" cType="1" res="-2.6975729269906878e-04" rms="4.4635480642318726e-01" purity="4.5416969060897827e-01" nType="-99"/>
        </Node>
      </Node>
    </BinaryTree>
    <BinaryTree type="DecisionTree" boostWeight="1.0000000000000000e+00" itree="276">
      <Node pos="s" depth="0" NCoef="0" IVar="8" Cut="2.3268899917602539e+00" cType="1" res="-3.4060645848512650e-02" rms="4.4828349351882935e-01" purity="4.8489823937416077e-01" nType="0">
        <Node pos="l" depth="1" NCoef="0" IVar="7" Cut="1.4257834851741791e-01" cType="1" res="-6.9600101560354233e-03" rms="4.6397373080253601e-01" purity="5.7717233896255493e-01" nType="0">
          <Node pos="l" depth="2" NCoef="0" IVar="-1" Cut="0.0000000000000000e+00" cType="1" res="-7.1441690670326352e-04" rms="4.7295731306076050e-01" purity="5.4169070720672607e-01" nType="-99"/>
          <Node pos="r" depth="2" NCoef="0" IVar="-1" Cut="0.0000000000000000e+00" cType="1" res="1.8914429238066077e-03" rms="4.2519158124923706e-01" purity="6.8472778797149658e-01" nType="-99"/>
        </Node>
        <Node pos="r" depth="1" NCoef="0" IVar="5" Cut="4.8914834594726562e+02" cType="1" res="-9.4123631715774536e-02" rms="4.0496882796287537e-01" purity="2.8039160370826721e-01" nType="0">
          <Node pos="l" depth="2" NCoef="0" IVar="-1" Cut="0.0000000000000000e+00" cType="1" res="-2.2384054027497768e-03" rms="3.7222355604171753e-01" purity="2.1279273927211761e-01" nType="-99"/>
          <Node pos="r" depth="2" NCoef="0" IVar="-1" Cut="0.0000000000000000e+00" cType="1" res="-7.6643371721729636e-04" rms="4.2517113685607910e-01" purity="3.3877328038215637e-01" nType="-99"/>
        </Node>
      </Node>
    </BinaryTree>
    <BinaryTree type="DecisionTree" boostWeight="1.0000000000000000e+00" itree="277">
      <Node pos="s" depth="0" NCoef="0" IVar="2" Cut="9.2721462249755859e-01" cType="1" res="-2.6899991557002068e-02" rms="4.4924837350845337e-01" purity="4.9083861708641052e-01" nType="0">
        <Node pos="l" depth="1" NCoef="0" IVar="7" Cut="7.9536661505699158e-02" cType="1" res="-1.2656942009925842e-01" rms="4.1121950745582581e-01" purity="2.4753275513648987e-01" nType="0">
          <Node pos="l" depth="2" NCoef="0" IVar="-1" Cut="0.0000000000000000e+00" cType="1" res="-2.5372125674039125e-03" rms="3.6697077751159668e-01" purity="1.7447778582572937e-01" nType="-99"/>
          <Node pos="r" depth="2" NCoef="0" IVar="-1" Cut="0.0000000000000000e+00" cType="1" res="-1.0507234837859869e-03" rms="4.5248734951019287e-01" purity="3.3628502488136292e-01" nType="-99"/>
        </Node>
        <Node pos="r" depth="1" NCoef="0" IVar="6" Cut="4.0197597503662109e+01" cType="1" res="-2.2260211408138275e-03" rms="4.5481511950492859e-01" purity="5.5107104778289795e-01" nType="0">
          <Node pos="l" depth="2" NCoef="0" IVar="-1" Cut="0.0000000000000000e+00" cType="1" res="-1.9775466062128544e-03" rms="4.6317437291145325e-01" purity="3.7885320186614990e-01" nType="-99"/>
          <Node pos="r" depth="2" NCoef="0" IVar="-1" Cut="0.0000000000000000e+00" cType="1" res="3.0411832267418504e-04" rms="4.5146083831787109e-01" purity="5.7439923286437988e-01" nType="-99"/>
        </Node>
      </Node>
    </BinaryTree>
    <BinaryTree type="DecisionTree" boostWeight="1.0000000000000000e+00" itree="278">
      <Node pos="s" depth="0" NCoef="0" IVar="7" Cut="1.8985961377620697e-01" cType="1" res="-1.9004514440894127e-02" rms="4.4978320598602295e-01" purity="4.9760890007019043e-01" nType="0">
        <Node pos="l" depth="1" NCoef="0" IVar="1" Cut="2.9192987060546875e+02" cType="1" res="-3.5313595086336136e-02" rms="4.5001783967018127e-01" purity="4.7157871723175049e-01" nType="0">
          <Node pos="l" depth="2" NCoef="0" IVar="-1" Cut="0.0000000000000000e+00" cType="1" res="-2.2784171160310507e-03" rms="4.0523976087570190e-01" purity="2.5688287615776062e-01" nType="-99"/>
          <Node pos="r" depth="2" NCoef="0" IVar="-1" Cut="0.0000000000000000e+00" cType="1" res="-3.2557584927417338e-04" rms="4.5427072048187256e-01" purity="5.0777453184127808e-01" nType="-99"/>
        </Node>
        <Node pos="r" depth="1" NCoef="0" IVar="-1" Cut="0.0000000000000000e+00" cType="1" res="4.0179402567446232e-03" rms="4.1789606213569641e-01" purity="7.4076962471008301e-01" nType="-99"/>
      </Node>
    </BinaryTree>
    <BinaryTree type="DecisionTree" boostWeight="1.0000000000000000e+00" itree="279">
      <Node pos="s" depth="0" NCoef="0" IVar="0" Cut="5.5025744438171387e-01" cType="1" res="-2.1033560857176781e-02" rms="4.4857060909271240e-01" purity="4.9747478961944580e-01" nType="0">
        <Node pos="l" depth="1" NCoef="0" IVar="-1" Cut="0.0000000000000000e+00" cType="1" res="5.3166761063039303e-03" rms="3.8526308536529541e-01" purity="8.1090223789215088e-01" nType="-99"/>
        <Node pos="r" depth="1" NCoef="0" IVar="2" Cut="9.4855207204818726e-01" cType="1" res="-3.9179552346467972e-02" rms="4.5077583193778992e-01" purity="4.6492069959640503e-01" nType="0">
          <Node pos="l" depth="2" NCoef="0" IVar="-1" Cut="0.0000000000000000e+00" cType="1" res="-1.3474726583808661e-03" rms="4.4462510943412781e-01" purity="3.2332807779312134e-01" nType="-99"/>
          <Node pos="r" depth="2" NCoef="0" IVar="-1" Cut="0.0000000000000000e+00" cType="1" res="9.6134586783591658e-05" rms="4.5218408107757568e-01" purity="5.9727281332015991e-01" nType="-99"/>
        </Node>
      </Node>
    </BinaryTree>
    <BinaryTree type="DecisionTree" boostWeight="1.0000000000000000e+00" itree="280">
      <Node pos="s" depth="0" NCoef="0" IVar="4" Cut="4.0464324951171875e+02" cType="1" res="-1.5587090514600277e-02" rms="4.4858875870704651e-01" purity="5.0507688522338867e-01" nType="0">
        <Node pos="l" depth="1" NCoef="0" IVar="5" Cut="8.1407653808593750e+02" cType="1" res="3.8621519342996180e-04" rms="4.4909662008285522e-01" purity="5.3345543146133423e-01" nType="0">
          <Node pos="l" depth="2" NCoef="0" IVar="-1" Cut="0.0000000000000000e+00" cType="1" res="-2.9582009301520884e-04" rms="4.5132902264595032e-01" purity="5.1026695966720581e-01" nType="-99"/>
          <Node pos="r" depth="2" NCoef="0" IVar="-1" Cut="0.0000000000000000e+00" cType="1" res="6.4137242734432220e-03" rms="3.7887525558471680e-01" purity="8.0603617429733276e-01" nType="-99"/>
        </Node>
        <Node pos="r" depth="1" NCoef="0" IVar="-1" Cut="0.0000000000000000e+00" cType="1" res="-2.1429175976663828e-03" rms="4.2595544457435608e-01" purity="2.9155713319778442e-01" nType="-99"/>
      </Node>
    </BinaryTree>
    <BinaryTree type="DecisionTree" boostWeight="1.0000000000000000e+00" itree="281">
      <Node pos="s" depth="0" NCoef="0" IVar="4" Cut="2.7833993530273438e+02" cType="1" res="-2.6803800836205482e-02" rms="4.5017886161804199e-01" purity="4.9156418442726135e-01" nType="0">
        <Node pos="l" depth="1" NCoef="0" IVar="1" Cut="3.9449597167968750e+02" cType="1" res="5.6627527810633183e-03" rms="4.5476466417312622e-01" purity="5.5140143632888794e-01" nType="0">
          <Node pos="l" depth="2" NCoef="0" IVar="-1" Cut="0.0000000000000000e+00" cType="1" res="-8.7222532602027059e-04" rms="4.5538276433944702e-01" purity="4.6488684415817261e-01" nType="-99"/>
          <Node pos="r" depth="2" NCoef="0" IVar="-1" Cut="0.0000000000000000e+00" cType="1" res="2.4301020894199610e-03" rms="4.4074478745460510e-01" purity="6.9257116317749023e-01" nType="-99"/>
        </Node>
        <Node pos="r" depth="1" NCoef="0" IVar="6" Cut="8.0836708068847656e+01" cType="1" res="-1.0215674340724945e-01" rms="4.3000558018684387e-01" purity="3.5268542170524597e-01" nType="0">
          <Node pos="l" depth="2" NCoef="0" IVar="-1" Cut="0.0000000000000000e+00" cType="1" res="-2.5166720151901245e-03" rms="3.9087226986885071e-01" purity="2.3075519502162933e-01" nType="-99"/>
          <Node pos="r" depth="2" NCoef="0" IVar="-1" Cut="0.0000000000000000e+00" cType="1" res="-1.0960007784888148e-03" rms="4.4874909520149231e-01" purity="4.3354013562202454e-01" nType="-99"/>
        </Node>
      </Node>
    </BinaryTree>
    <BinaryTree type="DecisionTree" boostWeight="1.0000000000000000e+00" itree="282">
      <Node pos="s" depth="0" NCoef="0" IVar="3" Cut="1.4012384033203125e+02" cType="1" res="-1.3570243492722511e-02" rms="4.4848334789276123e-01" purity="5.0650835037231445e-01" nType="0">
        <Node pos="l" depth="1" NCoef="0" IVar="8" Cut="2.6313519477844238e+00" cType="1" res="4.3336469680070877e-03" rms="4.4877627491950989e-01" purity="5.3094154596328735e-01" nType="0">
          <Node pos="l" depth="2" NCoef="0" IVar="-1" Cut="0.0000000000000000e+00" cType="1" res="4.3960631592199206e-04" rms="4.5748722553253174e-01" purity="5.7585525512695312e-01" nType="-99"/>
          <Node pos="r" depth="2" NCoef="0" IVar="-1" Cut="0.0000000000000000e+00" cType="1" res="-1.9874346908181906e-03" rms="3.4043115377426147e-01" purity="1.5339779853820801e-01" nType="-99"/>
        </Node>
        <Node pos="r" depth="1" NCoef="0" IVar="-1" Cut="0.0000000000000000e+00" cType="1" res="-2.2722582798451185e-03" rms="4.2641440033912659e-01" purity="3.3781501650810242e-01" nType="-99"/>
      </Node>
    </BinaryTree>
    <BinaryTree type="DecisionTree" boostWeight="1.0000000000000000e+00" itree="283">
      <Node pos="s" depth="0" NCoef="0" IVar="2" Cut="9.7367602586746216e-01" cType="1" res="-2.9402272775769234e-02" rms="4.4920694828033447e-01" purity="4.9836915731430054e-01" nType="0">
        <Node pos="l" depth="1" NCoef="0" IVar="3" Cut="1.0784667968750000e+02" cType="1" res="-4.9764793366193771e-02" rms="4.5545855164527893e-01" purity="4.5108401775360107e-01" nType="0">
          <Node pos="l" depth="2" NCoef="0" IVar="-1" Cut="0.0000000000000000e+00" cType="1" res="-2.3367442190647125e-03" rms="4.4619718194007874e-01" purity="3.1714558601379395e-01" nType="-99"/>
          <Node pos="r" depth="2" NCoef="0" IVar="-1" Cut="0.0000000000000000e+00" cType="1" res="-6.7041197326034307e-04" rms="4.5513370633125305e-01" purity="4.7359558939933777e-01" nType="-99"/>
        </Node>
        <Node pos="r" depth="1" NCoef="0" IVar="6" Cut="6.4987136840820312e+01" cType="1" res="7.7912271022796631e-02" rms="3.9784315228462219e-01" purity="7.4757140874862671e-01" nType="0">
          <Node pos="l" depth="2" NCoef="0" IVar="-1" Cut="0.0000000000000000e+00" cType="1" res="-4.6567816752940416e-04" rms="4.6901315450668335e-01" purity="6.2016981840133667e-01" nType="-99"/>
          <Node pos="r" depth="2" NCoef="0" IVar="-1" Cut="0.0000000000000000e+00" cType="1" res="6.0406746342778206e-03" rms="3.2011479139328003e-01" purity="8.3930033445358276e-01" nType="-99"/>
        </Node>
      </Node>
    </BinaryTree>
    <BinaryTree type="DecisionTree" boostWeight="1.0000000000000000e+00" itree="284">
      <Node pos="s" depth="0" NCoef="0" IVar="4" Cut="3.7716842651367188e+02" cType="1" res="-2.2041779011487961e-02" rms="4.4669273495674133e-01" purity="4.9794054031372070e-01" nType="0">
        <Node pos="l" depth="1" NCoef="0" IVar="2" Cut="9.7866314649581909e-01" cType="1" res="-2.8511972632259130e-03" rms="4.5298734307289124e-01" purity="5.3544968366622925e-01" nType="0">
          <Node pos="l" depth="2" NCoef="0" IVar="-1" Cut="0.0000000000000000e+00" cType="1" res="-3.7545972736552358e-04" rms="4.6023464202880859e-01" purity="5.0011092424392700e-01" nType="-99"/>
          <Node pos="r" depth="2" NCoef="0" IVar="-1" Cut="0.0000000000000000e+00" cType="1" res="4.9864305183291435e-03" rms="3.6444613337516785e-01" purity="8.1954181194305420e-01" nType="-99"/>
        </Node>
        <Node pos="r" depth="1" NCoef="0" IVar="6" Cut="9.8733154296875000e+01" cType="1" res="-1.3063098490238190e-01" rms="3.9193654060363770e-01" purity="2.8569641709327698e-01" nType="0">
          <Node pos="l" depth="2" NCoef="0" IVar="-1" Cut="0.0000000000000000e+00" cType="1" res="-2.8254622593522072e-03" rms="3.5669550299644470e-01" purity="1.8939921259880066e-01" nType="-99"/>
          <Node pos="r" depth="2" NCoef="0" IVar="-1" Cut="0.0000000000000000e+00" cType="1" res="-9.6765987109392881e-04" rms="4.2259344458580017e-01" purity="4.1608732938766479e-01" nType="-99"/>
        </Node>
      </Node>
    </BinaryTree>
    <BinaryTree type="DecisionTree" boostWeight="1.0000000000000000e+00" itree="285">
      <Node pos="s" depth="0" NCoef="0" IVar="2" Cut="9.8497152328491211e-01" cType="1" res="-8.5083683952689171e-03" rms="4.4737216830253601e-01" purity="5.1256835460662842e-01" nType="0">
        <Node pos="l" depth="1" NCoef="0" IVar="5" Cut="4.8569027709960938e+02" cType="1" res="-1.9678127020597458e-02" rms="4.5133271813392639e-01" purity="4.9044123291969299e-01" nType="0">
          <Node pos="l" depth="2" NCoef="0" IVar="-1" Cut="0.0000000000000000e+00" cType="1" res="-1.4577091205865145e-03" rms="4.4311806559562683e-01" purity="3.8414898514747620e-01" nType="-99"/>
          <Node pos="r" depth="2" NCoef="0" IVar="-1" Cut="0.0000000000000000e+00" cType="1" res="3.7536787567660213e-04" rms="4.5197597146034241e-01" purity="5.5207240581512451e-01" nType="-99"/>
        </Node>
        <Node pos="r" depth="1" NCoef="0" IVar="-1" Cut="0.0000000000000000e+00" cType="1" res="6.7261173389852047e-03" rms="3.4277683496475220e-01" purity="8.4242236614227295e-01" nType="-99"/>
      </Node>
    </BinaryTree>
    <BinaryTree type="DecisionTree" boostWeight="1.0000000000000000e+00" itree="286">
      <Node pos="s" depth="0" NCoef="0" IVar="3" Cut="1.3079554748535156e+02" cType="1" res="-2.8620185330510139e-02" rms="4.4913411140441895e-01" purity="4.9345278739929199e-01" nType="0">
        <Node pos="l" depth="1" NCoef="0" IVar="3" Cut="1.1563983917236328e+02" cType="1" res="3.3225384540855885e-03" rms="4.4958859682083130e-01" purity="5.3277409076690674e-01" nType="0">
          <Node pos="l" depth="2" NCoef="0" IVar="-1" Cut="0.0000000000000000e+00" cType="1" res="-1.1014856863766909e-03" rms="4.4666352868080139e-01" purity="4.3506935238838196e-01" nType="-99"/>
          <Node pos="r" depth="2" NCoef="0" IVar="-1" Cut="0.0000000000000000e+00" cType="1" res="9.8209222778677940e-04" rms="4.4702914357185364e-01" purity="5.9584599733352661e-01" nType="-99"/>
        </Node>
        <Node pos="r" depth="1" NCoef="0" IVar="7" Cut="7.3235891759395599e-02" cType="1" res="-1.0318309068679810e-01" rms="4.3912032246589661e-01" purity="4.0166619420051575e-01" nType="0">
          <Node pos="l" depth="2" NCoef="0" IVar="-1" Cut="0.0000000000000000e+00" cType="1" res="-2.8049116954207420e-03" rms="4.0118694305419922e-01" purity="2.8335419297218323e-01" nType="-99"/>
          <Node pos="r" depth="2" NCoef="0" IVar="-1" Cut="0.0000000000000000e+00" cType="1" res="-3.2479767105542123e-04" rms="4.6190783381462097e-01" purity="5.3257304430007935e-01" nType="-99"/>
        </Node>
      </Node>
    </BinaryTree>
    <BinaryTree type="DecisionTree" boostWeight="1.0000000000000000e+00" itree="287">
      <Node pos="s" depth="0" NCoef="0" IVar="2" Cut="9.5842194557189941e-01" cType="1" res="-1.8797865137457848e-02" rms="4.4879609346389771e-01" purity="5.0852549076080322e-01" nType="0">
        <Node pos="l" depth="1" NCoef="0" IVar="8" Cut="2.0872964859008789e+00" cType="1" res="-5.1474489271640778e-02" rms="4.5513018965721130e-01" purity="4.0792554616928101e-01" nType="0">
          <Node pos="l" depth="2" NCoef="0" IVar="-1" Cut="0.0000000000000000e+00" cType="1" res="3.6615168210119009e-04" rms="4.7543951869010925e-01" purity="5.5195635557174683e-01" nType="-99"/>
          <Node pos="r" depth="2" NCoef="0" IVar="-1" Cut="0.0000000000000000e+00" cType="1" res="-1.5061980811879039e-03" rms="4.3745803833007812e-01" purity="3.2282364368438721e-01" nType="-99"/>
        </Node>
        <Node pos="r" depth="1" NCoef="0" IVar="3" Cut="1.3312026977539062e+02" cType="1" res="3.5182945430278778e-02" rms="4.3276047706604004e-01" purity="6.7471373081207275e-01" nType="0">
          <Node pos="l" depth="2" NCoef="0" IVar="-1" Cut="0.0000000000000000e+00" cType="1" res="1.7057445365935564e-03" rms="4.1926598548889160e-01" purity="7.0143544673919678e-01" nType="-99"/>
          <Node pos="r" depth="2" NCoef="0" IVar="-1" Cut="0.0000000000000000e+00" cType="1" res="-1.1491412296891212e-03" rms="4.7070193290710449e-01" purity="5.7399696111679077e-01" nType="-99"/>
        </Node>
      </Node>
    </BinaryTree>
    <BinaryTree type="DecisionTree" boostWeight="1.0000000000000000e+00" itree="288">
      <Node pos="s" depth="0" NCoef="0" IVar="3" Cut="1.3223686218261719e+02" cType="1" res="-2.8913006186485291e-02" rms="4.4993779063224792e-01" purity="4.8927211761474609e-01" nType="0">
        <Node pos="l" depth="1" NCoef="0" IVar="3" Cut="1.0026514434814453e+02" cType="1" res="-6.3204392790794373e-04" rms="4.5033022761344910e-01" purity="5.2614355087280273e-01" nType="0">
          <Node pos="l" depth="2" NCoef="0" IVar="-1" Cut="0.0000000000000000e+00" cType="1" res="-2.2269010078161955e-03" rms="4.1078829765319824e-01" purity="2.8113868832588196e-01" nType="-99"/>
          <Node pos="r" depth="2" NCoef="0" IVar="-1" Cut="0.0000000000000000e+00" cType="1" res="3.2347367960028350e-04" rms="4.5189365744590759e-01" purity="5.5339545011520386e-01" nType="-99"/>
        </Node>
        <Node pos="r" depth="1" NCoef="0" IVar="7" Cut="8.9287668466567993e-02" cType="1" res="-1.1202994734048843e-01" rms="4.3834537267684937e-01" purity="3.8090795278549194e-01" nType="0">
          <Node pos="l" depth="2" NCoef="0" IVar="-1" Cut="0.0000000000000000e+00" cType="1" res="-2.4440537672489882e-03" rms="4.0974670648574829e-01" purity="3.0912220478057861e-01" nType="-99"/>
          <Node pos="r" depth="2" NCoef="0" IVar="-1" Cut="0.0000000000000000e+00" cType="1" res="-8.1997504457831383e-04" rms="4.7547408938407898e-01" purity="5.0575369596481323e-01" nType="-99"/>
        </Node>
      </Node>
    </BinaryTree>
    <BinaryTree type="DecisionTree" boostWeight="1.0000000000000000e+00" itree="289">
      <Node pos="s" depth="0" NCoef="0" IVar="2" Cut="9.3870842456817627e-01" cType="1" res="3.0958856223151088e-04" rms="4.4119593501091003e-01" purity="5.2009016275405884e-01" nType="0">
        <Node pos="l" depth="1" NCoef="0" IVar="7" Cut="8.3075560629367828e-02" cType="1" res="-6.2576539814472198e-02" rms="4.3385899066925049e-01" purity="3.2535257935523987e-01" nType="0">
          <Node pos="l" depth="2" NCoef="0" IVar="-1" Cut="0.0000000000000000e+00" cType="1" res="-1.8844953738152981e-03" rms="4.1254594922065735e-01" purity="2.4855551123619080e-01" nType="-99"/>
          <Node pos="r" depth="2" NCoef="0" IVar="-1" Cut="0.0000000000000000e+00" cType="1" res="4.9678946379572153e-04" rms="4.4800299406051636e-01" purity="4.3716636300086975e-01" nType="-99"/>
        </Node>
        <Node pos="r" depth="1" NCoef="0" IVar="5" Cut="4.6956347656250000e+02" cType="1" res="3.5375349223613739e-02" rms="4.4136047363281250e-01" purity="6.2867724895477295e-01" nType="0">
          <Node pos="l" depth="2" NCoef="0" IVar="-1" Cut="0.0000000000000000e+00" cType="1" res="-8.8068924378603697e-04" rms="4.6758359670639038e-01" purity="5.0936889648437500e-01" nType="-99"/>
          <Node pos="r" depth="2" NCoef="0" IVar="-1" Cut="0.0000000000000000e+00" cType="1" res="1.9562491215765476e-03" rms="4.2388617992401123e-01" purity="6.8327456712722778e-01" nType="-99"/>
        </Node>
      </Node>
    </BinaryTree>
    <BinaryTree type="DecisionTree" boostWeight="1.0000000000000000e+00" itree="290">
      <Node pos="s" depth="0" NCoef="0" IVar="0" Cut="7.3434197902679443e-01" cType="1" res="-1.6305936500430107e-02" rms="4.4701912999153137e-01" purity="5.0208318233489990e-01" nType="0">
        <Node pos="l" depth="1" NCoef="0" IVar="5" Cut="5.4744567871093750e+02" cType="1" res="6.9822192192077637e-02" rms="4.3965303897857666e-01" purity="7.1873551607131958e-01" nType="0">
          <Node pos="l" depth="2" NCoef="0" IVar="-1" Cut="0.0000000000000000e+00" cType="1" res="4.3156649917364120e-03" rms="4.0303677320480347e-01" purity="7.5998395681381226e-01" nType="-99"/>
          <Node pos="r" depth="2" NCoef="0" IVar="-1" Cut="0.0000000000000000e+00" cType="1" res="3.6197682493366301e-04" rms="4.5660251379013062e-01" purity="6.8822979927062988e-01" nType="-99"/>
        </Node>
        <Node pos="r" depth="1" NCoef="0" IVar="6" Cut="9.2922508239746094e+01" cType="1" res="-4.0998633950948715e-02" rms="4.4605171680450439e-01" purity="4.3996956944465637e-01" nType="0">
          <Node pos="l" depth="2" NCoef="0" IVar="-1" Cut="0.0000000000000000e+00" cType="1" res="-1.2098459992557764e-03" rms="4.3964248895645142e-01" purity="3.8368418812751770e-01" nType="-99"/>
          <Node pos="r" depth="2" NCoef="0" IVar="-1" Cut="0.0000000000000000e+00" cType="1" res="2.1868271869607270e-04" rms="4.5298534631729126e-01" purity="5.4190075397491455e-01" nType="-99"/>
        </Node>
      </Node>
    </BinaryTree>
    <BinaryTree type="DecisionTree" boostWeight="1.0000000000000000e+00" itree="291">
      <Node pos="s" depth="0" NCoef="0" IVar="0" Cut="1.4432610273361206e+00" cType="1" res="-2.0436022430658340e-02" rms="4.4829964637756348e-01" purity="4.9845471978187561e-01" nType="0">
        <Node pos="l" depth="1" NCoef="0" IVar="6" Cut="9.9376312255859375e+01" cType="1" res="-4.1614440269768238e-03" rms="4.5855033397674561e-01" purity="5.5882501602172852e-01" nType="0">
          <Node pos="l" depth="2" NCoef="0" IVar="-1" Cut="0.0000000000000000e+00" cType="1" res="-5.9205549769103527e-04" rms="4.6910622715950012e-01" purity="5.1062375307083130e-01" nType="-99"/>
          <Node pos="r" depth="2" NCoef="0" IVar="-1" Cut="0.0000000000000000e+00" cType="1" res="1.7634887481108308e-03" rms="4.2054647207260132e-01" purity="6.8940073251724243e-01" nType="-99"/>
        </Node>
        <Node pos="r" depth="1" NCoef="0" IVar="1" Cut="3.9916363525390625e+02" cType="1" res="-1.0046467930078506e-01" rms="3.8412788510322571e-01" purity="2.0158956944942474e-01" nType="0">
          <Node pos="l" depth="2" NCoef="0" IVar="-1" Cut="0.0000000000000000e+00" cType="1" res="-2.0413100719451904e-03" rms="3.5511657595634460e-01" purity="1.6281671822071075e-01" nType="-99"/>
          <Node pos="r" depth="2" NCoef="0" IVar="-1" Cut="0.0000000000000000e+00" cType="1" res="-9.3397067394107580e-04" rms="4.1684451699256897e-01" purity="2.5479140877723694e-01" nType="-99"/>
        </Node>
      </Node>
    </BinaryTree>
    <BinaryTree type="DecisionTree" boostWeight="1.0000000000000000e+00" itree="292">
      <Node pos="s" depth="0" NCoef="0" IVar="5" Cut="4.8120806884765625e+02" cType="1" res="-1.5442194417119026e-03" rms="4.4864490628242493e-01" purity="5.2291512489318848e-01" nType="0">
        <Node pos="l" depth="1" NCoef="0" IVar="6" Cut="5.0597320556640625e+01" cType="1" res="-8.4046557545661926e-02" rms="4.4566008448600769e-01" purity="3.9459767937660217e-01" nType="0">
          <Node pos="l" depth="2" NCoef="0" IVar="-1" Cut="0.0000000000000000e+00" cType="1" res="-2.3553541395813227e-03" rms="4.3230149149894714e-01" purity="3.1947916746139526e-01" nType="-99"/>
          <Node pos="r" depth="2" NCoef="0" IVar="-1" Cut="0.0000000000000000e+00" cType="1" res="-6.5823068143799901e-04" rms="4.4912806153297424e-01" purity="4.5038396120071411e-01" nType="-99"/>
        </Node>
        <Node pos="r" depth="1" NCoef="0" IVar="4" Cut="4.0801766967773438e+02" cType="1" res="4.8380002379417419e-02" rms="4.4304203987121582e-01" purity="6.0056322813034058e-01" nType="0">
          <Node pos="l" depth="2" NCoef="0" IVar="-1" Cut="0.0000000000000000e+00" cType="1" res="1.8314376939088106e-03" rms="4.4077900052070618e-01" purity="6.4375787973403931e-01" nType="-99"/>
          <Node pos="r" depth="2" NCoef="0" IVar="-1" Cut="0.0000000000000000e+00" cType="1" res="-1.5920299338176847e-03" rms="4.3063580989837646e-01" purity="3.4680503606796265e-01" nType="-99"/>
        </Node>
      </Node>
    </BinaryTree>
    <BinaryTree type="DecisionTree" boostWeight="1.0000000000000000e+00" itree="293">
      <Node pos="s" depth="0" NCoef="0" IVar="8" Cut="2.0695207118988037e+00" cType="1" res="-5.4541910067200661e-03" rms="4.4880029559135437e-01" purity="5.1552128791809082e-01" nType="0">
        <Node pos="l" depth="1" NCoef="0" IVar="6" Cut="4.0781421661376953e+01" cType="1" res="5.7240270078182220e-02" rms="4.4384899735450745e-01" purity="6.6365039348602295e-01" nType="0">
          <Node pos="l" depth="2" NCoef="0" IVar="-1" Cut="0.0000000000000000e+00" cType="1" res="-1.1573809897527099e-03" rms="4.7714537382125854e-01" purity="4.5369231700897217e-01" nType="-99"/>
          <Node pos="r" depth="2" NCoef="0" IVar="-1" Cut="0.0000000000000000e+00" cType="1" res="2.5828471407294273e-03" rms="4.2813873291015625e-01" purity="7.2155255079269409e-01" nType="-99"/>
        </Node>
        <Node pos="r" depth="1" NCoef="0" IVar="4" Cut="3.9740090942382812e+02" cType="1" res="-3.8889210671186447e-02" rms="4.4784447550773621e-01" purity="4.3652382493019104e-01" nType="0">
          <Node pos="l" depth="2" NCoef="0" IVar="-1" Cut="0.0000000000000000e+00" cType="1" res="-4.0893728146329522e-04" rms="4.5873364806175232e-01" purity="4.7518441081047058e-01" nType="-99"/>
          <Node pos="r" depth="2" NCoef="0" IVar="-1" Cut="0.0000000000000000e+00" cType="1" res="-2.0292892586439848e-03" rms="3.7385499477386475e-01" purity="2.3959495127201080e-01" nType="-99"/>
        </Node>
      </Node>
    </BinaryTree>
    <BinaryTree type="DecisionTree" boostWeight="1.0000000000000000e+00" itree="294">
      <Node pos="s" depth="0" NCoef="0" IVar="3" Cut="1.2646516418457031e+02" cType="1" res="-1.3744694180786610e-02" rms="4.4215315580368042e-01" purity="5.0844818353652954e-01" nType="0">
        <Node pos="l" depth="1" NCoef="0" IVar="1" Cut="2.8398608398437500e+02" cType="1" res="2.4507107213139534e-02" rms="4.4221964478492737e-01" purity="5.5300009250640869e-01" nType="0">
          <Node pos="l" depth="2" NCoef="0" IVar="-1" Cut="0.0000000000000000e+00" cType="1" res="-1.6386328497901559e-03" rms="4.2293122410774231e-01" purity="3.2580858469009399e-01" nType="-99"/>
          <Node pos="r" depth="2" NCoef="0" IVar="-1" Cut="0.0000000000000000e+00" cType="1" res="1.1985279852524400e-03" rms="4.4170257449150085e-01" purity="5.9984838962554932e-01" nType="-99"/>
        </Node>
        <Node pos="r" depth="1" NCoef="0" IVar="2" Cut="9.7043609619140625e-01" cType="1" res="-6.9719128310680389e-02" rms="4.3604940176010132e-01" purity="4.4325470924377441e-01" nType="0">
          <Node pos="l" depth="2" NCoef="0" IVar="-1" Cut="0.0000000000000000e+00" cType="1" res="-1.7023739637807012e-03" rms="4.3437355756759644e-01" purity="3.8071611523628235e-01" nType="-99"/>
          <Node pos="r" depth="2" NCoef="0" IVar="-1" Cut="0.0000000000000000e+00" cType="1" res="1.4287503436207771e-03" rms="4.2417249083518982e-01" purity="7.2148454189300537e-01" nType="-99"/>
        </Node>
      </Node>
    </BinaryTree>
    <BinaryTree type="DecisionTree" boostWeight="1.0000000000000000e+00" itree="295">
      <Node pos="s" depth="0" NCoef="0" IVar="2" Cut="9.4570124149322510e-01" cType="1" res="-3.7243187427520752e-02" rms="4.4547140598297119e-01" purity="4.7965565323829651e-01" nType="0">
        <Node pos="l" depth="1" NCoef="0" IVar="5" Cut="4.7963342285156250e+02" cType="1" res="-8.4982372820377350e-02" rms="4.2752632498741150e-01" purity="3.1219393014907837e-01" nType="0">
          <Node pos="l" depth="2" NCoef="0" IVar="-1" Cut="0.0000000000000000e+00" cType="1" res="-2.1456859540194273e-03" rms="3.8977968692779541e-01" purity="2.1302282810211182e-01" nType="-99"/>
          <Node pos="r" depth="2" NCoef="0" IVar="-1" Cut="0.0000000000000000e+00" cType="1" res="-7.7869545202702284e-04" rms="4.4448515772819519e-01" purity="3.7352839112281799e-01" nType="-99"/>
        </Node>
        <Node pos="r" depth="1" NCoef="0" IVar="3" Cut="1.3331271362304688e+02" cType="1" res="-2.0112468337174505e-04" rms="4.5547771453857422e-01" purity="6.0959351062774658e-01" nType="0">
          <Node pos="l" depth="2" NCoef="0" IVar="-1" Cut="0.0000000000000000e+00" cType="1" res="5.9210788458585739e-04" rms="4.4922536611557007e-01" purity="6.3943880796432495e-01" nType="-99"/>
          <Node pos="r" depth="2" NCoef="0" IVar="-1" Cut="0.0000000000000000e+00" cType="1" res="-1.7329760594293475e-03" rms="4.6798190474510193e-01" purity="5.0451737642288208e-01" nType="-99"/>
        </Node>
      </Node>
    </BinaryTree>
    <BinaryTree type="DecisionTree" boostWeight="1.0000000000000000e+00" itree="296">
      <Node pos="s" depth="0" NCoef="0" IVar="2" Cut="9.2714440822601318e-01" cType="1" res="3.2256920821964741e-03" rms="4.4568207859992981e-01" purity="5.3016704320907593e-01" nType="0">
        <Node pos="l" depth="1" NCoef="0" IVar="3" Cut="1.2059175109863281e+02" cType="1" res="-9.2517070472240448e-02" rms="4.3225511908531189e-01" purity="2.8106322884559631e-01" nType="0">
          <Node pos="l" depth="2" NCoef="0" IVar="-1" Cut="0.0000000000000000e+00" cType="1" res="-8.5064762970432639e-04" rms="4.3498882651329041e-01" purity="3.1239557266235352e-01" nType="-99"/>
          <Node pos="r" depth="2" NCoef="0" IVar="-1" Cut="0.0000000000000000e+00" cType="1" res="-1.7839035717770457e-03" rms="4.2829620838165283e-01" purity="2.6026040315628052e-01" nType="-99"/>
        </Node>
        <Node pos="r" depth="1" NCoef="0" IVar="3" Cut="1.0522092437744141e+02" cType="1" res="2.6224397122859955e-02" rms="4.4579508900642395e-01" purity="5.9000509977340698e-01" nType="0">
          <Node pos="l" depth="2" NCoef="0" IVar="-1" Cut="0.0000000000000000e+00" cType="1" res="-2.3373835720121861e-03" rms="4.1695192456245422e-01" purity="3.4526881575584412e-01" nType="-99"/>
          <Node pos="r" depth="2" NCoef="0" IVar="-1" Cut="0.0000000000000000e+00" cType="1" res="1.0664825094863772e-03" rms="4.4538798928260803e-01" purity="6.1714929342269897e-01" nType="-99"/>
        </Node>
      </Node>
    </BinaryTree>
    <BinaryTree type="DecisionTree" boostWeight="1.0000000000000000e+00" itree="297">
      <Node pos="s" depth="0" NCoef="0" IVar="2" Cut="9.2917490005493164e-01" cType="1" res="-1.3612150214612484e-02" rms="4.4354996085166931e-01" purity="5.0354021787643433e-01" nType="0">
        <Node pos="l" depth="1" NCoef="0" IVar="7" Cut="8.7416872382164001e-02" cType="1" res="-1.0288377106189728e-01" rms="4.1110995411872864e-01" purity="2.6000618934631348e-01" nType="0">
          <Node pos="l" depth="2" NCoef="0" IVar="-1" Cut="0.0000000000000000e+00" cType="1" res="-2.2461919579654932e-03" rms="3.8418370485305786e-01" purity="1.9865006208419800e-01" nType="-99"/>
          <Node pos="r" depth="2" NCoef="0" IVar="-1" Cut="0.0000000000000000e+00" cType="1" res="-1.8983516201842576e-04" rms="4.4290342926979065e-01" purity="3.7479230761528015e-01" nType="-99"/>
        </Node>
        <Node pos="r" depth="1" NCoef="0" IVar="5" Cut="4.7414218139648438e+02" cType="1" res="1.3347432948648930e-02" rms="4.4941726326942444e-01" purity="5.7708632946014404e-01" nType="0">
          <Node pos="l" depth="2" NCoef="0" IVar="-1" Cut="0.0000000000000000e+00" cType="1" res="-1.0928952833637595e-03" rms="4.5496249198913574e-01" purity="4.5340740680694580e-01" nType="-99"/>
          <Node pos="r" depth="2" NCoef="0" IVar="-1" Cut="0.0000000000000000e+00" cType="1" res="1.3332860544323921e-03" rms="4.4166973233222961e-01" purity="6.4368176460266113e-01" nType="-99"/>
        </Node>
      </Node>
    </BinaryTree>
    <BinaryTree type="DecisionTree" boostWeight="1.0000000000000000e+00" itree="298">
      <Node pos="s" depth="0" NCoef="0" IVar="0" Cut="1.0994540452957153e+00" cType="1" res="-3.7823391612619162e-03" rms="4.4371381402015686e-01" purity="5.1016962528228760e-01" nType="0">
        <Node pos="l" depth="1" NCoef="0" IVar="6" Cut="1.3353202819824219e+02" cType="1" res="3.0288551002740860e-02" rms="4.4404724240303040e-01" purity="6.5184658765792847e-01" nType="0">
          <Node pos="l" depth="2" NCoef="0" IVar="-1" Cut="0.0000000000000000e+00" cType="1" res="1.1607550550252199e-03" rms="4.3898203969001770e-01" purity="6.6201227903366089e-01" nType="-99"/>
          <Node pos="r" depth="2" NCoef="0" IVar="-1" Cut="0.0000000000000000e+00" cType="1" res="-3.2025068067014217e-03" rms="4.5914810895919800e-01" purity="5.5137324333190918e-01" nType="-99"/>
        </Node>
        <Node pos="r" depth="1" NCoef="0" IVar="6" Cut="9.4577102661132812e+01" cType="1" res="-4.9660440534353256e-02" rms="4.3910756707191467e-01" purity="3.1939470767974854e-01" nType="0">
          <Node pos="l" depth="2" NCoef="0" IVar="-1" Cut="0.0000000000000000e+00" cType="1" res="-1.3926764950156212e-03" rms="4.2226552963256836e-01" purity="2.6530030369758606e-01" nType="-99"/>
          <Node pos="r" depth="2" NCoef="0" IVar="-1" Cut="0.0000000000000000e+00" cType="1" res="4.3059149174951017e-04" rms="4.6039324998855591e-01" purity="4.2084211111068726e-01" nType="-99"/>
        </Node>
      </Node>
    </BinaryTree>
    <BinaryTree type="DecisionTree" boostWeight="1.0000000000000000e+00" itree="299">
      <Node pos="s" depth="0" NCoef="0" IVar="6" Cut="7.5373657226562500e+01" cType="1" res="-2.6255534961819649e-02" rms="4.5000404119491577e-01" purity="4.9586832523345947e-01" nType="0">
        <Node pos="l" depth="1" NCoef="0" IVar="0" Cut="1.3691498041152954e+00" cType="1" res="-7.3532395064830780e-02" rms="4.5360121130943298e-01" purity="4.2125564813613892e-01" nType="0">
          <Node pos="l" depth="2" NCoef="0" IVar="-1" Cut="0.0000000000000000e+00" cType="1" res="-1.0106094414368272e-03" rms="4.7358298301696777e-01" purity="4.8394092917442322e-01" nType="-99"/>
          <Node pos="r" depth="2" NCoef="0" IVar="-1" Cut="0.0000000000000000e+00" cType="1" res="-2.4560997262597084e-03" rms="3.3173334598541260e-01" purity="1.3078482449054718e-01" nType="-99"/>
        </Node>
        <Node pos="r" depth="1" NCoef="0" IVar="3" Cut="1.0849665832519531e+02" cType="1" res="2.9487958177924156e-02" rms="4.3923616409301758e-01" purity="5.8384323120117188e-01" nType="0">
          <Node pos="l" depth="2" NCoef="0" IVar="-1" Cut="0.0000000000000000e+00" cType="1" res="-2.3274542763829231e-03" rms="4.5460343360900879e-01" purity="3.6246442794799805e-01" nType="-99"/>
          <Node pos="r" depth="2" NCoef="0" IVar="-1" Cut="0.0000000000000000e+00" cType="1" res="1.4212973183020949e-03" rms="4.3067088723182678e-01" purity="6.2157976627349854e-01" nType="-99"/>
        </Node>
      </Node>
    </BinaryTree>
    <BinaryTree type="DecisionTree" boostWeight="1.0000000000000000e+00" itree="300">
      <Node pos="s" depth="0" NCoef="0" IVar="2" Cut="9.4073206186294556e-01" cType="1" res="-2.1900758147239685e-02" rms="4.4392380118370056e-01" purity="4.9799492955207825e-01" nType="0">
        <Node pos="l" depth="1" NCoef="0" IVar="4" Cut="1.7801261901855469e+02" cType="1" res="-8.1554472446441650e-02" rms="4.4060200452804565e-01" purity="3.1543239951133728e-01" nType="0">
          <Node pos="l" depth="2" NCoef="0" IVar="-1" Cut="0.0000000000000000e+00" cType="1" res="-1.9535943865776062e-03" rms="4.4166553020477295e-01" purity="2.8086403012275696e-01" nType="-99"/>
          <Node pos="r" depth="2" NCoef="0" IVar="-1" Cut="0.0000000000000000e+00" cType="1" res="-7.4228562880307436e-04" rms="4.3611329793930054e-01" purity="3.4029588103294373e-01" nType="-99"/>
        </Node>
        <Node pos="r" depth="1" NCoef="0" IVar="3" Cut="1.3960653686523438e+02" cType="1" res="1.3199097476899624e-02" rms="4.4212138652801514e-01" purity="6.0541355609893799e-01" nType="0">
          <Node pos="l" depth="2" NCoef="0" IVar="-1" Cut="0.0000000000000000e+00" cType="1" res="7.8867789125069976e-04" rms="4.3912145495414734e-01" purity="6.3098978996276855e-01" nType="-99"/>
          <Node pos="r" depth="2" NCoef="0" IVar="-1" Cut="0.0000000000000000e+00" cType="1" res="-2.2834904957562685e-03" rms="4.4060885906219482e-01" purity="4.1817182302474976e-01" nType="-99"/>
        </Node>
      </Node>
    </BinaryTree>
    <BinaryTree type="DecisionTree" boostWeight="1.0000000000000000e+00" itree="301">
      <Node pos="s" depth="0" NCoef="0" IVar="8" Cut="2.5679709911346436e+00" cType="1" res="-1.5389321371912956e-02" rms="4.4497230648994446e-01" purity="5.0055068731307983e-01" nType="0">
        <Node pos="l" depth="1" NCoef="0" IVar="6" Cut="5.0956642150878906e+01" cType="1" res="6.3009918667376041e-03" rms="4.5670378208160400e-01" purity="5.6413620710372925e-01" nType="0">
          <Node pos="l" depth="2" NCoef="0" IVar="-1" Cut="0.0000000000000000e+00" cType="1" res="-1.4267949154600501e-03" rms="4.6239906549453735e-01" purity="4.1427040100097656e-01" nType="-99"/>
          <Node pos="r" depth="2" NCoef="0" IVar="-1" Cut="0.0000000000000000e+00" cType="1" res="1.0110459988936782e-03" rms="4.4935572147369385e-01" purity="6.2515789270401001e-01" nType="-99"/>
        </Node>
        <Node pos="r" depth="1" NCoef="0" IVar="-1" Cut="0.0000000000000000e+00" cType="1" res="-2.0890568848699331e-03" rms="3.5316061973571777e-01" purity="1.5759372711181641e-01" nType="-99"/>
      </Node>
    </BinaryTree>
    <BinaryTree type="DecisionTree" boostWeight="1.0000000000000000e+00" itree="302">
      <Node pos="s" depth="0" NCoef="0" IVar="8" Cut="2.3677670955657959e+00" cType="1" res="-1.2825698591768742e-02" rms="4.4690987467765808e-01" purity="5.1107209920883179e-01" nType="0">
        <Node pos="l" depth="1" NCoef="0" IVar="6" Cut="4.1637985229492188e+01" cType="1" res="1.7757309600710869e-02" rms="4.5467689633369446e-01" purity="6.0171973705291748e-01" nType="0">
          <Node pos="l" depth="2" NCoef="0" IVar="-1" Cut="0.0000000000000000e+00" cType="1" res="-1.7825250979512930e-03" rms="4.7065293788909912e-01" purity="4.0195730328559875e-01" nType="-99"/>
          <Node pos="r" depth="2" NCoef="0" IVar="-1" Cut="0.0000000000000000e+00" cType="1" res="9.6476892940700054e-04" rms="4.4817584753036499e-01" purity="6.3832837343215942e-01" nType="-99"/>
        </Node>
        <Node pos="r" depth="1" NCoef="0" IVar="4" Cut="2.1724275207519531e+02" cType="1" res="-9.4217300415039062e-02" rms="4.1470265388488770e-01" purity="2.6982855796813965e-01" nType="0">
          <Node pos="l" depth="2" NCoef="0" IVar="-1" Cut="0.0000000000000000e+00" cType="1" res="-2.4667580146342516e-03" rms="3.9020231366157532e-01" purity="2.2754667699337006e-01" nType="-99"/>
          <Node pos="r" depth="2" NCoef="0" IVar="-1" Cut="0.0000000000000000e+00" cType="1" res="-8.2833919441327453e-04" rms="4.2534920573234558e-01" purity="3.0031633377075195e-01" nType="-99"/>
        </Node>
      </Node>
    </BinaryTree>
    <BinaryTree type="DecisionTree" boostWeight="1.0000000000000000e+00" itree="303">
      <Node pos="s" depth="0" NCoef="0" IVar="4" Cut="3.7477294921875000e+02" cType="1" res="-2.6409750804305077e-02" rms="4.4304350018501282e-01" purity="4.8905026912689209e-01" nType="0">
        <Node pos="l" depth="1" NCoef="0" IVar="6" Cut="7.9900062561035156e+01" cType="1" res="-7.2853807359933853e-03" rms="4.4873949885368347e-01" purity="5.2806437015533447e-01" nType="0">
          <Node pos="l" depth="2" NCoef="0" IVar="-1" Cut="0.0000000000000000e+00" cType="1" res="-9.6627388847991824e-04" rms="4.5572394132614136e-01" purity="4.5044335722923279e-01" nType="-99"/>
          <Node pos="r" depth="2" NCoef="0" IVar="-1" Cut="0.0000000000000000e+00" cType="1" res="1.6584907425567508e-03" rms="4.2845582962036133e-01" purity="6.4849519729614258e-01" nType="-99"/>
        </Node>
        <Node pos="r" depth="1" NCoef="0" IVar="2" Cut="9.5454251766204834e-01" cType="1" res="-1.2745265662670135e-01" rms="3.9662027359008789e-01" purity="2.8292089700698853e-01" nType="0">
          <Node pos="l" depth="2" NCoef="0" IVar="-1" Cut="0.0000000000000000e+00" cType="1" res="-2.5565330870449543e-03" rms="3.5741925239562988e-01" purity="1.8419708311557770e-01" nType="-99"/>
          <Node pos="r" depth="2" NCoef="0" IVar="-1" Cut="0.0000000000000000e+00" cType="1" res="-9.8423438612371683e-04" rms="4.5443636178970337e-01" purity="4.7938683629035950e-01" nType="-99"/>
        </Node>
      </Node>
    </BinaryTree>
    <BinaryTree type="DecisionTree" boostWeight="1.0000000000000000e+00" itree="304">
      <Node pos="s" depth="0" NCoef="0" IVar="3" Cut="1.3045545959472656e+02" cType="1" res="-1.1667996644973755e-02" rms="4.4147130846977234e-01" purity="5.1348400115966797e-01" nType="0">
        <Node pos="l" depth="1" NCoef="0" IVar="8" Cut="2.2717254161834717e+00" cType="1" res="2.4511039257049561e-02" rms="4.3991535902023315e-01" purity="5.6115525960922241e-01" nType="0">
          <Node pos="l" depth="2" NCoef="0" IVar="-1" Cut="0.0000000000000000e+00" cType="1" res="1.7323592910543084e-03" rms="4.3402650952339172e-01" purity="6.6420620679855347e-01" nType="-99"/>
          <Node pos="r" depth="2" NCoef="0" IVar="-1" Cut="0.0000000000000000e+00" cType="1" res="-1.0364233748987317e-03" rms="4.3927639722824097e-01" purity="3.6037141084671021e-01" nType="-99"/>
        </Node>
        <Node pos="r" depth="1" NCoef="0" IVar="2" Cut="9.6121644973754883e-01" cType="1" res="-9.9346362054347992e-02" rms="4.3285188078880310e-01" purity="3.9795476198196411e-01" nType="0">
          <Node pos="l" depth="2" NCoef="0" IVar="-1" Cut="0.0000000000000000e+00" cType="1" res="-2.1980262827128172e-03" rms="4.2089021205902100e-01" purity="3.0271923542022705e-01" nType="-99"/>
          <Node pos="r" depth="2" NCoef="0" IVar="-1" Cut="0.0000000000000000e+00" cType="1" res="2.5890758843161166e-04" rms="4.4286251068115234e-01" purity="6.3512647151947021e-01" nType="-99"/>
        </Node>
      </Node>
    </BinaryTree>
    <BinaryTree type="DecisionTree" boostWeight="1.0000000000000000e+00" itree="305">
      <Node pos="s" depth="0" NCoef="0" IVar="1" Cut="3.7739233398437500e+02" cType="1" res="-5.2165188826620579e-03" rms="4.4470950961112976e-01" purity="5.1680666208267212e-01" nType="0">
        <Node pos="l" depth="1" NCoef="0" IVar="6" Cut="4.6715782165527344e+01" cType="1" res="-5.9839133173227310e-02" rms="4.3763545155525208e-01" purity="4.2024815082550049e-01" nType="0">
          <Node pos="l" depth="2" NCoef="0" IVar="-1" Cut="0.0000000000000000e+00" cType="1" res="-2.3595027159899473e-03" rms="4.2901879549026489e-01" purity="3.0520713329315186e-01" nType="-99"/>
          <Node pos="r" depth="2" NCoef="0" IVar="-1" Cut="0.0000000000000000e+00" cType="1" res="-3.4925850923173130e-04" rms="4.3550693988800049e-01" purity="4.7470125555992126e-01" nType="-99"/>
        </Node>
        <Node pos="r" depth="1" NCoef="0" IVar="3" Cut="1.0763102722167969e+02" cType="1" res="4.2030431330204010e-02" rms="4.4536781311035156e-01" purity="6.0032689571380615e-01" nType="0">
          <Node pos="l" depth="2" NCoef="0" IVar="-1" Cut="0.0000000000000000e+00" cType="1" res="-1.7444544937461615e-03" rms="4.5603641867637634e-01" purity="3.7051883339881897e-01" nType="-99"/>
          <Node pos="r" depth="2" NCoef="0" IVar="-1" Cut="0.0000000000000000e+00" cType="1" res="1.7495231004431844e-03" rms="4.3890634179115295e-01" purity="6.4017814397811890e-01" nType="-99"/>
        </Node>
      </Node>
    </BinaryTree>
    <BinaryTree type="DecisionTree" boostWeight="1.0000000000000000e+00" itree="306">
      <Node pos="s" depth="0" NCoef="0" IVar="6" Cut="5.5969295501708984e+01" cType="1" res="-2.2566422820091248e-02" rms="4.4736680388450623e-01" purity="5.0244623422622681e-01" nType="0">
        <Node pos="l" depth="1" NCoef="0" IVar="7" Cut="8.2848235964775085e-02" cType="1" res="-8.7408609688282013e-02" rms="4.6076607704162598e-01" purity="4.0596240758895874e-01" nType="0">
          <Node pos="l" depth="2" NCoef="0" IVar="-1" Cut="0.0000000000000000e+00" cType="1" res="-2.2390529047697783e-03" rms="4.3408456444740295e-01" purity="3.1528785824775696e-01" nType="-99"/>
          <Node pos="r" depth="2" NCoef="0" IVar="-1" Cut="0.0000000000000000e+00" cType="1" res="-9.5510785467922688e-04" rms="4.7707119584083557e-01" purity="4.7622141242027283e-01" nType="-99"/>
        </Node>
        <Node pos="r" depth="1" NCoef="0" IVar="2" Cut="9.4247168302536011e-01" cType="1" res="6.3735181465744972e-03" rms="4.3816903233528137e-01" purity="5.4550826549530029e-01" nType="0">
          <Node pos="l" depth="2" NCoef="0" IVar="-1" Cut="0.0000000000000000e+00" cType="1" res="-8.6445454508066177e-04" rms="4.4272127747535706e-01" purity="3.5999584197998047e-01" nType="-99"/>
          <Node pos="r" depth="2" NCoef="0" IVar="-1" Cut="0.0000000000000000e+00" cType="1" res="1.1656004935503006e-03" rms="4.3123251199722290e-01" purity="6.6642427444458008e-01" nType="-99"/>
        </Node>
      </Node>
    </BinaryTree>
    <BinaryTree type="DecisionTree" boostWeight="1.0000000000000000e+00" itree="307">
      <Node pos="s" depth="0" NCoef="0" IVar="0" Cut="1.2082600593566895e+00" cType="1" res="-2.2396562620997429e-02" rms="4.4120523333549500e-01" purity="4.9391078948974609e-01" nType="0">
        <Node pos="l" depth="1" NCoef="0" IVar="2" Cut="9.8130071163177490e-01" cType="1" res="7.7250748872756958e-03" rms="4.5274630188941956e-01" purity="6.1880928277969360e-01" nType="0">
          <Node pos="l" depth="2" NCoef="0" IVar="-1" Cut="0.0000000000000000e+00" cType="1" res="-1.3918688637204468e-04" rms="4.6394896507263184e-01" purity="5.8934247493743896e-01" nType="-99"/>
          <Node pos="r" depth="2" NCoef="0" IVar="-1" Cut="0.0000000000000000e+00" cType="1" res="6.7802476696670055e-03" rms="3.0516254901885986e-01" purity="8.8667613267898560e-01" nType="-99"/>
        </Node>
        <Node pos="r" depth="1" NCoef="0" IVar="2" Cut="9.5849281549453735e-01" cType="1" res="-7.9442113637924194e-02" rms="4.1249305009841919e-01" purity="2.5737318396568298e-01" nType="0">
          <Node pos="l" depth="2" NCoef="0" IVar="-1" Cut="0.0000000000000000e+00" cType="1" res="-1.6970201395452023e-03" rms="3.8426837325096130e-01" purity="1.8500134348869324e-01" nType="-99"/>
          <Node pos="r" depth="2" NCoef="0" IVar="-1" Cut="0.0000000000000000e+00" cType="1" res="-8.2385391579009593e-05" rms="4.6020302176475525e-01" purity="4.1754946112632751e-01" nType="-99"/>
        </Node>
      </Node>
    </BinaryTree>
    <BinaryTree type="DecisionTree" boostWeight="1.0000000000000000e+00" itree="308">
      <Node pos="s" depth="0" NCoef="0" IVar="5" Cut="4.6947631835937500e+02" cType="1" res="-1.8898237496614456e-02" rms="4.3824821710586548e-01" purity="4.9315184354782104e-01" nType="0">
        <Node pos="l" depth="1" NCoef="0" IVar="7" Cut="1.9075390696525574e-01" cType="1" res="-8.8423743844032288e-02" rms="4.3433845043182373e-01" purity="3.6849015951156616e-01" nType="0">
          <Node pos="l" depth="2" NCoef="0" IVar="-1" Cut="0.0000000000000000e+00" cType="1" res="-1.8876137910410762e-03" rms="4.2492356896400452e-01" purity="3.1796324253082275e-01" nType="-99"/>
          <Node pos="r" depth="2" NCoef="0" IVar="-1" Cut="0.0000000000000000e+00" cType="1" res="1.6358841676265001e-03" rms="4.5041972398757935e-01" purity="6.3503742218017578e-01" nType="-99"/>
        </Node>
        <Node pos="r" depth="1" NCoef="0" IVar="4" Cut="3.5492343139648438e+02" cType="1" res="1.6471553593873978e-02" rms="4.3598964810371399e-01" purity="5.5657106637954712e-01" nType="0">
          <Node pos="l" depth="2" NCoef="0" IVar="-1" Cut="0.0000000000000000e+00" cType="1" res="1.2098675360903144e-03" rms="4.3869772553443909e-01" purity="6.2415134906768799e-01" nType="-99"/>
          <Node pos="r" depth="2" NCoef="0" IVar="-1" Cut="0.0000000000000000e+00" cType="1" res="-1.6360033769160509e-03" rms="4.0822735428810120e-01" purity="3.3908626437187195e-01" nType="-99"/>
        </Node>
      </Node>
    </BinaryTree>
    <BinaryTree type="DecisionTree" boostWeight="1.0000000000000000e+00" itree="309">
      <Node pos="s" depth="0" NCoef="0" IVar="0" Cut="8.6198550462722778e-01" cType="1" res="-4.5577697455883026e-03" rms="4.4393581151962280e-01" purity="5.1177459955215454e-01" nType="0">
        <Node pos="l" depth="1" NCoef="0" IVar="0" Cut="4.5511707663536072e-01" cType="1" res="6.1456188559532166e-02" rms="4.4092661142349243e-01" purity="7.0809346437454224e-01" nType="0">
          <Node pos="l" depth="2" NCoef="0" IVar="-1" Cut="0.0000000000000000e+00" cType="1" res="-1.4680782333016396e-03" rms="4.7223711013793945e-01" purity="5.7152837514877319e-01" nType="-99"/>
          <Node pos="r" depth="2" NCoef="0" IVar="-1" Cut="0.0000000000000000e+00" cType="1" res="2.4959840811789036e-03" rms="4.3101304769515991e-01" purity="7.3286521434783936e-01" nType="-99"/>
        </Node>
        <Node pos="r" depth="1" NCoef="0" IVar="4" Cut="1.9639997863769531e+02" cType="1" res="-4.1239690035581589e-02" rms="4.4135195016860962e-01" purity="4.0268623828887939e-01" nType="0">
          <Node pos="l" depth="2" NCoef="0" IVar="-1" Cut="0.0000000000000000e+00" cType="1" res="-1.7525908770039678e-03" rms="4.3671107292175293e-01" purity="3.5520166158676147e-01" nType="-99"/>
          <Node pos="r" depth="2" NCoef="0" IVar="-1" Cut="0.0000000000000000e+00" cType="1" res="-6.8138433562126011e-05" rms="4.3984234333038330e-01" purity="4.3124571442604065e-01" nType="-99"/>
        </Node>
      </Node>
    </BinaryTree>
    <BinaryTree type="DecisionTree" boostWeight="1.0000000000000000e+00" itree="310">
      <Node pos="s" depth="0" NCoef="0" IVar="8" Cut="2.5783760547637939e+00" cType="1" res="-2.8550054877996445e-02" rms="4.4502076506614685e-01" purity="4.8908081650733948e-01" nType="0">
        <Node pos="l" depth="1" NCoef="0" IVar="6" Cut="8.6622695922851562e+01" cType="1" res="-1.2524668127298355e-02" rms="4.5417937636375427e-01" purity="5.3834640979766846e-01" nType="0">
          <Node pos="l" depth="2" NCoef="0" IVar="-1" Cut="0.0000000000000000e+00" cType="1" res="-9.2437583953142166e-04" rms="4.6278914809226990e-01" purity="4.6649676561355591e-01" nType="-99"/>
          <Node pos="r" depth="2" NCoef="0" IVar="-1" Cut="0.0000000000000000e+00" cType="1" res="1.6460878541693091e-03" rms="4.2784622311592102e-01" purity="6.7694681882858276e-01" nType="-99"/>
        </Node>
        <Node pos="r" depth="1" NCoef="0" IVar="-1" Cut="0.0000000000000000e+00" cType="1" res="-2.1896190010011196e-03" rms="3.6102482676506042e-01" purity="1.6198492050170898e-01" nType="-99"/>
      </Node>
    </BinaryTree>
    <BinaryTree type="DecisionTree" boostWeight="1.0000000000000000e+00" itree="311">
      <Node pos="s" depth="0" NCoef="0" IVar="8" Cut="2.3447067737579346e+00" cType="1" res="-3.8190133636817336e-04" rms="4.4127646088600159e-01" purity="5.1915329694747925e-01" nType="0">
        <Node pos="l" depth="1" NCoef="0" IVar="3" Cut="1.3816247558593750e+02" cType="1" res="3.5463571548461914e-02" rms="4.4937345385551453e-01" purity="6.3201791048049927e-01" nType="0">
          <Node pos="l" depth="2" NCoef="0" IVar="-1" Cut="0.0000000000000000e+00" cType="1" res="1.3153788167983294e-03" rms="4.4278946518898010e-01" purity="6.5145134925842285e-01" nType="-99"/>
          <Node pos="r" depth="2" NCoef="0" IVar="-1" Cut="0.0000000000000000e+00" cType="1" res="-1.7660140292719007e-03" rms="4.7660323977470398e-01" purity="4.9426215887069702e-01" nType="-99"/>
        </Node>
        <Node pos="r" depth="1" NCoef="0" IVar="1" Cut="4.2879290771484375e+02" cType="1" res="-7.8284718096256256e-02" rms="4.1254171729087830e-01" purity="2.7386510372161865e-01" nType="0">
          <Node pos="l" depth="2" NCoef="0" IVar="-1" Cut="0.0000000000000000e+00" cType="1" res="-1.8840327393263578e-03" rms="3.8919469714164734e-01" purity="2.3045380413532257e-01" nType="-99"/>
          <Node pos="r" depth="2" NCoef="0" IVar="-1" Cut="0.0000000000000000e+00" cType="1" res="-2.1083204046590254e-05" rms="4.4734039902687073e-01" purity="3.6373203992843628e-01" nType="-99"/>
        </Node>
      </Node>
    </BinaryTree>
    <BinaryTree type="DecisionTree" boostWeight="1.0000000000000000e+00" itree="312">
      <Node pos="s" depth="0" NCoef="0" IVar="8" Cut="2.1639275550842285e+00" cType="1" res="-3.3154524862766266e-02" rms="4.4511672854423523e-01" purity="4.8725488781929016e-01" nType="0">
        <Node pos="l" depth="1" NCoef="0" IVar="3" Cut="1.0999858093261719e+02" cType="1" res="6.2995189800858498e-03" rms="4.5041540265083313e-01" purity="5.9685325622558594e-01" nType="0">
          <Node pos="l" depth="2" NCoef="0" IVar="-1" Cut="0.0000000000000000e+00" cType="1" res="-1.7898513469845057e-03" rms="4.5498150587081909e-01" purity="4.3956843018531799e-01" nType="-99"/>
          <Node pos="r" depth="2" NCoef="0" IVar="-1" Cut="0.0000000000000000e+00" cType="1" res="7.7122572110965848e-04" rms="4.4548204541206360e-01" purity="6.3380753993988037e-01" nType="-99"/>
        </Node>
        <Node pos="r" depth="1" NCoef="0" IVar="2" Cut="9.6825599670410156e-01" cType="1" res="-7.3619134724140167e-02" rms="4.3592241406440735e-01" purity="3.7484925985336304e-01" nType="0">
          <Node pos="l" depth="2" NCoef="0" IVar="-1" Cut="0.0000000000000000e+00" cType="1" res="-1.6815507551655173e-03" rms="4.2863640189170837e-01" purity="3.0871954560279846e-01" nType="-99"/>
          <Node pos="r" depth="2" NCoef="0" IVar="-1" Cut="0.0000000000000000e+00" cType="1" res="9.3989056767895818e-04" rms="4.4572964310646057e-01" purity="6.2754464149475098e-01" nType="-99"/>
        </Node>
      </Node>
    </BinaryTree>
    <BinaryTree type="DecisionTree" boostWeight="1.0000000000000000e+00" itree="313">
      <Node pos="s" depth="0" NCoef="0" IVar="0" Cut="7.5041389465332031e-01" cType="1" res="-1.0603686794638634e-02" rms="4.4214993715286255e-01" purity="5.0780904293060303e-01" nType="0">
        <Node pos="l" depth="1" NCoef="0" IVar="3" Cut="1.1298615264892578e+02" cType="1" res="8.6219891905784607e-02" rms="4.2470729351043701e-01" purity="7.3457092046737671e-01" nType="0">
          <Node pos="l" depth="2" NCoef="0" IVar="-1" Cut="0.0000000000000000e+00" cType="1" res="-4.6387943439185619e-04" rms="4.6712574362754822e-01" purity="6.0656690597534180e-01" nType="-99"/>
          <Node pos="r" depth="2" NCoef="0" IVar="-1" Cut="0.0000000000000000e+00" cType="1" res="3.8352385163307190e-03" rms="4.0600290894508362e-01" purity="7.7243864536285400e-01" nType="-99"/>
        </Node>
        <Node pos="r" depth="1" NCoef="0" IVar="4" Cut="2.9533847045898438e+02" cType="1" res="-4.0799677371978760e-02" rms="4.4314396381378174e-01" purity="4.3708968162536621e-01" nType="0">
          <Node pos="l" depth="2" NCoef="0" IVar="-1" Cut="0.0000000000000000e+00" cType="1" res="-1.5767291188240051e-04" rms="4.5532357692718506e-01" purity="5.0167077779769897e-01" nType="-99"/>
          <Node pos="r" depth="2" NCoef="0" IVar="-1" Cut="0.0000000000000000e+00" cType="1" res="-1.7698816955089569e-03" rms="4.1027823090553284e-01" purity="3.0944538116455078e-01" nType="-99"/>
        </Node>
      </Node>
    </BinaryTree>
    <BinaryTree type="DecisionTree" boostWeight="1.0000000000000000e+00" itree="314">
      <Node pos="s" depth="0" NCoef="0" IVar="6" Cut="4.4013874053955078e+01" cType="1" res="3.3970195800065994e-03" rms="4.4757923483848572e-01" purity="5.2166378498077393e-01" nType="0">
        <Node pos="l" depth="1" NCoef="0" IVar="7" Cut="1.0328096896409988e-01" cType="1" res="-9.2519670724868774e-02" rms="4.5138916373252869e-01" purity="3.6762702465057373e-01" nType="0">
          <Node pos="l" depth="2" NCoef="0" IVar="-1" Cut="0.0000000000000000e+00" cType="1" res="-2.1968814544379711e-03" rms="4.3605184555053711e-01" purity="2.8217324614524841e-01" nType="-99"/>
          <Node pos="r" depth="2" NCoef="0" IVar="-1" Cut="0.0000000000000000e+00" cType="1" res="-5.5229640565812588e-04" rms="4.6575793623924255e-01" purity="4.9597939848899841e-01" nType="-99"/>
        </Node>
        <Node pos="r" depth="1" NCoef="0" IVar="3" Cut="1.3814707946777344e+02" cType="1" res="2.2113120183348656e-02" rms="4.4442474842071533e-01" purity="5.5172085762023926e-01" nType="0">
          <Node pos="l" depth="2" NCoef="0" IVar="-1" Cut="0.0000000000000000e+00" cType="1" res="8.8758347555994987e-04" rms="4.4398167729377747e-01" purity="5.7506984472274780e-01" nType="-99"/>
          <Node pos="r" depth="2" NCoef="0" IVar="-1" Cut="0.0000000000000000e+00" cType="1" res="-1.5051936497911811e-03" rms="4.3343332409858704e-01" purity="4.0931200981140137e-01" nType="-99"/>
        </Node>
      </Node>
    </BinaryTree>
    <BinaryTree type="DecisionTree" boostWeight="1.0000000000000000e+00" itree="315">
      <Node pos="s" depth="0" NCoef="0" IVar="6" Cut="1.0306224060058594e+02" cType="1" res="-2.1684067323803902e-02" rms="4.4621425867080688e-01" purity="4.9855411052703857e-01" nType="0">
        <Node pos="l" depth="1" NCoef="0" IVar="7" Cut="2.0560055971145630e-01" cType="1" res="-5.3864851593971252e-02" rms="4.4393402338027954e-01" purity="4.4928547739982605e-01" nType="0">
          <Node pos="l" depth="2" NCoef="0" IVar="-1" Cut="0.0000000000000000e+00" cType="1" res="-1.2175437295809388e-03" rms="4.4257736206054688e-01" purity="4.2571493983268738e-01" nType="-99"/>
          <Node pos="r" depth="2" NCoef="0" IVar="-1" Cut="0.0000000000000000e+00" cType="1" res="2.7957328129559755e-03" rms="4.2924934625625610e-01" purity="7.1435105800628662e-01" nType="-99"/>
        </Node>
        <Node pos="r" depth="1" NCoef="0" IVar="5" Cut="7.4378057861328125e+02" cType="1" res="7.6726108789443970e-02" rms="4.3870583176612854e-01" purity="6.4921969175338745e-01" nType="0">
          <Node pos="l" depth="2" NCoef="0" IVar="-1" Cut="0.0000000000000000e+00" cType="1" res="1.0488789994269609e-03" rms="4.4906070828437805e-01" purity="5.9351348876953125e-01" nType="-99"/>
          <Node pos="r" depth="2" NCoef="0" IVar="-1" Cut="0.0000000000000000e+00" cType="1" res="4.6604499220848083e-03" rms="4.1033467650413513e-01" purity="7.5425183773040771e-01" nType="-99"/>
        </Node>
      </Node>
    </BinaryTree>
    <BinaryTree type="DecisionTree" boostWeight="1.0000000000000000e+00" itree="316">
      <Node pos="s" depth="0" NCoef="0" IVar="3" Cut="1.0763102722167969e+02" cType="1" res="-1.2913949787616730e-02" rms="4.4543179869651794e-01" purity="5.0853538513183594e-01" nType="0">
        <Node pos="l" depth="1" NCoef="0" IVar="7" Cut="8.0708742141723633e-02" cType="1" res="-1.2973996996879578e-01" rms="4.3909388780593872e-01" purity="3.5226500034332275e-01" nType="0">
          <Node pos="l" depth="2" NCoef="0" IVar="-1" Cut="0.0000000000000000e+00" cType="1" res="-3.0294277239590883e-03" rms="4.2811280488967896e-01" purity="2.7556702494621277e-01" nType="-99"/>
          <Node pos="r" depth="2" NCoef="0" IVar="-1" Cut="0.0000000000000000e+00" cType="1" res="-8.4780855104327202e-04" rms="4.4282335042953491e-01" purity="4.7061550617218018e-01" nType="-99"/>
        </Node>
        <Node pos="r" depth="1" NCoef="0" IVar="3" Cut="1.3608352661132812e+02" cType="1" res="5.8916080743074417e-03" rms="4.4357782602310181e-01" purity="5.3369033336639404e-01" nType="0">
          <Node pos="l" depth="2" NCoef="0" IVar="-1" Cut="0.0000000000000000e+00" cType="1" res="6.1468570493161678e-04" rms="4.4134208559989929e-01" purity="5.6719762086868286e-01" nType="-99"/>
          <Node pos="r" depth="2" NCoef="0" IVar="-1" Cut="0.0000000000000000e+00" cType="1" res="-1.5520110027864575e-03" rms="4.4139900803565979e-01" purity="3.9734756946563721e-01" nType="-99"/>
        </Node>
      </Node>
    </BinaryTree>
    <BinaryTree type="DecisionTree" boostWeight="1.0000000000000000e+00" itree="317">
      <Node pos="s" depth="0" NCoef="0" IVar="2" Cut="9.2871975898742676e-01" cType="1" res="-4.2353145778179169e-02" rms="4.4049707055091858e-01" purity="4.7348675131797791e-01" nType="0">
        <Node pos="l" depth="1" NCoef="0" IVar="7" Cut="1.2014187872409821e-01" cType="1" res="-1.1913388222455978e-01" rms="4.0587604045867920e-01" purity="2.5094902515411377e-01" nType="0">
          <Node pos="l" depth="2" NCoef="0" IVar="-1" Cut="0.0000000000000000e+00" cType="1" res="-2.3087512236088514e-03" rms="3.7385344505310059e-01" purity="1.9416859745979309e-01" nType="-99"/>
          <Node pos="r" depth="2" NCoef="0" IVar="-1" Cut="0.0000000000000000e+00" cType="1" res="-2.3327344388235360e-04" rms="4.6627268195152283e-01" purity="4.0473496913909912e-01" nType="-99"/>
        </Node>
        <Node pos="r" depth="1" NCoef="0" IVar="3" Cut="1.3977375793457031e+02" cType="1" res="-2.0587060600519180e-02" rms="4.4743651151657104e-01" purity="5.3657257556915283e-01" nType="0">
          <Node pos="l" depth="2" NCoef="0" IVar="-1" Cut="0.0000000000000000e+00" cType="1" res="-9.1498128313105553e-05" rms="4.4820547103881836e-01" purity="5.6096243858337402e-01" nType="-99"/>
          <Node pos="r" depth="2" NCoef="0" IVar="-1" Cut="0.0000000000000000e+00" cType="1" res="-2.3473631590604782e-03" rms="4.2659920454025269e-01" purity="3.7497323751449585e-01" nType="-99"/>
        </Node>
      </Node>
    </BinaryTree>
    <BinaryTree type="DecisionTree" boostWeight="1.0000000000000000e+00" itree="318">
      <Node pos="s" depth="0" NCoef="0" IVar="2" Cut="9.6867448091506958e-01" cType="1" res="-2.5735722854733467e-02" rms="4.4478547573089600e-01" purity="4.9158668518066406e-01" nType="0">
        <Node pos="l" depth="1" NCoef="0" IVar="4" Cut="1.2064368438720703e+02" cType="1" res="-5.1651302725076675e-02" rms="4.5128631591796875e-01" purity="4.2568060755729675e-01" nType="0">
          <Node pos="l" depth="2" NCoef="0" IVar="-1" Cut="0.0000000000000000e+00" cType="1" res="-2.7612289413809776e-03" rms="4.1679304838180542e-01" purity="2.7755326032638550e-01" nType="-99"/>
          <Node pos="r" depth="2" NCoef="0" IVar="-1" Cut="0.0000000000000000e+00" cType="1" res="-7.4306689202785492e-04" rms="4.5267641544342041e-01" purity="4.3979892134666443e-01" nType="-99"/>
        </Node>
        <Node pos="r" depth="1" NCoef="0" IVar="6" Cut="8.2812667846679688e+01" cType="1" res="7.4416629970073700e-02" rms="4.0335628390312195e-01" purity="7.4628466367721558e-01" nType="0">
          <Node pos="l" depth="2" NCoef="0" IVar="-1" Cut="0.0000000000000000e+00" cType="1" res="6.9391174474731088e-04" rms="4.3800392746925354e-01" purity="6.6566425561904907e-01" nType="-99"/>
          <Node pos="r" depth="2" NCoef="0" IVar="-1" Cut="0.0000000000000000e+00" cType="1" res="6.8312943913042545e-03" rms="3.3702817559242249e-01" purity="8.5959011316299438e-01" nType="-99"/>
        </Node>
      </Node>
    </BinaryTree>
    <BinaryTree type="DecisionTree" boostWeight="1.0000000000000000e+00" itree="319">
      <Node pos="s" depth="0" NCoef="0" IVar="0" Cut="7.2110593318939209e-01" cType="1" res="-2.9582608491182327e-02" rms="4.4120389223098755e-01" purity="4.8015311360359192e-01" nType="0">
        <Node pos="l" depth="1" NCoef="0" IVar="6" Cut="5.4581130981445312e+01" cType="1" res="5.3934805095195770e-02" rms="4.3070814013481140e-01" purity="6.9662421941757202e-01" nType="0">
          <Node pos="l" depth="2" NCoef="0" IVar="-1" Cut="0.0000000000000000e+00" cType="1" res="-5.5306358262896538e-04" rms="4.6771058440208435e-01" purity="5.4428893327713013e-01" nType="-99"/>
          <Node pos="r" depth="2" NCoef="0" IVar="-1" Cut="0.0000000000000000e+00" cType="1" res="3.9155045524239540e-03" rms="3.9283236861228943e-01" purity="8.0255562067031860e-01" nType="-99"/>
        </Node>
        <Node pos="r" depth="1" NCoef="0" IVar="7" Cut="6.1255510896444321e-02" cType="1" res="-5.2325259894132614e-02" rms="4.4128930568695068e-01" purity="4.2120578885078430e-01" nType="0">
          <Node pos="l" depth="2" NCoef="0" IVar="-1" Cut="0.0000000000000000e+00" cType="1" res="-1.8050366779789329e-03" rms="4.1881445050239563e-01" purity="3.1226855516433716e-01" nType="-99"/>
          <Node pos="r" depth="2" NCoef="0" IVar="-1" Cut="0.0000000000000000e+00" cType="1" res="-2.0782250794582069e-04" rms="4.5315769314765930e-01" purity="5.0412219762802124e-01" nType="-99"/>
        </Node>
      </Node>
    </BinaryTree>
    <BinaryTree type="DecisionTree" boostWeight="1.0000000000000000e+00" itree="320">
      <Node pos="s" depth="0" NCoef="0" IVar="2" Cut="9.2372542619705200e-01" cType="1" res="-5.5835135281085968e-03" rms="4.4059744477272034e-01" purity="5.1743459701538086e-01" nType="0">
        <Node pos="l" depth="1" NCoef="0" IVar="-1" Cut="0.0000000000000000e+00" cType="1" res="-1.6946624964475632e-03" rms="4.0019264817237854e-01" purity="2.4644517898559570e-01" nType="-99"/>
        <Node pos="r" depth="1" NCoef="0" IVar="8" Cut="2.5215399265289307e+00" cType="1" res="1.3869697228074074e-02" rms="4.4509053230285645e-01" purity="5.6828421354293823e-01" nType="0">
          <Node pos="l" depth="2" NCoef="0" IVar="-1" Cut="0.0000000000000000e+00" cType="1" res="7.7144399983808398e-04" rms="4.4722345471382141e-01" purity="6.2570202350616455e-01" nType="-99"/>
          <Node pos="r" depth="2" NCoef="0" IVar="-1" Cut="0.0000000000000000e+00" cType="1" res="-1.5016841934993863e-03" rms="4.1722559928894043e-01" purity="2.3573876917362213e-01" nType="-99"/>
        </Node>
      </Node>
    </BinaryTree>
    <BinaryTree type="DecisionTree" boostWeight="1.0000000000000000e+00" itree="321">
      <Node pos="s" depth="0" NCoef="0" IVar="5" Cut="4.3880831909179688e+02" cType="1" res="-2.7717314660549164e-02" rms="4.4679662585258484e-01" purity="4.9572661519050598e-01" nType="0">
        <Node pos="l" depth="1" NCoef="0" IVar="8" Cut="2.2317607402801514e+00" cType="1" res="-1.0975011438131332e-01" rms="4.4354486465454102e-01" purity="3.5335978865623474e-01" nType="0">
          <Node pos="l" depth="2" NCoef="0" IVar="-1" Cut="0.0000000000000000e+00" cType="1" res="-1.3596781063824892e-03" rms="4.7897824645042419e-01" purity="4.6920624375343323e-01" nType="-99"/>
          <Node pos="r" depth="2" NCoef="0" IVar="-1" Cut="0.0000000000000000e+00" cType="1" res="-2.2940959315747023e-03" rms="3.9900830388069153e-01" purity="2.3098257184028625e-01" nType="-99"/>
        </Node>
        <Node pos="r" depth="1" NCoef="0" IVar="7" Cut="1.3371340930461884e-01" cType="1" res="-1.1246547801420093e-03" rms="4.4460892677307129e-01" purity="5.4187786579132080e-01" nType="0">
          <Node pos="l" depth="2" NCoef="0" IVar="-1" Cut="0.0000000000000000e+00" cType="1" res="-5.6000513723120093e-04" rms="4.4786083698272705e-01" purity="4.9564737081527710e-01" nType="-99"/>
          <Node pos="r" depth="2" NCoef="0" IVar="-1" Cut="0.0000000000000000e+00" cType="1" res="2.6748247910290956e-03" rms="4.1899442672729492e-01" purity="7.1018552780151367e-01" nType="-99"/>
        </Node>
      </Node>
    </BinaryTree>
    <BinaryTree type="DecisionTree" boostWeight="1.0000000000000000e+00" itree="322">
      <Node pos="s" depth="0" NCoef="0" IVar="2" Cut="9.4392269849777222e-01" cType="1" res="-1.6021585091948509e-02" rms="4.3900376558303833e-01" purity="5.0013720989227295e-01" nType="0">
        <Node pos="l" depth="1" NCoef="0" IVar="0" Cut="6.4083498716354370e-01" cType="1" res="-8.1646144390106201e-02" rms="4.2998823523521423e-01" purity="3.1512844562530518e-01" nType="0">
          <Node pos="l" depth="2" NCoef="0" IVar="-1" Cut="0.0000000000000000e+00" cType="1" res="7.9995754640549421e-04" rms="4.7336003184318542e-01" purity="5.7683217525482178e-01" nType="-99"/>
          <Node pos="r" depth="2" NCoef="0" IVar="-1" Cut="0.0000000000000000e+00" cType="1" res="-1.6182084800675511e-03" rms="4.1874966025352478e-01" purity="2.7097961306571960e-01" nType="-99"/>
        </Node>
        <Node pos="r" depth="1" NCoef="0" IVar="6" Cut="4.1961585998535156e+01" cType="1" res="3.0131442472338676e-02" rms="4.3940335512161255e-01" purity="6.3025182485580444e-01" nType="0">
          <Node pos="l" depth="2" NCoef="0" IVar="-1" Cut="0.0000000000000000e+00" cType="1" res="-1.8782932311296463e-03" rms="4.6043962240219116e-01" purity="4.2597427964210510e-01" nType="-99"/>
          <Node pos="r" depth="2" NCoef="0" IVar="-1" Cut="0.0000000000000000e+00" cType="1" res="1.3825392816215754e-03" rms="4.3171608448028564e-01" purity="6.6374278068542480e-01" nType="-99"/>
        </Node>
      </Node>
    </BinaryTree>
    <BinaryTree type="DecisionTree" boostWeight="1.0000000000000000e+00" itree="323">
      <Node pos="s" depth="0" NCoef="0" IVar="3" Cut="1.3697753906250000e+02" cType="1" res="-2.7030969038605690e-02" rms="4.5449304580688477e-01" purity="5.0039321184158325e-01" nType="0">
        <Node pos="l" depth="1" NCoef="0" IVar="2" Cut="9.3529886007308960e-01" cType="1" res="-1.2797224335372448e-02" rms="4.5091259479522705e-01" purity="5.1857900619506836e-01" nType="0">
          <Node pos="l" depth="2" NCoef="0" IVar="-1" Cut="0.0000000000000000e+00" cType="1" res="-1.2673974270001054e-03" rms="4.3749603629112244e-01" purity="3.0494067072868347e-01" nType="-99"/>
          <Node pos="r" depth="2" NCoef="0" IVar="-1" Cut="0.0000000000000000e+00" cType="1" res="4.0778744732961059e-04" rms="4.5314323902130127e-01" purity="6.0842061042785645e-01" nType="-99"/>
        </Node>
        <Node pos="r" depth="1" NCoef="0" IVar="5" Cut="5.8118426513671875e+02" cType="1" res="-1.0220927745103836e-01" rms="4.6579393744468689e-01" purity="4.0434154868125916e-01" nType="0">
          <Node pos="l" depth="2" NCoef="0" IVar="-1" Cut="0.0000000000000000e+00" cType="1" res="-4.7955728950910270e-04" rms="4.2842608690261841e-01" purity="4.2090883851051331e-01" nType="-99"/>
          <Node pos="r" depth="2" NCoef="0" IVar="-1" Cut="0.0000000000000000e+00" cType="1" res="-3.1982124783098698e-03" rms="4.8611798882484436e-01" purity="3.8975927233695984e-01" nType="-99"/>
        </Node>
      </Node>
    </BinaryTree>
    <BinaryTree type="DecisionTree" boostWeight="1.0000000000000000e+00" itree="324">
      <Node pos="s" depth="0" NCoef="0" IVar="2" Cut="9.6118295192718506e-01" cType="1" res="-8.2772206515073776e-03" rms="4.4017985463142395e-01" purity="5.1360571384429932e-01" nType="0">
        <Node pos="l" depth="1" NCoef="0" IVar="4" Cut="1.3556314086914062e+02" cType="1" res="-4.0333542972803116e-02" rms="4.4893246889114380e-01" purity="4.1756343841552734e-01" nType="0">
          <Node pos="l" depth="2" NCoef="0" IVar="-1" Cut="0.0000000000000000e+00" cType="1" res="-2.3150877095758915e-03" rms="4.2659100890159607e-01" purity="2.9907849431037903e-01" nType="-99"/>
          <Node pos="r" depth="2" NCoef="0" IVar="-1" Cut="0.0000000000000000e+00" cType="1" res="-3.8947959546931088e-04" rms="4.4944119453430176e-01" purity="4.3671664595603943e-01" nType="-99"/>
        </Node>
        <Node pos="r" depth="1" NCoef="0" IVar="8" Cut="1.9262026548385620e+00" cType="1" res="5.8559045195579529e-02" rms="4.1342875361442566e-01" purity="7.1385037899017334e-01" nType="0">
          <Node pos="l" depth="2" NCoef="0" IVar="-1" Cut="0.0000000000000000e+00" cType="1" res="6.5969466231763363e-03" rms="2.9999682307243347e-01" purity="8.6303746700286865e-01" nType="-99"/>
          <Node pos="r" depth="2" NCoef="0" IVar="-1" Cut="0.0000000000000000e+00" cType="1" res="1.0504006640985608e-03" rms="4.3029990792274475e-01" purity="6.8220716714859009e-01" nType="-99"/>
        </Node>
      </Node>
    </BinaryTree>
    <BinaryTree type="DecisionTree" boostWeight="1.0000000000000000e+00" itree="325">
      <Node pos="s" depth="0" NCoef="0" IVar="6" Cut="8.5066139221191406e+01" cType="1" res="-3.6216393113136292e-02" rms="4.4768407940864563e-01" purity="4.8833942413330078e-01" nType="0">
        <Node pos="l" depth="1" NCoef="0" IVar="8" Cut="1.9751874208450317e+00" cType="1" res="-6.7602954804897308e-02" rms="4.5320868492126465e-01" purity="4.3138217926025391e-01" nType="0">
          <Node pos="l" depth="2" NCoef="0" IVar="-1" Cut="0.0000000000000000e+00" cType="1" res="1.2368772877380252e-04" rms="4.6699213981628418e-01" purity="5.7259029150009155e-01" nType="-99"/>
          <Node pos="r" depth="2" NCoef="0" IVar="-1" Cut="0.0000000000000000e+00" cType="1" res="-1.7193868989124894e-03" rms="4.4320079684257507e-01" purity="3.6942628026008606e-01" nType="-99"/>
        </Node>
        <Node pos="r" depth="1" NCoef="0" IVar="8" Cut="2.2107200622558594e+00" cType="1" res="1.7458235844969749e-02" rms="4.3283253908157349e-01" purity="5.8574283123016357e-01" nType="0">
          <Node pos="l" depth="2" NCoef="0" IVar="-1" Cut="0.0000000000000000e+00" cType="1" res="3.0865196604281664e-03" rms="3.9730000495910645e-01" purity="7.8253555297851562e-01" nType="-99"/>
          <Node pos="r" depth="2" NCoef="0" IVar="-1" Cut="0.0000000000000000e+00" cType="1" res="-6.2508904375135899e-04" rms="4.4991478323936462e-01" purity="4.4697520136833191e-01" nType="-99"/>
        </Node>
      </Node>
    </BinaryTree>
    <BinaryTree type="DecisionTree" boostWeight="1.0000000000000000e+00" itree="326">
      <Node pos="s" depth="0" NCoef="0" IVar="2" Cut="9.2796629667282104e-01" cType="1" res="-2.8726080432534218e-02" rms="4.3993577361106873e-01" purity="4.8959478735923767e-01" nType="0">
        <Node pos="l" depth="1" NCoef="0" IVar="4" Cut="2.2603558349609375e+02" cType="1" res="-1.3089872896671295e-01" rms="4.0083166956901550e-01" purity="2.3121577501296997e-01" nType="0">
          <Node pos="l" depth="2" NCoef="0" IVar="-1" Cut="0.0000000000000000e+00" cType="1" res="-2.3886838462203741e-03" rms="3.9768984913825989e-01" purity="2.1414950489997864e-01" nType="-99"/>
          <Node pos="r" depth="2" NCoef="0" IVar="-1" Cut="0.0000000000000000e+00" cType="1" res="-1.0509304702281952e-03" rms="3.9685121178627014e-01" purity="2.5966018438339233e-01" nType="-99"/>
        </Node>
        <Node pos="r" depth="1" NCoef="0" IVar="8" Cut="2.5959012508392334e+00" cType="1" res="-2.5103690568357706e-03" rms="4.4566071033477783e-01" purity="5.5589032173156738e-01" nType="0">
          <Node pos="l" depth="2" NCoef="0" IVar="-1" Cut="0.0000000000000000e+00" cType="1" res="3.0292506562545896e-04" rms="4.4934961199760437e-01" purity="6.0214352607727051e-01" nType="-99"/>
          <Node pos="r" depth="2" NCoef="0" IVar="-1" Cut="0.0000000000000000e+00" cType="1" res="-1.8730998272076249e-03" rms="3.9644950628280640e-01" purity="1.9938372075557709e-01" nType="-99"/>
        </Node>
      </Node>
    </BinaryTree>
    <BinaryTree type="DecisionTree" boostWeight="1.0000000000000000e+00" itree="327">
      <Node pos="s" depth="0" NCoef="0" IVar="2" Cut="9.4155287742614746e-01" cType="1" res="-7.1547725237905979e-03" rms="4.4168716669082642e-01" purity="5.0939041376113892e-01" nType="0">
        <Node pos="l" depth="1" NCoef="0" IVar="3" Cut="1.2247192382812500e+02" cType="1" res="-6.1191048473119736e-02" rms="4.3825745582580566e-01" purity="3.2813516259193420e-01" nType="0">
          <Node pos="l" depth="2" NCoef="0" IVar="-1" Cut="0.0000000000000000e+00" cType="1" res="2.1977073629386723e-04" rms="4.6125665307044983e-01" purity="4.0861997008323669e-01" nType="-99"/>
          <Node pos="r" depth="2" NCoef="0" IVar="-1" Cut="0.0000000000000000e+00" cType="1" res="-1.6293504741042852e-03" rms="4.1743111610412598e-01" purity="2.7924209833145142e-01" nType="-99"/>
        </Node>
        <Node pos="r" depth="1" NCoef="0" IVar="6" Cut="4.5404270172119141e+01" cType="1" res="2.4765852838754654e-02" rms="4.4059792160987854e-01" purity="6.1646258831024170e-01" nType="0">
          <Node pos="l" depth="2" NCoef="0" IVar="-1" Cut="0.0000000000000000e+00" cType="1" res="-1.2161597842350602e-03" rms="4.7113555669784546e-01" purity="4.6587008237838745e-01" nType="-99"/>
          <Node pos="r" depth="2" NCoef="0" IVar="-1" Cut="0.0000000000000000e+00" cType="1" res="1.1291359551250935e-03" rms="4.3168562650680542e-01" purity="6.4778131246566772e-01" nType="-99"/>
        </Node>
      </Node>
    </BinaryTree>
    <BinaryTree type="DecisionTree" boostWeight="1.0000000000000000e+00" itree="328">
      <Node pos="s" depth="0" NCoef="0" IVar="0" Cut="8.3663445711135864e-01" cType="1" res="-1.4344779774546623e-02" rms="4.4402790069580078e-01" purity="5.0253546237945557e-01" nType="0">
        <Node pos="l" depth="1" NCoef="0" IVar="3" Cut="1.2352256774902344e+02" cType="1" res="4.0882650762796402e-02" rms="4.4402626156806946e-01" purity="6.9775950908660889e-01" nType="0">
          <Node pos="l" depth="2" NCoef="0" IVar="-1" Cut="0.0000000000000000e+00" cType="1" res="3.2833518926054239e-03" rms="4.1575679183006287e-01" purity="7.6368647813796997e-01" nType="-99"/>
          <Node pos="r" depth="2" NCoef="0" IVar="-1" Cut="0.0000000000000000e+00" cType="1" res="-2.1805975120514631e-04" rms="4.5878896117210388e-01" purity="6.4657384157180786e-01" nType="-99"/>
        </Node>
        <Node pos="r" depth="1" NCoef="0" IVar="2" Cut="9.5422416925430298e-01" cType="1" res="-4.1262578219175339e-02" rms="4.4153177738189697e-01" purity="4.0738341212272644e-01" nType="0">
          <Node pos="l" depth="2" NCoef="0" IVar="-1" Cut="0.0000000000000000e+00" cType="1" res="-1.2588838580995798e-03" rms="4.3368539214134216e-01" purity="2.9636642336845398e-01" nType="-99"/>
          <Node pos="r" depth="2" NCoef="0" IVar="-1" Cut="0.0000000000000000e+00" cType="1" res="4.2018250678665936e-04" rms="4.4707688689231873e-01" purity="5.8068066835403442e-01" nType="-99"/>
        </Node>
      </Node>
    </BinaryTree>
    <BinaryTree type="DecisionTree" boostWeight="1.0000000000000000e+00" itree="329">
      <Node pos="s" depth="0" NCoef="0" IVar="2" Cut="9.3942964076995850e-01" cType="1" res="-1.6691658645868301e-02" rms="4.4439098238945007e-01" purity="4.9460521340370178e-01" nType="0">
        <Node pos="l" depth="1" NCoef="0" IVar="4" Cut="3.1394195556640625e+02" cType="1" res="-6.8429075181484222e-02" rms="4.2878541350364685e-01" purity="3.1001982092857361e-01" nType="0">
          <Node pos="l" depth="2" NCoef="0" IVar="-1" Cut="0.0000000000000000e+00" cType="1" res="-6.9255247944965959e-04" rms="4.4960606098175049e-01" purity="3.5823917388916016e-01" nType="-99"/>
          <Node pos="r" depth="2" NCoef="0" IVar="-1" Cut="0.0000000000000000e+00" cType="1" res="-2.2821340244263411e-03" rms="3.4618246555328369e-01" purity="1.6374270617961884e-01" nType="-99"/>
        </Node>
        <Node pos="r" depth="1" NCoef="0" IVar="3" Cut="1.3966752624511719e+02" cType="1" res="1.3257419690489769e-02" rms="4.5047175884246826e-01" purity="6.0145562887191772e-01" nType="0">
          <Node pos="l" depth="2" NCoef="0" IVar="-1" Cut="0.0000000000000000e+00" cType="1" res="6.9363636430352926e-04" rms="4.4619926810264587e-01" purity="6.2133109569549561e-01" nType="-99"/>
          <Node pos="r" depth="2" NCoef="0" IVar="-1" Cut="0.0000000000000000e+00" cType="1" res="-2.1352635230869055e-03" rms="4.6687114238739014e-01" purity="4.4368135929107666e-01" nType="-99"/>
        </Node>
      </Node>
    </BinaryTree>
    <BinaryTree type="DecisionTree" boostWeight="1.0000000000000000e+00" itree="330">
      <Node pos="s" depth="0" NCoef="0" IVar="8" Cut="2.4907572269439697e+00" cType="1" res="-2.6121970266103745e-02" rms="4.5044952630996704e-01" purity="4.9633982777595520e-01" nType="0">
        <Node pos="l" depth="1" NCoef="0" IVar="3" Cut="1.3220700073242188e+02" cType="1" res="-8.8685797527432442e-03" rms="4.6299165487289429e-01" purity="5.6315070390701294e-01" nType="0">
          <Node pos="l" depth="2" NCoef="0" IVar="-1" Cut="0.0000000000000000e+00" cType="1" res="1.7561035929247737e-04" rms="4.6046546101570129e-01" purity="5.8603280782699585e-01" nType="-99"/>
          <Node pos="r" depth="2" NCoef="0" IVar="-1" Cut="0.0000000000000000e+00" cType="1" res="-1.1906219879165292e-03" rms="4.6693626046180725e-01" purity="4.9370869994163513e-01" nType="-99"/>
        </Node>
        <Node pos="r" depth="1" NCoef="0" IVar="2" Cut="9.4872564077377319e-01" cType="1" res="-1.0024547576904297e-01" rms="3.8329163193702698e-01" purity="2.0930892229080200e-01" nType="0">
          <Node pos="l" depth="2" NCoef="0" IVar="-1" Cut="0.0000000000000000e+00" cType="1" res="-2.2345022298395634e-03" rms="3.1344759464263916e-01" purity="1.1087475717067719e-01" nType="-99"/>
          <Node pos="r" depth="2" NCoef="0" IVar="-1" Cut="0.0000000000000000e+00" cType="1" res="-7.6842796988785267e-04" rms="4.6068057417869568e-01" purity="3.5181993246078491e-01" nType="-99"/>
        </Node>
      </Node>
    </BinaryTree>
    <BinaryTree type="DecisionTree" boostWeight="1.0000000000000000e+00" itree="331">
      <Node pos="s" depth="0" NCoef="0" IVar="0" Cut="5.5566751956939697e-01" cType="1" res="-2.2237583994865417e-02" rms="4.4464769959449768e-01" purity="4.9592798948287964e-01" nType="0">
        <Node pos="l" depth="1" NCoef="0" IVar="-1" Cut="0.0000000000000000e+00" cType="1" res="2.6062987744808197e-03" rms="4.0948885679244995e-01" purity="7.4967730045318604e-01" nType="-99"/>
        <Node pos="r" depth="1" NCoef="0" IVar="2" Cut="9.7366881370544434e-01" cType="1" res="-3.3956840634346008e-02" rms="4.4672134518623352e-01" purity="4.6843734383583069e-01" nType="0">
          <Node pos="l" depth="2" NCoef="0" IVar="-1" Cut="0.0000000000000000e+00" cType="1" res="-9.2650338774546981e-04" rms="4.5054423809051514e-01" purity="4.2040550708770752e-01" nType="-99"/>
          <Node pos="r" depth="2" NCoef="0" IVar="-1" Cut="0.0000000000000000e+00" cType="1" res="1.5426359605044127e-03" rms="4.1662573814392090e-01" purity="7.1760600805282593e-01" nType="-99"/>
        </Node>
      </Node>
    </BinaryTree>
    <BinaryTree type="DecisionTree" boostWeight="1.0000000000000000e+00" itree="332">
      <Node pos="s" depth="0" NCoef="0" IVar="5" Cut="4.1053433227539062e+02" cType="1" res="-4.8530589789152145e-02" rms="4.5035862922668457e-01" purity="4.7047397494316101e-01" nType="0">
        <Node pos="l" depth="1" NCoef="0" IVar="2" Cut="9.5896035432815552e-01" cType="1" res="-1.3505211472511292e-01" rms="4.1247302293777466e-01" purity="2.9460558295249939e-01" nType="0">
          <Node pos="l" depth="2" NCoef="0" IVar="-1" Cut="0.0000000000000000e+00" cType="1" res="-2.5339464191347361e-03" rms="3.8621401786804199e-01" purity="2.0066383481025696e-01" nType="-99"/>
          <Node pos="r" depth="2" NCoef="0" IVar="-1" Cut="0.0000000000000000e+00" cType="1" res="-8.9201517403125763e-04" rms="4.5912528038024902e-01" purity="5.3241157531738281e-01" nType="-99"/>
        </Node>
        <Node pos="r" depth="1" NCoef="0" IVar="7" Cut="1.2317815423011780e-01" cType="1" res="-3.0556743964552879e-02" rms="4.5578005909919739e-01" purity="5.0700861215591431e-01" nType="0">
          <Node pos="l" depth="2" NCoef="0" IVar="-1" Cut="0.0000000000000000e+00" cType="1" res="-1.0387570364400744e-03" rms="4.5225399732589722e-01" purity="4.5807573199272156e-01" nType="-99"/>
          <Node pos="r" depth="2" NCoef="0" IVar="-1" Cut="0.0000000000000000e+00" cType="1" res="7.7895814320072532e-04" rms="4.5954445004463196e-01" purity="6.3983619213104248e-01" nType="-99"/>
        </Node>
      </Node>
    </BinaryTree>
    <BinaryTree type="DecisionTree" boostWeight="1.0000000000000000e+00" itree="333">
      <Node pos="s" depth="0" NCoef="0" IVar="8" Cut="2.3514041900634766e+00" cType="1" res="-9.6498681232333183e-03" rms="4.4261825084686279e-01" purity="5.0542706251144409e-01" nType="0">
        <Node pos="l" depth="1" NCoef="0" IVar="6" Cut="4.7675685882568359e+01" cType="1" res="1.4186505228281021e-02" rms="4.4818347692489624e-01" purity="5.9645128250122070e-01" nType="0">
          <Node pos="l" depth="2" NCoef="0" IVar="-1" Cut="0.0000000000000000e+00" cType="1" res="-1.1406940175220370e-03" rms="4.6965524554252625e-01" purity="4.3054687976837158e-01" nType="-99"/>
          <Node pos="r" depth="2" NCoef="0" IVar="-1" Cut="0.0000000000000000e+00" cType="1" res="1.0208722669631243e-03" rms="4.3802884221076965e-01" purity="6.4959812164306641e-01" nType="-99"/>
        </Node>
        <Node pos="r" depth="1" NCoef="0" IVar="8" Cut="2.4291174411773682e+00" cType="1" res="-6.5520852804183960e-02" rms="4.2407253384590149e-01" purity="2.9207175970077515e-01" nType="0">
          <Node pos="l" depth="2" NCoef="0" IVar="-1" Cut="0.0000000000000000e+00" cType="1" res="-2.0033498294651508e-03" rms="4.3089833855628967e-01" purity="3.4099003672599792e-01" nType="-99"/>
          <Node pos="r" depth="2" NCoef="0" IVar="-1" Cut="0.0000000000000000e+00" cType="1" res="-8.1636005779728293e-04" rms="4.2010775208473206e-01" purity="2.7615669369697571e-01" nType="-99"/>
        </Node>
      </Node>
    </BinaryTree>
    <BinaryTree type="DecisionTree" boostWeight="1.0000000000000000e+00" itree="334">
      <Node pos="s" depth="0" NCoef="0" IVar="3" Cut="1.0145034027099609e+02" cType="1" res="-2.4892281740903854e-02" rms="4.4770598411560059e-01" purity="4.9351391196250916e-01" nType="0">
        <Node pos="l" depth="1" NCoef="0" IVar="-1" Cut="0.0000000000000000e+00" cType="1" res="-3.0150783713907003e-03" rms="3.8889354467391968e-01" purity="2.2217603027820587e-01" nType="-99"/>
        <Node pos="r" depth="1" NCoef="0" IVar="2" Cut="9.2580527067184448e-01" cType="1" res="-1.0143224149942398e-02" rms="4.4906550645828247e-01" purity="5.1594710350036621e-01" nType="0">
          <Node pos="l" depth="2" NCoef="0" IVar="-1" Cut="0.0000000000000000e+00" cType="1" res="-1.5896788099780679e-03" rms="4.1917338967323303e-01" purity="2.6375555992126465e-01" nType="-99"/>
          <Node pos="r" depth="2" NCoef="0" IVar="-1" Cut="0.0000000000000000e+00" cType="1" res="1.9937747856602073e-04" rms="4.5243626832962036e-01" purity="5.6652176380157471e-01" nType="-99"/>
        </Node>
      </Node>
    </BinaryTree>
    <BinaryTree type="DecisionTree" boostWeight="1.0000000000000000e+00" itree="335">
      <Node pos="s" depth="0" NCoef="0" IVar="3" Cut="1.0145034027099609e+02" cType="1" res="-3.5040531307458878e-02" rms="4.4119480252265930e-01" purity="4.8036038875579834e-01" nType="0">
        <Node pos="l" depth="1" NCoef="0" IVar="-1" Cut="0.0000000000000000e+00" cType="1" res="-2.5888490490615368e-03" rms="3.8496226072311401e-01" purity="2.2597801685333252e-01" nType="-99"/>
        <Node pos="r" depth="1" NCoef="0" IVar="0" Cut="1.4415274858474731e+00" cType="1" res="-2.1763039752840996e-02" rms="4.4410192966461182e-01" purity="5.0527453422546387e-01" nType="0">
          <Node pos="l" depth="2" NCoef="0" IVar="-1" Cut="0.0000000000000000e+00" cType="1" res="-5.4209991503739730e-05" rms="4.5563027262687683e-01" purity="5.7476800680160522e-01" nType="-99"/>
          <Node pos="r" depth="2" NCoef="0" IVar="-1" Cut="0.0000000000000000e+00" cType="1" res="-1.7319180769845843e-03" rms="3.7456798553466797e-01" purity="1.8741531670093536e-01" nType="-99"/>
        </Node>
      </Node>
    </BinaryTree>
    <BinaryTree type="DecisionTree" boostWeight="1.0000000000000000e+00" itree="336">
      <Node pos="s" depth="0" NCoef="0" IVar="5" Cut="4.5660751342773438e+02" cType="1" res="-2.5691520422697067e-02" rms="4.5010957121849060e-01" purity="4.9316710233688354e-01" nType="0">
        <Node pos="l" depth="1" NCoef="0" IVar="6" Cut="7.2888473510742188e+01" cType="1" res="-1.0233476012945175e-01" rms="4.5033299922943115e-01" purity="3.5731643438339233e-01" nType="0">
          <Node pos="l" depth="2" NCoef="0" IVar="-1" Cut="0.0000000000000000e+00" cType="1" res="-2.2342600859701633e-03" rms="4.3868473172187805e-01" purity="3.1847527623176575e-01" nType="-99"/>
          <Node pos="r" depth="2" NCoef="0" IVar="-1" Cut="0.0000000000000000e+00" cType="1" res="4.8540725401835516e-05" rms="4.6708321571350098e-01" purity="4.7026929259300232e-01" nType="-99"/>
        </Node>
        <Node pos="r" depth="1" NCoef="0" IVar="7" Cut="3.0939470976591110e-02" cType="1" res="7.4834544211626053e-03" rms="4.4594657421112061e-01" purity="5.5197000503540039e-01" nType="0">
          <Node pos="l" depth="2" NCoef="0" IVar="-1" Cut="0.0000000000000000e+00" cType="1" res="-1.5814033104106784e-03" rms="4.4903767108917236e-01" purity="3.7483283877372742e-01" nType="-99"/>
          <Node pos="r" depth="2" NCoef="0" IVar="-1" Cut="0.0000000000000000e+00" cType="1" res="7.6162407640367746e-04" rms="4.4188967347145081e-01" purity="5.9874862432479858e-01" nType="-99"/>
        </Node>
      </Node>
    </BinaryTree>
    <BinaryTree type="DecisionTree" boostWeight="1.0000000000000000e+00" itree="337">
      <Node pos="s" depth="0" NCoef="0" IVar="2" Cut="9.7760599851608276e-01" cType="1" res="-1.4537628740072250e-02" rms="4.4375762343406677e-01" purity="5.0616866350173950e-01" nType="0">
        <Node pos="l" depth="1" NCoef="0" IVar="1" Cut="3.8387088012695312e+02" cType="1" res="-2.9135607182979584e-02" rms="4.5040929317474365e-01" purity="4.7004953026771545e-01" nType="0">
          <Node pos="l" depth="2" NCoef="0" IVar="-1" Cut="0.0000000000000000e+00" cType="1" res="-1.1349719716235995e-03" rms="4.4522261619567871e-01" purity="3.9479056000709534e-01" nType="-99"/>
          <Node pos="r" depth="2" NCoef="0" IVar="-1" Cut="0.0000000000000000e+00" cType="1" res="1.3925135135650635e-04" rms="4.5275166630744934e-01" purity="5.4492467641830444e-01" nType="-99"/>
        </Node>
        <Node pos="r" depth="1" NCoef="0" IVar="6" Cut="6.3531627655029297e+01" cType="1" res="8.9603744447231293e-02" rms="3.7699389457702637e-01" purity="7.6384073495864868e-01" nType="0">
          <Node pos="l" depth="2" NCoef="0" IVar="-1" Cut="0.0000000000000000e+00" cType="1" res="1.2853798398282379e-04" rms="4.4457566738128662e-01" purity="6.3289040327072144e-01" nType="-99"/>
          <Node pos="r" depth="2" NCoef="0" IVar="-1" Cut="0.0000000000000000e+00" cType="1" res="6.4170677214860916e-03" rms="3.0702799558639526e-01" purity="8.5626792907714844e-01" nType="-99"/>
        </Node>
      </Node>
    </BinaryTree>
    <BinaryTree type="DecisionTree" boostWeight="1.0000000000000000e+00" itree="338">
      <Node pos="s" depth="0" NCoef="0" IVar="6" Cut="3.8437801361083984e+01" cType="1" res="-7.5341826304793358e-03" rms="4.4778111577033997e-01" purity="5.1922386884689331e-01" nType="0">
        <Node pos="l" depth="1" NCoef="0" IVar="-1" Cut="0.0000000000000000e+00" cType="1" res="-2.2653536871075630e-03" rms="4.4831410050392151e-01" purity="3.1363156437873840e-01" nType="-99"/>
        <Node pos="r" depth="1" NCoef="0" IVar="3" Cut="1.0118151855468750e+02" cType="1" res="6.9023780524730682e-03" rms="4.4535395503044128e-01" purity="5.4169070720672607e-01" nType="0">
          <Node pos="l" depth="2" NCoef="0" IVar="-1" Cut="0.0000000000000000e+00" cType="1" res="-2.3883376270532608e-03" rms="4.0188527107238770e-01" purity="2.7605667710304260e-01" nType="-99"/>
          <Node pos="r" depth="2" NCoef="0" IVar="-1" Cut="0.0000000000000000e+00" cType="1" res="4.5011946349404752e-04" rms="4.4635996222496033e-01" purity="5.6416761875152588e-01" nType="-99"/>
        </Node>
      </Node>
    </BinaryTree>
    <BinaryTree type="DecisionTree" boostWeight="1.0000000000000000e+00" itree="339">
      <Node pos="s" depth="0" NCoef="0" IVar="2" Cut="9.3621122837066650e-01" cType="1" res="-1.4647945761680603e-02" rms="4.4216978549957275e-01" purity="5.0201481580734253e-01" nType="0">
        <Node pos="l" depth="1" NCoef="0" IVar="6" Cut="5.4244293212890625e+01" cType="1" res="-7.6404154300689697e-02" rms="4.2509877681732178e-01" purity="3.0293306708335876e-01" nType="0">
          <Node pos="l" depth="2" NCoef="0" IVar="-1" Cut="0.0000000000000000e+00" cType="1" res="-2.2380657028406858e-03" rms="3.9626914262771606e-01" purity="2.0713995397090912e-01" nType="-99"/>
          <Node pos="r" depth="2" NCoef="0" IVar="-1" Cut="0.0000000000000000e+00" cType="1" res="-7.6277245534583926e-04" rms="4.3143495917320251e-01" purity="3.4001243114471436e-01" nType="-99"/>
        </Node>
        <Node pos="r" depth="1" NCoef="0" IVar="4" Cut="3.9903201293945312e+02" cType="1" res="1.3730649836361408e-02" rms="4.4694468379020691e-01" purity="5.9349811077117920e-01" nType="0">
          <Node pos="l" depth="2" NCoef="0" IVar="-1" Cut="0.0000000000000000e+00" cType="1" res="8.9936930453404784e-04" rms="4.4651156663894653e-01" purity="6.3304215669631958e-01" nType="-99"/>
          <Node pos="r" depth="2" NCoef="0" IVar="-1" Cut="0.0000000000000000e+00" cType="1" res="-2.1411501802504063e-03" rms="4.2220079898834229e-01" purity="3.2709202170372009e-01" nType="-99"/>
        </Node>
      </Node>
    </BinaryTree>
    <BinaryTree type="DecisionTree" boostWeight="1.0000000000000000e+00" itree="340">
      <Node pos="s" depth="0" NCoef="0" IVar="2" Cut="9.7792285680770874e-01" cType="1" res="-1.6539284959435463e-02" rms="4.4357481598854065e-01" purity="5.0228589773178101e-01" nType="0">
        <Node pos="l" depth="1" NCoef="0" IVar="6" Cut="1.0543533325195312e+02" cType="1" res="-3.2648947089910507e-02" rms="4.5348671078681946e-01" purity="4.6407473087310791e-01" nType="0">
          <Node pos="l" depth="2" NCoef="0" IVar="-1" Cut="0.0000000000000000e+00" cType="1" res="-9.5105450600385666e-04" rms="4.5429259538650513e-01" purity="4.2750293016433716e-01" nType="-99"/>
          <Node pos="r" depth="2" NCoef="0" IVar="-1" Cut="0.0000000000000000e+00" cType="1" res="6.6177931148558855e-04" rms="4.4558063149452209e-01" purity="5.7840669155120850e-01" nType="-99"/>
        </Node>
        <Node pos="r" depth="1" NCoef="0" IVar="4" Cut="2.2994169616699219e+02" cType="1" res="9.3396350741386414e-02" rms="3.4960523247718811e-01" purity="7.6304680109024048e-01" nType="0">
          <Node pos="l" depth="2" NCoef="0" IVar="-1" Cut="0.0000000000000000e+00" cType="1" res="8.0965608358383179e-03" rms="2.8158208727836609e-01" purity="8.7522619962692261e-01" nType="-99"/>
          <Node pos="r" depth="2" NCoef="0" IVar="-1" Cut="0.0000000000000000e+00" cType="1" res="-6.1976847064215690e-05" rms="3.9799171686172485e-01" purity="6.2504875659942627e-01" nType="-99"/>
        </Node>
      </Node>
    </BinaryTree>
    <BinaryTree type="DecisionTree" boostWeight="1.0000000000000000e+00" itree="341">
      <Node pos="s" depth="0" NCoef="0" IVar="4" Cut="4.7833950805664062e+02" cType="1" res="-1.1840695515275002e-02" rms="4.3956086039543152e-01" purity="5.0386750698089600e-01" nType="0">
        <Node pos="l" depth="1" NCoef="0" IVar="6" Cut="5.6150733947753906e+01" cType="1" res="1.4718264574185014e-03" rms="4.4233962893486023e-01" purity="5.2894216775894165e-01" nType="0">
          <Node pos="l" depth="2" NCoef="0" IVar="-1" Cut="0.0000000000000000e+00" cType="1" res="-1.0952813317999244e-03" rms="4.4941756129264832e-01" purity="4.1577821969985962e-01" nType="-99"/>
          <Node pos="r" depth="2" NCoef="0" IVar="-1" Cut="0.0000000000000000e+00" cType="1" res="7.1727723116055131e-04" rms="4.3583312630653381e-01" purity="5.8292162418365479e-01" nType="-99"/>
        </Node>
        <Node pos="r" depth="1" NCoef="0" IVar="-1" Cut="0.0000000000000000e+00" cType="1" res="-2.4707817938178778e-03" rms="3.7706333398818970e-01" purity="2.2541506588459015e-01" nType="-99"/>
      </Node>
    </BinaryTree>
    <BinaryTree type="DecisionTree" boostWeight="1.0000000000000000e+00" itree="342">
      <Node pos="s" depth="0" NCoef="0" IVar="8" Cut="2.3447067737579346e+00" cType="1" res="-2.3776600137352943e-02" rms="4.3969252705574036e-01" purity="4.8776280879974365e-01" nType="0">
        <Node pos="l" depth="1" NCoef="0" IVar="3" Cut="1.0555178833007812e+02" cType="1" res="7.3396177031099796e-03" rms="4.5429584383964539e-01" purity="5.8898448944091797e-01" nType="0">
          <Node pos="l" depth="2" NCoef="0" IVar="-1" Cut="0.0000000000000000e+00" cType="1" res="-2.1655037999153137e-03" rms="4.5719277858734131e-01" purity="3.5995116829872131e-01" nType="-99"/>
          <Node pos="r" depth="2" NCoef="0" IVar="-1" Cut="0.0000000000000000e+00" cType="1" res="6.2815088313072920e-04" rms="4.5040628314018250e-01" purity="6.1982697248458862e-01" nType="-99"/>
        </Node>
        <Node pos="r" depth="1" NCoef="0" IVar="2" Cut="9.3931823968887329e-01" cType="1" res="-9.4707436859607697e-02" rms="3.9538753032684326e-01" purity="2.5702324509620667e-01" nType="0">
          <Node pos="l" depth="2" NCoef="0" IVar="-1" Cut="0.0000000000000000e+00" cType="1" res="-2.3850423749536276e-03" rms="3.0620992183685303e-01" purity="1.0789637267589569e-01" nType="-99"/>
          <Node pos="r" depth="2" NCoef="0" IVar="-1" Cut="0.0000000000000000e+00" cType="1" res="-7.4837997090071440e-04" rms="4.5038485527038574e-01" purity="3.8169959187507629e-01" nType="-99"/>
        </Node>
      </Node>
    </BinaryTree>
    <BinaryTree type="DecisionTree" boostWeight="1.0000000000000000e+00" itree="343">
      <Node pos="s" depth="0" NCoef="0" IVar="0" Cut="1.0202592611312866e+00" cType="1" res="-1.0888656601309776e-02" rms="4.4012534618377686e-01" purity="5.0928467512130737e-01" nType="0">
        <Node pos="l" depth="1" NCoef="0" IVar="6" Cut="9.4367485046386719e+01" cType="1" res="2.9828215017914772e-02" rms="4.4521489739418030e-01" purity="6.7373168468475342e-01" nType="0">
          <Node pos="l" depth="2" NCoef="0" IVar="-1" Cut="0.0000000000000000e+00" cType="1" res="1.5836785314604640e-04" rms="4.6804928779602051e-01" purity="6.1534738540649414e-01" nType="-99"/>
          <Node pos="r" depth="2" NCoef="0" IVar="-1" Cut="0.0000000000000000e+00" cType="1" res="4.0555312298238277e-03" rms="3.6688843369483948e-01" purity="8.3641880750656128e-01" nType="-99"/>
        </Node>
        <Node pos="r" depth="1" NCoef="0" IVar="6" Cut="5.2671863555908203e+01" cType="1" res="-5.1846753805875778e-02" rms="4.3108278512954712e-01" purity="3.4386348724365234e-01" nType="0">
          <Node pos="l" depth="2" NCoef="0" IVar="-1" Cut="0.0000000000000000e+00" cType="1" res="-2.1867565810680389e-03" rms="3.9617872238159180e-01" purity="2.1326178312301636e-01" nType="-99"/>
          <Node pos="r" depth="2" NCoef="0" IVar="-1" Cut="0.0000000000000000e+00" cType="1" res="-4.7399773029610515e-04" rms="4.3726795911788940e-01" purity="3.8108348846435547e-01" nType="-99"/>
        </Node>
      </Node>
    </BinaryTree>
    <BinaryTree type="DecisionTree" boostWeight="1.0000000000000000e+00" itree="344">
      <Node pos="s" depth="0" NCoef="0" IVar="8" Cut="2.1617901325225830e+00" cType="1" res="-2.3278854496311396e-04" rms="4.4290676712989807e-01" purity="5.1925981044769287e-01" nType="0">
        <Node pos="l" depth="1" NCoef="0" IVar="4" Cut="1.2787471771240234e+02" cType="1" res="4.7092393040657043e-02" rms="4.4516554474830627e-01" purity="6.5433776378631592e-01" nType="0">
          <Node pos="l" depth="2" NCoef="0" IVar="-1" Cut="0.0000000000000000e+00" cType="1" res="-1.7775632441043854e-03" rms="4.7105234861373901e-01" purity="4.6022135019302368e-01" nType="-99"/>
          <Node pos="r" depth="2" NCoef="0" IVar="-1" Cut="0.0000000000000000e+00" cType="1" res="1.9372410606592894e-03" rms="4.3566516041755676e-01" purity="6.8790179491043091e-01" nType="-99"/>
        </Node>
        <Node pos="r" depth="1" NCoef="0" IVar="2" Cut="9.7136306762695312e-01" cType="1" res="-4.3566942214965820e-02" rms="4.3634960055351257e-01" purity="3.9557331800460815e-01" nType="0">
          <Node pos="l" depth="2" NCoef="0" IVar="-1" Cut="0.0000000000000000e+00" cType="1" res="-1.1841460363939404e-03" rms="4.3934324383735657e-01" purity="3.4471175074577332e-01" nType="-99"/>
          <Node pos="r" depth="2" NCoef="0" IVar="-1" Cut="0.0000000000000000e+00" cType="1" res="2.5105425156652927e-03" rms="3.9395150542259216e-01" purity="6.7690747976303101e-01" nType="-99"/>
        </Node>
      </Node>
    </BinaryTree>
    <BinaryTree type="DecisionTree" boostWeight="1.0000000000000000e+00" itree="345">
      <Node pos="s" depth="0" NCoef="0" IVar="6" Cut="5.3928260803222656e+01" cType="1" res="-1.3312868773937225e-02" rms="4.4264355301856995e-01" purity="5.0830471515655518e-01" nType="0">
        <Node pos="l" depth="1" NCoef="0" IVar="0" Cut="1.1667881011962891e+00" cType="1" res="-7.1567431092262268e-02" rms="4.3537980318069458e-01" purity="3.9667773246765137e-01" nType="0">
          <Node pos="l" depth="2" NCoef="0" IVar="-1" Cut="0.0000000000000000e+00" cType="1" res="-4.1979388333857059e-04" rms="4.7063693404197693e-01" purity="5.2854597568511963e-01" nType="-99"/>
          <Node pos="r" depth="2" NCoef="0" IVar="-1" Cut="0.0000000000000000e+00" cType="1" res="-2.5433988776057959e-03" rms="3.3601045608520508e-01" purity="1.3905847072601318e-01" nType="-99"/>
        </Node>
        <Node pos="r" depth="1" NCoef="0" IVar="4" Cut="1.3549385070800781e+02" cType="1" res="1.1462491005659103e-02" rms="4.4338315725326538e-01" purity="5.5577909946441650e-01" nType="0">
          <Node pos="l" depth="2" NCoef="0" IVar="-1" Cut="0.0000000000000000e+00" cType="1" res="-2.1301328670233488e-03" rms="4.3941438198089600e-01" purity="4.1224771738052368e-01" nType="-99"/>
          <Node pos="r" depth="2" NCoef="0" IVar="-1" Cut="0.0000000000000000e+00" cType="1" res="5.6571117602288723e-04" rms="4.4168126583099365e-01" purity="5.6983351707458496e-01" nType="-99"/>
        </Node>
      </Node>
    </BinaryTree>
    <BinaryTree type="DecisionTree" boostWeight="1.0000000000000000e+00" itree="346">
      <Node pos="s" depth="0" NCoef="0" IVar="7" Cut="8.6472883820533752e-02" cType="1" res="-2.3032475262880325e-02" rms="4.4609877467155457e-01" purity="4.9693664908409119e-01" nType="0">
        <Node pos="l" depth="1" NCoef="0" IVar="2" Cut="9.4850450754165649e-01" cType="1" res="-6.3346609473228455e-02" rms="4.4271367788314819e-01" purity="4.1452482342720032e-01" nType="0">
          <Node pos="l" depth="2" NCoef="0" IVar="-1" Cut="0.0000000000000000e+00" cType="1" res="-1.6812827670946717e-03" rms="4.2913204431533813e-01" purity="2.8765681385993958e-01" nType="-99"/>
          <Node pos="r" depth="2" NCoef="0" IVar="-1" Cut="0.0000000000000000e+00" cType="1" res="-4.8566458281129599e-04" rms="4.5311167836189270e-01" purity="5.5021691322326660e-01" nType="-99"/>
        </Node>
        <Node pos="r" depth="1" NCoef="0" IVar="5" Cut="4.4734088134765625e+02" cType="1" res="2.6932857930660248e-02" rms="4.4522163271903992e-01" purity="5.9907776117324829e-01" nType="0">
          <Node pos="l" depth="2" NCoef="0" IVar="-1" Cut="0.0000000000000000e+00" cType="1" res="-7.8290613600984216e-04" rms="4.5456185936927795e-01" purity="4.6495348215103149e-01" nType="-99"/>
          <Node pos="r" depth="2" NCoef="0" IVar="-1" Cut="0.0000000000000000e+00" cType="1" res="1.7614023527130485e-03" rms="4.3546062707901001e-01" purity="6.7297971248626709e-01" nType="-99"/>
        </Node>
      </Node>
    </BinaryTree>
    <BinaryTree type="DecisionTree" boostWeight="1.0000000000000000e+00" itree="347">
      <Node pos="s" depth="0" NCoef="0" IVar="0" Cut="1.0076739788055420e+00" cType="1" res="-9.4166100025177002e-03" rms="4.3721383810043335e-01" purity="5.0832188129425049e-01" nType="0">
        <Node pos="l" depth="1" NCoef="0" IVar="6" Cut="3.9857551574707031e+01" cType="1" res="4.3139103800058365e-02" rms="4.3464699387550354e-01" purity="6.8885326385498047e-01" nType="0">
          <Node pos="l" depth="2" NCoef="0" IVar="-1" Cut="0.0000000000000000e+00" cType="1" res="-2.1093413233757019e-03" rms="4.5404836535453796e-01" purity="3.6778837442398071e-01" nType="-99"/>
          <Node pos="r" depth="2" NCoef="0" IVar="-1" Cut="0.0000000000000000e+00" cType="1" res="2.0838929340243340e-03" rms="4.2563205957412720e-01" purity="7.3592948913574219e-01" nType="-99"/>
        </Node>
        <Node pos="r" depth="1" NCoef="0" IVar="6" Cut="5.9046848297119141e+01" cType="1" res="-5.9463471174240112e-02" rms="4.3376502394676208e-01" purity="3.3640846610069275e-01" nType="0">
          <Node pos="l" depth="2" NCoef="0" IVar="-1" Cut="0.0000000000000000e+00" cType="1" res="-2.0068180747330189e-03" rms="4.0139561891555786e-01" purity="2.2792153060436249e-01" nType="-99"/>
          <Node pos="r" depth="2" NCoef="0" IVar="-1" Cut="0.0000000000000000e+00" cType="1" res="-5.1912304479628801e-04" rms="4.4362339377403259e-01" purity="3.8348627090454102e-01" nType="-99"/>
        </Node>
      </Node>
    </BinaryTree>
    <BinaryTree type="DecisionTree" boostWeight="1.0000000000000000e+00" itree="348">
      <Node pos="s" depth="0" NCoef="0" IVar="3" Cut="1.3945716857910156e+02" cType="1" res="-2.0859207957983017e-02" rms="4.4060719013214111e-01" purity="4.9999472498893738e-01" nType="0">
        <Node pos="l" depth="1" NCoef="0" IVar="3" Cut="1.1064982604980469e+02" cType="1" res="-7.8430799767374992e-03" rms="4.4241875410079956e-01" purity="5.2073442935943604e-01" nType="0">
          <Node pos="l" depth="2" NCoef="0" IVar="-1" Cut="0.0000000000000000e+00" cType="1" res="-1.5067753847688437e-03" rms="4.4492128491401672e-01" purity="3.8400939106941223e-01" nType="-99"/>
          <Node pos="r" depth="2" NCoef="0" IVar="-1" Cut="0.0000000000000000e+00" cType="1" res="2.6153036742471159e-04" rms="4.3957820534706116e-01" purity="5.5696445703506470e-01" nType="-99"/>
        </Node>
        <Node pos="r" depth="1" NCoef="0" IVar="-1" Cut="0.0000000000000000e+00" cType="1" res="-2.0641759037971497e-03" rms="4.1426861286163330e-01" purity="3.4580573439598083e-01" nType="-99"/>
      </Node>
    </BinaryTree>
    <BinaryTree type="DecisionTree" boostWeight="1.0000000000000000e+00" itree="349">
      <Node pos="s" depth="0" NCoef="0" IVar="4" Cut="3.8774401855468750e+02" cType="1" res="-1.3972784392535686e-02" rms="4.4641870260238647e-01" purity="5.0495207309722900e-01" nType="0">
        <Node pos="l" depth="1" NCoef="0" IVar="5" Cut="8.0876470947265625e+02" cType="1" res="2.1097485441714525e-03" rms="4.5248219370841980e-01" purity="5.4227864742279053e-01" nType="0">
          <Node pos="l" depth="2" NCoef="0" IVar="-1" Cut="0.0000000000000000e+00" cType="1" res="-2.2391343372873962e-04" rms="4.5553386211395264e-01" purity="5.1984214782714844e-01" nType="-99"/>
          <Node pos="r" depth="2" NCoef="0" IVar="-1" Cut="0.0000000000000000e+00" cType="1" res="6.0122851282358170e-03" rms="3.8689711689949036e-01" purity="7.9991036653518677e-01" nType="-99"/>
        </Node>
        <Node pos="r" depth="1" NCoef="0" IVar="4" Cut="4.7016229248046875e+02" cType="1" res="-1.1138945817947388e-01" rms="3.9397689700126648e-01" purity="2.7885362505912781e-01" nType="0">
          <Node pos="l" depth="2" NCoef="0" IVar="-1" Cut="0.0000000000000000e+00" cType="1" res="-1.4752455754205585e-03" rms="3.8604649901390076e-01" purity="3.1666758656501770e-01" nType="-99"/>
          <Node pos="r" depth="2" NCoef="0" IVar="-1" Cut="0.0000000000000000e+00" cType="1" res="-2.1888474002480507e-03" rms="3.9839944243431091e-01" purity="2.4817256629467010e-01" nType="-99"/>
        </Node>
      </Node>
    </BinaryTree>
    <BinaryTree type="DecisionTree" boostWeight="1.0000000000000000e+00" itree="350">
      <Node pos="s" depth="0" NCoef="0" IVar="2" Cut="9.7382831573486328e-01" cType="1" res="-3.9598122239112854e-02" rms="4.4175878167152405e-01" purity="4.7747468948364258e-01" nType="0">
        <Node pos="l" depth="1" NCoef="0" IVar="0" Cut="6.3824397325515747e-01" cType="1" res="-5.7369232177734375e-02" rms="4.4732177257537842e-01" purity="4.2885354161262512e-01" nType="0">
          <Node pos="l" depth="2" NCoef="0" IVar="-1" Cut="0.0000000000000000e+00" cType="1" res="6.4184039365500212e-04" rms="4.5404079556465149e-01" purity="6.5467822551727295e-01" nType="-99"/>
          <Node pos="r" depth="2" NCoef="0" IVar="-1" Cut="0.0000000000000000e+00" cType="1" res="-1.3123808894306421e-03" rms="4.4436907768249512e-01" purity="3.8746687769889832e-01" nType="-99"/>
        </Node>
        <Node pos="r" depth="1" NCoef="0" IVar="6" Cut="6.3238876342773438e+01" cType="1" res="5.3404945880174637e-02" rms="3.9870339632034302e-01" purity="7.3192769289016724e-01" nType="0">
          <Node pos="l" depth="2" NCoef="0" IVar="-1" Cut="0.0000000000000000e+00" cType="1" res="-2.1181127522140741e-03" rms="4.6666237711906433e-01" purity="5.5971598625183105e-01" nType="-99"/>
          <Node pos="r" depth="2" NCoef="0" IVar="-1" Cut="0.0000000000000000e+00" cType="1" res="7.3512610979378223e-03" rms="2.9198083281517029e-01" purity="8.6767297983169556e-01" nType="-99"/>
        </Node>
      </Node>
    </BinaryTree>
    <BinaryTree type="DecisionTree" boostWeight="1.0000000000000000e+00" itree="351">
      <Node pos="s" depth="0" NCoef="0" IVar="8" Cut="2.4482057094573975e+00" cType="1" res="-1.8688900396227837e-02" rms="4.4214558601379395e-01" purity="4.9563223123550415e-01" nType="0">
        <Node pos="l" depth="1" NCoef="0" IVar="6" Cut="8.0235931396484375e+01" cType="1" res="1.1621448211371899e-03" rms="4.5273926854133606e-01" purity="5.7152324914932251e-01" nType="0">
          <Node pos="l" depth="2" NCoef="0" IVar="-1" Cut="0.0000000000000000e+00" cType="1" res="-5.6775700068101287e-04" rms="4.6695718169212341e-01" purity="4.9703019857406616e-01" nType="-99"/>
          <Node pos="r" depth="2" NCoef="0" IVar="-1" Cut="0.0000000000000000e+00" cType="1" res="1.4211765956133604e-03" rms="4.2497253417968750e-01" purity="6.8852406740188599e-01" nType="-99"/>
        </Node>
        <Node pos="r" depth="1" NCoef="0" IVar="3" Cut="1.2791884613037109e+02" cType="1" res="-8.8723726570606232e-02" rms="3.9465364813804626e-01" purity="2.2788752615451813e-01" nType="0">
          <Node pos="l" depth="2" NCoef="0" IVar="-1" Cut="0.0000000000000000e+00" cType="1" res="-9.1326638357713819e-04" rms="4.1693148016929626e-01" purity="2.7250936627388000e-01" nType="-99"/>
          <Node pos="r" depth="2" NCoef="0" IVar="-1" Cut="0.0000000000000000e+00" cType="1" res="-2.2402582690119743e-03" rms="3.5524502396583557e-01" purity="1.6585369408130646e-01" nType="-99"/>
        </Node>
      </Node>
    </BinaryTree>
    <BinaryTree type="DecisionTree" boostWeight="1.0000000000000000e+00" itree="352">
      <Node pos="s" depth="0" NCoef="0" IVar="4" Cut="2.8465356445312500e+02" cType="1" res="-2.1051885560154915e-02" rms="4.4537273049354553e-01" purity="4.9291899800300598e-01" nType="0">
        <Node pos="l" depth="1" NCoef="0" IVar="8" Cut="2.1376008987426758e+00" cType="1" res="9.4585288316011429e-03" rms="4.5079514384269714e-01" purity="5.5651938915252686e-01" nType="0">
          <Node pos="l" depth="2" NCoef="0" IVar="-1" Cut="0.0000000000000000e+00" cType="1" res="1.1609188513830304e-03" rms="4.5064631104469299e-01" purity="6.5395534038543701e-01" nType="-99"/>
          <Node pos="r" depth="2" NCoef="0" IVar="-1" Cut="0.0000000000000000e+00" cType="1" res="-5.8723014080896974e-04" rms="4.4758775830268860e-01" purity="4.5202028751373291e-01" nType="-99"/>
        </Node>
        <Node pos="r" depth="1" NCoef="0" IVar="3" Cut="1.1203778076171875e+02" cType="1" res="-9.1746404767036438e-02" rms="4.2419651150703430e-01" purity="3.4555295109748840e-01" nType="0">
          <Node pos="l" depth="2" NCoef="0" IVar="-1" Cut="0.0000000000000000e+00" cType="1" res="-2.9219533316791058e-03" rms="3.9349493384361267e-01" purity="2.2167979180812836e-01" nType="-99"/>
          <Node pos="r" depth="2" NCoef="0" IVar="-1" Cut="0.0000000000000000e+00" cType="1" res="-1.1250298703089356e-03" rms="4.2977067828178406e-01" purity="3.8866779208183289e-01" nType="-99"/>
        </Node>
      </Node>
    </BinaryTree>
    <BinaryTree type="DecisionTree" boostWeight="1.0000000000000000e+00" itree="353">
      <Node pos="s" depth="0" NCoef="0" IVar="3" Cut="9.9522262573242188e+01" cType="1" res="1.0487077524885535e-03" rms="4.3708589673042297e-01" purity="5.1870810985565186e-01" nType="0">
        <Node pos="l" depth="1" NCoef="0" IVar="-1" Cut="0.0000000000000000e+00" cType="1" res="-2.3209096398204565e-03" rms="4.0414711833000183e-01" purity="2.5613781809806824e-01" nType="-99"/>
        <Node pos="r" depth="1" NCoef="0" IVar="3" Cut="1.3869435119628906e+02" cType="1" res="1.4611799269914627e-02" rms="4.3717670440673828e-01" purity="5.4138618707656860e-01" nType="0">
          <Node pos="l" depth="2" NCoef="0" IVar="-1" Cut="0.0000000000000000e+00" cType="1" res="7.8635901445522904e-04" rms="4.4029596447944641e-01" purity="5.7218724489212036e-01" nType="-99"/>
          <Node pos="r" depth="2" NCoef="0" IVar="-1" Cut="0.0000000000000000e+00" cType="1" res="-1.6365753253921866e-03" rms="4.0369841456413269e-01" purity="3.7134367227554321e-01" nType="-99"/>
        </Node>
      </Node>
    </BinaryTree>
    <BinaryTree type="DecisionTree" boostWeight="1.0000000000000000e+00" itree="354">
      <Node pos="s" depth="0" NCoef="0" IVar="2" Cut="9.6004307270050049e-01" cType="1" res="-1.0367731563746929e-02" rms="4.4506245851516724e-01" purity="5.1205968856811523e-01" nType="0">
        <Node pos="l" depth="1" NCoef="0" IVar="8" Cut="2.1682863235473633e+00" cType="1" res="-3.5780068486928940e-02" rms="4.4631090760231018e-01" purity="4.1234025359153748e-01" nType="0">
          <Node pos="l" depth="2" NCoef="0" IVar="-1" Cut="0.0000000000000000e+00" cType="1" res="2.3306749062612653e-04" rms="4.6561986207962036e-01" purity="5.5022275447845459e-01" nType="-99"/>
          <Node pos="r" depth="2" NCoef="0" IVar="-1" Cut="0.0000000000000000e+00" cType="1" res="-1.3090585125610232e-03" rms="4.2392736673355103e-01" purity="2.8929507732391357e-01" nType="-99"/>
        </Node>
        <Node pos="r" depth="1" NCoef="0" IVar="0" Cut="1.0569818019866943e+00" cType="1" res="3.5616762936115265e-02" rms="4.3907144665718079e-01" purity="6.9250565767288208e-01" nType="0">
          <Node pos="l" depth="2" NCoef="0" IVar="-1" Cut="0.0000000000000000e+00" cType="1" res="-2.9536668444052339e-04" rms="4.3197524547576904e-01" purity="7.4219739437103271e-01" nType="-99"/>
          <Node pos="r" depth="2" NCoef="0" IVar="-1" Cut="0.0000000000000000e+00" cType="1" res="2.5994004681706429e-03" rms="4.4099035859107971e-01" purity="6.0764998197555542e-01" nType="-99"/>
        </Node>
      </Node>
    </BinaryTree>
    <BinaryTree type="DecisionTree" boostWeight="1.0000000000000000e+00" itree="355">
      <Node pos="s" depth="0" NCoef="0" IVar="7" Cut="5.4748963564634323e-02" cType="1" res="-2.8235202655196190e-02" rms="4.4978114962577820e-01" purity="4.9151942133903503e-01" nType="0">
        <Node pos="l" depth="1" NCoef="0" IVar="0" Cut="7.9110217094421387e-01" cType="1" res="-9.1715648770332336e-02" rms="4.2957413196563721e-01" purity="3.5386824607849121e-01" nType="0">
          <Node pos="l" depth="2" NCoef="0" IVar="-1" Cut="0.0000000000000000e+00" cType="1" res="5.9140886878594756e-04" rms="4.4614419341087341e-01" purity="6.4804291725158691e-01" nType="-99"/>
          <Node pos="r" depth="2" NCoef="0" IVar="-1" Cut="0.0000000000000000e+00" cType="1" res="-1.9236315274611115e-03" rms="4.2129904031753540e-01" purity="2.8749775886535645e-01" nType="-99"/>
        </Node>
        <Node pos="r" depth="1" NCoef="0" IVar="6" Cut="9.7703056335449219e+01" cType="1" res="6.1680744402110577e-03" rms="4.5668980479240417e-01" purity="5.6611955165863037e-01" nType="0">
          <Node pos="l" depth="2" NCoef="0" IVar="-1" Cut="0.0000000000000000e+00" cType="1" res="-4.7619201359339058e-04" rms="4.6944484114646912e-01" purity="5.2170884609222412e-01" nType="-99"/>
          <Node pos="r" depth="2" NCoef="0" IVar="-1" Cut="0.0000000000000000e+00" cType="1" res="2.4297062773257494e-03" rms="4.1066733002662659e-01" purity="6.8547606468200684e-01" nType="-99"/>
        </Node>
      </Node>
    </BinaryTree>
    <BinaryTree type="DecisionTree" boostWeight="1.0000000000000000e+00" itree="356">
      <Node pos="s" depth="0" NCoef="0" IVar="2" Cut="9.2756181955337524e-01" cType="1" res="-7.2922906838357449e-03" rms="4.4429543614387512e-01" purity="5.1257371902465820e-01" nType="0">
        <Node pos="l" depth="1" NCoef="0" IVar="8" Cut="2.1845448017120361e+00" cType="1" res="-8.9237242937088013e-02" rms="4.0361312031745911e-01" purity="2.5647434592247009e-01" nType="0">
          <Node pos="l" depth="2" NCoef="0" IVar="-1" Cut="0.0000000000000000e+00" cType="1" res="1.1021607497241348e-04" rms="4.6412035822868347e-01" purity="4.3105232715606689e-01" nType="-99"/>
          <Node pos="r" depth="2" NCoef="0" IVar="-1" Cut="0.0000000000000000e+00" cType="1" res="-2.2811128292232752e-03" rms="3.4181040525436401e-01" purity="1.3779744505882263e-01" nType="-99"/>
        </Node>
        <Node pos="r" depth="1" NCoef="0" IVar="3" Cut="1.3756486511230469e+02" cType="1" res="1.2810971587896347e-02" rms="4.5145258307456970e-01" purity="5.7540166378021240e-01" nType="0">
          <Node pos="l" depth="2" NCoef="0" IVar="-1" Cut="0.0000000000000000e+00" cType="1" res="7.6504872413352132e-04" rms="4.4979578256607056e-01" purity="6.0375684499740601e-01" nType="-99"/>
          <Node pos="r" depth="2" NCoef="0" IVar="-1" Cut="0.0000000000000000e+00" cType="1" res="-1.8395552178844810e-03" rms="4.4588640332221985e-01" purity="4.1073501110076904e-01" nType="-99"/>
        </Node>
      </Node>
    </BinaryTree>
    <BinaryTree type="DecisionTree" boostWeight="1.0000000000000000e+00" itree="357">
      <Node pos="s" depth="0" NCoef="0" IVar="3" Cut="1.0081282806396484e+02" cType="1" res="-1.6902340576052666e-02" rms="4.4017529487609863e-01" purity="4.9706679582595825e-01" nType="0">
        <Node pos="l" depth="1" NCoef="0" IVar="-1" Cut="0.0000000000000000e+00" cType="1" res="-2.3815250024199486e-03" rms="3.8710996508598328e-01" purity="2.5629490613937378e-01" nType="-99"/>
        <Node pos="r" depth="1" NCoef="0" IVar="8" Cut="2.5951843261718750e+00" cType="1" res="-4.4450676068663597e-03" rms="4.4260570406913757e-01" purity="5.1901972293853760e-01" nType="0">
          <Node pos="l" depth="2" NCoef="0" IVar="-1" Cut="0.0000000000000000e+00" cType="1" res="2.5521818315610290e-04" rms="4.4886970520019531e-01" purity="5.6655973196029663e-01" nType="-99"/>
          <Node pos="r" depth="2" NCoef="0" IVar="-1" Cut="0.0000000000000000e+00" cType="1" res="-1.9263700814917684e-03" rms="3.7280899286270142e-01" purity="1.6941826045513153e-01" nType="-99"/>
        </Node>
      </Node>
    </BinaryTree>
    <BinaryTree type="DecisionTree" boostWeight="1.0000000000000000e+00" itree="358">
      <Node pos="s" depth="0" NCoef="0" IVar="0" Cut="6.8003010749816895e-01" cType="1" res="-1.9766442477703094e-02" rms="4.4355037808418274e-01" purity="4.9334049224853516e-01" nType="0">
        <Node pos="l" depth="1" NCoef="0" IVar="6" Cut="8.2487190246582031e+01" cType="1" res="7.0657648146152496e-02" rms="4.1763019561767578e-01" purity="7.3070186376571655e-01" nType="0">
          <Node pos="l" depth="2" NCoef="0" IVar="-1" Cut="0.0000000000000000e+00" cType="1" res="7.7229447197169065e-04" rms="4.5746946334838867e-01" purity="6.5216690301895142e-01" nType="-99"/>
          <Node pos="r" depth="2" NCoef="0" IVar="-1" Cut="0.0000000000000000e+00" cType="1" res="7.3160319589078426e-03" rms="3.0287510156631470e-01" purity="8.9580202102661133e-01" nType="-99"/>
        </Node>
        <Node pos="r" depth="1" NCoef="0" IVar="6" Cut="8.4975379943847656e+01" cType="1" res="-4.0902890264987946e-02" rms="4.4676241278648376e-01" purity="4.3785771727561951e-01" nType="0">
          <Node pos="l" depth="2" NCoef="0" IVar="-1" Cut="0.0000000000000000e+00" cType="1" res="-1.2350203469395638e-03" rms="4.4944459199905396e-01" purity="3.8680371642112732e-01" nType="-99"/>
          <Node pos="r" depth="2" NCoef="0" IVar="-1" Cut="0.0000000000000000e+00" cType="1" res="-1.2889713616459630e-05" rms="4.3976825475692749e-01" purity="5.1092493534088135e-01" nType="-99"/>
        </Node>
      </Node>
    </BinaryTree>
    <BinaryTree type="DecisionTree" boostWeight="1.0000000000000000e+00" itree="359">
      <Node pos="s" depth="0" NCoef="0" IVar="8" Cut="2.5568878650665283e+00" cType="1" res="1.0661667212843895e-02" rms="4.4615387916564941e-01" purity="5.3343808650970459e-01" nType="0">
        <Node pos="l" depth="1" NCoef="0" IVar="6" Cut="4.1041316986083984e+01" cType="1" res="2.6459205895662308e-02" rms="4.5358869433403015e-01" purity="5.8954936265945435e-01" nType="0">
          <Node pos="l" depth="2" NCoef="0" IVar="-1" Cut="0.0000000000000000e+00" cType="1" res="-9.9144538398832083e-04" rms="4.7807961702346802e-01" purity="4.2300313711166382e-01" nType="-99"/>
          <Node pos="r" depth="2" NCoef="0" IVar="-1" Cut="0.0000000000000000e+00" cType="1" res="9.5918332226574421e-04" rms="4.4810965657234192e-01" purity="6.1641228199005127e-01" nType="-99"/>
        </Node>
        <Node pos="r" depth="1" NCoef="0" IVar="-1" Cut="0.0000000000000000e+00" cType="1" res="-1.4110803604125977e-03" rms="3.8675668835639954e-01" purity="2.0325952768325806e-01" nType="-99"/>
      </Node>
    </BinaryTree>
    <BinaryTree type="DecisionTree" boostWeight="1.0000000000000000e+00" itree="360">
      <Node pos="s" depth="0" NCoef="0" IVar="1" Cut="4.0547885131835938e+02" cType="1" res="-1.7609026283025742e-02" rms="4.4030138850212097e-01" purity="4.9478361010551453e-01" nType="0">
        <Node pos="l" depth="1" NCoef="0" IVar="8" Cut="2.4328212738037109e+00" cType="1" res="-5.2741385996341705e-02" rms="4.4303119182586670e-01" purity="4.2745894193649292e-01" nType="0">
          <Node pos="l" depth="2" NCoef="0" IVar="-1" Cut="0.0000000000000000e+00" cType="1" res="-6.1073154211044312e-04" rms="4.6031567454338074e-01" purity="5.0342476367950439e-01" nType="-99"/>
          <Node pos="r" depth="2" NCoef="0" IVar="-1" Cut="0.0000000000000000e+00" cType="1" res="-1.9448080565780401e-03" rms="3.7780338525772095e-01" purity="1.9587141275405884e-01" nType="-99"/>
        </Node>
        <Node pos="r" depth="1" NCoef="0" IVar="4" Cut="3.6714355468750000e+02" cType="1" res="2.5409424677491188e-02" rms="4.3307134509086609e-01" purity="5.7722055912017822e-01" nType="0">
          <Node pos="l" depth="2" NCoef="0" IVar="-1" Cut="0.0000000000000000e+00" cType="1" res="1.4916760846972466e-03" rms="4.2436403036117554e-01" purity="6.5174144506454468e-01" nType="-99"/>
          <Node pos="r" depth="2" NCoef="0" IVar="-1" Cut="0.0000000000000000e+00" cType="1" res="-1.2501091696321964e-03" rms="4.4463109970092773e-01" purity="3.6807882785797119e-01" nType="-99"/>
        </Node>
      </Node>
    </BinaryTree>
    <BinaryTree type="DecisionTree" boostWeight="1.0000000000000000e+00" itree="361">
      <Node pos="s" depth="0" NCoef="0" IVar="2" Cut="9.3347811698913574e-01" cType="1" res="-3.8048326969146729e-02" rms="4.4288685917854309e-01" purity="4.8115009069442749e-01" nType="0">
        <Node pos="l" depth="1" NCoef="0" IVar="6" Cut="6.0402462005615234e+01" cType="1" res="-1.0349974781274796e-01" rms="4.1289058327674866e-01" purity="2.6152855157852173e-01" nType="0">
          <Node pos="l" depth="2" NCoef="0" IVar="-1" Cut="0.0000000000000000e+00" cType="1" res="-2.1698398049920797e-03" rms="3.8414293527603149e-01" purity="1.9567070901393890e-01" nType="-99"/>
          <Node pos="r" depth="2" NCoef="0" IVar="-1" Cut="0.0000000000000000e+00" cType="1" res="-1.0090343421325088e-03" rms="4.2979392409324646e-01" purity="3.1413689255714417e-01" nType="-99"/>
        </Node>
        <Node pos="r" depth="1" NCoef="0" IVar="3" Cut="1.0683613586425781e+02" cType="1" res="-1.3921408914029598e-02" rms="4.5105445384979248e-01" purity="5.6210774183273315e-01" nType="0">
          <Node pos="l" depth="2" NCoef="0" IVar="-1" Cut="0.0000000000000000e+00" cType="1" res="-2.1640472114086151e-03" rms="4.3715065717697144e-01" purity="3.6806944012641907e-01" nType="-99"/>
          <Node pos="r" depth="2" NCoef="0" IVar="-1" Cut="0.0000000000000000e+00" cType="1" res="6.7783112172037363e-05" rms="4.5058500766754150e-01" purity="5.9032511711120605e-01" nType="-99"/>
        </Node>
      </Node>
    </BinaryTree>
    <BinaryTree type="DecisionTree" boostWeight="1.0000000000000000e+00" itree="362">
      <Node pos="s" depth="0" NCoef="0" IVar="0" Cut="9.1917949914932251e-01" cType="1" res="-9.0254275128245354e-03" rms="4.3461352586746216e-01" purity="5.0577342510223389e-01" nType="0">
        <Node pos="l" depth="1" NCoef="0" IVar="7" Cut="4.2527616024017334e-02" cType="1" res="5.2782624959945679e-02" rms="4.2685842514038086e-01" purity="7.0434498786926270e-01" nType="0">
          <Node pos="l" depth="2" NCoef="0" IVar="-1" Cut="0.0000000000000000e+00" cType="1" res="-1.7518977401778102e-03" rms="4.8270443081855774e-01" purity="5.5877405405044556e-01" nType="-99"/>
          <Node pos="r" depth="2" NCoef="0" IVar="-1" Cut="0.0000000000000000e+00" cType="1" res="2.4266075342893600e-03" rms="4.0855008363723755e-01" purity="7.3545438051223755e-01" nType="-99"/>
        </Node>
        <Node pos="r" depth="1" NCoef="0" IVar="3" Cut="1.3932582092285156e+02" cType="1" res="-4.8699520528316498e-02" rms="4.3491497635841370e-01" purity="3.7831190228462219e-01" nType="0">
          <Node pos="l" depth="2" NCoef="0" IVar="-1" Cut="0.0000000000000000e+00" cType="1" res="-4.5533347292803228e-04" rms="4.4109481573104858e-01" purity="4.1007035970687866e-01" nType="-99"/>
          <Node pos="r" depth="2" NCoef="0" IVar="-1" Cut="0.0000000000000000e+00" cType="1" res="-2.6801459025591612e-03" rms="3.8007950782775879e-01" purity="2.1598418056964874e-01" nType="-99"/>
        </Node>
      </Node>
    </BinaryTree>
    <BinaryTree type="DecisionTree" boostWeight="1.0000000000000000e+00" itree="363">
      <Node pos="s" depth="0" NCoef="0" IVar="8" Cut="2.1588008403778076e+00" cType="1" res="-8.8958172127604485e-03" rms="4.4562205672264099e-01" purity="5.0957489013671875e-01" nType="0">
        <Node pos="l" depth="1" NCoef="0" IVar="8" Cut="1.7178522348403931e+00" cType="1" res="3.3598337322473526e-02" rms="4.5152387022972107e-01" purity="6.4085358381271362e-01" nType="0">
          <Node pos="l" depth="2" NCoef="0" IVar="-1" Cut="0.0000000000000000e+00" cType="1" res="-2.5045785587280989e-03" rms="4.7411212325096130e-01" purity="4.3115174770355225e-01" nType="-99"/>
          <Node pos="r" depth="2" NCoef="0" IVar="-1" Cut="0.0000000000000000e+00" cType="1" res="1.5731560997664928e-03" rms="4.4175350666046143e-01" purity="6.7389750480651855e-01" nType="-99"/>
        </Node>
        <Node pos="r" depth="1" NCoef="0" IVar="2" Cut="9.6013689041137695e-01" cType="1" res="-4.9314163625240326e-02" rms="4.3610972166061401e-01" purity="3.8470914959907532e-01" nType="0">
          <Node pos="l" depth="2" NCoef="0" IVar="-1" Cut="0.0000000000000000e+00" cType="1" res="-1.4348516706377268e-03" rms="4.2362684011459351e-01" purity="2.8440165519714355e-01" nType="-99"/>
          <Node pos="r" depth="2" NCoef="0" IVar="-1" Cut="0.0000000000000000e+00" cType="1" res="6.9421523949131370e-04" rms="4.5235881209373474e-01" purity="6.0207867622375488e-01" nType="-99"/>
        </Node>
      </Node>
    </BinaryTree>
    <BinaryTree type="DecisionTree" boostWeight="1.0000000000000000e+00" itree="364">
      <Node pos="s" depth="0" NCoef="0" IVar="3" Cut="1.3763789367675781e+02" cType="1" res="-5.3426567465066910e-03" rms="4.4250974059104919e-01" purity="5.1207596063613892e-01" nType="0">
        <Node pos="l" depth="1" NCoef="0" IVar="2" Cut="9.2861342430114746e-01" cType="1" res="1.4495041221380234e-02" rms="4.4329854846000671e-01" purity="5.4345107078552246e-01" nType="0">
          <Node pos="l" depth="2" NCoef="0" IVar="-1" Cut="0.0000000000000000e+00" cType="1" res="-1.1961723212152719e-03" rms="4.2535376548767090e-01" purity="2.8780695796012878e-01" nType="-99"/>
          <Node pos="r" depth="2" NCoef="0" IVar="-1" Cut="0.0000000000000000e+00" cType="1" res="9.0582383563742042e-04" rms="4.4489893317222595e-01" purity="6.0877120494842529e-01" nType="-99"/>
        </Node>
        <Node pos="r" depth="1" NCoef="0" IVar="2" Cut="9.5412689447402954e-01" cType="1" res="-1.0735466331243515e-01" rms="4.2401844263076782e-01" purity="3.5073468089103699e-01" nType="0">
          <Node pos="l" depth="2" NCoef="0" IVar="-1" Cut="0.0000000000000000e+00" cType="1" res="-2.4672327563166618e-03" rms="3.8475167751312256e-01" purity="2.2961752116680145e-01" nType="-99"/>
          <Node pos="r" depth="2" NCoef="0" IVar="-1" Cut="0.0000000000000000e+00" cType="1" res="-5.9259880799800158e-04" rms="4.7798138856887817e-01" purity="5.7675629854202271e-01" nType="-99"/>
        </Node>
      </Node>
    </BinaryTree>
    <BinaryTree type="DecisionTree" boostWeight="1.0000000000000000e+00" itree="365">
      <Node pos="s" depth="0" NCoef="0" IVar="2" Cut="9.7257006168365479e-01" cType="1" res="-1.5576632693409920e-02" rms="4.3568068742752075e-01" purity="4.9757325649261475e-01" nType="0">
        <Node pos="l" depth="1" NCoef="0" IVar="8" Cut="2.4878563880920410e+00" cType="1" res="-4.1356924921274185e-02" rms="4.4215503334999084e-01" purity="4.4005084037780762e-01" nType="0">
          <Node pos="l" depth="2" NCoef="0" IVar="-1" Cut="0.0000000000000000e+00" cType="1" res="-3.9075690438039601e-04" rms="4.6415540575981140e-01" purity="5.1778852939605713e-01" nType="-99"/>
          <Node pos="r" depth="2" NCoef="0" IVar="-1" Cut="0.0000000000000000e+00" cType="1" res="-1.9639036618173122e-03" rms="3.3524936437606812e-01" purity="1.4877891540527344e-01" nType="-99"/>
        </Node>
        <Node pos="r" depth="1" NCoef="0" IVar="7" Cut="7.7006392180919647e-02" cType="1" res="1.1103017628192902e-01" rms="3.7764173746109009e-01" purity="7.8006523847579956e-01" nType="0">
          <Node pos="l" depth="2" NCoef="0" IVar="-1" Cut="0.0000000000000000e+00" cType="1" res="1.2052408419549465e-03" rms="4.1656762361526489e-01" purity="6.5329092741012573e-01" nType="-99"/>
          <Node pos="r" depth="2" NCoef="0" IVar="-1" Cut="0.0000000000000000e+00" cType="1" res="7.8939925879240036e-03" rms="3.3489087224006653e-01" purity="8.7855106592178345e-01" nType="-99"/>
        </Node>
      </Node>
    </BinaryTree>
    <BinaryTree type="DecisionTree" boostWeight="1.0000000000000000e+00" itree="366">
      <Node pos="s" depth="0" NCoef="0" IVar="3" Cut="1.3752334594726562e+02" cType="1" res="-2.1483654156327248e-02" rms="4.4499394297599792e-01" purity="4.9866881966590881e-01" nType="0">
        <Node pos="l" depth="1" NCoef="0" IVar="8" Cut="2.1696178913116455e+00" cType="1" res="-6.4328638836741447e-03" rms="4.4645267724990845e-01" purity="5.2363413572311401e-01" nType="0">
          <Node pos="l" depth="2" NCoef="0" IVar="-1" Cut="0.0000000000000000e+00" cType="1" res="7.2268210351467133e-04" rms="4.5210313796997070e-01" purity="6.3617938756942749e-01" nType="-99"/>
          <Node pos="r" depth="2" NCoef="0" IVar="-1" Cut="0.0000000000000000e+00" cType="1" res="-8.6754042422398925e-04" rms="4.3678009510040283e-01" purity="3.9941865205764771e-01" nType="-99"/>
        </Node>
        <Node pos="r" depth="1" NCoef="0" IVar="4" Cut="2.3500491333007812e+02" cType="1" res="-1.1074766516685486e-01" rms="4.2543590068817139e-01" purity="3.5060310363769531e-01" nType="0">
          <Node pos="l" depth="2" NCoef="0" IVar="-1" Cut="0.0000000000000000e+00" cType="1" res="-1.2577518355101347e-03" rms="4.7747626900672913e-01" purity="4.3899309635162354e-01" nType="-99"/>
          <Node pos="r" depth="2" NCoef="0" IVar="-1" Cut="0.0000000000000000e+00" cType="1" res="-2.6539671234786510e-03" rms="3.7407934665679932e-01" purity="2.7899938821792603e-01" nType="-99"/>
        </Node>
      </Node>
    </BinaryTree>
    <BinaryTree type="DecisionTree" boostWeight="1.0000000000000000e+00" itree="367">
      <Node pos="s" depth="0" NCoef="0" IVar="5" Cut="4.8689636230468750e+02" cType="1" res="-2.5223419070243835e-02" rms="4.4249331951141357e-01" purity="4.8594170808792114e-01" nType="0">
        <Node pos="l" depth="1" NCoef="0" IVar="2" Cut="9.5208066701889038e-01" cType="1" res="-8.4141023457050323e-02" rms="4.3577077984809875e-01" purity="3.7272399663925171e-01" nType="0">
          <Node pos="l" depth="2" NCoef="0" IVar="-1" Cut="0.0000000000000000e+00" cType="1" res="-1.9388226792216301e-03" rms="4.0620496869087219e-01" purity="2.4565789103507996e-01" nType="-99"/>
          <Node pos="r" depth="2" NCoef="0" IVar="-1" Cut="0.0000000000000000e+00" cType="1" res="-5.5275938939303160e-04" rms="4.6629416942596436e-01" purity="5.4354929924011230e-01" nType="-99"/>
        </Node>
        <Node pos="r" depth="1" NCoef="0" IVar="7" Cut="1.3728317618370056e-01" cType="1" res="1.1709680780768394e-02" rms="4.4267526268959045e-01" purity="5.5691337585449219e-01" nType="0">
          <Node pos="l" depth="2" NCoef="0" IVar="-1" Cut="0.0000000000000000e+00" cType="1" res="-1.0399391612736508e-04" rms="4.4707596302032471e-01" purity="5.1993536949157715e-01" nType="-99"/>
          <Node pos="r" depth="2" NCoef="0" IVar="-1" Cut="0.0000000000000000e+00" cType="1" res="3.3773162867873907e-03" rms="4.0698763728141785e-01" purity="7.5567376613616943e-01" nType="-99"/>
        </Node>
      </Node>
    </BinaryTree>
    <BinaryTree type="DecisionTree" boostWeight="1.0000000000000000e+00" itree="368">
      <Node pos="s" depth="0" NCoef="0" IVar="6" Cut="7.7890670776367188e+01" cType="1" res="-2.1691847592592239e-02" rms="4.4310772418975830e-01" purity="4.9329048395156860e-01" nType="0">
        <Node pos="l" depth="1" NCoef="0" IVar="3" Cut="1.3863082885742188e+02" cType="1" res="-6.2286987900733948e-02" rms="4.5610716938972473e-01" purity="4.2526590824127197e-01" nType="0">
          <Node pos="l" depth="2" NCoef="0" IVar="-1" Cut="0.0000000000000000e+00" cType="1" res="-8.9052738621830940e-04" rms="4.5683175325393677e-01" purity="4.4424611330032349e-01" nType="-99"/>
          <Node pos="r" depth="2" NCoef="0" IVar="-1" Cut="0.0000000000000000e+00" cType="1" res="-2.6618470437824726e-03" rms="4.3957418203353882e-01" purity="2.9602375626564026e-01" nType="-99"/>
        </Node>
        <Node pos="r" depth="1" NCoef="0" IVar="6" Cut="1.4106774902343750e+02" cType="1" res="2.7354624122381210e-02" rms="4.2169299721717834e-01" purity="5.7547682523727417e-01" nType="0">
          <Node pos="l" depth="2" NCoef="0" IVar="-1" Cut="0.0000000000000000e+00" cType="1" res="1.4533061766996980e-03" rms="4.1046443581581116e-01" purity="6.1319005489349365e-01" nType="-99"/>
          <Node pos="r" depth="2" NCoef="0" IVar="-1" Cut="0.0000000000000000e+00" cType="1" res="-2.2198327351361513e-03" rms="4.4330114126205444e-01" purity="4.0898412466049194e-01" nType="-99"/>
        </Node>
      </Node>
    </BinaryTree>
    <BinaryTree type="DecisionTree" boostWeight="1.0000000000000000e+00" itree="369">
      <Node pos="s" depth="0" NCoef="0" IVar="6" Cut="8.0598693847656250e+01" cType="1" res="-1.2678267434239388e-02" rms="4.4924479722976685e-01" purity="5.0689423084259033e-01" nType="0">
        <Node pos="l" depth="1" NCoef="0" IVar="3" Cut="1.0719544982910156e+02" cType="1" res="-4.4066175818443298e-02" rms="4.5838248729705811e-01" purity="4.4808867573738098e-01" nType="0">
          <Node pos="l" depth="2" NCoef="0" IVar="-1" Cut="0.0000000000000000e+00" cType="1" res="-2.5319375563412905e-03" rms="4.1308557987213135e-01" purity="2.7191904187202454e-01" nType="-99"/>
          <Node pos="r" depth="2" NCoef="0" IVar="-1" Cut="0.0000000000000000e+00" cType="1" res="-4.3001931044273078e-04" rms="4.6355023980140686e-01" purity="4.8285156488418579e-01" nType="-99"/>
        </Node>
        <Node pos="r" depth="1" NCoef="0" IVar="8" Cut="1.9116064310073853e+00" cType="1" res="2.7770552784204483e-02" rms="4.3385180830955505e-01" purity="5.8267557621002197e-01" nType="0">
          <Node pos="l" depth="2" NCoef="0" IVar="-1" Cut="0.0000000000000000e+00" cType="1" res="-2.6467309799045324e-03" rms="4.3321657180786133e-01" purity="5.5325156450271606e-01" nType="-99"/>
          <Node pos="r" depth="2" NCoef="0" IVar="-1" Cut="0.0000000000000000e+00" cType="1" res="1.1316706659272313e-03" rms="4.3018519878387451e-01" purity="5.8654296398162842e-01" nType="-99"/>
        </Node>
      </Node>
    </BinaryTree>
    <BinaryTree type="DecisionTree" boostWeight="1.0000000000000000e+00" itree="370">
      <Node pos="s" depth="0" NCoef="0" IVar="0" Cut="1.0242123603820801e+00" cType="1" res="-2.4405702948570251e-02" rms="4.4075533747673035e-01" purity="4.8702737689018250e-01" nType="0">
        <Node pos="l" depth="1" NCoef="0" IVar="6" Cut="4.4803497314453125e+01" cType="1" res="1.6261503100395203e-02" rms="4.5024171471595764e-01" purity="6.5645498037338257e-01" nType="0">
          <Node pos="l" depth="2" NCoef="0" IVar="-1" Cut="0.0000000000000000e+00" cType="1" res="-1.4495173236355186e-03" rms="5.0636142492294312e-01" purity="4.7270846366882324e-01" nType="-99"/>
          <Node pos="r" depth="2" NCoef="0" IVar="-1" Cut="0.0000000000000000e+00" cType="1" res="1.1268431553617120e-03" rms="4.3247133493423462e-01" purity="7.0074999332427979e-01" nType="-99"/>
        </Node>
        <Node pos="r" depth="1" NCoef="0" IVar="2" Cut="9.3415570259094238e-01" cType="1" res="-6.4074546098709106e-02" rms="4.2759042978286743e-01" purity="3.2175913453102112e-01" nType="0">
          <Node pos="l" depth="2" NCoef="0" IVar="-1" Cut="0.0000000000000000e+00" cType="1" res="-1.9102577352896333e-03" rms="3.5448896884918213e-01" purity="1.5163193643093109e-01" nType="-99"/>
          <Node pos="r" depth="2" NCoef="0" IVar="-1" Cut="0.0000000000000000e+00" cType="1" res="-6.6217000130563974e-04" rms="4.5720475912094116e-01" purity="4.0696349740028381e-01" nType="-99"/>
        </Node>
      </Node>
    </BinaryTree>
    <BinaryTree type="DecisionTree" boostWeight="1.0000000000000000e+00" itree="371">
      <Node pos="s" depth="0" NCoef="0" IVar="2" Cut="9.2670261859893799e-01" cType="1" res="-1.9327901303768158e-02" rms="4.3599319458007812e-01" purity="4.9707221984863281e-01" nType="0">
        <Node pos="l" depth="1" NCoef="0" IVar="2" Cut="9.1839379072189331e-01" cType="1" res="-1.0914552211761475e-01" rms="4.0436127781867981e-01" purity="2.4321581423282623e-01" nType="0">
          <Node pos="l" depth="2" NCoef="0" IVar="-1" Cut="0.0000000000000000e+00" cType="1" res="-8.4693037206307054e-04" rms="4.2579409480094910e-01" purity="3.0183026194572449e-01" nType="-99"/>
          <Node pos="r" depth="2" NCoef="0" IVar="-1" Cut="0.0000000000000000e+00" cType="1" res="-2.6539757382124662e-03" rms="3.6311295628547668e-01" purity="1.6975802183151245e-01" nType="-99"/>
        </Node>
        <Node pos="r" depth="1" NCoef="0" IVar="3" Cut="1.0763102722167969e+02" cType="1" res="4.2522824369370937e-03" rms="4.4090229272842407e-01" purity="5.6371814012527466e-01" nType="0">
          <Node pos="l" depth="2" NCoef="0" IVar="-1" Cut="0.0000000000000000e+00" cType="1" res="-1.7932815244421363e-03" rms="4.4033619761466980e-01" purity="3.8039743900299072e-01" nType="-99"/>
          <Node pos="r" depth="2" NCoef="0" IVar="-1" Cut="0.0000000000000000e+00" cType="1" res="5.1134056411683559e-04" rms="4.3853744864463806e-01" purity="5.9258598089218140e-01" nType="-99"/>
        </Node>
      </Node>
    </BinaryTree>
    <BinaryTree type="DecisionTree" boostWeight="1.0000000000000000e+00" itree="372">
      <Node pos="s" depth="0" NCoef="0" IVar="5" Cut="4.9233987426757812e+02" cType="1" res="-1.4045829884707928e-02" rms="4.4780939817428589e-01" purity="5.0565677881240845e-01" nType="0">
        <Node pos="l" depth="1" NCoef="0" IVar="2" Cut="9.7667318582534790e-01" cType="1" res="-6.3091650605201721e-02" rms="4.3863117694854736e-01" purity="3.9710623025894165e-01" nType="0">
          <Node pos="l" depth="2" NCoef="0" IVar="-1" Cut="0.0000000000000000e+00" cType="1" res="-1.4143940061330795e-03" rms="4.4326663017272949e-01" purity="3.5090917348861694e-01" nType="-99"/>
          <Node pos="r" depth="2" NCoef="0" IVar="-1" Cut="0.0000000000000000e+00" cType="1" res="2.0640857983380556e-03" rms="3.8275584578514099e-01" purity="6.9853550195693970e-01" nType="-99"/>
        </Node>
        <Node pos="r" depth="1" NCoef="0" IVar="3" Cut="1.2726927185058594e+02" cType="1" res="2.1169517189264297e-02" rms="4.5100736618041992e-01" purity="5.8359706401824951e-01" nType="0">
          <Node pos="l" depth="2" NCoef="0" IVar="-1" Cut="0.0000000000000000e+00" cType="1" res="1.4296966837719083e-03" rms="4.3820410966873169e-01" purity="6.3433969020843506e-01" nType="-99"/>
          <Node pos="r" depth="2" NCoef="0" IVar="-1" Cut="0.0000000000000000e+00" cType="1" res="-6.0296419542282820e-04" rms="4.6418574452400208e-01" purity="5.1136571168899536e-01" nType="-99"/>
        </Node>
      </Node>
    </BinaryTree>
    <BinaryTree type="DecisionTree" boostWeight="1.0000000000000000e+00" itree="373">
      <Node pos="s" depth="0" NCoef="0" IVar="8" Cut="2.4657807350158691e+00" cType="1" res="-1.9599059596657753e-02" rms="4.4587156176567078e-01" purity="5.0151711702346802e-01" nType="0">
        <Node pos="l" depth="1" NCoef="0" IVar="4" Cut="1.3556314086914062e+02" cType="1" res="-2.5530979037284851e-03" rms="4.5721250772476196e-01" purity="5.7090860605239868e-01" nType="0">
          <Node pos="l" depth="2" NCoef="0" IVar="-1" Cut="0.0000000000000000e+00" cType="1" res="-1.7948248423635960e-03" rms="4.6471816301345825e-01" purity="4.5219504833221436e-01" nType="-99"/>
          <Node pos="r" depth="2" NCoef="0" IVar="-1" Cut="0.0000000000000000e+00" cType="1" res="3.5072318860329688e-04" rms="4.5358982682228088e-01" purity="5.9294599294662476e-01" nType="-99"/>
        </Node>
        <Node pos="r" depth="1" NCoef="0" IVar="2" Cut="9.5481550693511963e-01" cType="1" res="-8.8025070726871490e-02" rms="3.8966664671897888e-01" purity="2.2296541929244995e-01" nType="0">
          <Node pos="l" depth="2" NCoef="0" IVar="-1" Cut="0.0000000000000000e+00" cType="1" res="-1.8948370125144720e-03" rms="3.5061615705490112e-01" purity="1.4597408473491669e-01" nType="-99"/>
          <Node pos="r" depth="2" NCoef="0" IVar="-1" Cut="0.0000000000000000e+00" cType="1" res="-8.1856217002496123e-04" rms="4.4518798589706421e-01" purity="3.5368767380714417e-01" nType="-99"/>
        </Node>
      </Node>
    </BinaryTree>
    <BinaryTree type="DecisionTree" boostWeight="1.0000000000000000e+00" itree="374">
      <Node pos="s" depth="0" NCoef="0" IVar="8" Cut="2.2308413982391357e+00" cType="1" res="9.0551916509866714e-03" rms="4.2990750074386597e-01" purity="5.2134680747985840e-01" nType="0">
        <Node pos="l" depth="1" NCoef="0" IVar="4" Cut="1.8177076721191406e+02" cType="1" res="5.4050181061029434e-02" rms="4.3678396940231323e-01" purity="6.5366107225418091e-01" nType="0">
          <Node pos="l" depth="2" NCoef="0" IVar="-1" Cut="0.0000000000000000e+00" cType="1" res="1.8229591660201550e-05" rms="4.5579206943511963e-01" purity="5.7983976602554321e-01" nType="-99"/>
          <Node pos="r" depth="2" NCoef="0" IVar="-1" Cut="0.0000000000000000e+00" cType="1" res="2.9605380259454250e-03" rms="4.1371446847915649e-01" purity="7.1863675117492676e-01" nType="-99"/>
        </Node>
        <Node pos="r" depth="1" NCoef="0" IVar="2" Cut="9.7297197580337524e-01" cType="1" res="-5.3413584828376770e-02" rms="4.1210812330245972e-01" purity="3.3764839172363281e-01" nType="0">
          <Node pos="l" depth="2" NCoef="0" IVar="-1" Cut="0.0000000000000000e+00" cType="1" res="-1.3266092864796519e-03" rms="4.0670958161354065e-01" purity="2.8522327542304993e-01" nType="-99"/>
          <Node pos="r" depth="2" NCoef="0" IVar="-1" Cut="0.0000000000000000e+00" cType="1" res="2.9124396387487650e-03" rms="4.0967705845832825e-01" purity="6.7084443569183350e-01" nType="-99"/>
        </Node>
      </Node>
    </BinaryTree>
    <BinaryTree type="DecisionTree" boostWeight="1.0000000000000000e+00" itree="375">
      <Node pos="s" depth="0" NCoef="0" IVar="2" Cut="9.2970776557922363e-01" cType="1" res="-2.6909882202744484e-02" rms="4.3694785237312317e-01" purity="4.8046419024467468e-01" nType="0">
        <Node pos="l" depth="1" NCoef="0" IVar="8" Cut="2.0814788341522217e+00" cType="1" res="-8.9419350028038025e-02" rms="4.0023171901702881e-01" purity="2.5367793440818787e-01" nType="0">
          <Node pos="l" depth="2" NCoef="0" IVar="-1" Cut="0.0000000000000000e+00" cType="1" res="-4.0487752994522452e-04" rms="4.7368860244750977e-01" purity="4.1518282890319824e-01" nType="-99"/>
          <Node pos="r" depth="2" NCoef="0" IVar="-1" Cut="0.0000000000000000e+00" cType="1" res="-1.8725375412032008e-03" rms="3.5758504271507263e-01" purity="1.7962463200092316e-01" nType="-99"/>
        </Node>
        <Node pos="r" depth="1" NCoef="0" IVar="6" Cut="1.0691946411132812e+02" cType="1" res="-7.9973470419645309e-03" rms="4.4573923945426941e-01" purity="5.4907947778701782e-01" nType="0">
          <Node pos="l" depth="2" NCoef="0" IVar="-1" Cut="0.0000000000000000e+00" cType="1" res="-5.8895291294902563e-04" rms="4.5467177033424377e-01" purity="5.1758968830108643e-01" nType="-99"/>
          <Node pos="r" depth="2" NCoef="0" IVar="-1" Cut="0.0000000000000000e+00" cType="1" res="1.6515861498191953e-03" rms="4.0815660357475281e-01" purity="6.5254670381546021e-01" nType="-99"/>
        </Node>
      </Node>
    </BinaryTree>
    <BinaryTree type="DecisionTree" boostWeight="1.0000000000000000e+00" itree="376">
      <Node pos="s" depth="0" NCoef="0" IVar="2" Cut="9.4463658332824707e-01" cType="1" res="-1.5150451101362705e-02" rms="4.3596732616424561e-01" purity="4.9779325723648071e-01" nType="0">
        <Node pos="l" depth="1" NCoef="0" IVar="4" Cut="3.5154840087890625e+02" cType="1" res="-6.6226102411746979e-02" rms="4.2547026276588440e-01" purity="3.2119745016098022e-01" nType="0">
          <Node pos="l" depth="2" NCoef="0" IVar="-1" Cut="0.0000000000000000e+00" cType="1" res="-7.2752183768898249e-04" rms="4.4211602210998535e-01" purity="3.6178737878799438e-01" nType="-99"/>
          <Node pos="r" depth="2" NCoef="0" IVar="-1" Cut="0.0000000000000000e+00" cType="1" res="-2.5940414052456617e-03" rms="3.3560049533843994e-01" purity="1.5909710526466370e-01" nType="-99"/>
        </Node>
        <Node pos="r" depth="1" NCoef="0" IVar="3" Cut="1.3879061889648438e+02" cType="1" res="2.5493491441011429e-02" rms="4.3992653489112854e-01" purity="6.3832104206085205e-01" nType="0">
          <Node pos="l" depth="2" NCoef="0" IVar="-1" Cut="0.0000000000000000e+00" cType="1" res="1.3198080705478787e-03" rms="4.3250894546508789e-01" purity="6.7115724086761475e-01" nType="-99"/>
          <Node pos="r" depth="2" NCoef="0" IVar="-1" Cut="0.0000000000000000e+00" cType="1" res="-2.3515988141298294e-03" rms="4.5991754531860352e-01" purity="4.2081570625305176e-01" nType="-99"/>
        </Node>
      </Node>
    </BinaryTree>
    <BinaryTree type="DecisionTree" boostWeight="1.0000000000000000e+00" itree="377">
      <Node pos="s" depth="0" NCoef="0" IVar="7" Cut="1.0390169918537140e-01" cType="1" res="-2.0192660391330719e-02" rms="4.4078481197357178e-01" purity="4.9919727444648743e-01" nType="0">
        <Node pos="l" depth="1" NCoef="0" IVar="1" Cut="6.8905377197265625e+02" cType="1" res="-5.1367584615945816e-02" rms="4.3688333034515381e-01" purity="4.2988318204879761e-01" nType="0">
          <Node pos="l" depth="2" NCoef="0" IVar="-1" Cut="0.0000000000000000e+00" cType="1" res="-1.2858903501182795e-03" rms="4.3581169843673706e-01" purity="4.0291938185691833e-01" nType="-99"/>
          <Node pos="r" depth="2" NCoef="0" IVar="-1" Cut="0.0000000000000000e+00" cType="1" res="3.3222772181034088e-03" rms="4.1252347826957703e-01" purity="6.6938114166259766e-01" nType="-99"/>
        </Node>
        <Node pos="r" depth="1" NCoef="0" IVar="1" Cut="3.5669067382812500e+02" cType="1" res="3.1159309670329094e-02" rms="4.4237291812896729e-01" purity="6.1337292194366455e-01" nType="0">
          <Node pos="l" depth="2" NCoef="0" IVar="-1" Cut="0.0000000000000000e+00" cType="1" res="-4.7541639651171863e-04" rms="4.6092915534973145e-01" purity="4.9847763776779175e-01" nType="-99"/>
          <Node pos="r" depth="2" NCoef="0" IVar="-1" Cut="0.0000000000000000e+00" cType="1" res="2.6892421301454306e-03" rms="4.1455274820327759e-01" purity="7.3257327079772949e-01" nType="-99"/>
        </Node>
      </Node>
    </BinaryTree>
    <BinaryTree type="DecisionTree" boostWeight="1.0000000000000000e+00" itree="378">
      <Node pos="s" depth="0" NCoef="0" IVar="7" Cut="1.0876336693763733e-01" cType="1" res="-1.2924013659358025e-02" rms="4.4035866856575012e-01" purity="5.0569021701812744e-01" nType="0">
        <Node pos="l" depth="1" NCoef="0" IVar="2" Cut="9.4850450754165649e-01" cType="1" res="-4.6406105160713196e-02" rms="4.3790864944458008e-01" purity="4.3817144632339478e-01" nType="0">
          <Node pos="l" depth="2" NCoef="0" IVar="-1" Cut="0.0000000000000000e+00" cType="1" res="-1.4285618672147393e-03" rms="4.2230260372161865e-01" purity="2.9472908377647400e-01" nType="-99"/>
          <Node pos="r" depth="2" NCoef="0" IVar="-1" Cut="0.0000000000000000e+00" cType="1" res="-1.0970515722874552e-04" rms="4.5095002651214600e-01" purity="5.9770900011062622e-01" nType="-99"/>
        </Node>
        <Node pos="r" depth="1" NCoef="0" IVar="5" Cut="4.1938043212890625e+02" cType="1" res="5.4452020674943924e-02" rms="4.3755042552947998e-01" purity="6.4155822992324829e-01" nType="0">
          <Node pos="l" depth="2" NCoef="0" IVar="-1" Cut="0.0000000000000000e+00" cType="1" res="-6.8599323276430368e-04" rms="4.5396223664283752e-01" purity="4.5214614272117615e-01" nType="-99"/>
          <Node pos="r" depth="2" NCoef="0" IVar="-1" Cut="0.0000000000000000e+00" cType="1" res="2.4438835680484772e-03" rms="4.2728143930435181e-01" purity="7.0685660839080811e-01" nType="-99"/>
        </Node>
      </Node>
    </BinaryTree>
    <BinaryTree type="DecisionTree" boostWeight="1.0000000000000000e+00" itree="379">
      <Node pos="s" depth="0" NCoef="0" IVar="3" Cut="1.0629758453369141e+02" cType="1" res="-3.8247879594564438e-02" rms="4.3769237399101257e-01" purity="4.7583079338073730e-01" nType="0">
        <Node pos="l" depth="1" NCoef="0" IVar="-1" Cut="0.0000000000000000e+00" cType="1" res="-2.5745783932507038e-03" rms="3.8941708207130432e-01" purity="2.6048922538757324e-01" nType="-99"/>
        <Node pos="r" depth="1" NCoef="0" IVar="1" Cut="2.8782354736328125e+02" cType="1" res="-2.0817330107092857e-02" rms="4.4088137149810791e-01" purity="5.0477170944213867e-01" nType="0">
          <Node pos="l" depth="2" NCoef="0" IVar="-1" Cut="0.0000000000000000e+00" cType="1" res="-2.2078785113990307e-03" rms="4.2007160186767578e-01" purity="2.8857409954071045e-01" nType="-99"/>
          <Node pos="r" depth="2" NCoef="0" IVar="-1" Cut="0.0000000000000000e+00" cType="1" res="-1.6800064258859493e-05" rms="4.4128561019897461e-01" purity="5.4207140207290649e-01" nType="-99"/>
        </Node>
      </Node>
    </BinaryTree>
    <BinaryTree type="DecisionTree" boostWeight="1.0000000000000000e+00" itree="380">
      <Node pos="s" depth="0" NCoef="0" IVar="2" Cut="9.3576323986053467e-01" cType="1" res="-9.8968343809247017e-03" rms="4.4271099567413330e-01" purity="5.1171976327896118e-01" nType="0">
        <Node pos="l" depth="1" NCoef="0" IVar="7" Cut="5.2924998104572296e-02" cType="1" res="-6.6098973155021667e-02" rms="4.2700749635696411e-01" purity="3.0066049098968506e-01" nType="0">
          <Node pos="l" depth="2" NCoef="0" IVar="-1" Cut="0.0000000000000000e+00" cType="1" res="-2.0701803732663393e-03" rms="3.6972984671592712e-01" purity="1.9526846706867218e-01" nType="-99"/>
          <Node pos="r" depth="2" NCoef="0" IVar="-1" Cut="0.0000000000000000e+00" cType="1" res="-4.6619097702205181e-04" rms="4.5548963546752930e-01" purity="3.6753094196319580e-01" nType="-99"/>
        </Node>
        <Node pos="r" depth="1" NCoef="0" IVar="6" Cut="8.2215270996093750e+01" cType="1" res="1.4052320271730423e-02" rms="4.4709429144859314e-01" purity="6.0165745019912720e-01" nType="0">
          <Node pos="l" depth="2" NCoef="0" IVar="-1" Cut="0.0000000000000000e+00" cType="1" res="-5.9882079949602485e-04" rms="4.6237584948539734e-01" purity="5.2042007446289062e-01" nType="-99"/>
          <Node pos="r" depth="2" NCoef="0" IVar="-1" Cut="0.0000000000000000e+00" cType="1" res="2.2827358916401863e-03" rms="4.1765779256820679e-01" purity="7.1527558565139771e-01" nType="-99"/>
        </Node>
      </Node>
    </BinaryTree>
    <BinaryTree type="DecisionTree" boostWeight="1.0000000000000000e+00" itree="381">
      <Node pos="s" depth="0" NCoef="0" IVar="5" Cut="4.1203503417968750e+02" cType="1" res="-1.8033189699053764e-02" rms="4.4189590215682983e-01" purity="5.0411498546600342e-01" nType="0">
        <Node pos="l" depth="1" NCoef="0" IVar="0" Cut="1.0968106985092163e+00" cType="1" res="-1.3448099792003632e-01" rms="4.0648776292800903e-01" purity="2.9695633053779602e-01" nType="0">
          <Node pos="l" depth="2" NCoef="0" IVar="-1" Cut="0.0000000000000000e+00" cType="1" res="-1.2373258359730244e-03" rms="4.5926588773727417e-01" purity="4.8802477121353149e-01" nType="-99"/>
          <Node pos="r" depth="2" NCoef="0" IVar="-1" Cut="0.0000000000000000e+00" cType="1" res="-2.6578428223729134e-03" rms="3.5730552673339844e-01" purity="1.6213588416576385e-01" nType="-99"/>
        </Node>
        <Node pos="r" depth="1" NCoef="0" IVar="8" Cut="2.3447067737579346e+00" cType="1" res="7.7948430553078651e-03" rms="4.4526404142379761e-01" purity="5.5006265640258789e-01" nType="0">
          <Node pos="l" depth="2" NCoef="0" IVar="-1" Cut="0.0000000000000000e+00" cType="1" res="9.2097057495266199e-04" rms="4.5062246918678284e-01" purity="6.4604741334915161e-01" nType="-99"/>
          <Node pos="r" depth="2" NCoef="0" IVar="-1" Cut="0.0000000000000000e+00" cType="1" res="-1.1737947352230549e-03" rms="4.2214223742485046e-01" purity="3.0145403742790222e-01" nType="-99"/>
        </Node>
      </Node>
    </BinaryTree>
    <BinaryTree type="DecisionTree" boostWeight="1.0000000000000000e+00" itree="382">
      <Node pos="s" depth="0" NCoef="0" IVar="6" Cut="4.5288505554199219e+01" cType="1" res="-2.6405988261103630e-02" rms="4.4358620047569275e-01" purity="4.9340727925300598e-01" nType="0">
        <Node pos="l" depth="1" NCoef="0" IVar="3" Cut="1.2731381225585938e+02" cType="1" res="-9.7578562796115875e-02" rms="4.5856705307960510e-01" purity="3.7235578894615173e-01" nType="0">
          <Node pos="l" depth="2" NCoef="0" IVar="-1" Cut="0.0000000000000000e+00" cType="1" res="-5.8962387265637517e-04" rms="4.5749428868293762e-01" purity="4.3134966492652893e-01" nType="-99"/>
          <Node pos="r" depth="2" NCoef="0" IVar="-1" Cut="0.0000000000000000e+00" cType="1" res="-2.7817846275866032e-03" rms="4.4507017731666565e-01" purity="2.9052159190177917e-01" nType="-99"/>
        </Node>
        <Node pos="r" depth="1" NCoef="0" IVar="2" Cut="9.4358760118484497e-01" cType="1" res="-1.0558393783867359e-02" rms="4.3861183524131775e-01" purity="5.2036112546920776e-01" nType="0">
          <Node pos="l" depth="2" NCoef="0" IVar="-1" Cut="0.0000000000000000e+00" cType="1" res="-1.0316410334780812e-03" rms="4.2759791016578674e-01" purity="3.2669112086296082e-01" nType="-99"/>
          <Node pos="r" depth="2" NCoef="0" IVar="-1" Cut="0.0000000000000000e+00" cType="1" res="7.0806744042783976e-04" rms="4.4273555278778076e-01" purity="6.5805995464324951e-01" nType="-99"/>
        </Node>
      </Node>
    </BinaryTree>
    <BinaryTree type="DecisionTree" boostWeight="1.0000000000000000e+00" itree="383">
      <Node pos="s" depth="0" NCoef="0" IVar="2" Cut="9.5405244827270508e-01" cType="1" res="-1.8558893352746964e-02" rms="4.4250538945198059e-01" purity="4.9564909934997559e-01" nType="0">
        <Node pos="l" depth="1" NCoef="0" IVar="5" Cut="8.6087542724609375e+02" cType="1" res="-4.9216829240322113e-02" rms="4.4376063346862793e-01" purity="3.7268880009651184e-01" nType="0">
          <Node pos="l" depth="2" NCoef="0" IVar="-1" Cut="0.0000000000000000e+00" cType="1" res="-1.0792796965688467e-03" rms="4.4147083163261414e-01" purity="3.4972760081291199e-01" nType="-99"/>
          <Node pos="r" depth="2" NCoef="0" IVar="-1" Cut="0.0000000000000000e+00" cType="1" res="1.7601113067939878e-03" rms="4.4330555200576782e-01" purity="5.8720189332962036e-01" nType="-99"/>
        </Node>
        <Node pos="r" depth="1" NCoef="0" IVar="3" Cut="1.1413272857666016e+02" cType="1" res="2.2574303671717644e-02" rms="4.3745335936546326e-01" purity="6.6062265634536743e-01" nType="0">
          <Node pos="l" depth="2" NCoef="0" IVar="-1" Cut="0.0000000000000000e+00" cType="1" res="-1.4354910235852003e-03" rms="4.8079013824462891e-01" purity="5.5375993251800537e-01" nType="-99"/>
          <Node pos="r" depth="2" NCoef="0" IVar="-1" Cut="0.0000000000000000e+00" cType="1" res="1.3406013604253531e-03" rms="4.2149576544761658e-01" purity="6.9072109460830688e-01" nType="-99"/>
        </Node>
      </Node>
    </BinaryTree>
    <BinaryTree type="DecisionTree" boostWeight="1.0000000000000000e+00" itree="384">
      <Node pos="s" depth="0" NCoef="0" IVar="5" Cut="4.8461309814453125e+02" cType="1" res="-2.6392893865704536e-02" rms="4.4703993201255798e-01" purity="4.9798500537872314e-01" nType="0">
        <Node pos="l" depth="1" NCoef="0" IVar="3" Cut="1.3238197326660156e+02" cType="1" res="-6.5353393554687500e-02" rms="4.5014223456382751e-01" purity="4.0561401844024658e-01" nType="0">
          <Node pos="l" depth="2" NCoef="0" IVar="-1" Cut="0.0000000000000000e+00" cType="1" res="-8.6272490443661809e-04" rms="4.4196608662605286e-01" purity="4.2824268341064453e-01" nType="-99"/>
          <Node pos="r" depth="2" NCoef="0" IVar="-1" Cut="0.0000000000000000e+00" cType="1" res="-2.4787548463791609e-03" rms="4.7381857037544250e-01" purity="3.1331917643547058e-01" nType="-99"/>
        </Node>
        <Node pos="r" depth="1" NCoef="0" IVar="1" Cut="4.3169607543945312e+02" cType="1" res="-3.4435896668583155e-03" rms="4.4360390305519104e-01" purity="5.5239522457122803e-01" nType="0">
          <Node pos="l" depth="2" NCoef="0" IVar="-1" Cut="0.0000000000000000e+00" cType="1" res="1.6628091689199209e-03" rms="4.1892004013061523e-01" purity="6.0318827629089355e-01" nType="-99"/>
          <Node pos="r" depth="2" NCoef="0" IVar="-1" Cut="0.0000000000000000e+00" cType="1" res="-8.1311026588082314e-04" rms="4.5122480392456055e-01" purity="5.2739751338958740e-01" nType="-99"/>
        </Node>
      </Node>
    </BinaryTree>
    <BinaryTree type="DecisionTree" boostWeight="1.0000000000000000e+00" itree="385">
      <Node pos="s" depth="0" NCoef="0" IVar="1" Cut="2.8700747680664062e+02" cType="1" res="-1.0470231063663960e-02" rms="4.4327425956726074e-01" purity="5.0861978530883789e-01" nType="0">
        <Node pos="l" depth="1" NCoef="0" IVar="-1" Cut="0.0000000000000000e+00" cType="1" res="-1.5275562182068825e-03" rms="3.9365169405937195e-01" purity="2.8700229525566101e-01" nType="-99"/>
        <Node pos="r" depth="1" NCoef="0" IVar="1" Cut="3.4699880981445312e+02" cType="1" res="3.5226170439273119e-03" rms="4.4957315921783447e-01" purity="5.4588866233825684e-01" nType="0">
          <Node pos="l" depth="2" NCoef="0" IVar="-1" Cut="0.0000000000000000e+00" cType="1" res="1.6848294762894511e-03" rms="4.3628796935081482e-01" purity="5.6754207611083984e-01" nType="-99"/>
          <Node pos="r" depth="2" NCoef="0" IVar="-1" Cut="0.0000000000000000e+00" cType="1" res="-3.5876859328709543e-04" rms="4.5109808444976807e-01" purity="5.4007589817047119e-01" nType="-99"/>
        </Node>
      </Node>
    </BinaryTree>
    <BinaryTree type="DecisionTree" boostWeight="1.0000000000000000e+00" itree="386">
      <Node pos="s" depth="0" NCoef="0" IVar="6" Cut="4.0311077117919922e+01" cType="1" res="-6.8163536489009857e-03" rms="4.4589090347290039e-01" purity="5.1477771997451782e-01" nType="0">
        <Node pos="l" depth="1" NCoef="0" IVar="-1" Cut="0.0000000000000000e+00" cType="1" res="-1.7566104652360082e-03" rms="4.6411919593811035e-01" purity="3.5533708333969116e-01" nType="-99"/>
        <Node pos="r" depth="1" NCoef="0" IVar="2" Cut="9.5405244827270508e-01" cType="1" res="6.0836509801447392e-03" rms="4.4183370471000671e-01" purity="5.3547590970993042e-01" nType="0">
          <Node pos="l" depth="2" NCoef="0" IVar="-1" Cut="0.0000000000000000e+00" cType="1" res="-5.2557326853275299e-04" rms="4.5623704791069031e-01" purity="4.0260270237922668e-01" nType="-99"/>
          <Node pos="r" depth="2" NCoef="0" IVar="-1" Cut="0.0000000000000000e+00" cType="1" res="1.5808785101398826e-03" rms="4.1861540079116821e-01" purity="7.0406991243362427e-01" nType="-99"/>
        </Node>
      </Node>
    </BinaryTree>
    <BinaryTree type="DecisionTree" boostWeight="1.0000000000000000e+00" itree="387">
      <Node pos="s" depth="0" NCoef="0" IVar="6" Cut="4.4669151306152344e+01" cType="1" res="-5.5607635295018554e-04" rms="4.4593921303749084e-01" purity="5.2277660369873047e-01" nType="0">
        <Node pos="l" depth="1" NCoef="0" IVar="0" Cut="8.5613566637039185e-01" cType="1" res="-9.5229357481002808e-02" rms="4.7446185350418091e-01" purity="3.7663820385932922e-01" nType="0">
          <Node pos="l" depth="2" NCoef="0" IVar="-1" Cut="0.0000000000000000e+00" cType="1" res="-2.9976370278745890e-03" rms="4.6054050326347351e-01" purity="3.4788382053375244e-01" nType="-99"/>
          <Node pos="r" depth="2" NCoef="0" IVar="-1" Cut="0.0000000000000000e+00" cType="1" res="3.6638954770751297e-04" rms="4.6394175291061401e-01" purity="4.0939328074455261e-01" nType="-99"/>
        </Node>
        <Node pos="r" depth="1" NCoef="0" IVar="3" Cut="1.3345353698730469e+02" cType="1" res="1.7097784206271172e-02" rms="4.3815919756889343e-01" purity="5.5002731084823608e-01" nType="0">
          <Node pos="l" depth="2" NCoef="0" IVar="-1" Cut="0.0000000000000000e+00" cType="1" res="9.2460535233840346e-04" rms="4.3447944521903992e-01" purity="5.8232712745666504e-01" nType="-99"/>
          <Node pos="r" depth="2" NCoef="0" IVar="-1" Cut="0.0000000000000000e+00" cType="1" res="-1.1379055213183165e-03" rms="4.4226226210594177e-01" purity="4.4127616286277771e-01" nType="-99"/>
        </Node>
      </Node>
    </BinaryTree>
    <BinaryTree type="DecisionTree" boostWeight="1.0000000000000000e+00" itree="388">
      <Node pos="s" depth="0" NCoef="0" IVar="8" Cut="1.6879132986068726e+00" cType="1" res="-8.6344415321946144e-03" rms="4.4252154231071472e-01" purity="5.1066535711288452e-01" nType="0">
        <Node pos="l" depth="1" NCoef="0" IVar="-1" Cut="0.0000000000000000e+00" cType="1" res="-3.7179414648562670e-03" rms="4.4723713397979736e-01" purity="3.3450567722320557e-01" nType="-99"/>
        <Node pos="r" depth="1" NCoef="0" IVar="6" Cut="3.8652393341064453e+01" cType="1" res="8.5383336991071701e-03" rms="4.3750733137130737e-01" purity="5.2436751127243042e-01" nType="0">
          <Node pos="l" depth="2" NCoef="0" IVar="-1" Cut="0.0000000000000000e+00" cType="1" res="-2.0183210726827383e-03" rms="4.3667703866958618e-01" purity="2.9594945907592773e-01" nType="-99"/>
          <Node pos="r" depth="2" NCoef="0" IVar="-1" Cut="0.0000000000000000e+00" cType="1" res="5.2849407074972987e-04" rms="4.3522575497627258e-01" purity="5.4978567361831665e-01" nType="-99"/>
        </Node>
      </Node>
    </BinaryTree>
    <BinaryTree type="DecisionTree" boostWeight="1.0000000000000000e+00" itree="389">
      <Node pos="s" depth="0" NCoef="0" IVar="8" Cut="2.4754247665405273e+00" cType="1" res="-1.6293965280056000e-02" rms="4.3993318080902100e-01" purity="4.9795398116111755e-01" nType="0">
        <Node pos="l" depth="1" NCoef="0" IVar="1" Cut="5.2955798339843750e+02" cType="1" res="8.9879210918297758e-07" rms="4.5466327667236328e-01" purity="5.7297801971435547e-01" nType="0">
          <Node pos="l" depth="2" NCoef="0" IVar="-1" Cut="0.0000000000000000e+00" cType="1" res="-3.5380662302486598e-04" rms="4.6128222346305847e-01" purity="5.4400444030761719e-01" nType="-99"/>
          <Node pos="r" depth="2" NCoef="0" IVar="-1" Cut="0.0000000000000000e+00" cType="1" res="1.6307038022205234e-03" rms="4.2606115341186523e-01" purity="6.7271947860717773e-01" nType="-99"/>
        </Node>
        <Node pos="r" depth="1" NCoef="0" IVar="6" Cut="9.5868392944335938e+01" cType="1" res="-8.0352738499641418e-02" rms="3.6958104372024536e-01" purity="2.0301748812198639e-01" nType="0">
          <Node pos="l" depth="2" NCoef="0" IVar="-1" Cut="0.0000000000000000e+00" cType="1" res="-1.9871247932314873e-03" rms="3.2190176844596863e-01" purity="1.4255593717098236e-01" nType="-99"/>
          <Node pos="r" depth="2" NCoef="0" IVar="-1" Cut="0.0000000000000000e+00" cType="1" res="-4.3820810969918966e-04" rms="4.2306411266326904e-01" purity="2.9057019948959351e-01" nType="-99"/>
        </Node>
      </Node>
    </BinaryTree>
    <BinaryTree type="DecisionTree" boostWeight="1.0000000000000000e+00" itree="390">
      <Node pos="s" depth="0" NCoef="0" IVar="0" Cut="1.4865537881851196e+00" cType="1" res="-1.4927166514098644e-02" rms="4.4194066524505615e-01" purity="5.0070881843566895e-01" nType="0">
        <Node pos="l" depth="1" NCoef="0" IVar="2" Cut="9.3075990676879883e-01" cType="1" res="5.9343427419662476e-03" rms="4.5660147070884705e-01" purity="5.7351410388946533e-01" nType="0">
          <Node pos="l" depth="2" NCoef="0" IVar="-1" Cut="0.0000000000000000e+00" cType="1" res="-9.3421252677217126e-04" rms="4.6540084481239319e-01" purity="3.5171240568161011e-01" nType="-99"/>
          <Node pos="r" depth="2" NCoef="0" IVar="-1" Cut="0.0000000000000000e+00" cType="1" res="5.7765014935284853e-04" rms="4.5272448658943176e-01" purity="6.3330012559890747e-01" nType="-99"/>
        </Node>
        <Node pos="r" depth="1" NCoef="0" IVar="-1" Cut="0.0000000000000000e+00" cType="1" res="-1.8368323799222708e-03" rms="3.4922274947166443e-01" purity="1.5942431986331940e-01" nType="-99"/>
      </Node>
    </BinaryTree>
    <BinaryTree type="DecisionTree" boostWeight="1.0000000000000000e+00" itree="391">
      <Node pos="s" depth="0" NCoef="0" IVar="3" Cut="1.4003033447265625e+02" cType="1" res="-2.8614722192287445e-02" rms="4.5106050372123718e-01" purity="4.8994877934455872e-01" nType="0">
        <Node pos="l" depth="1" NCoef="0" IVar="3" Cut="1.0087467956542969e+02" cType="1" res="-1.7748095095157623e-02" rms="4.5429298281669617e-01" purity="5.1021713018417358e-01" nType="0">
          <Node pos="l" depth="2" NCoef="0" IVar="-1" Cut="0.0000000000000000e+00" cType="1" res="-2.4475285317748785e-03" rms="3.8722512125968933e-01" purity="2.3065434396266937e-01" nType="-99"/>
          <Node pos="r" depth="2" NCoef="0" IVar="-1" Cut="0.0000000000000000e+00" cType="1" res="-1.1610212823143229e-04" rms="4.5778685808181763e-01" purity="5.3536963462829590e-01" nType="-99"/>
        </Node>
        <Node pos="r" depth="1" NCoef="0" IVar="1" Cut="4.9318218994140625e+02" cType="1" res="-1.0410875827074051e-01" rms="4.2024314403533936e-01" purity="3.4913787245750427e-01" nType="0">
          <Node pos="l" depth="2" NCoef="0" IVar="-1" Cut="0.0000000000000000e+00" cType="1" res="-1.4778804033994675e-03" rms="4.2681530117988586e-01" purity="3.5277074575424194e-01" nType="-99"/>
          <Node pos="r" depth="2" NCoef="0" IVar="-1" Cut="0.0000000000000000e+00" cType="1" res="-2.3704199120402336e-03" rms="4.1211491823196411e-01" purity="3.4542503952980042e-01" nType="-99"/>
        </Node>
      </Node>
    </BinaryTree>
    <BinaryTree type="DecisionTree" boostWeight="1.0000000000000000e+00" itree="392">
      <Node pos="s" depth="0" NCoef="0" IVar="4" Cut="4.8097943115234375e+02" cType="1" res="-3.0273078009486198e-02" rms="4.4439050555229187e-01" purity="4.8376119136810303e-01" nType="0">
        <Node pos="l" depth="1" NCoef="0" IVar="6" Cut="5.4871067047119141e+01" cType="1" res="-1.6721962019801140e-02" rms="4.4569376111030579e-01" purity="5.0808268785476685e-01" nType="0">
          <Node pos="l" depth="2" NCoef="0" IVar="-1" Cut="0.0000000000000000e+00" cType="1" res="-1.4680241001769900e-03" rms="4.5404481887817383e-01" purity="4.0267309546470642e-01" nType="-99"/>
          <Node pos="r" depth="2" NCoef="0" IVar="-1" Cut="0.0000000000000000e+00" cType="1" res="3.2933338661678135e-04" rms="4.3841382861137390e-01" purity="5.5668962001800537e-01" nType="-99"/>
        </Node>
        <Node pos="r" depth="1" NCoef="0" IVar="-1" Cut="0.0000000000000000e+00" cType="1" res="-2.5947287213057280e-03" rms="4.0269908308982849e-01" purity="2.2391150891780853e-01" nType="-99"/>
      </Node>
    </BinaryTree>
    <BinaryTree type="DecisionTree" boostWeight="1.0000000000000000e+00" itree="393">
      <Node pos="s" depth="0" NCoef="0" IVar="2" Cut="9.2432701587677002e-01" cType="1" res="-2.9883302748203278e-02" rms="4.4587719440460205e-01" purity="4.8927617073059082e-01" nType="0">
        <Node pos="l" depth="1" NCoef="0" IVar="6" Cut="8.0006523132324219e+01" cType="1" res="-9.5243453979492188e-02" rms="4.0426030755043030e-01" purity="2.4705041944980621e-01" nType="0">
          <Node pos="l" depth="2" NCoef="0" IVar="-1" Cut="0.0000000000000000e+00" cType="1" res="-2.1539197769016027e-03" rms="3.6919346451759338e-01" purity="1.7776159942150116e-01" nType="-99"/>
          <Node pos="r" depth="2" NCoef="0" IVar="-1" Cut="0.0000000000000000e+00" cType="1" res="-2.0216836128383875e-04" rms="4.3660154938697815e-01" purity="3.4726127982139587e-01" nType="-99"/>
        </Node>
        <Node pos="r" depth="1" NCoef="0" IVar="5" Cut="5.0017169189453125e+02" cType="1" res="-1.5830300748348236e-02" rms="4.5309767127037048e-01" purity="5.4135680198669434e-01" nType="0">
          <Node pos="l" depth="2" NCoef="0" IVar="-1" Cut="0.0000000000000000e+00" cType="1" res="-9.4285060185939074e-04" rms="4.6209046244621277e-01" purity="4.6476992964744568e-01" nType="-99"/>
          <Node pos="r" depth="2" NCoef="0" IVar="-1" Cut="0.0000000000000000e+00" cType="1" res="1.6201451944652945e-04" rms="4.4552698731422424e-01" purity="5.9300416707992554e-01" nType="-99"/>
        </Node>
      </Node>
    </BinaryTree>
    <BinaryTree type="DecisionTree" boostWeight="1.0000000000000000e+00" itree="394">
      <Node pos="s" depth="0" NCoef="0" IVar="8" Cut="1.6925599575042725e+00" cType="1" res="-3.7404302507638931e-02" rms="4.4664227962493896e-01" purity="4.7780111432075500e-01" nType="0">
        <Node pos="l" depth="1" NCoef="0" IVar="-1" Cut="0.0000000000000000e+00" cType="1" res="-3.6763255484402180e-03" rms="4.7600135207176208e-01" purity="3.4357741475105286e-01" nType="-99"/>
        <Node pos="r" depth="1" NCoef="0" IVar="8" Cut="2.1143436431884766e+00" cType="1" res="-2.4248816072940826e-02" rms="4.4151932001113892e-01" purity="4.8706746101379395e-01" nType="0">
          <Node pos="l" depth="2" NCoef="0" IVar="-1" Cut="0.0000000000000000e+00" cType="1" res="4.5671025873161852e-04" rms="4.5173838734626770e-01" purity="6.2109917402267456e-01" nType="-99"/>
          <Node pos="r" depth="2" NCoef="0" IVar="-1" Cut="0.0000000000000000e+00" cType="1" res="-9.9567614961415529e-04" rms="4.3237313628196716e-01" purity="3.9989092946052551e-01" nType="-99"/>
        </Node>
      </Node>
    </BinaryTree>
    <BinaryTree type="DecisionTree" boostWeight="1.0000000000000000e+00" itree="395">
      <Node pos="s" depth="0" NCoef="0" IVar="2" Cut="9.3621122837066650e-01" cType="1" res="-2.5567701086401939e-03" rms="4.3530404567718506e-01" purity="5.1537120342254639e-01" nType="0">
        <Node pos="l" depth="1" NCoef="0" IVar="2" Cut="9.1870009899139404e-01" cType="1" res="-6.6389970481395721e-02" rms="4.2934742569923401e-01" purity="3.0677202343940735e-01" nType="0">
          <Node pos="l" depth="2" NCoef="0" IVar="-1" Cut="0.0000000000000000e+00" cType="1" res="2.0784426305908710e-04" rms="4.4666916131973267e-01" purity="3.6454167962074280e-01" nType="-99"/>
          <Node pos="r" depth="2" NCoef="0" IVar="-1" Cut="0.0000000000000000e+00" cType="1" res="-1.5268919523805380e-03" rms="4.1817271709442139e-01" purity="2.8375387191772461e-01" nType="-99"/>
        </Node>
        <Node pos="r" depth="1" NCoef="0" IVar="8" Cut="2.5714344978332520e+00" cType="1" res="2.7689710259437561e-02" rms="4.3483847379684448e-01" purity="6.1421310901641846e-01" nType="0">
          <Node pos="l" depth="2" NCoef="0" IVar="-1" Cut="0.0000000000000000e+00" cType="1" res="1.2154062278568745e-03" rms="4.3565887212753296e-01" purity="6.6674172878265381e-01" nType="-99"/>
          <Node pos="r" depth="2" NCoef="0" IVar="-1" Cut="0.0000000000000000e+00" cType="1" res="-1.7609276110306382e-03" rms="4.0345704555511475e-01" purity="2.1563319861888885e-01" nType="-99"/>
        </Node>
      </Node>
    </BinaryTree>
    <BinaryTree type="DecisionTree" boostWeight="1.0000000000000000e+00" itree="396">
      <Node pos="s" depth="0" NCoef="0" IVar="8" Cut="2.1622788906097412e+00" cType="1" res="-5.9743006713688374e-03" rms="4.4033026695251465e-01" purity="5.0755470991134644e-01" nType="0">
        <Node pos="l" depth="1" NCoef="0" IVar="3" Cut="1.3051626586914062e+02" cType="1" res="3.6684919148683548e-02" rms="4.5055377483367920e-01" purity="6.3459879159927368e-01" nType="0">
          <Node pos="l" depth="2" NCoef="0" IVar="-1" Cut="0.0000000000000000e+00" cType="1" res="1.7051679315045476e-03" rms="4.3729281425476074e-01" purity="6.6544538736343384e-01" nType="-99"/>
          <Node pos="r" depth="2" NCoef="0" IVar="-1" Cut="0.0000000000000000e+00" cType="1" res="-8.8374590268358588e-04" rms="4.7396376729011536e-01" purity="5.5603468418121338e-01" nType="-99"/>
        </Node>
        <Node pos="r" depth="1" NCoef="0" IVar="2" Cut="9.6896147727966309e-01" cType="1" res="-4.6768292784690857e-02" rms="4.2635270953178406e-01" purity="3.8606554269790649e-01" nType="0">
          <Node pos="l" depth="2" NCoef="0" IVar="-1" Cut="0.0000000000000000e+00" cType="1" res="-1.2587810633704066e-03" rms="4.2552825808525085e-01" purity="3.1918945908546448e-01" nType="-99"/>
          <Node pos="r" depth="2" NCoef="0" IVar="-1" Cut="0.0000000000000000e+00" cType="1" res="1.4481256948783994e-03" rms="4.1482597589492798e-01" purity="6.4246672391891479e-01" nType="-99"/>
        </Node>
      </Node>
    </BinaryTree>
    <BinaryTree type="DecisionTree" boostWeight="1.0000000000000000e+00" itree="397">
      <Node pos="s" depth="0" NCoef="0" IVar="2" Cut="9.7604787349700928e-01" cType="1" res="-1.5678452327847481e-02" rms="4.4541835784912109e-01" purity="5.0542235374450684e-01" nType="0">
        <Node pos="l" depth="1" NCoef="0" IVar="4" Cut="1.3556314086914062e+02" cType="1" res="-3.3130776137113571e-02" rms="4.5451313257217407e-01" purity="4.6200522780418396e-01" nType="0">
          <Node pos="l" depth="2" NCoef="0" IVar="-1" Cut="0.0000000000000000e+00" cType="1" res="-2.1034297533333302e-03" rms="4.6762499213218689e-01" purity="3.6865785717964172e-01" nType="-99"/>
          <Node pos="r" depth="2" NCoef="0" IVar="-1" Cut="0.0000000000000000e+00" cType="1" res="-3.7251110188663006e-04" rms="4.5065116882324219e-01" purity="4.7686663269996643e-01" nType="-99"/>
        </Node>
        <Node pos="r" depth="1" NCoef="0" IVar="4" Cut="2.0188504028320312e+02" cType="1" res="1.0209609568119049e-01" rms="3.5670450329780579e-01" purity="7.9841673374176025e-01" nType="0">
          <Node pos="l" depth="2" NCoef="0" IVar="-1" Cut="0.0000000000000000e+00" cType="1" res="8.7711056694388390e-03" rms="2.9616320133209229e-01" purity="8.9290797710418701e-01" nType="-99"/>
          <Node pos="r" depth="2" NCoef="0" IVar="-1" Cut="0.0000000000000000e+00" cType="1" res="9.2017446877434850e-04" rms="3.9170399308204651e-01" purity="7.0917230844497681e-01" nType="-99"/>
        </Node>
      </Node>
    </BinaryTree>
    <BinaryTree type="DecisionTree" boostWeight="1.0000000000000000e+00" itree="398">
      <Node pos="s" depth="0" NCoef="0" IVar="4" Cut="3.2168469238281250e+02" cType="1" res="-3.2607022672891617e-02" rms="4.4032114744186401e-01" purity="4.7591534256935120e-01" nType="0">
        <Node pos="l" depth="1" NCoef="0" IVar="1" Cut="5.3568096923828125e+02" cType="1" res="-1.0353225283324718e-02" rms="4.4880387187004089e-01" purity="5.2638477087020874e-01" nType="0">
          <Node pos="l" depth="2" NCoef="0" IVar="-1" Cut="0.0000000000000000e+00" cType="1" res="-5.5161002092063427e-04" rms="4.5271146297454834e-01" purity="4.9465858936309814e-01" nType="-99"/>
          <Node pos="r" depth="2" NCoef="0" IVar="-1" Cut="0.0000000000000000e+00" cType="1" res="3.6326453555375338e-03" rms="4.0010309219360352e-01" purity="7.5340026617050171e-01" nType="-99"/>
        </Node>
        <Node pos="r" depth="1" NCoef="0" IVar="6" Cut="8.7942039489746094e+01" cType="1" res="-1.0585121065378189e-01" rms="4.0257215499877930e-01" purity="3.0980470776557922e-01" nType="0">
          <Node pos="l" depth="2" NCoef="0" IVar="-1" Cut="0.0000000000000000e+00" cType="1" res="-2.7972932439297438e-03" rms="3.7454688549041748e-01" purity="1.9981823861598969e-01" nType="-99"/>
          <Node pos="r" depth="2" NCoef="0" IVar="-1" Cut="0.0000000000000000e+00" cType="1" res="-6.5843557240441442e-04" rms="4.1591763496398926e-01" purity="4.1903406381607056e-01" nType="-99"/>
        </Node>
      </Node>
    </BinaryTree>
    <BinaryTree type="DecisionTree" boostWeight="1.0000000000000000e+00" itree="399">
      <Node pos="s" depth="0" NCoef="0" IVar="5" Cut="8.5422857666015625e+02" cType="1" res="-2.1228456869721413e-02" rms="4.4235306978225708e-01" purity="4.9885839223861694e-01" nType="0">
        <Node pos="l" depth="1" NCoef="0" IVar="2" Cut="9.2622256278991699e-01" cType="1" res="-3.5545080900192261e-02" rms="4.4392013549804688e-01" purity="4.7806689143180847e-01" nType="0">
          <Node pos="l" depth="2" NCoef="0" IVar="-1" Cut="0.0000000000000000e+00" cType="1" res="-1.7032920150086284e-03" rms="3.8884127140045166e-01" purity="2.2054989635944366e-01" nType="-99"/>
          <Node pos="r" depth="2" NCoef="0" IVar="-1" Cut="0.0000000000000000e+00" cType="1" res="-4.1161754052154720e-04" rms="4.5347541570663452e-01" purity="5.3485280275344849e-01" nType="-99"/>
        </Node>
        <Node pos="r" depth="1" NCoef="0" IVar="-1" Cut="0.0000000000000000e+00" cType="1" res="3.5544463898986578e-03" rms="4.0362310409545898e-01" purity="6.9304472208023071e-01" nType="-99"/>
      </Node>
    </BinaryTree>
    <BinaryTree type="DecisionTree" boostWeight="1.0000000000000000e+00" itree="400">
      <Node pos="s" depth="0" NCoef="0" IVar="3" Cut="1.0258023071289062e+02" cType="1" res="-4.7297389246523380e-03" rms="4.4188311696052551e-01" purity="5.1915425062179565e-01" nType="0">
        <Node pos="l" depth="1" NCoef="0" IVar="-1" Cut="0.0000000000000000e+00" cType="1" res="-2.0704618655145168e-03" rms="4.1969108581542969e-01" purity="2.9909947514533997e-01" nType="-99"/>
        <Node pos="r" depth="1" NCoef="0" IVar="5" Cut="4.1468374633789062e+02" cType="1" res="6.9356728345155716e-03" rms="4.4223627448081970e-01" purity="5.4047697782516479e-01" nType="0">
          <Node pos="l" depth="2" NCoef="0" IVar="-1" Cut="0.0000000000000000e+00" cType="1" res="-1.3560734223574400e-03" rms="4.3125206232070923e-01" purity="3.5671728849411011e-01" nType="-99"/>
          <Node pos="r" depth="2" NCoef="0" IVar="-1" Cut="0.0000000000000000e+00" cType="1" res="5.3821172332391143e-04" rms="4.4258952140808105e-01" purity="5.7620179653167725e-01" nType="-99"/>
        </Node>
      </Node>
    </BinaryTree>
    <BinaryTree type="DecisionTree" boostWeight="1.0000000000000000e+00" itree="401">
      <Node pos="s" depth="0" NCoef="0" IVar="7" Cut="1.6369192302227020e-01" cType="1" res="-8.9698946103453636e-03" rms="4.3360248208045959e-01" purity="5.0631368160247803e-01" nType="0">
        <Node pos="l" depth="1" NCoef="0" IVar="3" Cut="1.0726149749755859e+02" cType="1" res="-2.7765398845076561e-02" rms="4.3315446376800537e-01" purity="4.7210088372230530e-01" nType="0">
          <Node pos="l" depth="2" NCoef="0" IVar="-1" Cut="0.0000000000000000e+00" cType="1" res="-2.3558503016829491e-03" rms="4.0591135621070862e-01" purity="2.8125935792922974e-01" nType="-99"/>
          <Node pos="r" depth="2" NCoef="0" IVar="-1" Cut="0.0000000000000000e+00" cType="1" res="-1.5976231952663511e-04" rms="4.3433982133865356e-01" purity="5.0445836782455444e-01" nType="-99"/>
        </Node>
        <Node pos="r" depth="1" NCoef="0" IVar="8" Cut="2.1823766231536865e+00" cType="1" res="9.4516992568969727e-02" rms="4.2130106687545776e-01" purity="6.9468766450881958e-01" nType="0">
          <Node pos="l" depth="2" NCoef="0" IVar="-1" Cut="0.0000000000000000e+00" cType="1" res="4.9900114536285400e-03" rms="3.9978373050689697e-01" purity="7.9999077320098877e-01" nType="-99"/>
          <Node pos="r" depth="2" NCoef="0" IVar="-1" Cut="0.0000000000000000e+00" cType="1" res="4.8083890578709543e-04" rms="4.4140687584877014e-01" purity="5.3760844469070435e-01" nType="-99"/>
        </Node>
      </Node>
    </BinaryTree>
    <BinaryTree type="DecisionTree" boostWeight="1.0000000000000000e+00" itree="402">
      <Node pos="s" depth="0" NCoef="0" IVar="6" Cut="8.4290008544921875e+01" cType="1" res="-1.2758539989590645e-02" rms="4.4347029924392700e-01" purity="5.1205569505691528e-01" nType="0">
        <Node pos="l" depth="1" NCoef="0" IVar="3" Cut="1.0553105926513672e+02" cType="1" res="-3.9359122514724731e-02" rms="4.5580708980560303e-01" purity="4.5726892352104187e-01" nType="0">
          <Node pos="l" depth="2" NCoef="0" IVar="-1" Cut="0.0000000000000000e+00" cType="1" res="-2.2190879099071026e-03" rms="4.2651787400245667e-01" purity="2.9782781004905701e-01" nType="-99"/>
          <Node pos="r" depth="2" NCoef="0" IVar="-1" Cut="0.0000000000000000e+00" cType="1" res="-5.0130678573623300e-04" rms="4.5789578557014465e-01" purity="4.7942548990249634e-01" nType="-99"/>
        </Node>
        <Node pos="r" depth="1" NCoef="0" IVar="8" Cut="2.2308413982391357e+00" cType="1" res="2.6304928585886955e-02" rms="4.2167374491691589e-01" purity="5.9251111745834351e-01" nType="0">
          <Node pos="l" depth="2" NCoef="0" IVar="-1" Cut="0.0000000000000000e+00" cType="1" res="3.5792989656329155e-03" rms="3.7728783488273621e-01" purity="7.9921060800552368e-01" nType="-99"/>
          <Node pos="r" depth="2" NCoef="0" IVar="-1" Cut="0.0000000000000000e+00" cType="1" res="-7.0606468943879008e-04" rms="4.4762083888053894e-01" purity="4.1383850574493408e-01" nType="-99"/>
        </Node>
      </Node>
    </BinaryTree>
    <BinaryTree type="DecisionTree" boostWeight="1.0000000000000000e+00" itree="403">
      <Node pos="s" depth="0" NCoef="0" IVar="6" Cut="3.8381660461425781e+01" cType="1" res="-1.5381467528641224e-02" rms="4.4574832916259766e-01" purity="5.0103086233139038e-01" nType="0">
        <Node pos="l" depth="1" NCoef="0" IVar="-1" Cut="0.0000000000000000e+00" cType="1" res="-1.7824667738750577e-03" rms="4.4296237826347351e-01" purity="3.2783177495002747e-01" nType="-99"/>
        <Node pos="r" depth="1" NCoef="0" IVar="2" Cut="9.6867448091506958e-01" cType="1" res="-4.4270572252571583e-03" rms="4.4478365778923035e-01" purity="5.2124732732772827e-01" nType="0">
          <Node pos="l" depth="2" NCoef="0" IVar="-1" Cut="0.0000000000000000e+00" cType="1" res="-4.7756714047864079e-04" rms="4.5603027939796448e-01" purity="4.5827850699424744e-01" nType="-99"/>
          <Node pos="r" depth="2" NCoef="0" IVar="-1" Cut="0.0000000000000000e+00" cType="1" res="2.3574284277856350e-03" rms="3.9209103584289551e-01" purity="7.5237447023391724e-01" nType="-99"/>
        </Node>
      </Node>
    </BinaryTree>
    <BinaryTree type="DecisionTree" boostWeight="1.0000000000000000e+00" itree="404">
      <Node pos="s" depth="0" NCoef="0" IVar="2" Cut="9.7876447439193726e-01" cType="1" res="-2.3610016331076622e-02" rms="4.4493430852890015e-01" purity="4.9656018614768982e-01" nType="0">
        <Node pos="l" depth="1" NCoef="0" IVar="8" Cut="1.9479333162307739e+00" cType="1" res="-3.6824051290750504e-02" rms="4.5286908745765686e-01" purity="4.6249619126319885e-01" nType="0">
          <Node pos="l" depth="2" NCoef="0" IVar="-1" Cut="0.0000000000000000e+00" cType="1" res="-1.8746018176898360e-03" rms="4.6802017092704773e-01" purity="4.6177983283996582e-01" nType="-99"/>
          <Node pos="r" depth="2" NCoef="0" IVar="-1" Cut="0.0000000000000000e+00" cType="1" res="-3.3094821264967322e-04" rms="4.4600108265876770e-01" purity="4.6272495388984680e-01" nType="-99"/>
        </Node>
        <Node pos="r" depth="1" NCoef="0" IVar="7" Cut="1.0727769881486893e-01" cType="1" res="8.6601175367832184e-02" rms="3.5347881913185120e-01" purity="7.8066951036453247e-01" nType="0">
          <Node pos="l" depth="2" NCoef="0" IVar="-1" Cut="0.0000000000000000e+00" cType="1" res="4.4013797305524349e-03" rms="3.4641036391258240e-01" purity="7.8502899408340454e-01" nType="-99"/>
          <Node pos="r" depth="2" NCoef="0" IVar="-1" Cut="0.0000000000000000e+00" cType="1" res="1.9035247387364507e-03" rms="3.5713040828704834e-01" purity="7.7606987953186035e-01" nType="-99"/>
        </Node>
      </Node>
    </BinaryTree>
    <BinaryTree type="DecisionTree" boostWeight="1.0000000000000000e+00" itree="405">
      <Node pos="s" depth="0" NCoef="0" IVar="4" Cut="3.7716842651367188e+02" cType="1" res="-2.0379673689603806e-02" rms="4.4456136226654053e-01" purity="4.9373367428779602e-01" nType="0">
        <Node pos="l" depth="1" NCoef="0" IVar="3" Cut="1.3780973815917969e+02" cType="1" res="-3.1367957126349211e-03" rms="4.5229664444923401e-01" purity="5.3607326745986938e-01" nType="0">
          <Node pos="l" depth="2" NCoef="0" IVar="-1" Cut="0.0000000000000000e+00" cType="1" res="2.2000831086188555e-04" rms="4.5341119170188904e-01" purity="5.5917781591415405e-01" nType="-99"/>
          <Node pos="r" depth="2" NCoef="0" IVar="-1" Cut="0.0000000000000000e+00" cType="1" res="-1.5155542641878128e-03" rms="4.3682715296745300e-01" purity="3.9274805784225464e-01" nType="-99"/>
        </Node>
        <Node pos="r" depth="1" NCoef="0" IVar="4" Cut="4.5757266235351562e+02" cType="1" res="-1.1476092785596848e-01" rms="3.8616895675659180e-01" purity="2.6198196411132812e-01" nType="0">
          <Node pos="l" depth="2" NCoef="0" IVar="-1" Cut="0.0000000000000000e+00" cType="1" res="-3.0016296077519655e-03" rms="3.9440542459487915e-01" purity="2.6320159435272217e-01" nType="-99"/>
          <Node pos="r" depth="2" NCoef="0" IVar="-1" Cut="0.0000000000000000e+00" cType="1" res="-1.1986630270257592e-03" rms="3.7168863415718079e-01" purity="2.6093399524688721e-01" nType="-99"/>
        </Node>
      </Node>
    </BinaryTree>
    <BinaryTree type="DecisionTree" boostWeight="1.0000000000000000e+00" itree="406">
      <Node pos="s" depth="0" NCoef="0" IVar="6" Cut="4.0311077117919922e+01" cType="1" res="-4.7950560110621154e-04" rms="4.3980821967124939e-01" purity="5.1932859420776367e-01" nType="0">
        <Node pos="l" depth="1" NCoef="0" IVar="-1" Cut="0.0000000000000000e+00" cType="1" res="-1.5910569345578551e-03" rms="4.4800719618797302e-01" purity="3.4287101030349731e-01" nType="-99"/>
        <Node pos="r" depth="1" NCoef="0" IVar="5" Cut="5.2574694824218750e+02" cType="1" res="1.2564076110720634e-02" rms="4.3706268072128296e-01" purity="5.4368364810943604e-01" nType="0">
          <Node pos="l" depth="2" NCoef="0" IVar="-1" Cut="0.0000000000000000e+00" cType="1" res="1.2738585937768221e-03" rms="4.1927984356880188e-01" purity="5.4690140485763550e-01" nType="-99"/>
          <Node pos="r" depth="2" NCoef="0" IVar="-1" Cut="0.0000000000000000e+00" cType="1" res="-4.4626620365306735e-04" rms="4.4688740372657776e-01" purity="5.4132550954818726e-01" nType="-99"/>
        </Node>
      </Node>
    </BinaryTree>
    <BinaryTree type="DecisionTree" boostWeight="1.0000000000000000e+00" itree="407">
      <Node pos="s" depth="0" NCoef="0" IVar="2" Cut="9.7403633594512939e-01" cType="1" res="-8.8350763544440269e-03" rms="4.5042225718498230e-01" purity="5.1512217521667480e-01" nType="0">
        <Node pos="l" depth="1" NCoef="0" IVar="8" Cut="2.0581316947937012e+00" cType="1" res="-2.3789567872881889e-02" rms="4.6013471484184265e-01" purity="4.7124701738357544e-01" nType="0">
          <Node pos="l" depth="2" NCoef="0" IVar="-1" Cut="0.0000000000000000e+00" cType="1" res="8.3428306970745325e-04" rms="4.5766195654869080e-01" purity="6.1289066076278687e-01" nType="-99"/>
          <Node pos="r" depth="2" NCoef="0" IVar="-1" Cut="0.0000000000000000e+00" cType="1" res="-1.0475820163264871e-03" rms="4.5830118656158447e-01" purity="3.9485475420951843e-01" nType="-99"/>
        </Node>
        <Node pos="r" depth="1" NCoef="0" IVar="0" Cut="1.0803440809249878e+00" cType="1" res="7.8187033534049988e-02" rms="3.7754872441291809e-01" purity="7.7043724060058594e-01" nType="0">
          <Node pos="l" depth="2" NCoef="0" IVar="-1" Cut="0.0000000000000000e+00" cType="1" res="6.5678851678967476e-03" rms="2.9800274968147278e-01" purity="8.9772516489028931e-01" nType="-99"/>
          <Node pos="r" depth="2" NCoef="0" IVar="-1" Cut="0.0000000000000000e+00" cType="1" res="4.3276351061649621e-04" rms="4.7057929635047913e-01" purity="5.7056647539138794e-01" nType="-99"/>
        </Node>
      </Node>
    </BinaryTree>
    <BinaryTree type="DecisionTree" boostWeight="1.0000000000000000e+00" itree="408">
      <Node pos="s" depth="0" NCoef="0" IVar="6" Cut="9.3433280944824219e+01" cType="1" res="-2.1956797689199448e-02" rms="4.4367253780364990e-01" purity="4.9540284276008606e-01" nType="0">
        <Node pos="l" depth="1" NCoef="0" IVar="1" Cut="4.7384799194335938e+02" cType="1" res="-5.0834912806749344e-02" rms="4.4696348905563354e-01" purity="4.4196179509162903e-01" nType="0">
          <Node pos="l" depth="2" NCoef="0" IVar="-1" Cut="0.0000000000000000e+00" cType="1" res="-5.6199991377070546e-04" rms="4.4886261224746704e-01" purity="4.6040299534797668e-01" nType="-99"/>
          <Node pos="r" depth="2" NCoef="0" IVar="-1" Cut="0.0000000000000000e+00" cType="1" res="-2.2722403518855572e-03" rms="4.3052056431770325e-01" purity="3.7429615855216980e-01" nType="-99"/>
        </Node>
        <Node pos="r" depth="1" NCoef="0" IVar="8" Cut="2.5441443920135498e+00" cType="1" res="3.7087224423885345e-02" rms="4.3088424205780029e-01" purity="6.0466814041137695e-01" nType="0">
          <Node pos="l" depth="2" NCoef="0" IVar="-1" Cut="0.0000000000000000e+00" cType="1" res="1.7576412064954638e-03" rms="4.2950549721717834e-01" purity="6.9838511943817139e-01" nType="-99"/>
          <Node pos="r" depth="2" NCoef="0" IVar="-1" Cut="0.0000000000000000e+00" cType="1" res="-6.6650786902755499e-04" rms="4.2748692631721497e-01" purity="2.7916261553764343e-01" nType="-99"/>
        </Node>
      </Node>
    </BinaryTree>
    <BinaryTree type="DecisionTree" boostWeight="1.0000000000000000e+00" itree="409">
      <Node pos="s" depth="0" NCoef="0" IVar="3" Cut="1.4003033447265625e+02" cType="1" res="-9.4615928828716278e-03" rms="4.4034782052040100e-01" purity="5.0655192136764526e-01" nType="0">
        <Node pos="l" depth="1" NCoef="0" IVar="5" Cut="4.8089511108398438e+02" cType="1" res="1.1290051974356174e-02" rms="4.4160911440849304e-01" purity="5.3853476047515869e-01" nType="0">
          <Node pos="l" depth="2" NCoef="0" IVar="-1" Cut="0.0000000000000000e+00" cType="1" res="-7.8760850010439754e-04" rms="4.3881112337112427e-01" purity="4.1353565454483032e-01" nType="-99"/>
          <Node pos="r" depth="2" NCoef="0" IVar="-1" Cut="0.0000000000000000e+00" cType="1" res="1.1882024118676782e-03" rms="4.3996220827102661e-01" purity="6.2115317583084106e-01" nType="-99"/>
        </Node>
        <Node pos="r" depth="1" NCoef="0" IVar="-1" Cut="0.0000000000000000e+00" cType="1" res="-2.6070256717503071e-03" rms="4.0662676095962524e-01" purity="2.9715839028358459e-01" nType="-99"/>
      </Node>
    </BinaryTree>
    <BinaryTree type="DecisionTree" boostWeight="1.0000000000000000e+00" itree="410">
      <Node pos="s" depth="0" NCoef="0" IVar="4" Cut="4.3126251220703125e+02" cType="1" res="-1.1843747459352016e-02" rms="4.3623560667037964e-01" purity="5.0403124094009399e-01" nType="0">
        <Node pos="l" depth="1" NCoef="0" IVar="1" Cut="6.3514331054687500e+02" cType="1" res="2.6995695661753416e-03" rms="4.3842226266860962e-01" purity="5.3572613000869751e-01" nType="0">
          <Node pos="l" depth="2" NCoef="0" IVar="-1" Cut="0.0000000000000000e+00" cType="1" res="-2.4957599816843867e-04" rms="4.4154286384582520e-01" purity="5.1339852809906006e-01" nType="-99"/>
          <Node pos="r" depth="2" NCoef="0" IVar="-1" Cut="0.0000000000000000e+00" cType="1" res="8.5848746821284294e-03" rms="3.3743509650230408e-01" purity="8.3803170919418335e-01" nType="-99"/>
        </Node>
        <Node pos="r" depth="1" NCoef="0" IVar="-1" Cut="0.0000000000000000e+00" cType="1" res="-2.1441916469484568e-03" rms="3.9836886525154114e-01" purity="2.4433496594429016e-01" nType="-99"/>
      </Node>
    </BinaryTree>
    <BinaryTree type="DecisionTree" boostWeight="1.0000000000000000e+00" itree="411">
      <Node pos="s" depth="0" NCoef="0" IVar="8" Cut="2.0282280445098877e+00" cType="1" res="-5.8956616558134556e-03" rms="4.4117826223373413e-01" purity="5.1496052742004395e-01" nType="0">
        <Node pos="l" depth="1" NCoef="0" IVar="7" Cut="1.1445534974336624e-01" cType="1" res="5.3616728633642197e-02" rms="4.2887914180755615e-01" purity="6.5866488218307495e-01" nType="0">
          <Node pos="l" depth="2" NCoef="0" IVar="-1" Cut="0.0000000000000000e+00" cType="1" res="1.3961255899630487e-04" rms="4.4742605090141296e-01" purity="5.9797495603561401e-01" nType="-99"/>
          <Node pos="r" depth="2" NCoef="0" IVar="-1" Cut="0.0000000000000000e+00" cType="1" res="3.4864295739680529e-03" rms="3.8956105709075928e-01" purity="7.4824202060699463e-01" nType="-99"/>
        </Node>
        <Node pos="r" depth="1" NCoef="0" IVar="6" Cut="1.3927822875976562e+02" cType="1" res="-3.3075369894504547e-02" rms="4.4403737783432007e-01" purity="4.4932979345321655e-01" nType="0">
          <Node pos="l" depth="2" NCoef="0" IVar="-1" Cut="0.0000000000000000e+00" cType="1" res="-4.2798763024620712e-04" rms="4.3846833705902100e-01" purity="4.5687916874885559e-01" nType="-99"/>
          <Node pos="r" depth="2" NCoef="0" IVar="-1" Cut="0.0000000000000000e+00" cType="1" res="-2.3949816823005676e-03" rms="4.7752082347869873e-01" purity="3.8320451974868774e-01" nType="-99"/>
        </Node>
      </Node>
    </BinaryTree>
    <BinaryTree type="DecisionTree" boostWeight="1.0000000000000000e+00" itree="412">
      <Node pos="s" depth="0" NCoef="0" IVar="4" Cut="4.0391870117187500e+02" cType="1" res="-2.1979916840791702e-02" rms="4.3413585424423218e-01" purity="4.9121442437171936e-01" nType="0">
        <Node pos="l" depth="1" NCoef="0" IVar="2" Cut="9.3918973207473755e-01" cType="1" res="-4.3013850226998329e-03" rms="4.4107976555824280e-01" purity="5.2867448329925537e-01" nType="0">
          <Node pos="l" depth="2" NCoef="0" IVar="-1" Cut="0.0000000000000000e+00" cType="1" res="-1.0293745435774326e-03" rms="4.4118908047676086e-01" purity="3.2957860827445984e-01" nType="-99"/>
          <Node pos="r" depth="2" NCoef="0" IVar="-1" Cut="0.0000000000000000e+00" cType="1" res="6.5707036992534995e-04" rms="4.3800202012062073e-01" purity="6.3249373435974121e-01" nType="-99"/>
        </Node>
        <Node pos="r" depth="1" NCoef="0" IVar="-1" Cut="0.0000000000000000e+00" cType="1" res="-2.4040022399276495e-03" rms="3.5867083072662354e-01" purity="2.2974018752574921e-01" nType="-99"/>
      </Node>
    </BinaryTree>
    <BinaryTree type="DecisionTree" boostWeight="1.0000000000000000e+00" itree="413">
      <Node pos="s" depth="0" NCoef="0" IVar="6" Cut="1.4157806396484375e+02" cType="1" res="-2.8274938464164734e-02" rms="4.5125919580459595e-01" purity="4.9806830286979675e-01" nType="0">
        <Node pos="l" depth="1" NCoef="0" IVar="6" Cut="8.6319381713867188e+01" cType="1" res="-2.0036481320858002e-02" rms="4.5024964213371277e-01" purity="5.0451689958572388e-01" nType="0">
          <Node pos="l" depth="2" NCoef="0" IVar="-1" Cut="0.0000000000000000e+00" cType="1" res="-9.7756052855402231e-04" rms="4.6075946092605591e-01" purity="4.5104271173477173e-01" nType="-99"/>
          <Node pos="r" depth="2" NCoef="0" IVar="-1" Cut="0.0000000000000000e+00" cType="1" res="1.0973747121170163e-03" rms="4.2066934704780579e-01" purity="6.1509257555007935e-01" nType="-99"/>
        </Node>
        <Node pos="r" depth="1" NCoef="0" IVar="-1" Cut="0.0000000000000000e+00" cType="1" res="-2.3762222845107317e-03" rms="4.5278421044349670e-01" purity="4.3055540323257446e-01" nType="-99"/>
      </Node>
    </BinaryTree>
    <BinaryTree type="DecisionTree" boostWeight="1.0000000000000000e+00" itree="414">
      <Node pos="s" depth="0" NCoef="0" IVar="8" Cut="2.5900526046752930e+00" cType="1" res="-3.6576539278030396e-02" rms="4.4502627849578857e-01" purity="4.7500613331794739e-01" nType="0">
        <Node pos="l" depth="1" NCoef="0" IVar="3" Cut="1.1821631622314453e+02" cType="1" res="-2.5893082842230797e-02" rms="4.5763027667999268e-01" purity="5.2263396978378296e-01" nType="0">
          <Node pos="l" depth="2" NCoef="0" IVar="-1" Cut="0.0000000000000000e+00" cType="1" res="-1.3690346386283636e-03" rms="4.6564257144927979e-01" purity="4.7428840398788452e-01" nType="-99"/>
          <Node pos="r" depth="2" NCoef="0" IVar="-1" Cut="0.0000000000000000e+00" cType="1" res="-1.5579380851704627e-04" rms="4.5265346765518188e-01" purity="5.4479008913040161e-01" nType="-99"/>
        </Node>
        <Node pos="r" depth="1" NCoef="0" IVar="-1" Cut="0.0000000000000000e+00" cType="1" res="-1.8574784044176340e-03" rms="3.3719071745872498e-01" purity="1.4773316681385040e-01" nType="-99"/>
      </Node>
    </BinaryTree>
    <BinaryTree type="DecisionTree" boostWeight="1.0000000000000000e+00" itree="415">
      <Node pos="s" depth="0" NCoef="0" IVar="3" Cut="1.4402941894531250e+02" cType="1" res="-1.1621694080531597e-02" rms="4.4055539369583130e-01" purity="5.0420349836349487e-01" nType="0">
        <Node pos="l" depth="1" NCoef="0" IVar="4" Cut="4.1092834472656250e+02" cType="1" res="4.1251378133893013e-03" rms="4.3855452537536621e-01" purity="5.2620804309844971e-01" nType="0">
          <Node pos="l" depth="2" NCoef="0" IVar="-1" Cut="0.0000000000000000e+00" cType="1" res="4.8659156891517341e-04" rms="4.4324377179145813e-01" purity="5.6551116704940796e-01" nType="-99"/>
          <Node pos="r" depth="2" NCoef="0" IVar="-1" Cut="0.0000000000000000e+00" cType="1" res="-1.9987928681075573e-03" rms="3.8137230277061462e-01" purity="2.4454967677593231e-01" nType="-99"/>
        </Node>
        <Node pos="r" depth="1" NCoef="0" IVar="-1" Cut="0.0000000000000000e+00" cType="1" res="-2.6920987293124199e-03" rms="4.3213564157485962e-01" purity="2.9988777637481689e-01" nType="-99"/>
      </Node>
    </BinaryTree>
    <BinaryTree type="DecisionTree" boostWeight="1.0000000000000000e+00" itree="416">
      <Node pos="s" depth="0" NCoef="0" IVar="4" Cut="3.6975769042968750e+02" cType="1" res="-1.6319636255502701e-02" rms="4.3766972422599792e-01" purity="4.9864485859870911e-01" nType="0">
        <Node pos="l" depth="1" NCoef="0" IVar="4" Cut="1.6995166015625000e+02" cType="1" res="2.9782722704112530e-03" rms="4.4065627455711365e-01" purity="5.3711867332458496e-01" nType="0">
          <Node pos="l" depth="2" NCoef="0" IVar="-1" Cut="0.0000000000000000e+00" cType="1" res="-9.1570452786982059e-04" rms="4.5081225037574768e-01" purity="4.7544631361961365e-01" nType="-99"/>
          <Node pos="r" depth="2" NCoef="0" IVar="-1" Cut="0.0000000000000000e+00" cType="1" res="7.7330769272521138e-04" rms="4.3155583739280701e-01" purity="5.7493102550506592e-01" nType="-99"/>
        </Node>
        <Node pos="r" depth="1" NCoef="0" IVar="3" Cut="1.2341577148437500e+02" cType="1" res="-1.1946829408407211e-01" rms="4.0608331561088562e-01" purity="2.9299953579902649e-01" nType="0">
          <Node pos="l" depth="2" NCoef="0" IVar="-1" Cut="0.0000000000000000e+00" cType="1" res="-2.4956031702458858e-03" rms="4.0596312284469604e-01" purity="2.6349624991416931e-01" nType="-99"/>
          <Node pos="r" depth="2" NCoef="0" IVar="-1" Cut="0.0000000000000000e+00" cType="1" res="-1.5891630901023746e-03" rms="4.0333187580108643e-01" purity="3.2235100865364075e-01" nType="-99"/>
        </Node>
      </Node>
    </BinaryTree>
    <BinaryTree type="DecisionTree" boostWeight="1.0000000000000000e+00" itree="417">
      <Node pos="s" depth="0" NCoef="0" IVar="3" Cut="1.3505337524414062e+02" cType="1" res="-1.3129063881933689e-02" rms="4.4339999556541443e-01" purity="5.0839805603027344e-01" nType="0">
        <Node pos="l" depth="1" NCoef="0" IVar="3" Cut="1.0985445404052734e+02" cType="1" res="7.9809008166193962e-03" rms="4.4177675247192383e-01" purity="5.4350894689559937e-01" nType="0">
          <Node pos="l" depth="2" NCoef="0" IVar="-1" Cut="0.0000000000000000e+00" cType="1" res="-1.2603761861100793e-03" rms="4.5554605126380920e-01" purity="4.0679329633712769e-01" nType="-99"/>
          <Node pos="r" depth="2" NCoef="0" IVar="-1" Cut="0.0000000000000000e+00" cType="1" res="5.9080694336444139e-04" rms="4.3655633926391602e-01" purity="5.7644802331924438e-01" nType="-99"/>
        </Node>
        <Node pos="r" depth="1" NCoef="0" IVar="6" Cut="7.1268707275390625e+01" cType="1" res="-9.5451503992080688e-02" rms="4.4010460376739502e-01" purity="3.7147617340087891e-01" nType="0">
          <Node pos="l" depth="2" NCoef="0" IVar="-1" Cut="0.0000000000000000e+00" cType="1" res="-2.9541500844061375e-03" rms="4.3600240349769592e-01" purity="2.9431006312370300e-01" nType="-99"/>
          <Node pos="r" depth="2" NCoef="0" IVar="-1" Cut="0.0000000000000000e+00" cType="1" res="-5.5700057419016957e-04" rms="4.3218734860420227e-01" purity="4.3727502226829529e-01" nType="-99"/>
        </Node>
      </Node>
    </BinaryTree>
    <BinaryTree type="DecisionTree" boostWeight="1.0000000000000000e+00" itree="418">
      <Node pos="s" depth="0" NCoef="0" IVar="2" Cut="9.4888186454772949e-01" cType="1" res="-1.0617001913487911e-02" rms="4.2912474274635315e-01" purity="4.9943089485168457e-01" nType="0">
        <Node pos="l" depth="1" NCoef="0" IVar="5" Cut="4.7767895507812500e+02" cType="1" res="-5.9527408331632614e-02" rms="4.3061813712120056e-01" purity="3.3605936169624329e-01" nType="0">
          <Node pos="l" depth="2" NCoef="0" IVar="-1" Cut="0.0000000000000000e+00" cType="1" res="-1.6608840087428689e-03" rms="4.0035665035247803e-01" purity="2.4298937618732452e-01" nType="-99"/>
          <Node pos="r" depth="2" NCoef="0" IVar="-1" Cut="0.0000000000000000e+00" cType="1" res="-5.7274370919913054e-04" rms="4.4594568014144897e-01" purity="3.9339262247085571e-01" nType="-99"/>
        </Node>
        <Node pos="r" depth="1" NCoef="0" IVar="3" Cut="1.1267212677001953e+02" cType="1" res="3.9359044283628464e-02" rms="4.2177501320838928e-01" purity="6.6636198759078979e-01" nType="0">
          <Node pos="l" depth="2" NCoef="0" IVar="-1" Cut="0.0000000000000000e+00" cType="1" res="-1.3807967770844698e-03" rms="4.4855549931526184e-01" purity="5.3659743070602417e-01" nType="-99"/>
          <Node pos="r" depth="2" NCoef="0" IVar="-1" Cut="0.0000000000000000e+00" cType="1" res="1.8698181957006454e-03" rms="4.1133955121040344e-01" purity="6.9747346639633179e-01" nType="-99"/>
        </Node>
      </Node>
    </BinaryTree>
    <BinaryTree type="DecisionTree" boostWeight="1.0000000000000000e+00" itree="419">
      <Node pos="s" depth="0" NCoef="0" IVar="1" Cut="3.1884066772460938e+02" cType="1" res="-1.9601596519351006e-02" rms="4.3999904394149780e-01" purity="4.9695810675621033e-01" nType="0">
        <Node pos="l" depth="1" NCoef="0" IVar="7" Cut="1.8148863315582275e-01" cType="1" res="-7.7436156570911407e-02" rms="4.4296818971633911e-01" purity="3.6630985140800476e-01" nType="0">
          <Node pos="l" depth="2" NCoef="0" IVar="-1" Cut="0.0000000000000000e+00" cType="1" res="-1.7883781110867858e-03" rms="4.3074449896812439e-01" purity="3.1343659758567810e-01" nType="-99"/>
          <Node pos="r" depth="2" NCoef="0" IVar="-1" Cut="0.0000000000000000e+00" cType="1" res="7.2973582427948713e-04" rms="4.7059991955757141e-01" purity="5.6778419017791748e-01" nType="-99"/>
        </Node>
        <Node pos="r" depth="1" NCoef="0" IVar="4" Cut="2.9859951782226562e+02" cType="1" res="-6.7869457416236401e-04" rms="4.3736588954925537e-01" purity="5.3970491886138916e-01" nType="0">
          <Node pos="l" depth="2" NCoef="0" IVar="-1" Cut="0.0000000000000000e+00" cType="1" res="5.8448378695175052e-04" rms="4.3857192993164062e-01" purity="6.0472226142883301e-01" nType="-99"/>
          <Node pos="r" depth="2" NCoef="0" IVar="-1" Cut="0.0000000000000000e+00" cType="1" res="-1.1291396804153919e-03" rms="4.2903116345405579e-01" purity="3.8990476727485657e-01" nType="-99"/>
        </Node>
      </Node>
    </BinaryTree>
    <BinaryTree type="DecisionTree" boostWeight="1.0000000000000000e+00" itree="420">
      <Node pos="s" depth="0" NCoef="0" IVar="2" Cut="9.2724591493606567e-01" cType="1" res="-1.3212041929364204e-02" rms="4.3330284953117371e-01" purity="5.0293499231338501e-01" nType="0">
        <Node pos="l" depth="1" NCoef="0" IVar="7" Cut="9.6604466438293457e-02" cType="1" res="-9.6380323171615601e-02" rms="3.9614722132682800e-01" purity="2.4121320247650146e-01" nType="0">
          <Node pos="l" depth="2" NCoef="0" IVar="-1" Cut="0.0000000000000000e+00" cType="1" res="-2.1761702373623848e-03" rms="3.5961198806762695e-01" purity="1.8003036081790924e-01" nType="-99"/>
          <Node pos="r" depth="2" NCoef="0" IVar="-1" Cut="0.0000000000000000e+00" cType="1" res="-1.7459962691646069e-04" rms="4.4547486305236816e-01" purity="3.5790923237800598e-01" nType="-99"/>
        </Node>
        <Node pos="r" depth="1" NCoef="0" IVar="5" Cut="4.6947631835937500e+02" cType="1" res="8.3265975117683411e-03" rms="4.3986070156097412e-01" purity="5.7071483135223389e-01" nType="0">
          <Node pos="l" depth="2" NCoef="0" IVar="-1" Cut="0.0000000000000000e+00" cType="1" res="-9.5123751088976860e-04" rms="4.3825218081474304e-01" purity="4.4422808289527893e-01" nType="-99"/>
          <Node pos="r" depth="2" NCoef="0" IVar="-1" Cut="0.0000000000000000e+00" cType="1" res="9.6391484839841723e-04" rms="4.3777927756309509e-01" purity="6.3433820009231567e-01" nType="-99"/>
        </Node>
      </Node>
    </BinaryTree>
    <BinaryTree type="DecisionTree" boostWeight="1.0000000000000000e+00" itree="421">
      <Node pos="s" depth="0" NCoef="0" IVar="5" Cut="4.9233987426757812e+02" cType="1" res="1.1441469192504883e-02" rms="4.3744835257530212e-01" purity="5.2609443664550781e-01" nType="0">
        <Node pos="l" depth="1" NCoef="0" IVar="1" Cut="3.4924581909179688e+02" cType="1" res="-4.2862955480813980e-02" rms="4.4248688220977783e-01" purity="4.2355844378471375e-01" nType="0">
          <Node pos="l" depth="2" NCoef="0" IVar="-1" Cut="0.0000000000000000e+00" cType="1" res="-2.2658093075733632e-04" rms="4.3606412410736084e-01" purity="4.3790638446807861e-01" nType="-99"/>
          <Node pos="r" depth="2" NCoef="0" IVar="-1" Cut="0.0000000000000000e+00" cType="1" res="-2.0713317207992077e-03" rms="4.4864666461944580e-01" purity="3.8741469383239746e-01" nType="-99"/>
        </Node>
        <Node pos="r" depth="1" NCoef="0" IVar="0" Cut="5.4426336288452148e-01" cType="1" res="5.0159443169832230e-02" rms="4.2964911460876465e-01" purity="5.9920060634613037e-01" nType="0">
          <Node pos="l" depth="2" NCoef="0" IVar="-1" Cut="0.0000000000000000e+00" cType="1" res="1.1243659071624279e-02" rms="2.6275226473808289e-01" purity="9.2441517114639282e-01" nType="-99"/>
          <Node pos="r" depth="2" NCoef="0" IVar="-1" Cut="0.0000000000000000e+00" cType="1" res="6.8093632580712438e-04" rms="4.4071680307388306e-01" purity="5.6066977977752686e-01" nType="-99"/>
        </Node>
      </Node>
    </BinaryTree>
    <BinaryTree type="DecisionTree" boostWeight="1.0000000000000000e+00" itree="422">
      <Node pos="s" depth="0" NCoef="0" IVar="4" Cut="3.7716842651367188e+02" cType="1" res="-2.3627046495676041e-02" rms="4.4512999057769775e-01" purity="4.9496415257453918e-01" nType="0">
        <Node pos="l" depth="1" NCoef="0" IVar="8" Cut="1.8788036108016968e+00" cType="1" res="-8.7043372914195061e-03" rms="4.5120903849601746e-01" purity="5.3517717123031616e-01" nType="0">
          <Node pos="l" depth="2" NCoef="0" IVar="-1" Cut="0.0000000000000000e+00" cType="1" res="2.0441561937332153e-03" rms="4.5158946514129639e-01" purity="6.7650526762008667e-01" nType="-99"/>
          <Node pos="r" depth="2" NCoef="0" IVar="-1" Cut="0.0000000000000000e+00" cType="1" res="-4.5318802585825324e-04" rms="4.4980376958847046e-01" purity="5.1356661319732666e-01" nType="-99"/>
        </Node>
        <Node pos="r" depth="1" NCoef="0" IVar="6" Cut="1.0705471801757812e+02" cType="1" res="-1.0616821795701981e-01" rms="3.9994603395462036e-01" purity="2.7253592014312744e-01" nType="0">
          <Node pos="l" depth="2" NCoef="0" IVar="-1" Cut="0.0000000000000000e+00" cType="1" res="-2.3810933344066143e-03" rms="3.8797715306282043e-01" purity="2.0549717545509338e-01" nType="-99"/>
          <Node pos="r" depth="2" NCoef="0" IVar="-1" Cut="0.0000000000000000e+00" cType="1" res="-6.4969196682795882e-04" rms="4.1237828135490417e-01" purity="3.9733573794364929e-01" nType="-99"/>
        </Node>
      </Node>
    </BinaryTree>
    <BinaryTree type="DecisionTree" boostWeight="1.0000000000000000e+00" itree="423">
      <Node pos="s" depth="0" NCoef="0" IVar="6" Cut="9.8558525085449219e+01" cType="1" res="-1.8413313664495945e-03" rms="4.3641889095306396e-01" purity="5.0923293828964233e-01" nType="0">
        <Node pos="l" depth="1" NCoef="0" IVar="4" Cut="3.9010189819335938e+02" cType="1" res="-2.8819927945733070e-02" rms="4.4702503085136414e-01" purity="4.6323484182357788e-01" nType="0">
          <Node pos="l" depth="2" NCoef="0" IVar="-1" Cut="0.0000000000000000e+00" cType="1" res="-2.8767198091372848e-04" rms="4.5650699734687805e-01" purity="5.0117665529251099e-01" nType="-99"/>
          <Node pos="r" depth="2" NCoef="0" IVar="-1" Cut="0.0000000000000000e+00" cType="1" res="-2.2627511061728001e-03" rms="3.5011291503906250e-01" purity="1.8157972395420074e-01" nType="-99"/>
        </Node>
        <Node pos="r" depth="1" NCoef="0" IVar="8" Cut="2.1731364727020264e+00" cType="1" res="6.4117468893527985e-02" rms="4.0177515149116516e-01" purity="6.2169176340103149e-01" nType="0">
          <Node pos="l" depth="2" NCoef="0" IVar="-1" Cut="0.0000000000000000e+00" cType="1" res="8.1410240381956100e-03" rms="3.0469974875450134e-01" purity="8.9460539817810059e-01" nType="-99"/>
          <Node pos="r" depth="2" NCoef="0" IVar="-1" Cut="0.0000000000000000e+00" cType="1" res="5.2342575509101152e-04" rms="4.3189829587936401e-01" purity="5.0045949220657349e-01" nType="-99"/>
        </Node>
      </Node>
    </BinaryTree>
    <BinaryTree type="DecisionTree" boostWeight="1.0000000000000000e+00" itree="424">
      <Node pos="s" depth="0" NCoef="0" IVar="6" Cut="6.0443439483642578e+01" cType="1" res="-1.2848801910877228e-02" rms="4.3831545114517212e-01" purity="5.0282675027847290e-01" nType="0">
        <Node pos="l" depth="1" NCoef="0" IVar="2" Cut="9.3479764461517334e-01" cType="1" res="-6.3123054802417755e-02" rms="4.4417881965637207e-01" purity="4.0884250402450562e-01" nType="0">
          <Node pos="l" depth="2" NCoef="0" IVar="-1" Cut="0.0000000000000000e+00" cType="1" res="-2.0932522602379322e-03" rms="3.8250821828842163e-01" purity="1.9468379020690918e-01" nType="-99"/>
          <Node pos="r" depth="2" NCoef="0" IVar="-1" Cut="0.0000000000000000e+00" cType="1" res="-4.4100775266997516e-04" rms="4.6623775362968445e-01" purity="5.1535773277282715e-01" nType="-99"/>
        </Node>
        <Node pos="r" depth="1" NCoef="0" IVar="8" Cut="2.1597146987915039e+00" cType="1" res="1.6757817938923836e-02" rms="4.3209746479988098e-01" purity="5.5817425251007080e-01" nType="0">
          <Node pos="l" depth="2" NCoef="0" IVar="-1" Cut="0.0000000000000000e+00" cType="1" res="2.9131844639778137e-03" rms="4.0168827772140503e-01" purity="7.5894302129745483e-01" nType="-99"/>
          <Node pos="r" depth="2" NCoef="0" IVar="-1" Cut="0.0000000000000000e+00" cType="1" res="-6.3835270702838898e-04" rms="4.4513288140296936e-01" purity="4.1945144534111023e-01" nType="-99"/>
        </Node>
      </Node>
    </BinaryTree>
    <BinaryTree type="DecisionTree" boostWeight="1.0000000000000000e+00" itree="425">
      <Node pos="s" depth="0" NCoef="0" IVar="6" Cut="4.8218997955322266e+01" cType="1" res="-3.3202506601810455e-02" rms="4.4357746839523315e-01" purity="4.7851902246475220e-01" nType="0">
        <Node pos="l" depth="1" NCoef="0" IVar="2" Cut="9.7004044055938721e-01" cType="1" res="-1.2063706666231155e-01" rms="4.4444391131401062e-01" purity="3.3508044481277466e-01" nType="0">
          <Node pos="l" depth="2" NCoef="0" IVar="-1" Cut="0.0000000000000000e+00" cType="1" res="-1.4769366243854165e-03" rms="4.3090340495109558e-01" purity="3.1416875123977661e-01" nType="-99"/>
          <Node pos="r" depth="2" NCoef="0" IVar="-1" Cut="0.0000000000000000e+00" cType="1" res="-3.8489850703626871e-03" rms="4.7057032585144043e-01" purity="3.9635062217712402e-01" nType="-99"/>
        </Node>
        <Node pos="r" depth="1" NCoef="0" IVar="2" Cut="9.4322288036346436e-01" cType="1" res="-8.8576255366206169e-03" rms="4.4025614857673645e-01" purity="5.1845741271972656e-01" nType="0">
          <Node pos="l" depth="2" NCoef="0" IVar="-1" Cut="0.0000000000000000e+00" cType="1" res="-1.0113500757142901e-03" rms="4.3362367153167725e-01" purity="3.2769733667373657e-01" nType="-99"/>
          <Node pos="r" depth="2" NCoef="0" IVar="-1" Cut="0.0000000000000000e+00" cType="1" res="7.2066456777974963e-04" rms="4.4145148992538452e-01" purity="6.5348464250564575e-01" nType="-99"/>
        </Node>
      </Node>
    </BinaryTree>
    <BinaryTree type="DecisionTree" boostWeight="1.0000000000000000e+00" itree="426">
      <Node pos="s" depth="0" NCoef="0" IVar="0" Cut="5.5025744438171387e-01" cType="1" res="-1.5698231756687164e-02" rms="4.4107532501220703e-01" purity="5.0347077846527100e-01" nType="0">
        <Node pos="l" depth="1" NCoef="0" IVar="-1" Cut="0.0000000000000000e+00" cType="1" res="2.7986620552837849e-03" rms="4.1064634919166565e-01" purity="7.7370721101760864e-01" nType="-99"/>
        <Node pos="r" depth="1" NCoef="0" IVar="3" Cut="1.4451118469238281e+02" cType="1" res="-2.6293711736798286e-02" rms="4.4293832778930664e-01" purity="4.7428807616233826e-01" nType="0">
          <Node pos="l" depth="2" NCoef="0" IVar="-1" Cut="0.0000000000000000e+00" cType="1" res="-3.3580334275029600e-04" rms="4.4550669193267822e-01" purity="4.9401190876960754e-01" nType="-99"/>
          <Node pos="r" depth="2" NCoef="0" IVar="-1" Cut="0.0000000000000000e+00" cType="1" res="-2.2602360695600510e-03" rms="4.0061751008033752e-01" purity="2.7158388495445251e-01" nType="-99"/>
        </Node>
      </Node>
    </BinaryTree>
    <BinaryTree type="DecisionTree" boostWeight="1.0000000000000000e+00" itree="427">
      <Node pos="s" depth="0" NCoef="0" IVar="5" Cut="4.8849038696289062e+02" cType="1" res="-7.3159164749085903e-03" rms="4.3509545922279358e-01" purity="5.0497525930404663e-01" nType="0">
        <Node pos="l" depth="1" NCoef="0" IVar="2" Cut="9.5077282190322876e-01" cType="1" res="-6.6704586148262024e-02" rms="4.3338736891746521e-01" purity="3.8943865895271301e-01" nType="0">
          <Node pos="l" depth="2" NCoef="0" IVar="-1" Cut="0.0000000000000000e+00" cType="1" res="-1.6971973236650229e-03" rms="4.1290977597236633e-01" purity="2.5904896855354309e-01" nType="-99"/>
          <Node pos="r" depth="2" NCoef="0" IVar="-1" Cut="0.0000000000000000e+00" cType="1" res="-2.3576911189593375e-04" rms="4.5130664110183716e-01" purity="5.5136311054229736e-01" nType="-99"/>
        </Node>
        <Node pos="r" depth="1" NCoef="0" IVar="7" Cut="1.3168810307979584e-01" cType="1" res="3.2628122717142105e-02" rms="4.3166893720626831e-01" purity="5.8268362283706665e-01" nType="0">
          <Node pos="l" depth="2" NCoef="0" IVar="-1" Cut="0.0000000000000000e+00" cType="1" res="1.3043623766861856e-04" rms="4.3840575218200684e-01" purity="5.3136467933654785e-01" nType="-99"/>
          <Node pos="r" depth="2" NCoef="0" IVar="-1" Cut="0.0000000000000000e+00" cType="1" res="5.3524477407336235e-03" rms="3.8004264235496521e-01" purity="8.0391663312911987e-01" nType="-99"/>
        </Node>
      </Node>
    </BinaryTree>
    <BinaryTree type="DecisionTree" boostWeight="1.0000000000000000e+00" itree="428">
      <Node pos="s" depth="0" NCoef="0" IVar="3" Cut="1.0370185089111328e+02" cType="1" res="1.1391077423468232e-03" rms="4.4041422009468079e-01" purity="5.2268648147583008e-01" nType="0">
        <Node pos="l" depth="1" NCoef="0" IVar="-1" Cut="0.0000000000000000e+00" cType="1" res="-1.9402642501518130e-03" rms="4.2792472243309021e-01" purity="3.1706792116165161e-01" nType="-99"/>
        <Node pos="r" depth="1" NCoef="0" IVar="3" Cut="1.2727131652832031e+02" cType="1" res="1.3199483044445515e-02" rms="4.4008818268775940e-01" purity="5.4519420862197876e-01" nType="0">
          <Node pos="l" depth="2" NCoef="0" IVar="-1" Cut="0.0000000000000000e+00" cType="1" res="1.1514647630974650e-03" rms="4.3938779830932617e-01" purity="6.0219281911849976e-01" nType="-99"/>
          <Node pos="r" depth="2" NCoef="0" IVar="-1" Cut="0.0000000000000000e+00" cType="1" res="-7.3104776674881577e-04" rms="4.3632876873016357e-01" purity="4.6563300490379333e-01" nType="-99"/>
        </Node>
      </Node>
    </BinaryTree>
    <BinaryTree type="DecisionTree" boostWeight="1.0000000000000000e+00" itree="429">
      <Node pos="s" depth="0" NCoef="0" IVar="3" Cut="1.0258023071289062e+02" cType="1" res="-2.0042583346366882e-02" rms="4.4171363115310669e-01" purity="4.9756363034248352e-01" nType="0">
        <Node pos="l" depth="1" NCoef="0" IVar="-1" Cut="0.0000000000000000e+00" cType="1" res="-2.5276648811995983e-03" rms="4.0450239181518555e-01" purity="2.3829706013202667e-01" nType="-99"/>
        <Node pos="r" depth="1" NCoef="0" IVar="2" Cut="9.6856880187988281e-01" cType="1" res="-5.8214915916323662e-03" rms="4.4253593683242798e-01" purity="5.2251690626144409e-01" nType="0">
          <Node pos="l" depth="2" NCoef="0" IVar="-1" Cut="0.0000000000000000e+00" cType="1" res="-5.2498857257887721e-04" rms="4.5092278718948364e-01" purity="4.5253875851631165e-01" nType="-99"/>
          <Node pos="r" depth="2" NCoef="0" IVar="-1" Cut="0.0000000000000000e+00" cType="1" res="2.5307622272521257e-03" rms="4.0304702520370483e-01" purity="7.6856863498687744e-01" nType="-99"/>
        </Node>
      </Node>
    </BinaryTree>
    <BinaryTree type="DecisionTree" boostWeight="1.0000000000000000e+00" itree="430">
      <Node pos="s" depth="0" NCoef="0" IVar="8" Cut="2.0487027168273926e+00" cType="1" res="-2.7898928150534630e-02" rms="4.4158938527107239e-01" purity="4.8944520950317383e-01" nType="0">
        <Node pos="l" depth="1" NCoef="0" IVar="3" Cut="1.1036005401611328e+02" cType="1" res="2.9760252684354782e-02" rms="4.3617898225784302e-01" purity="6.4233028888702393e-01" nType="0">
          <Node pos="l" depth="2" NCoef="0" IVar="-1" Cut="0.0000000000000000e+00" cType="1" res="-1.9428128143772483e-03" rms="4.4958326220512390e-01" purity="4.4909748435020447e-01" nType="-99"/>
          <Node pos="r" depth="2" NCoef="0" IVar="-1" Cut="0.0000000000000000e+00" cType="1" res="1.6620549140498042e-03" rms="4.2660501599311829e-01" purity="6.8872904777526855e-01" nType="-99"/>
        </Node>
        <Node pos="r" depth="1" NCoef="0" IVar="2" Cut="9.7287398576736450e-01" cType="1" res="-5.6630462408065796e-02" rms="4.4145837426185608e-01" purity="4.1326266527175903e-01" nType="0">
          <Node pos="l" depth="2" NCoef="0" IVar="-1" Cut="0.0000000000000000e+00" cType="1" res="-1.3398056617006660e-03" rms="4.4615128636360168e-01" purity="3.6335659027099609e-01" nType="-99"/>
          <Node pos="r" depth="2" NCoef="0" IVar="-1" Cut="0.0000000000000000e+00" cType="1" res="1.3489323901012540e-03" rms="3.9887499809265137e-01" purity="7.0060044527053833e-01" nType="-99"/>
        </Node>
      </Node>
    </BinaryTree>
    <BinaryTree type="DecisionTree" boostWeight="1.0000000000000000e+00" itree="431">
      <Node pos="s" depth="0" NCoef="0" IVar="5" Cut="4.9813024902343750e+02" cType="1" res="-1.3203254900872707e-02" rms="4.3879714608192444e-01" purity="5.0606864690780640e-01" nType="0">
        <Node pos="l" depth="1" NCoef="0" IVar="4" Cut="1.7756805419921875e+02" cType="1" res="-5.4643359035253525e-02" rms="4.4680723547935486e-01" purity="4.1178244352340698e-01" nType="0">
          <Node pos="l" depth="2" NCoef="0" IVar="-1" Cut="0.0000000000000000e+00" cType="1" res="-7.9690260463394225e-05" rms="4.5959112048149109e-01" purity="5.0597769021987915e-01" nType="-99"/>
          <Node pos="r" depth="2" NCoef="0" IVar="-1" Cut="0.0000000000000000e+00" cType="1" res="-1.6723937587812543e-03" rms="4.3104732036590576e-01" purity="3.3205628395080566e-01" nType="-99"/>
        </Node>
        <Node pos="r" depth="1" NCoef="0" IVar="3" Cut="1.0763102722167969e+02" cType="1" res="1.6512673348188400e-02" rms="4.3051326274871826e-01" purity="5.7367956638336182e-01" nType="0">
          <Node pos="l" depth="2" NCoef="0" IVar="-1" Cut="0.0000000000000000e+00" cType="1" res="-1.8353940686210990e-03" rms="4.3958801031112671e-01" purity="3.7649831175804138e-01" nType="-99"/>
          <Node pos="r" depth="2" NCoef="0" IVar="-1" Cut="0.0000000000000000e+00" cType="1" res="9.7475125221535563e-04" rms="4.2540961503982544e-01" purity="6.0997319221496582e-01" nType="-99"/>
        </Node>
      </Node>
    </BinaryTree>
    <BinaryTree type="DecisionTree" boostWeight="1.0000000000000000e+00" itree="432">
      <Node pos="s" depth="0" NCoef="0" IVar="8" Cut="1.7013607025146484e+00" cType="1" res="4.8604959738440812e-04" rms="4.3995666503906250e-01" purity="5.2233964204788208e-01" nType="0">
        <Node pos="l" depth="1" NCoef="0" IVar="-1" Cut="0.0000000000000000e+00" cType="1" res="-2.2623406257480383e-03" rms="4.5189985632896423e-01" purity="4.1874438524246216e-01" nType="-99"/>
        <Node pos="r" depth="1" NCoef="0" IVar="8" Cut="2.2168650627136230e+00" cType="1" res="1.0271755978465080e-02" rms="4.3747639656066895e-01" purity="5.3003269433975220e-01" nType="0">
          <Node pos="l" depth="2" NCoef="0" IVar="-1" Cut="0.0000000000000000e+00" cType="1" res="9.6604682039469481e-04" rms="4.4034978747367859e-01" purity="6.4372253417968750e-01" nType="-99"/>
          <Node pos="r" depth="2" NCoef="0" IVar="-1" Cut="0.0000000000000000e+00" cType="1" res="-5.0636293599382043e-04" rms="4.3107187747955322e-01" purity="3.8556793332099915e-01" nType="-99"/>
        </Node>
      </Node>
    </BinaryTree>
    <BinaryTree type="DecisionTree" boostWeight="1.0000000000000000e+00" itree="433">
      <Node pos="s" depth="0" NCoef="0" IVar="3" Cut="1.0763102722167969e+02" cType="1" res="-2.0238991826772690e-02" rms="4.4173616170883179e-01" purity="4.9169948697090149e-01" nType="0">
        <Node pos="l" depth="1" NCoef="0" IVar="3" Cut="1.0148401641845703e+02" cType="1" res="-9.9804155528545380e-02" rms="4.3998685479164124e-01" purity="3.3767417073249817e-01" nType="0">
          <Node pos="l" depth="2" NCoef="0" IVar="-1" Cut="0.0000000000000000e+00" cType="1" res="-2.1990186069160700e-03" rms="4.1983303427696228e-01" purity="2.6120939850807190e-01" nType="-99"/>
          <Node pos="r" depth="2" NCoef="0" IVar="-1" Cut="0.0000000000000000e+00" cType="1" res="-8.1407697871327400e-04" rms="4.6435466408729553e-01" purity="4.6039977669715881e-01" nType="-99"/>
        </Node>
        <Node pos="r" depth="1" NCoef="0" IVar="5" Cut="4.1183007812500000e+02" cType="1" res="-7.8264689072966576e-03" rms="4.4071507453918457e-01" purity="5.1572811603546143e-01" nType="0">
          <Node pos="l" depth="2" NCoef="0" IVar="-1" Cut="0.0000000000000000e+00" cType="1" res="-1.4918248634785414e-03" rms="4.1883215308189392e-01" purity="3.2103896141052246e-01" nType="-99"/>
          <Node pos="r" depth="2" NCoef="0" IVar="-1" Cut="0.0000000000000000e+00" cType="1" res="2.0404720271471888e-04" rms="4.4325637817382812e-01" purity="5.5580747127532959e-01" nType="-99"/>
        </Node>
      </Node>
    </BinaryTree>
    <BinaryTree type="DecisionTree" boostWeight="1.0000000000000000e+00" itree="434">
      <Node pos="s" depth="0" NCoef="0" IVar="6" Cut="7.7588050842285156e+01" cType="1" res="-1.7208185046911240e-02" rms="4.4962722063064575e-01" purity="5.0240963697433472e-01" nType="0">
        <Node pos="l" depth="1" NCoef="0" IVar="7" Cut="1.6106127202510834e-01" cType="1" res="-4.7537017613649368e-02" rms="4.5206856727600098e-01" purity="4.3763133883476257e-01" nType="0">
          <Node pos="l" depth="2" NCoef="0" IVar="-1" Cut="0.0000000000000000e+00" cType="1" res="-1.2427825713530183e-03" rms="4.4673109054565430e-01" purity="3.9718097448348999e-01" nType="-99"/>
          <Node pos="r" depth="2" NCoef="0" IVar="-1" Cut="0.0000000000000000e+00" cType="1" res="9.0082397218793631e-04" rms="4.6394816040992737e-01" purity="6.0687988996505737e-01" nType="-99"/>
        </Node>
        <Node pos="r" depth="1" NCoef="0" IVar="4" Cut="2.9006033325195312e+02" cType="1" res="2.0241569727659225e-02" rms="4.4374328851699829e-01" purity="5.8239728212356567e-01" nType="0">
          <Node pos="l" depth="2" NCoef="0" IVar="-1" Cut="0.0000000000000000e+00" cType="1" res="1.4839926734566689e-03" rms="4.4239142537117004e-01" purity="6.6429215669631958e-01" nType="-99"/>
          <Node pos="r" depth="2" NCoef="0" IVar="-1" Cut="0.0000000000000000e+00" cType="1" res="-7.6807098230347037e-04" rms="4.4031673669815063e-01" purity="4.4458878040313721e-01" nType="-99"/>
        </Node>
      </Node>
    </BinaryTree>
    <BinaryTree type="DecisionTree" boostWeight="1.0000000000000000e+00" itree="435">
      <Node pos="s" depth="0" NCoef="0" IVar="3" Cut="1.3220632934570312e+02" cType="1" res="-7.3924367316067219e-03" rms="4.4035917520523071e-01" purity="5.0625538825988770e-01" nType="0">
        <Node pos="l" depth="1" NCoef="0" IVar="2" Cut="9.6334183216094971e-01" cType="1" res="2.0198950543999672e-02" rms="4.3820291757583618e-01" purity="5.4610359668731689e-01" nType="0">
          <Node pos="l" depth="2" NCoef="0" IVar="-1" Cut="0.0000000000000000e+00" cType="1" res="-9.5780975243542343e-05" rms="4.5131766796112061e-01" purity="4.5643958449363708e-01" nType="-99"/>
          <Node pos="r" depth="2" NCoef="0" IVar="-1" Cut="0.0000000000000000e+00" cType="1" res="2.7242412324994802e-03" rms="3.9883017539978027e-01" purity="7.6028460264205933e-01" nType="-99"/>
        </Node>
        <Node pos="r" depth="1" NCoef="0" IVar="6" Cut="8.6663093566894531e+01" cType="1" res="-8.5140347480773926e-02" rms="4.3710914254188538e-01" purity="3.9396956562995911e-01" nType="0">
          <Node pos="l" depth="2" NCoef="0" IVar="-1" Cut="0.0000000000000000e+00" cType="1" res="-2.1936295088380575e-03" rms="4.4491699337959290e-01" purity="3.4806025028228760e-01" nType="-99"/>
          <Node pos="r" depth="2" NCoef="0" IVar="-1" Cut="0.0000000000000000e+00" cType="1" res="-4.5653371489606798e-04" rms="4.1643464565277100e-01" purity="4.6741938591003418e-01" nType="-99"/>
        </Node>
      </Node>
    </BinaryTree>
    <BinaryTree type="DecisionTree" boostWeight="1.0000000000000000e+00" itree="436">
      <Node pos="s" depth="0" NCoef="0" IVar="8" Cut="2.6281163692474365e+00" cType="1" res="-1.4899488538503647e-02" rms="4.3568402528762817e-01" purity="5.0222820043563843e-01" nType="0">
        <Node pos="l" depth="1" NCoef="0" IVar="4" Cut="1.3556314086914062e+02" cType="1" res="2.1549717057496309e-03" rms="4.4679600000381470e-01" purity="5.5183798074722290e-01" nType="0">
          <Node pos="l" depth="2" NCoef="0" IVar="-1" Cut="0.0000000000000000e+00" cType="1" res="-2.1856869570910931e-03" rms="4.4530043005943298e-01" purity="3.8008934259414673e-01" nType="-99"/>
          <Node pos="r" depth="2" NCoef="0" IVar="-1" Cut="0.0000000000000000e+00" cType="1" res="6.2908028485253453e-04" rms="4.4276493787765503e-01" purity="5.8344286680221558e-01" nType="-99"/>
        </Node>
        <Node pos="r" depth="1" NCoef="0" IVar="-1" Cut="0.0000000000000000e+00" cType="1" res="-2.4856256786733866e-03" rms="3.0036973953247070e-01" purity="1.0464935749769211e-01" nType="-99"/>
      </Node>
    </BinaryTree>
    <BinaryTree type="DecisionTree" boostWeight="1.0000000000000000e+00" itree="437">
      <Node pos="s" depth="0" NCoef="0" IVar="0" Cut="1.1141129732131958e+00" cType="1" res="-1.7551383003592491e-02" rms="4.3268921971321106e-01" purity="4.8831054568290710e-01" nType="0">
        <Node pos="l" depth="1" NCoef="0" IVar="3" Cut="1.0894091033935547e+02" cType="1" res="1.6246994957327843e-02" rms="4.4459772109985352e-01" purity="6.4733242988586426e-01" nType="0">
          <Node pos="l" depth="2" NCoef="0" IVar="-1" Cut="0.0000000000000000e+00" cType="1" res="-1.4203948667272925e-03" rms="4.6646034717559814e-01" purity="5.0756591558456421e-01" nType="-99"/>
          <Node pos="r" depth="2" NCoef="0" IVar="-1" Cut="0.0000000000000000e+00" cType="1" res="7.7899324242025614e-04" rms="4.3959355354309082e-01" purity="6.6904884576797485e-01" nType="-99"/>
        </Node>
        <Node pos="r" depth="1" NCoef="0" IVar="6" Cut="9.7203598022460938e+01" cType="1" res="-6.2700457870960236e-02" rms="4.1194644570350647e-01" purity="2.7588337659835815e-01" nType="0">
          <Node pos="l" depth="2" NCoef="0" IVar="-1" Cut="0.0000000000000000e+00" cType="1" res="-1.7080584075301886e-03" rms="3.8994815945625305e-01" purity="2.1531075239181519e-01" nType="-99"/>
          <Node pos="r" depth="2" NCoef="0" IVar="-1" Cut="0.0000000000000000e+00" cType="1" res="2.6742339832708240e-04" rms="4.4347286224365234e-01" purity="3.9874529838562012e-01" nType="-99"/>
        </Node>
      </Node>
    </BinaryTree>
    <BinaryTree type="DecisionTree" boostWeight="1.0000000000000000e+00" itree="438">
      <Node pos="s" depth="0" NCoef="0" IVar="4" Cut="1.2992353820800781e+02" cType="1" res="-1.3924034312367439e-02" rms="4.4775345921516418e-01" purity="5.1132524013519287e-01" nType="0">
        <Node pos="l" depth="1" NCoef="0" IVar="-1" Cut="0.0000000000000000e+00" cType="1" res="-2.0796952303498983e-03" rms="4.4683709740638733e-01" purity="3.8153919577598572e-01" nType="-99"/>
        <Node pos="r" depth="1" NCoef="0" IVar="2" Cut="9.1837340593338013e-01" cType="1" res="3.2463320530951023e-04" rms="4.4586098194122314e-01" purity="5.2787011861801147e-01" nType="0">
          <Node pos="l" depth="2" NCoef="0" IVar="-1" Cut="0.0000000000000000e+00" cType="1" res="3.2709592487663031e-03" rms="4.6079260110855103e-01" purity="4.9668595194816589e-01" nType="-99"/>
          <Node pos="r" depth="2" NCoef="0" IVar="-1" Cut="0.0000000000000000e+00" cType="1" res="-2.4895666865631938e-04" rms="4.4255754351615906e-01" purity="5.3025561571121216e-01" nType="-99"/>
        </Node>
      </Node>
    </BinaryTree>
    <BinaryTree type="DecisionTree" boostWeight="1.0000000000000000e+00" itree="439">
      <Node pos="s" depth="0" NCoef="0" IVar="6" Cut="9.6719741821289062e+01" cType="1" res="-9.9623212590813637e-03" rms="4.4502386450767517e-01" purity="5.1338827610015869e-01" nType="0">
        <Node pos="l" depth="1" NCoef="0" IVar="3" Cut="1.3463316345214844e+02" cType="1" res="-2.9256308451294899e-02" rms="4.4516861438751221e-01" purity="4.6598315238952637e-01" nType="0">
          <Node pos="l" depth="2" NCoef="0" IVar="-1" Cut="0.0000000000000000e+00" cType="1" res="-1.3628850865643471e-04" rms="4.4546377658843994e-01" purity="4.9756678938865662e-01" nType="-99"/>
          <Node pos="r" depth="2" NCoef="0" IVar="-1" Cut="0.0000000000000000e+00" cType="1" res="-2.0767441019415855e-03" rms="4.3325111269950867e-01" purity="3.4551417827606201e-01" nType="-99"/>
        </Node>
        <Node pos="r" depth="1" NCoef="0" IVar="0" Cut="1.0433623790740967e+00" cType="1" res="3.6181282252073288e-02" rms="4.4126924872398376e-01" purity="6.2676256895065308e-01" nType="0">
          <Node pos="l" depth="2" NCoef="0" IVar="-1" Cut="0.0000000000000000e+00" cType="1" res="-5.8527581859380007e-04" rms="4.2283752560615540e-01" purity="7.2522807121276855e-01" nType="-99"/>
          <Node pos="r" depth="2" NCoef="0" IVar="-1" Cut="0.0000000000000000e+00" cType="1" res="2.1233926527202129e-03" rms="4.5328640937805176e-01" purity="5.2119511365890503e-01" nType="-99"/>
        </Node>
      </Node>
    </BinaryTree>
    <BinaryTree type="DecisionTree" boostWeight="1.0000000000000000e+00" itree="440">
      <Node pos="s" depth="0" NCoef="0" IVar="8" Cut="2.4580707550048828e+00" cType="1" res="-4.8637082800269127e-03" rms="4.3769565224647522e-01" purity="5.0938338041305542e-01" nType="0">
        <Node pos="l" depth="1" NCoef="0" IVar="7" Cut="1.8985961377620697e-01" cType="1" res="1.6948973760008812e-02" rms="4.4912913441658020e-01" purity="5.8698630332946777e-01" nType="0">
          <Node pos="l" depth="2" NCoef="0" IVar="-1" Cut="0.0000000000000000e+00" cType="1" res="5.3477026085602120e-05" rms="4.5254027843475342e-01" purity="5.6454581022262573e-01" nType="-99"/>
          <Node pos="r" depth="2" NCoef="0" IVar="-1" Cut="0.0000000000000000e+00" cType="1" res="3.7115486338734627e-03" rms="4.0913388133049011e-01" purity="7.4726760387420654e-01" nType="-99"/>
        </Node>
        <Node pos="r" depth="1" NCoef="0" IVar="4" Cut="2.9752944946289062e+02" cType="1" res="-9.0854965150356293e-02" rms="3.7727290391921997e-01" purity="2.0345248281955719e-01" nType="0">
          <Node pos="l" depth="2" NCoef="0" IVar="-1" Cut="0.0000000000000000e+00" cType="1" res="-9.4920571427792311e-04" rms="4.3110981583595276e-01" purity="2.7716135978698730e-01" nType="-99"/>
          <Node pos="r" depth="2" NCoef="0" IVar="-1" Cut="0.0000000000000000e+00" cType="1" res="-2.1144172642379999e-03" rms="3.1712296605110168e-01" purity="1.3622342050075531e-01" nType="-99"/>
        </Node>
      </Node>
    </BinaryTree>
    <BinaryTree type="DecisionTree" boostWeight="1.0000000000000000e+00" itree="441">
      <Node pos="s" depth="0" NCoef="0" IVar="4" Cut="2.8459393310546875e+02" cType="1" res="-1.8732363358139992e-02" rms="4.4382292032241821e-01" purity="4.9772229790687561e-01" nType="0">
        <Node pos="l" depth="1" NCoef="0" IVar="4" Cut="1.6751620483398438e+02" cType="1" res="4.3003754690289497e-03" rms="4.5199045538902283e-01" purity="5.5031466484069824e-01" nType="0">
          <Node pos="l" depth="2" NCoef="0" IVar="-1" Cut="0.0000000000000000e+00" cType="1" res="-1.1595156975090504e-03" rms="4.6944770216941833e-01" purity="4.8134502768516541e-01" nType="-99"/>
          <Node pos="r" depth="2" NCoef="0" IVar="-1" Cut="0.0000000000000000e+00" cType="1" res="1.1221470776945353e-03" rms="4.3484652042388916e-01" purity="5.9638786315917969e-01" nType="-99"/>
        </Node>
        <Node pos="r" depth="1" NCoef="0" IVar="6" Cut="6.5945159912109375e+01" cType="1" res="-7.7193677425384521e-02" rms="4.1670578718185425e-01" purity="3.6423310637474060e-01" nType="0">
          <Node pos="l" depth="2" NCoef="0" IVar="-1" Cut="0.0000000000000000e+00" cType="1" res="-2.3228945210576057e-03" rms="3.9320674538612366e-01" purity="2.2678446769714355e-01" nType="-99"/>
          <Node pos="r" depth="2" NCoef="0" IVar="-1" Cut="0.0000000000000000e+00" cType="1" res="-8.8565394980832934e-04" rms="4.2471408843994141e-01" purity="4.3468239903450012e-01" nType="-99"/>
        </Node>
      </Node>
    </BinaryTree>
    <BinaryTree type="DecisionTree" boostWeight="1.0000000000000000e+00" itree="442">
      <Node pos="s" depth="0" NCoef="0" IVar="1" Cut="3.8695788574218750e+02" cType="1" res="-1.6636185348033905e-02" rms="4.3740603327751160e-01" purity="5.0029116868972778e-01" nType="0">
        <Node pos="l" depth="1" NCoef="0" IVar="0" Cut="8.5439079999923706e-01" cType="1" res="-6.6621318459510803e-02" rms="4.3567931652069092e-01" purity="4.0938553214073181e-01" nType="0">
          <Node pos="l" depth="2" NCoef="0" IVar="-1" Cut="0.0000000000000000e+00" cType="1" res="-1.7113240028265864e-04" rms="4.5260694622993469e-01" purity="5.9960407018661499e-01" nType="-99"/>
          <Node pos="r" depth="2" NCoef="0" IVar="-1" Cut="0.0000000000000000e+00" cType="1" res="-1.6617862274870276e-03" rms="4.2400076985359192e-01" purity="3.1489855051040649e-01" nType="-99"/>
        </Node>
        <Node pos="r" depth="1" NCoef="0" IVar="4" Cut="4.3259603881835938e+02" cType="1" res="3.5418774932622910e-02" rms="4.3310779333114624e-01" purity="5.9496122598648071e-01" nType="0">
          <Node pos="l" depth="2" NCoef="0" IVar="-1" Cut="0.0000000000000000e+00" cType="1" res="1.4235664857551455e-03" rms="4.3158069252967834e-01" purity="6.4169949293136597e-01" nType="-99"/>
          <Node pos="r" depth="2" NCoef="0" IVar="-1" Cut="0.0000000000000000e+00" cType="1" res="-1.3913495931774378e-03" rms="4.2622616887092590e-01" purity="3.2813441753387451e-01" nType="-99"/>
        </Node>
      </Node>
    </BinaryTree>
    <BinaryTree type="DecisionTree" boostWeight="1.0000000000000000e+00" itree="443">
      <Node pos="s" depth="0" NCoef="0" IVar="5" Cut="4.1422918701171875e+02" cType="1" res="-6.1355573125183582e-03" rms="4.4955059885978699e-01" purity="5.1995521783828735e-01" nType="0">
        <Node pos="l" depth="1" NCoef="0" IVar="2" Cut="9.5399838685989380e-01" cType="1" res="-8.1705734133720398e-02" rms="4.2744573950767517e-01" purity="3.4511986374855042e-01" nType="0">
          <Node pos="l" depth="2" NCoef="0" IVar="-1" Cut="0.0000000000000000e+00" cType="1" res="-1.9567962735891342e-03" rms="3.9769032597541809e-01" purity="2.1943230926990509e-01" nType="-99"/>
          <Node pos="r" depth="2" NCoef="0" IVar="-1" Cut="0.0000000000000000e+00" cType="1" res="-3.4925018553622067e-04" rms="4.5752409100532532e-01" purity="5.1892697811126709e-01" nType="-99"/>
        </Node>
        <Node pos="r" depth="1" NCoef="0" IVar="3" Cut="1.3214088439941406e+02" cType="1" res="1.0580517351627350e-02" rms="4.5259389281272888e-01" purity="5.5862861871719360e-01" nType="0">
          <Node pos="l" depth="2" NCoef="0" IVar="-1" Cut="0.0000000000000000e+00" cType="1" res="6.5580202499404550e-04" rms="4.4711017608642578e-01" purity="5.8577901124954224e-01" nType="-99"/>
          <Node pos="r" depth="2" NCoef="0" IVar="-1" Cut="0.0000000000000000e+00" cType="1" res="-8.6313759675249457e-04" rms="4.6476587653160095e-01" purity="4.7797507047653198e-01" nType="-99"/>
        </Node>
      </Node>
    </BinaryTree>
    <BinaryTree type="DecisionTree" boostWeight="1.0000000000000000e+00" itree="444">
      <Node pos="s" depth="0" NCoef="0" IVar="4" Cut="3.7800646972656250e+02" cType="1" res="-1.9274645019322634e-03" rms="4.3670532107353210e-01" purity="5.0252288579940796e-01" nType="0">
        <Node pos="l" depth="1" NCoef="0" IVar="5" Cut="7.3412152099609375e+02" cType="1" res="1.6077199950814247e-02" rms="4.4036751985549927e-01" purity="5.4203486442565918e-01" nType="0">
          <Node pos="l" depth="2" NCoef="0" IVar="-1" Cut="0.0000000000000000e+00" cType="1" res="4.4873555452795699e-05" rms="4.4372501969337463e-01" purity="5.1246100664138794e-01" nType="-99"/>
          <Node pos="r" depth="2" NCoef="0" IVar="-1" Cut="0.0000000000000000e+00" cType="1" res="3.8649674970656633e-03" rms="4.0216675400733948e-01" purity="7.5131517648696899e-01" nType="-99"/>
        </Node>
        <Node pos="r" depth="1" NCoef="0" IVar="2" Cut="9.4835573434829712e-01" cType="1" res="-9.8861262202262878e-02" rms="4.0283635258674622e-01" purity="2.8979736566543579e-01" nType="0">
          <Node pos="l" depth="2" NCoef="0" IVar="-1" Cut="0.0000000000000000e+00" cType="1" res="-2.4596098810434341e-03" rms="3.4170818328857422e-01" purity="1.4467811584472656e-01" nType="-99"/>
          <Node pos="r" depth="2" NCoef="0" IVar="-1" Cut="0.0000000000000000e+00" cType="1" res="-6.4885843312367797e-04" rms="4.6894371509552002e-01" purity="4.9957710504531860e-01" nType="-99"/>
        </Node>
      </Node>
    </BinaryTree>
    <BinaryTree type="DecisionTree" boostWeight="1.0000000000000000e+00" itree="445">
      <Node pos="s" depth="0" NCoef="0" IVar="4" Cut="3.7800646972656250e+02" cType="1" res="-1.8517086282372475e-02" rms="4.4471815228462219e-01" purity="5.0453710556030273e-01" nType="0">
        <Node pos="l" depth="1" NCoef="0" IVar="8" Cut="2.0991168022155762e+00" cType="1" res="-2.2217056248337030e-03" rms="4.4662770628929138e-01" purity="5.4109358787536621e-01" nType="0">
          <Node pos="l" depth="2" NCoef="0" IVar="-1" Cut="0.0000000000000000e+00" cType="1" res="1.1640943121165037e-03" rms="4.3728846311569214e-01" purity="6.6436076164245605e-01" nType="-99"/>
          <Node pos="r" depth="2" NCoef="0" IVar="-1" Cut="0.0000000000000000e+00" cType="1" res="-7.6779036317020655e-04" rms="4.5040777325630188e-01" purity="4.4629129767417908e-01" nType="-99"/>
        </Node>
        <Node pos="r" depth="1" NCoef="0" IVar="0" Cut="1.2441052198410034e+00" cType="1" res="-1.1213303357362747e-01" rms="4.2155256867408752e-01" purity="2.9452228546142578e-01" nType="0">
          <Node pos="l" depth="2" NCoef="0" IVar="-1" Cut="0.0000000000000000e+00" cType="1" res="-3.1223478727042675e-03" rms="4.6357855200767517e-01" purity="3.9703646302223206e-01" nType="-99"/>
          <Node pos="r" depth="2" NCoef="0" IVar="-1" Cut="0.0000000000000000e+00" cType="1" res="-1.0427518282085657e-03" rms="3.8087776303291321e-01" purity="2.2226041555404663e-01" nType="-99"/>
        </Node>
      </Node>
    </BinaryTree>
    <BinaryTree type="DecisionTree" boostWeight="1.0000000000000000e+00" itree="446">
      <Node pos="s" depth="0" NCoef="0" IVar="2" Cut="9.3987476825714111e-01" cType="1" res="-2.4875128641724586e-02" rms="4.3490409851074219e-01" purity="4.8606476187705994e-01" nType="0">
        <Node pos="l" depth="1" NCoef="0" IVar="3" Cut="1.2255563354492188e+02" cType="1" res="-7.5118668377399445e-02" rms="4.2042282223701477e-01" purity="2.9834529757499695e-01" nType="0">
          <Node pos="l" depth="2" NCoef="0" IVar="-1" Cut="0.0000000000000000e+00" cType="1" res="-4.1297310963273048e-04" rms="4.5164856314659119e-01" purity="3.5692548751831055e-01" nType="-99"/>
          <Node pos="r" depth="2" NCoef="0" IVar="-1" Cut="0.0000000000000000e+00" cType="1" res="-1.7059776000678539e-03" rms="3.9575228095054626e-01" purity="2.6100748777389526e-01" nType="-99"/>
        </Node>
        <Node pos="r" depth="1" NCoef="0" IVar="6" Cut="9.1833160400390625e+01" cType="1" res="5.3931213915348053e-03" rms="4.4064325094223022e-01" purity="5.9915268421173096e-01" nType="0">
          <Node pos="l" depth="2" NCoef="0" IVar="-1" Cut="0.0000000000000000e+00" cType="1" res="-4.1227095061913133e-04" rms="4.5193913578987122e-01" purity="5.4156196117401123e-01" nType="-99"/>
          <Node pos="r" depth="2" NCoef="0" IVar="-1" Cut="0.0000000000000000e+00" cType="1" res="1.6794204711914062e-03" rms="4.1336715221405029e-01" purity="7.1288132667541504e-01" nType="-99"/>
        </Node>
      </Node>
    </BinaryTree>
    <BinaryTree type="DecisionTree" boostWeight="1.0000000000000000e+00" itree="447">
      <Node pos="s" depth="0" NCoef="0" IVar="2" Cut="9.2808192968368530e-01" cType="1" res="-6.3522676937282085e-03" rms="4.3259653449058533e-01" purity="5.0448107719421387e-01" nType="0">
        <Node pos="l" depth="1" NCoef="0" IVar="7" Cut="9.5297083258628845e-02" cType="1" res="-7.8308291733264923e-02" rms="4.1391170024871826e-01" purity="2.6172661781311035e-01" nType="0">
          <Node pos="l" depth="2" NCoef="0" IVar="-1" Cut="0.0000000000000000e+00" cType="1" res="-1.6141892410814762e-03" rms="3.9819729328155518e-01" purity="2.2294056415557861e-01" nType="-99"/>
          <Node pos="r" depth="2" NCoef="0" IVar="-1" Cut="0.0000000000000000e+00" cType="1" res="-4.8982829321175814e-04" rms="4.4187334179878235e-01" purity="3.4454265236854553e-01" nType="-99"/>
        </Node>
        <Node pos="r" depth="1" NCoef="0" IVar="6" Cut="4.0311077117919922e+01" cType="1" res="1.2198111042380333e-02" rms="4.3536013364791870e-01" purity="5.6706357002258301e-01" nType="0">
          <Node pos="l" depth="2" NCoef="0" IVar="-1" Cut="0.0000000000000000e+00" cType="1" res="-1.8147241789847612e-03" rms="4.4682076573371887e-01" purity="3.4460297226905823e-01" nType="-99"/>
          <Node pos="r" depth="2" NCoef="0" IVar="-1" Cut="0.0000000000000000e+00" cType="1" res="6.9330388214439154e-04" rms="4.3123820424079895e-01" purity="5.9703302383422852e-01" nType="-99"/>
        </Node>
      </Node>
    </BinaryTree>
    <BinaryTree type="DecisionTree" boostWeight="1.0000000000000000e+00" itree="448">
      <Node pos="s" depth="0" NCoef="0" IVar="7" Cut="2.0907583832740784e-01" cType="1" res="-2.9753686860203743e-02" rms="4.3996599316596985e-01" purity="4.7455087304115295e-01" nType="0">
        <Node pos="l" depth="1" NCoef="0" IVar="5" Cut="8.2570068359375000e+02" cType="1" res="-3.9497930556535721e-02" rms="4.3889927864074707e-01" purity="4.5608106255531311e-01" nType="0">
          <Node pos="l" depth="2" NCoef="0" IVar="-1" Cut="0.0000000000000000e+00" cType="1" res="-9.8508608061820269e-04" rms="4.3711581826210022e-01" purity="4.3288448452949524e-01" nType="-99"/>
          <Node pos="r" depth="2" NCoef="0" IVar="-1" Cut="0.0000000000000000e+00" cType="1" res="1.3338116696104407e-03" rms="4.4266352057456970e-01" purity="6.3291788101196289e-01" nType="-99"/>
        </Node>
        <Node pos="r" depth="1" NCoef="0" IVar="-1" Cut="0.0000000000000000e+00" cType="1" res="2.9761067125946283e-03" rms="4.3378493189811707e-01" purity="7.1810972690582275e-01" nType="-99"/>
      </Node>
    </BinaryTree>
    <BinaryTree type="DecisionTree" boostWeight="1.0000000000000000e+00" itree="449">
      <Node pos="s" depth="0" NCoef="0" IVar="3" Cut="1.3622291564941406e+02" cType="1" res="-2.4418165907263756e-02" rms="4.4269827008247375e-01" purity="4.9201613664627075e-01" nType="0">
        <Node pos="l" depth="1" NCoef="0" IVar="3" Cut="1.0791491699218750e+02" cType="1" res="-5.8759991079568863e-03" rms="4.4120341539382935e-01" purity="5.2131617069244385e-01" nType="0">
          <Node pos="l" depth="2" NCoef="0" IVar="-1" Cut="0.0000000000000000e+00" cType="1" res="-2.0151336211711168e-03" rms="4.1735351085662842e-01" purity="3.1672796607017517e-01" nType="-99"/>
          <Node pos="r" depth="2" NCoef="0" IVar="-1" Cut="0.0000000000000000e+00" cType="1" res="3.8196140667423606e-04" rms="4.4238397479057312e-01" purity="5.6274420022964478e-01" nType="-99"/>
        </Node>
        <Node pos="r" depth="1" NCoef="0" IVar="8" Cut="2.0366208553314209e+00" cType="1" res="-1.1011281609535217e-01" rms="4.3949493765830994e-01" purity="3.5660278797149658e-01" nType="0">
          <Node pos="l" depth="2" NCoef="0" IVar="-1" Cut="0.0000000000000000e+00" cType="1" res="-1.2478838907554746e-03" rms="4.6293470263481140e-01" purity="4.9231207370758057e-01" nType="-99"/>
          <Node pos="r" depth="2" NCoef="0" IVar="-1" Cut="0.0000000000000000e+00" cType="1" res="-2.3520358372479677e-03" rms="4.2768928408622742e-01" purity="3.0047941207885742e-01" nType="-99"/>
        </Node>
      </Node>
    </BinaryTree>
    <BinaryTree type="DecisionTree" boostWeight="1.0000000000000000e+00" itree="450">
      <Node pos="s" depth="0" NCoef="0" IVar="1" Cut="5.1913702392578125e+02" cType="1" res="-1.0848240926861763e-02" rms="4.3664091825485229e-01" purity="4.9499577283859253e-01" nType="0">
        <Node pos="l" depth="1" NCoef="0" IVar="8" Cut="2.3986053466796875e+00" cType="1" res="9.2970356345176697e-03" rms="4.3538513779640198e-01" purity="5.0078433752059937e-01" nType="0">
          <Node pos="l" depth="2" NCoef="0" IVar="-1" Cut="0.0000000000000000e+00" cType="1" res="8.6681707762181759e-04" rms="4.4711562991142273e-01" purity="5.9682768583297729e-01" nType="-99"/>
          <Node pos="r" depth="2" NCoef="0" IVar="-1" Cut="0.0000000000000000e+00" cType="1" res="-1.2771883048117161e-03" rms="3.8995599746704102e-01" purity="2.3087798058986664e-01" nType="-99"/>
        </Node>
        <Node pos="r" depth="1" NCoef="0" IVar="6" Cut="9.0826904296875000e+01" cType="1" res="-6.5313145518302917e-02" rms="4.3537607789039612e-01" purity="4.7934588789939880e-01" nType="0">
          <Node pos="l" depth="2" NCoef="0" IVar="-1" Cut="0.0000000000000000e+00" cType="1" res="-2.1633363794535398e-03" rms="4.0803411602973938e-01" purity="3.2683590054512024e-01" nType="-99"/>
          <Node pos="r" depth="2" NCoef="0" IVar="-1" Cut="0.0000000000000000e+00" cType="1" res="-3.9105402538552880e-04" rms="4.4771909713745117e-01" purity="5.9057384729385376e-01" nType="-99"/>
        </Node>
      </Node>
    </BinaryTree>
    <BinaryTree type="DecisionTree" boostWeight="1.0000000000000000e+00" itree="451">
      <Node pos="s" depth="0" NCoef="0" IVar="3" Cut="1.0851185607910156e+02" cType="1" res="-8.1567242741584778e-03" rms="4.4550278782844543e-01" purity="5.1426941156387329e-01" nType="0">
        <Node pos="l" depth="1" NCoef="0" IVar="3" Cut="1.0080547332763672e+02" cType="1" res="-7.5926400721073151e-02" rms="4.3164366483688354e-01" purity="3.6738723516464233e-01" nType="0">
          <Node pos="l" depth="2" NCoef="0" IVar="-1" Cut="0.0000000000000000e+00" cType="1" res="-2.3157270625233650e-03" rms="3.8326835632324219e-01" purity="2.4371126294136047e-01" nType="-99"/>
          <Node pos="r" depth="2" NCoef="0" IVar="-1" Cut="0.0000000000000000e+00" cType="1" res="-1.2794093345291913e-04" rms="4.6848908066749573e-01" purity="5.0105172395706177e-01" nType="-99"/>
        </Node>
        <Node pos="r" depth="1" NCoef="0" IVar="3" Cut="1.3795732116699219e+02" cType="1" res="3.7483642809092999e-03" rms="4.4683298468589783e-01" purity="5.4007220268249512e-01" nType="0">
          <Node pos="l" depth="2" NCoef="0" IVar="-1" Cut="0.0000000000000000e+00" cType="1" res="4.1712683741934597e-04" rms="4.4650152325630188e-01" purity="5.7085782289505005e-01" nType="-99"/>
          <Node pos="r" depth="2" NCoef="0" IVar="-1" Cut="0.0000000000000000e+00" cType="1" res="-1.3907272368669510e-03" rms="4.4104343652725220e-01" purity="3.7926563620567322e-01" nType="-99"/>
        </Node>
      </Node>
    </BinaryTree>
    <BinaryTree type="DecisionTree" boostWeight="1.0000000000000000e+00" itree="452">
      <Node pos="s" depth="0" NCoef="0" IVar="1" Cut="4.5304742431640625e+02" cType="1" res="-7.0082559250295162e-03" rms="4.4450011849403381e-01" purity="5.1527100801467896e-01" nType="0">
        <Node pos="l" depth="1" NCoef="0" IVar="0" Cut="1.2415580749511719e+00" cType="1" res="-2.5395147502422333e-02" rms="4.4279867410659790e-01" purity="4.7221961617469788e-01" nType="0">
          <Node pos="l" depth="2" NCoef="0" IVar="-1" Cut="0.0000000000000000e+00" cType="1" res="4.9110160034615546e-05" rms="4.6015492081642151e-01" purity="5.8895683288574219e-01" nType="-99"/>
          <Node pos="r" depth="2" NCoef="0" IVar="-1" Cut="0.0000000000000000e+00" cType="1" res="-1.3445905642583966e-03" rms="3.9942634105682373e-01" purity="2.3507431149482727e-01" nType="-99"/>
        </Node>
        <Node pos="r" depth="1" NCoef="0" IVar="7" Cut="1.0775448381900787e-01" cType="1" res="3.0091628432273865e-02" rms="4.4560962915420532e-01" purity="6.0213714838027954e-01" nType="0">
          <Node pos="l" depth="2" NCoef="0" IVar="-1" Cut="0.0000000000000000e+00" cType="1" res="1.5788985183462501e-03" rms="4.3167799711227417e-01" purity="6.0017758607864380e-01" nType="-99"/>
          <Node pos="r" depth="2" NCoef="0" IVar="-1" Cut="0.0000000000000000e+00" cType="1" res="-1.8691204022616148e-03" rms="4.7658944129943848e-01" purity="6.0882216691970825e-01" nType="-99"/>
        </Node>
      </Node>
    </BinaryTree>
    <BinaryTree type="DecisionTree" boostWeight="1.0000000000000000e+00" itree="453">
      <Node pos="s" depth="0" NCoef="0" IVar="4" Cut="3.1120907592773438e+02" cType="1" res="-1.2513035908341408e-02" rms="4.4182282686233521e-01" purity="5.1401430368423462e-01" nType="0">
        <Node pos="l" depth="1" NCoef="0" IVar="5" Cut="4.7416275024414062e+02" cType="1" res="6.2827402725815773e-03" rms="4.4447380304336548e-01" purity="5.5880135297775269e-01" nType="0">
          <Node pos="l" depth="2" NCoef="0" IVar="-1" Cut="0.0000000000000000e+00" cType="1" res="-9.0151344193145633e-04" rms="4.5255953073501587e-01" purity="4.3589493632316589e-01" nType="-99"/>
          <Node pos="r" depth="2" NCoef="0" IVar="-1" Cut="0.0000000000000000e+00" cType="1" res="1.1038474040105939e-03" rms="4.3515408039093018e-01" purity="6.4167606830596924e-01" nType="-99"/>
        </Node>
        <Node pos="r" depth="1" NCoef="0" IVar="0" Cut="9.3775004148483276e-01" cType="1" res="-7.3322385549545288e-02" rms="4.2751052975654602e-01" purity="3.6911615729331970e-01" nType="0">
          <Node pos="l" depth="2" NCoef="0" IVar="-1" Cut="0.0000000000000000e+00" cType="1" res="-3.7451130338013172e-03" rms="4.6249747276306152e-01" purity="5.1394373178482056e-01" nType="-99"/>
          <Node pos="r" depth="2" NCoef="0" IVar="-1" Cut="0.0000000000000000e+00" cType="1" res="-8.6493720300495625e-04" rms="4.1293114423751831e-01" purity="3.2743737101554871e-01" nType="-99"/>
        </Node>
      </Node>
    </BinaryTree>
    <BinaryTree type="DecisionTree" boostWeight="1.0000000000000000e+00" itree="454">
      <Node pos="s" depth="0" NCoef="0" IVar="8" Cut="2.5714344978332520e+00" cType="1" res="-2.5408620014786720e-02" rms="4.4141733646392822e-01" purity="4.9063178896903992e-01" nType="0">
        <Node pos="l" depth="1" NCoef="0" IVar="7" Cut="2.0996186137199402e-01" cType="1" res="-1.0825434699654579e-02" rms="4.5657294988632202e-01" purity="5.5139607191085815e-01" nType="0">
          <Node pos="l" depth="2" NCoef="0" IVar="-1" Cut="0.0000000000000000e+00" cType="1" res="-4.3227538117207587e-04" rms="4.5850884914398193e-01" purity="5.3726303577423096e-01" nType="-99"/>
          <Node pos="r" depth="2" NCoef="0" IVar="-1" Cut="0.0000000000000000e+00" cType="1" res="1.8676321487873793e-03" rms="4.3041509389877319e-01" purity="6.7931562662124634e-01" nType="-99"/>
        </Node>
        <Node pos="r" depth="1" NCoef="0" IVar="-1" Cut="0.0000000000000000e+00" cType="1" res="-1.8605653895065188e-03" rms="3.3339944481849670e-01" purity="1.5177685022354126e-01" nType="-99"/>
      </Node>
    </BinaryTree>
    <BinaryTree type="DecisionTree" boostWeight="1.0000000000000000e+00" itree="455">
      <Node pos="s" depth="0" NCoef="0" IVar="8" Cut="2.1746609210968018e+00" cType="1" res="-1.6223927959799767e-02" rms="4.4224590063095093e-01" purity="4.9861815571784973e-01" nType="0">
        <Node pos="l" depth="1" NCoef="0" IVar="2" Cut="9.2437100410461426e-01" cType="1" res="1.1579302139580250e-02" rms="4.5158949494361877e-01" purity="6.1277598142623901e-01" nType="0">
          <Node pos="l" depth="2" NCoef="0" IVar="-1" Cut="0.0000000000000000e+00" cType="1" res="-1.4278473099693656e-03" rms="4.4643899798393250e-01" purity="3.1281897425651550e-01" nType="-99"/>
          <Node pos="r" depth="2" NCoef="0" IVar="-1" Cut="0.0000000000000000e+00" cType="1" res="7.9343502875417471e-04" rms="4.4993841648101807e-01" purity="6.6410011053085327e-01" nType="-99"/>
        </Node>
        <Node pos="r" depth="1" NCoef="0" IVar="2" Cut="9.6635442972183228e-01" cType="1" res="-4.6606045216321945e-02" rms="4.2975267767906189e-01" purity="3.7387162446975708e-01" nType="0">
          <Node pos="l" depth="2" NCoef="0" IVar="-1" Cut="0.0000000000000000e+00" cType="1" res="-1.1519063264131546e-03" rms="4.2543771862983704e-01" purity="3.0638447403907776e-01" nType="-99"/>
          <Node pos="r" depth="2" NCoef="0" IVar="-1" Cut="0.0000000000000000e+00" cType="1" res="5.0923333037644625e-04" rms="4.3820279836654663e-01" purity="6.1218887567520142e-01" nType="-99"/>
        </Node>
      </Node>
    </BinaryTree>
    <BinaryTree type="DecisionTree" boostWeight="1.0000000000000000e+00" itree="456">
      <Node pos="s" depth="0" NCoef="0" IVar="8" Cut="2.5791783332824707e+00" cType="1" res="-1.8338825553655624e-02" rms="4.4368803501129150e-01" purity="4.9408358335494995e-01" nType="0">
        <Node pos="l" depth="1" NCoef="0" IVar="1" Cut="2.8669058227539062e+02" cType="1" res="-6.2811700627207756e-03" rms="4.5500370860099792e-01" purity="5.4829847812652588e-01" nType="0">
          <Node pos="l" depth="2" NCoef="0" IVar="-1" Cut="0.0000000000000000e+00" cType="1" res="-1.4843525132164359e-03" rms="4.4304698705673218e-01" purity="3.5492137074470520e-01" nType="-99"/>
          <Node pos="r" depth="2" NCoef="0" IVar="-1" Cut="0.0000000000000000e+00" cType="1" res="1.4758827455807477e-04" rms="4.5562750101089478e-01" purity="5.7930731773376465e-01" nType="-99"/>
        </Node>
        <Node pos="r" depth="1" NCoef="0" IVar="-1" Cut="0.0000000000000000e+00" cType="1" res="-1.6061330679804087e-03" rms="3.5889253020286560e-01" purity="1.6460262238979340e-01" nType="-99"/>
      </Node>
    </BinaryTree>
    <BinaryTree type="DecisionTree" boostWeight="1.0000000000000000e+00" itree="457">
      <Node pos="s" depth="0" NCoef="0" IVar="0" Cut="1.4287276268005371e+00" cType="1" res="-7.7938912436366081e-03" rms="4.3653964996337891e-01" purity="5.0088357925415039e-01" nType="0">
        <Node pos="l" depth="1" NCoef="0" IVar="3" Cut="1.0985400390625000e+02" cType="1" res="6.4652259461581707e-03" rms="4.4746649265289307e-01" purity="5.7070100307464600e-01" nType="0">
          <Node pos="l" depth="2" NCoef="0" IVar="-1" Cut="0.0000000000000000e+00" cType="1" res="-1.0657891398295760e-03" rms="4.6654057502746582e-01" purity="4.6360924839973450e-01" nType="-99"/>
          <Node pos="r" depth="2" NCoef="0" IVar="-1" Cut="0.0000000000000000e+00" cType="1" res="4.3459620792418718e-04" rms="4.4247746467590332e-01" purity="5.9245908260345459e-01" nType="-99"/>
        </Node>
        <Node pos="r" depth="1" NCoef="0" IVar="5" Cut="5.5374053955078125e+02" cType="1" res="-6.7871481180191040e-02" rms="3.8131773471832275e-01" purity="2.0672358572483063e-01" nType="0">
          <Node pos="l" depth="2" NCoef="0" IVar="-1" Cut="0.0000000000000000e+00" cType="1" res="-1.9673707429319620e-03" rms="3.4059110283851624e-01" purity="1.4844991266727448e-01" nType="-99"/>
          <Node pos="r" depth="2" NCoef="0" IVar="-1" Cut="0.0000000000000000e+00" cType="1" res="3.3800864912336692e-05" rms="4.1945374011993408e-01" purity="2.8411906957626343e-01" nType="-99"/>
        </Node>
      </Node>
    </BinaryTree>
    <BinaryTree type="DecisionTree" boostWeight="1.0000000000000000e+00" itree="458">
      <Node pos="s" depth="0" NCoef="0" IVar="0" Cut="1.4665743112564087e+00" cType="1" res="-1.2815789319574833e-02" rms="4.3355825543403625e-01" purity="5.0607037544250488e-01" nType="0">
        <Node pos="l" depth="1" NCoef="0" IVar="5" Cut="4.7117013549804688e+02" cType="1" res="1.8168699461966753e-03" rms="4.4449672102928162e-01" purity="5.7029396295547485e-01" nType="0">
          <Node pos="l" depth="2" NCoef="0" IVar="-1" Cut="0.0000000000000000e+00" cType="1" res="-8.5008429596200585e-04" rms="4.4521823525428772e-01" purity="4.4422033429145813e-01" nType="-99"/>
          <Node pos="r" depth="2" NCoef="0" IVar="-1" Cut="0.0000000000000000e+00" cType="1" res="6.7214248701930046e-04" rms="4.4209364056587219e-01" purity="6.3536822795867920e-01" nType="-99"/>
        </Node>
        <Node pos="r" depth="1" NCoef="0" IVar="-1" Cut="0.0000000000000000e+00" cType="1" res="-1.5379241667687893e-03" rms="3.6357802152633667e-01" purity="1.7778480052947998e-01" nType="-99"/>
      </Node>
    </BinaryTree>
    <BinaryTree type="DecisionTree" boostWeight="1.0000000000000000e+00" itree="459">
      <Node pos="s" depth="0" NCoef="0" IVar="6" Cut="5.7785602569580078e+01" cType="1" res="-2.2449807729572058e-03" rms="4.4036564230918884e-01" purity="5.2290898561477661e-01" nType="0">
        <Node pos="l" depth="1" NCoef="0" IVar="5" Cut="4.9408853149414062e+02" cType="1" res="-6.0719352215528488e-02" rms="4.4760110974311829e-01" purity="4.1080611944198608e-01" nType="0">
          <Node pos="l" depth="2" NCoef="0" IVar="-1" Cut="0.0000000000000000e+00" cType="1" res="-1.6612806357443333e-03" rms="4.3192532658576965e-01" purity="3.5000464320182800e-01" nType="-99"/>
          <Node pos="r" depth="2" NCoef="0" IVar="-1" Cut="0.0000000000000000e+00" cType="1" res="-8.2207807281520218e-05" rms="4.6759861707687378e-01" purity="5.1400971412658691e-01" nType="-99"/>
        </Node>
        <Node pos="r" depth="1" NCoef="0" IVar="3" Cut="1.1066941833496094e+02" cType="1" res="2.6458226144313812e-02" rms="4.3389615416526794e-01" purity="5.7793670892715454e-01" nType="0">
          <Node pos="l" depth="2" NCoef="0" IVar="-1" Cut="0.0000000000000000e+00" cType="1" res="-1.3520915526896715e-03" rms="4.5605275034904480e-01" purity="4.2737808823585510e-01" nType="-99"/>
          <Node pos="r" depth="2" NCoef="0" IVar="-1" Cut="0.0000000000000000e+00" cType="1" res="1.1906039435416460e-03" rms="4.2668852210044861e-01" purity="6.0883599519729614e-01" nType="-99"/>
        </Node>
      </Node>
    </BinaryTree>
    <BinaryTree type="DecisionTree" boostWeight="1.0000000000000000e+00" itree="460">
      <Node pos="s" depth="0" NCoef="0" IVar="3" Cut="1.3528964233398438e+02" cType="1" res="-1.1368254199624062e-02" rms="4.4681775569915771e-01" purity="5.1399809122085571e-01" nType="0">
        <Node pos="l" depth="1" NCoef="0" IVar="2" Cut="9.2744582891464233e-01" cType="1" res="1.0972335003316402e-03" rms="4.4378513097763062e-01" purity="5.3218507766723633e-01" nType="0">
          <Node pos="l" depth="2" NCoef="0" IVar="-1" Cut="0.0000000000000000e+00" cType="1" res="-1.1599948629736900e-03" rms="4.0632015466690063e-01" purity="2.6400628685951233e-01" nType="-99"/>
          <Node pos="r" depth="2" NCoef="0" IVar="-1" Cut="0.0000000000000000e+00" cType="1" res="4.1289118234999478e-04" rms="4.5032370090484619e-01" purity="5.9293079376220703e-01" nType="-99"/>
        </Node>
        <Node pos="r" depth="1" NCoef="0" IVar="2" Cut="9.6052509546279907e-01" cType="1" res="-7.3198370635509491e-02" rms="4.5656216144561768e-01" purity="4.2378869652748108e-01" nType="0">
          <Node pos="l" depth="2" NCoef="0" IVar="-1" Cut="0.0000000000000000e+00" cType="1" res="-7.9384662967640907e-05" rms="4.4707790017127991e-01" purity="4.2589211463928223e-01" nType="-99"/>
          <Node pos="r" depth="2" NCoef="0" IVar="-1" Cut="0.0000000000000000e+00" cType="1" res="-3.9050492923706770e-03" rms="4.4795119762420654e-01" purity="4.2015802860260010e-01" nType="-99"/>
        </Node>
      </Node>
    </BinaryTree>
    <BinaryTree type="DecisionTree" boostWeight="1.0000000000000000e+00" itree="461">
      <Node pos="s" depth="0" NCoef="0" IVar="5" Cut="4.2087512207031250e+02" cType="1" res="-1.5648934058845043e-03" rms="4.4624084234237671e-01" purity="5.2131348848342896e-01" nType="0">
        <Node pos="l" depth="1" NCoef="0" IVar="7" Cut="1.3832759857177734e-01" cType="1" res="-5.9272438287734985e-02" rms="4.3142551183700562e-01" purity="3.7186411023139954e-01" nType="0">
          <Node pos="l" depth="2" NCoef="0" IVar="-1" Cut="0.0000000000000000e+00" cType="1" res="4.8740108468336985e-05" rms="4.2777228355407715e-01" purity="3.9048960804939270e-01" nType="-99"/>
          <Node pos="r" depth="2" NCoef="0" IVar="-1" Cut="0.0000000000000000e+00" cType="1" res="-2.1840131375938654e-03" rms="4.2390692234039307e-01" purity="3.4933388233184814e-01" nType="-99"/>
        </Node>
        <Node pos="r" depth="1" NCoef="0" IVar="3" Cut="1.1598233032226562e+02" cType="1" res="1.1379456147551537e-02" rms="4.4847857952117920e-01" purity="5.5483645200729370e-01" nType="0">
          <Node pos="l" depth="2" NCoef="0" IVar="-1" Cut="0.0000000000000000e+00" cType="1" res="-9.3087088316679001e-04" rms="4.6743589639663696e-01" purity="4.6945992112159729e-01" nType="-99"/>
          <Node pos="r" depth="2" NCoef="0" IVar="-1" Cut="0.0000000000000000e+00" cType="1" res="7.6262303628027439e-04" rms="4.3937534093856812e-01" purity="5.8707338571548462e-01" nType="-99"/>
        </Node>
      </Node>
    </BinaryTree>
    <BinaryTree type="DecisionTree" boostWeight="1.0000000000000000e+00" itree="462">
      <Node pos="s" depth="0" NCoef="0" IVar="3" Cut="1.0228419494628906e+02" cType="1" res="-1.3668989762663841e-02" rms="4.3951517343521118e-01" purity="5.0127559900283813e-01" nType="0">
        <Node pos="l" depth="1" NCoef="0" IVar="-1" Cut="0.0000000000000000e+00" cType="1" res="-2.0478356163948774e-03" rms="3.9435493946075439e-01" purity="2.4759976565837860e-01" nType="-99"/>
        <Node pos="r" depth="1" NCoef="0" IVar="5" Cut="8.9646496582031250e+02" cType="1" res="-4.0173116140067577e-03" rms="4.4209548830986023e-01" purity="5.2417796850204468e-01" nType="0">
          <Node pos="l" depth="2" NCoef="0" IVar="-1" Cut="0.0000000000000000e+00" cType="1" res="-2.7308528660796583e-04" rms="4.4222798943519592e-01" purity="5.0697016716003418e-01" nType="-99"/>
          <Node pos="r" depth="2" NCoef="0" IVar="-1" Cut="0.0000000000000000e+00" cType="1" res="3.6053650546818972e-03" rms="4.2542940378189087e-01" purity="7.4236696958541870e-01" nType="-99"/>
        </Node>
      </Node>
    </BinaryTree>
    <BinaryTree type="DecisionTree" boostWeight="1.0000000000000000e+00" itree="463">
      <Node pos="s" depth="0" NCoef="0" IVar="6" Cut="1.4258570861816406e+02" cType="1" res="1.1788222473114729e-03" rms="4.4307675957679749e-01" purity="5.1654446125030518e-01" nType="0">
        <Node pos="l" depth="1" NCoef="0" IVar="6" Cut="1.0513189697265625e+02" cType="1" res="1.0866189375519753e-02" rms="4.4112101197242737e-01" purity="5.2466756105422974e-01" nType="0">
          <Node pos="l" depth="2" NCoef="0" IVar="-1" Cut="0.0000000000000000e+00" cType="1" res="-1.6979218344204128e-04" rms="4.4603481888771057e-01" purity="4.8445600271224976e-01" nType="-99"/>
          <Node pos="r" depth="2" NCoef="0" IVar="-1" Cut="0.0000000000000000e+00" cType="1" res="3.3369015436619520e-03" rms="4.0370738506317139e-01" purity="7.2050333023071289e-01" nType="-99"/>
        </Node>
        <Node pos="r" depth="1" NCoef="0" IVar="-1" Cut="0.0000000000000000e+00" cType="1" res="-2.5572855956852436e-03" rms="4.4932684302330017e-01" purity="4.1277873516082764e-01" nType="-99"/>
      </Node>
    </BinaryTree>
    <BinaryTree type="DecisionTree" boostWeight="1.0000000000000000e+00" itree="464">
      <Node pos="s" depth="0" NCoef="0" IVar="6" Cut="1.5236791992187500e+02" cType="1" res="1.2851567938923836e-02" rms="4.3737810850143433e-01" purity="5.2869290113449097e-01" nType="0">
        <Node pos="l" depth="1" NCoef="0" IVar="2" Cut="9.2614144086837769e-01" cType="1" res="2.2177467122673988e-02" rms="4.3538182973861694e-01" purity="5.3748661279678345e-01" nType="0">
          <Node pos="l" depth="2" NCoef="0" IVar="-1" Cut="0.0000000000000000e+00" cType="1" res="-1.1428880970925093e-03" rms="4.1519188880920410e-01" purity="2.6942795515060425e-01" nType="-99"/>
          <Node pos="r" depth="2" NCoef="0" IVar="-1" Cut="0.0000000000000000e+00" cType="1" res="1.0813043918460608e-03" rms="4.3715682625770569e-01" purity="5.9821468591690063e-01" nType="-99"/>
        </Node>
        <Node pos="r" depth="1" NCoef="0" IVar="-1" Cut="0.0000000000000000e+00" cType="1" res="-2.6746657676994801e-03" rms="4.4234392046928406e-01" purity="3.8916650414466858e-01" nType="-99"/>
      </Node>
    </BinaryTree>
    <BinaryTree type="DecisionTree" boostWeight="1.0000000000000000e+00" itree="465">
      <Node pos="s" depth="0" NCoef="0" IVar="8" Cut="2.4563999176025391e+00" cType="1" res="-2.4394819512963295e-02" rms="4.3489018082618713e-01" purity="4.8395258188247681e-01" nType="0">
        <Node pos="l" depth="1" NCoef="0" IVar="4" Cut="1.4173930358886719e+02" cType="1" res="-7.5660725124180317e-03" rms="4.4839331507682800e-01" purity="5.6472975015640259e-01" nType="0">
          <Node pos="l" depth="2" NCoef="0" IVar="-1" Cut="0.0000000000000000e+00" cType="1" res="-1.5266689006239176e-03" rms="4.5296663045883179e-01" purity="4.4910636544227600e-01" nType="-99"/>
          <Node pos="r" depth="2" NCoef="0" IVar="-1" Cut="0.0000000000000000e+00" cType="1" res="1.8291675951331854e-04" rms="4.4589656591415405e-01" purity="5.8855354785919189e-01" nType="-99"/>
        </Node>
        <Node pos="r" depth="1" NCoef="0" IVar="5" Cut="5.7843011474609375e+02" cType="1" res="-8.1443861126899719e-02" rms="3.8010826706886292e-01" purity="2.1012003719806671e-01" nType="0">
          <Node pos="l" depth="2" NCoef="0" IVar="-1" Cut="0.0000000000000000e+00" cType="1" res="-1.6936183674260974e-03" rms="3.6798620223999023e-01" purity="1.8788249790668488e-01" nType="-99"/>
          <Node pos="r" depth="2" NCoef="0" IVar="-1" Cut="0.0000000000000000e+00" cType="1" res="-7.2072481270879507e-04" rms="4.0302929282188416e-01" purity="2.6047787070274353e-01" nType="-99"/>
        </Node>
      </Node>
    </BinaryTree>
    <BinaryTree type="DecisionTree" boostWeight="1.0000000000000000e+00" itree="466">
      <Node pos="s" depth="0" NCoef="0" IVar="6" Cut="3.7923255920410156e+01" cType="1" res="-2.1266007795929909e-02" rms="4.4201153516769409e-01" purity="4.9105989933013916e-01" nType="0">
        <Node pos="l" depth="1" NCoef="0" IVar="-1" Cut="0.0000000000000000e+00" cType="1" res="-2.1987366490066051e-03" rms="4.2595407366752625e-01" purity="2.9123371839523315e-01" nType="-99"/>
        <Node pos="r" depth="1" NCoef="0" IVar="8" Cut="2.5815637111663818e+00" cType="1" res="-9.6113104373216629e-03" rms="4.4185122847557068e-01" purity="5.1074504852294922e-01" nType="0">
          <Node pos="l" depth="2" NCoef="0" IVar="-1" Cut="0.0000000000000000e+00" cType="1" res="1.0098166239913553e-04" rms="4.5275369286537170e-01" purity="5.6966465711593628e-01" nType="-99"/>
          <Node pos="r" depth="2" NCoef="0" IVar="-1" Cut="0.0000000000000000e+00" cType="1" res="-1.6419229796156287e-03" rms="3.6212852597236633e-01" purity="1.7058588564395905e-01" nType="-99"/>
        </Node>
      </Node>
    </BinaryTree>
    <BinaryTree type="DecisionTree" boostWeight="1.0000000000000000e+00" itree="467">
      <Node pos="s" depth="0" NCoef="0" IVar="4" Cut="3.7970098876953125e+02" cType="1" res="-5.1934360526502132e-03" rms="4.3907117843627930e-01" purity="5.1415467262268066e-01" nType="0">
        <Node pos="l" depth="1" NCoef="0" IVar="4" Cut="1.3608273315429688e+02" cType="1" res="8.7491590529680252e-03" rms="4.3943566083908081e-01" purity="5.4678374528884888e-01" nType="0">
          <Node pos="l" depth="2" NCoef="0" IVar="-1" Cut="0.0000000000000000e+00" cType="1" res="-1.5875427052378654e-03" rms="4.4842657446861267e-01" purity="4.2927435040473938e-01" nType="-99"/>
          <Node pos="r" depth="2" NCoef="0" IVar="-1" Cut="0.0000000000000000e+00" cType="1" res="5.9670978225767612e-04" rms="4.3571734428405762e-01" purity="5.6731009483337402e-01" nType="-99"/>
        </Node>
        <Node pos="r" depth="1" NCoef="0" IVar="6" Cut="1.1061980438232422e+02" cType="1" res="-9.1813243925571442e-02" rms="4.2671233415603638e-01" purity="3.1144341826438904e-01" nType="0">
          <Node pos="l" depth="2" NCoef="0" IVar="-1" Cut="0.0000000000000000e+00" cType="1" res="-2.3472704924643040e-03" rms="4.1876286268234253e-01" purity="2.4234858155250549e-01" nType="-99"/>
          <Node pos="r" depth="2" NCoef="0" IVar="-1" Cut="0.0000000000000000e+00" cType="1" res="-5.0211179768666625e-04" rms="4.3111503124237061e-01" purity="4.1717320680618286e-01" nType="-99"/>
        </Node>
      </Node>
    </BinaryTree>
    <BinaryTree type="DecisionTree" boostWeight="1.0000000000000000e+00" itree="468">
      <Node pos="s" depth="0" NCoef="0" IVar="4" Cut="3.4422558593750000e+02" cType="1" res="-8.7766610085964203e-03" rms="4.3960875272750854e-01" purity="5.0171422958374023e-01" nType="0">
        <Node pos="l" depth="1" NCoef="0" IVar="6" Cut="4.0405014038085938e+01" cType="1" res="1.1294012889266014e-02" rms="4.4576898217201233e-01" purity="5.5320990085601807e-01" nType="0">
          <Node pos="l" depth="2" NCoef="0" IVar="-1" Cut="0.0000000000000000e+00" cType="1" res="-1.3176347129046917e-03" rms="4.5068106055259705e-01" purity="3.5886204242706299e-01" nType="-99"/>
          <Node pos="r" depth="2" NCoef="0" IVar="-1" Cut="0.0000000000000000e+00" cType="1" res="6.3290999969467521e-04" rms="4.4313508272171021e-01" purity="5.8663624525070190e-01" nType="-99"/>
        </Node>
        <Node pos="r" depth="1" NCoef="0" IVar="7" Cut="4.2397480458021164e-02" cType="1" res="-8.9143730700016022e-02" rms="4.0415900945663452e-01" purity="2.9551509022712708e-01" nType="0">
          <Node pos="l" depth="2" NCoef="0" IVar="-1" Cut="0.0000000000000000e+00" cType="1" res="-9.8645081743597984e-04" rms="3.9667692780494690e-01" purity="2.8339442610740662e-01" nType="-99"/>
          <Node pos="r" depth="2" NCoef="0" IVar="-1" Cut="0.0000000000000000e+00" cType="1" res="-2.0040620584040880e-03" rms="4.0722107887268066e-01" purity="3.0516475439071655e-01" nType="-99"/>
        </Node>
      </Node>
    </BinaryTree>
    <BinaryTree type="DecisionTree" boostWeight="1.0000000000000000e+00" itree="469">
      <Node pos="s" depth="0" NCoef="0" IVar="2" Cut="9.3794059753417969e-01" cType="1" res="-7.0242262445390224e-03" rms="4.3433159589767456e-01" purity="5.0873458385467529e-01" nType="0">
        <Node pos="l" depth="1" NCoef="0" IVar="0" Cut="1.0265892744064331e+00" cType="1" res="-6.2576405704021454e-02" rms="4.1938501596450806e-01" purity="3.0354014039039612e-01" nType="0">
          <Node pos="l" depth="2" NCoef="0" IVar="-1" Cut="0.0000000000000000e+00" cType="1" res="-1.5273514145519584e-04" rms="4.7887885570526123e-01" purity="4.8002806305885315e-01" nType="-99"/>
          <Node pos="r" depth="2" NCoef="0" IVar="-1" Cut="0.0000000000000000e+00" cType="1" res="-1.6626435099169612e-03" rms="3.6201766133308411e-01" purity="1.6843096911907196e-01" nType="-99"/>
        </Node>
        <Node pos="r" depth="1" NCoef="0" IVar="6" Cut="4.3053756713867188e+01" cType="1" res="2.1519489586353302e-02" rms="4.3908986449241638e-01" purity="6.1416715383529663e-01" nType="0">
          <Node pos="l" depth="2" NCoef="0" IVar="-1" Cut="0.0000000000000000e+00" cType="1" res="-1.5475072432309389e-03" rms="4.5485672354698181e-01" purity="4.1496539115905762e-01" nType="-99"/>
          <Node pos="r" depth="2" NCoef="0" IVar="-1" Cut="0.0000000000000000e+00" cType="1" res="1.1099586263298988e-03" rms="4.3330740928649902e-01" purity="6.5099513530731201e-01" nType="-99"/>
        </Node>
      </Node>
    </BinaryTree>
    <BinaryTree type="DecisionTree" boostWeight="1.0000000000000000e+00" itree="470">
      <Node pos="s" depth="0" NCoef="0" IVar="4" Cut="4.7677206420898438e+02" cType="1" res="-2.6862867176532745e-02" rms="4.4148418307304382e-01" purity="4.9255451560020447e-01" nType="0">
        <Node pos="l" depth="1" NCoef="0" IVar="5" Cut="8.5622113037109375e+02" cType="1" res="-1.7563702538609505e-02" rms="4.4508826732635498e-01" purity="5.1520520448684692e-01" nType="0">
          <Node pos="l" depth="2" NCoef="0" IVar="-1" Cut="0.0000000000000000e+00" cType="1" res="-5.9132423484697938e-04" rms="4.4921600818634033e-01" purity="4.9481540918350220e-01" nType="-99"/>
          <Node pos="r" depth="2" NCoef="0" IVar="-1" Cut="0.0000000000000000e+00" cType="1" res="3.7680829409509897e-03" rms="3.6792489886283875e-01" purity="7.6021122932434082e-01" nType="-99"/>
        </Node>
        <Node pos="r" depth="1" NCoef="0" IVar="-1" Cut="0.0000000000000000e+00" cType="1" res="-2.2702033165842295e-03" rms="3.8591122627258301e-01" purity="2.4594365060329437e-01" nType="-99"/>
      </Node>
    </BinaryTree>
    <BinaryTree type="DecisionTree" boostWeight="1.0000000000000000e+00" itree="471">
      <Node pos="s" depth="0" NCoef="0" IVar="0" Cut="9.7325915098190308e-01" cType="1" res="-2.6300841942429543e-02" rms="4.3289780616760254e-01" purity="4.8244801163673401e-01" nType="0">
        <Node pos="l" depth="1" NCoef="0" IVar="4" Cut="3.0204782104492188e+02" cType="1" res="8.8636456057429314e-03" rms="4.4206461310386658e-01" purity="6.5420764684677124e-01" nType="0">
          <Node pos="l" depth="2" NCoef="0" IVar="-1" Cut="0.0000000000000000e+00" cType="1" res="6.3329312251880765e-04" rms="4.3498793244361877e-01" purity="6.6522359848022461e-01" nType="-99"/>
          <Node pos="r" depth="2" NCoef="0" IVar="-1" Cut="0.0000000000000000e+00" cType="1" res="-2.8795497491955757e-03" rms="4.7603163123130798e-01" purity="5.6928300857543945e-01" nType="-99"/>
        </Node>
        <Node pos="r" depth="1" NCoef="0" IVar="6" Cut="9.4148368835449219e+01" cType="1" res="-5.6884352117776871e-02" rms="4.2239075899124146e-01" purity="3.3306393027305603e-01" nType="0">
          <Node pos="l" depth="2" NCoef="0" IVar="-1" Cut="0.0000000000000000e+00" cType="1" res="-1.5671341679990292e-03" rms="4.0176185965538025e-01" purity="2.6391130685806274e-01" nType="-99"/>
          <Node pos="r" depth="2" NCoef="0" IVar="-1" Cut="0.0000000000000000e+00" cType="1" res="1.1424628610257059e-04" rms="4.4889026880264282e-01" purity="4.5209091901779175e-01" nType="-99"/>
        </Node>
      </Node>
    </BinaryTree>
    <BinaryTree type="DecisionTree" boostWeight="1.0000000000000000e+00" itree="472">
      <Node pos="s" depth="0" NCoef="0" IVar="3" Cut="1.3947268676757812e+02" cType="1" res="-2.4361830204725266e-02" rms="4.4625234603881836e-01" purity="4.9324184656143188e-01" nType="0">
        <Node pos="l" depth="1" NCoef="0" IVar="5" Cut="5.7943743896484375e+02" cType="1" res="-1.3671658001840115e-02" rms="4.4854798913002014e-01" purity="5.1496154069900513e-01" nType="0">
          <Node pos="l" depth="2" NCoef="0" IVar="-1" Cut="0.0000000000000000e+00" cType="1" res="-8.3197467029094696e-04" rms="4.4769397377967834e-01" purity="4.5623749494552612e-01" nType="-99"/>
          <Node pos="r" depth="2" NCoef="0" IVar="-1" Cut="0.0000000000000000e+00" cType="1" res="8.8997336570173502e-04" rms="4.4569814205169678e-01" purity="6.1351776123046875e-01" nType="-99"/>
        </Node>
        <Node pos="r" depth="1" NCoef="0" IVar="-1" Cut="0.0000000000000000e+00" cType="1" res="-1.9002547487616539e-03" rms="4.2174708843231201e-01" purity="3.3838069438934326e-01" nType="-99"/>
      </Node>
    </BinaryTree>
    <BinaryTree type="DecisionTree" boostWeight="1.0000000000000000e+00" itree="473">
      <Node pos="s" depth="0" NCoef="0" IVar="0" Cut="1.4740866422653198e+00" cType="1" res="-5.0421110354363918e-03" rms="4.3718278408050537e-01" purity="5.0968140363693237e-01" nType="0">
        <Node pos="l" depth="1" NCoef="0" IVar="7" Cut="4.8112407326698303e-02" cType="1" res="1.0422125458717346e-02" rms="4.5081493258476257e-01" purity="5.7705998420715332e-01" nType="0">
          <Node pos="l" depth="2" NCoef="0" IVar="-1" Cut="0.0000000000000000e+00" cType="1" res="-1.0443540522828698e-03" rms="4.6102556586265564e-01" purity="4.7296020388603210e-01" nType="-99"/>
          <Node pos="r" depth="2" NCoef="0" IVar="-1" Cut="0.0000000000000000e+00" cType="1" res="7.5393018778413534e-04" rms="4.4547864794731140e-01" purity="6.1087000370025635e-01" nType="-99"/>
        </Node>
        <Node pos="r" depth="1" NCoef="0" IVar="-1" Cut="0.0000000000000000e+00" cType="1" res="-1.4309551334008574e-03" rms="3.5206848382949829e-01" purity="1.7518669366836548e-01" nType="-99"/>
      </Node>
    </BinaryTree>
    <BinaryTree type="DecisionTree" boostWeight="1.0000000000000000e+00" itree="474">
      <Node pos="s" depth="0" NCoef="0" IVar="2" Cut="9.3983727693557739e-01" cType="1" res="-2.1106338128447533e-02" rms="4.3829783797264099e-01" purity="4.9494984745979309e-01" nType="0">
        <Node pos="l" depth="1" NCoef="0" IVar="3" Cut="1.1737610626220703e+02" cType="1" res="-6.5729126334190369e-02" rms="4.2795449495315552e-01" purity="3.0486655235290527e-01" nType="0">
          <Node pos="l" depth="2" NCoef="0" IVar="-1" Cut="0.0000000000000000e+00" cType="1" res="-1.2090703239664435e-04" rms="4.4790658354759216e-01" purity="3.6614009737968445e-01" nType="-99"/>
          <Node pos="r" depth="2" NCoef="0" IVar="-1" Cut="0.0000000000000000e+00" cType="1" res="-1.4278240269050002e-03" rms="4.1794225573539734e-01" purity="2.8158298134803772e-01" nType="-99"/>
        </Node>
        <Node pos="r" depth="1" NCoef="0" IVar="5" Cut="4.3880831909179688e+02" cType="1" res="3.6938111297786236e-03" rms="4.4199883937835693e-01" purity="6.0059303045272827e-01" nType="0">
          <Node pos="l" depth="2" NCoef="0" IVar="-1" Cut="0.0000000000000000e+00" cType="1" res="-1.3966425321996212e-03" rms="4.5657411217689514e-01" purity="4.3620333075523376e-01" nType="-99"/>
          <Node pos="r" depth="2" NCoef="0" IVar="-1" Cut="0.0000000000000000e+00" cType="1" res="7.6356402132660151e-04" rms="4.3458992242813110e-01" purity="6.5187001228332520e-01" nType="-99"/>
        </Node>
      </Node>
    </BinaryTree>
    <BinaryTree type="DecisionTree" boostWeight="1.0000000000000000e+00" itree="475">
      <Node pos="s" depth="0" NCoef="0" IVar="5" Cut="7.4372949218750000e+02" cType="1" res="-2.1622316911816597e-02" rms="4.4411894679069519e-01" purity="4.9556025862693787e-01" nType="0">
        <Node pos="l" depth="1" NCoef="0" IVar="3" Cut="1.3494441223144531e+02" cType="1" res="-3.7993360310792923e-02" rms="4.4747015833854675e-01" purity="4.6278935670852661e-01" nType="0">
          <Node pos="l" depth="2" NCoef="0" IVar="-1" Cut="0.0000000000000000e+00" cType="1" res="-3.8641892024315894e-04" rms="4.5188975334167480e-01" purity="4.9623125791549683e-01" nType="-99"/>
          <Node pos="r" depth="2" NCoef="0" IVar="-1" Cut="0.0000000000000000e+00" cType="1" res="-2.2534970194101334e-03" rms="4.1683635115623474e-01" purity="3.1715860962867737e-01" nType="-99"/>
        </Node>
        <Node pos="r" depth="1" NCoef="0" IVar="7" Cut="5.3981583565473557e-02" cType="1" res="5.9958353638648987e-02" rms="4.1756579279899597e-01" purity="6.5886521339416504e-01" nType="0">
          <Node pos="l" depth="2" NCoef="0" IVar="-1" Cut="0.0000000000000000e+00" cType="1" res="2.8546585235744715e-03" rms="3.9231795072555542e-01" purity="6.4402198791503906e-01" nType="-99"/>
          <Node pos="r" depth="2" NCoef="0" IVar="-1" Cut="0.0000000000000000e+00" cType="1" res="2.0830650464631617e-04" rms="4.3668320775032043e-01" purity="6.7468863725662231e-01" nType="-99"/>
        </Node>
      </Node>
    </BinaryTree>
    <BinaryTree type="DecisionTree" boostWeight="1.0000000000000000e+00" itree="476">
      <Node pos="s" depth="0" NCoef="0" IVar="7" Cut="1.9328981637954712e-01" cType="1" res="-2.0380454137921333e-02" rms="4.3422424793243408e-01" purity="4.9134173989295959e-01" nType="0">
        <Node pos="l" depth="1" NCoef="0" IVar="6" Cut="9.6052024841308594e+01" cType="1" res="-3.2158102840185165e-02" rms="4.3440988659858704e-01" purity="4.6822130680084229e-01" nType="0">
          <Node pos="l" depth="2" NCoef="0" IVar="-1" Cut="0.0000000000000000e+00" cType="1" res="-1.0511580621823668e-03" rms="4.3636503815650940e-01" purity="4.1726586222648621e-01" nType="-99"/>
          <Node pos="r" depth="2" NCoef="0" IVar="-1" Cut="0.0000000000000000e+00" cType="1" res="5.3245539311319590e-04" rms="4.2493662238121033e-01" purity="5.8640795946121216e-01" nType="-99"/>
        </Node>
        <Node pos="r" depth="1" NCoef="0" IVar="-1" Cut="0.0000000000000000e+00" cType="1" res="2.3938487283885479e-03" rms="4.1734144091606140e-01" purity="7.0304638147354126e-01" nType="-99"/>
      </Node>
    </BinaryTree>
    <BinaryTree type="DecisionTree" boostWeight="1.0000000000000000e+00" itree="477">
      <Node pos="s" depth="0" NCoef="0" IVar="6" Cut="4.2595314025878906e+01" cType="1" res="-2.3557569831609726e-02" rms="4.4265109300613403e-01" purity="4.8584854602813721e-01" nType="0">
        <Node pos="l" depth="1" NCoef="0" IVar="0" Cut="8.9615637063980103e-01" cType="1" res="-1.3640099763870239e-01" rms="4.4656589627265930e-01" purity="3.0718874931335449e-01" nType="0">
          <Node pos="l" depth="2" NCoef="0" IVar="-1" Cut="0.0000000000000000e+00" cType="1" res="-2.8424649499356747e-03" rms="4.7144523262977600e-01" purity="3.4383174777030945e-01" nType="-99"/>
          <Node pos="r" depth="2" NCoef="0" IVar="-1" Cut="0.0000000000000000e+00" cType="1" res="-1.4071008190512657e-03" rms="4.0856152772903442e-01" purity="2.6541474461555481e-01" nType="-99"/>
        </Node>
        <Node pos="r" depth="1" NCoef="0" IVar="4" Cut="1.3281620788574219e+02" cType="1" res="-2.9818885959684849e-03" rms="4.3881663680076599e-01" purity="5.1842510700225830e-01" nType="0">
          <Node pos="l" depth="2" NCoef="0" IVar="-1" Cut="0.0000000000000000e+00" cType="1" res="-1.9998280331492424e-03" rms="4.4659084081649780e-01" purity="4.1225275397300720e-01" nType="-99"/>
          <Node pos="r" depth="2" NCoef="0" IVar="-1" Cut="0.0000000000000000e+00" cType="1" res="2.1316259517334402e-04" rms="4.3619590997695923e-01" purity="5.3009665012359619e-01" nType="-99"/>
        </Node>
      </Node>
    </BinaryTree>
    <BinaryTree type="DecisionTree" boostWeight="1.0000000000000000e+00" itree="478">
      <Node pos="s" depth="0" NCoef="0" IVar="2" Cut="9.6826165914535522e-01" cType="1" res="-1.2978513725101948e-02" rms="4.4460171461105347e-01" purity="5.0073641538619995e-01" nType="0">
        <Node pos="l" depth="1" NCoef="0" IVar="3" Cut="1.4003033447265625e+02" cType="1" res="-2.9155235737562180e-02" rms="4.5169430971145630e-01" purity="4.3980592489242554e-01" nType="0">
          <Node pos="l" depth="2" NCoef="0" IVar="-1" Cut="0.0000000000000000e+00" cType="1" res="-2.8007585206069052e-04" rms="4.5676386356353760e-01" purity="4.6657782793045044e-01" nType="-99"/>
          <Node pos="r" depth="2" NCoef="0" IVar="-1" Cut="0.0000000000000000e+00" cType="1" res="-2.1266632247716188e-03" rms="4.0590173006057739e-01" purity="2.7162307500839233e-01" nType="-99"/>
        </Node>
        <Node pos="r" depth="1" NCoef="0" IVar="0" Cut="7.3324668407440186e-01" cType="1" res="4.6523410826921463e-02" rms="4.1204956173896790e-01" purity="7.2485381364822388e-01" nType="0">
          <Node pos="l" depth="2" NCoef="0" IVar="-1" Cut="0.0000000000000000e+00" cType="1" res="-1.6338002169504762e-03" rms="4.3760600686073303e-01" purity="7.5457477569580078e-01" nType="-99"/>
          <Node pos="r" depth="2" NCoef="0" IVar="-1" Cut="0.0000000000000000e+00" cType="1" res="2.5321491993963718e-03" rms="3.9627188444137573e-01" purity="7.1287935972213745e-01" nType="-99"/>
        </Node>
      </Node>
    </BinaryTree>
    <BinaryTree type="DecisionTree" boostWeight="1.0000000000000000e+00" itree="479">
      <Node pos="s" depth="0" NCoef="0" IVar="3" Cut="1.3299079895019531e+02" cType="1" res="-1.5044589526951313e-02" rms="4.3865555524826050e-01" purity="4.9756374955177307e-01" nType="0">
        <Node pos="l" depth="1" NCoef="0" IVar="5" Cut="4.6956347656250000e+02" cType="1" res="6.8500349298119545e-03" rms="4.3913322687149048e-01" purity="5.3272151947021484e-01" nType="0">
          <Node pos="l" depth="2" NCoef="0" IVar="-1" Cut="0.0000000000000000e+00" cType="1" res="-1.2157588498666883e-03" rms="4.5144739747047424e-01" purity="4.0400210022926331e-01" nType="-99"/>
          <Node pos="r" depth="2" NCoef="0" IVar="-1" Cut="0.0000000000000000e+00" cType="1" res="1.1418842477723956e-03" rms="4.2756360769271851e-01" purity="6.0153102874755859e-01" nType="-99"/>
        </Node>
        <Node pos="r" depth="1" NCoef="0" IVar="8" Cut="1.9942300319671631e+00" cType="1" res="-8.0359376966953278e-02" rms="4.3066436052322388e-01" purity="3.9268311858177185e-01" nType="0">
          <Node pos="l" depth="2" NCoef="0" IVar="-1" Cut="0.0000000000000000e+00" cType="1" res="-2.6142499409615993e-03" rms="4.3519008159637451e-01" purity="3.7664297223091125e-01" nType="-99"/>
          <Node pos="r" depth="2" NCoef="0" IVar="-1" Cut="0.0000000000000000e+00" cType="1" res="-1.0379198938608170e-03" rms="4.2514267563819885e-01" purity="3.9900898933410645e-01" nType="-99"/>
        </Node>
      </Node>
    </BinaryTree>
    <BinaryTree type="DecisionTree" boostWeight="1.0000000000000000e+00" itree="480">
      <Node pos="s" depth="0" NCoef="0" IVar="8" Cut="2.0856466293334961e+00" cType="1" res="-2.0675253123044968e-02" rms="4.4052398204803467e-01" purity="4.9433803558349609e-01" nType="0">
        <Node pos="l" depth="1" NCoef="0" IVar="8" Cut="1.7111915349960327e+00" cType="1" res="2.1498009562492371e-02" rms="4.4177863001823425e-01" purity="6.2565708160400391e-01" nType="0">
          <Node pos="l" depth="2" NCoef="0" IVar="-1" Cut="0.0000000000000000e+00" cType="1" res="-1.7318789614364505e-03" rms="4.3506598472595215e-01" purity="4.3464690446853638e-01" nType="-99"/>
          <Node pos="r" depth="2" NCoef="0" IVar="-1" Cut="0.0000000000000000e+00" cType="1" res="1.1025709100067616e-03" rms="4.3952143192291260e-01" purity="6.6168153285980225e-01" nType="-99"/>
        </Node>
        <Node pos="r" depth="1" NCoef="0" IVar="6" Cut="7.4804481506347656e+01" cType="1" res="-4.7318994998931885e-02" rms="4.3763968348503113e-01" purity="4.1137474775314331e-01" nType="0">
          <Node pos="l" depth="2" NCoef="0" IVar="-1" Cut="0.0000000000000000e+00" cType="1" res="-1.6101881628856063e-03" rms="4.1642025113105774e-01" purity="3.0122482776641846e-01" nType="-99"/>
          <Node pos="r" depth="2" NCoef="0" IVar="-1" Cut="0.0000000000000000e+00" cType="1" res="-3.3280640491284430e-04" rms="4.5023429393768311e-01" purity="4.9415746331214905e-01" nType="-99"/>
        </Node>
      </Node>
    </BinaryTree>
    <BinaryTree type="DecisionTree" boostWeight="1.0000000000000000e+00" itree="481">
      <Node pos="s" depth="0" NCoef="0" IVar="2" Cut="9.2756181955337524e-01" cType="1" res="-2.0548805594444275e-02" rms="4.4213795661926270e-01" purity="4.9730619788169861e-01" nType="0">
        <Node pos="l" depth="1" NCoef="0" IVar="7" Cut="5.4170135408639908e-02" cType="1" res="-8.1400088965892792e-02" rms="4.0492472052574158e-01" purity="2.5249528884887695e-01" nType="0">
          <Node pos="l" depth="2" NCoef="0" IVar="-1" Cut="0.0000000000000000e+00" cType="1" res="-2.1763769909739494e-03" rms="3.8195803761482239e-01" purity="1.9217640161514282e-01" nType="-99"/>
          <Node pos="r" depth="2" NCoef="0" IVar="-1" Cut="0.0000000000000000e+00" cType="1" res="-8.7849522242322564e-04" rms="4.1656497120857239e-01" purity="2.9180991649627686e-01" nType="-99"/>
        </Node>
        <Node pos="r" depth="1" NCoef="0" IVar="4" Cut="1.5828173828125000e+02" cType="1" res="-4.5962622389197350e-03" rms="4.5002713799476624e-01" purity="5.6148487329483032e-01" nType="0">
          <Node pos="l" depth="2" NCoef="0" IVar="-1" Cut="0.0000000000000000e+00" cType="1" res="1.5147915109992027e-03" rms="4.5835432410240173e-01" purity="6.3538986444473267e-01" nType="-99"/>
          <Node pos="r" depth="2" NCoef="0" IVar="-1" Cut="0.0000000000000000e+00" cType="1" res="-5.1224167691543698e-04" rms="4.4609525799751282e-01" purity="5.4192155599594116e-01" nType="-99"/>
        </Node>
      </Node>
    </BinaryTree>
    <BinaryTree type="DecisionTree" boostWeight="1.0000000000000000e+00" itree="482">
      <Node pos="s" depth="0" NCoef="0" IVar="3" Cut="1.0258023071289062e+02" cType="1" res="-9.4314338639378548e-03" rms="4.4423285126686096e-01" purity="5.0514131784439087e-01" nType="0">
        <Node pos="l" depth="1" NCoef="0" IVar="-1" Cut="0.0000000000000000e+00" cType="1" res="-2.0379074849188328e-03" rms="4.2321059107780457e-01" purity="2.9022482037544250e-01" nType="-99"/>
        <Node pos="r" depth="1" NCoef="0" IVar="1" Cut="2.8435794067382812e+02" cType="1" res="1.2127698864787817e-03" rms="4.4487303495407104e-01" purity="5.2657425403594971e-01" nType="0">
          <Node pos="l" depth="2" NCoef="0" IVar="-1" Cut="0.0000000000000000e+00" cType="1" res="-1.1399146169424057e-03" rms="4.1704320907592773e-01" purity="3.2123795151710510e-01" nType="-99"/>
          <Node pos="r" depth="2" NCoef="0" IVar="-1" Cut="0.0000000000000000e+00" cType="1" res="2.4511685478501022e-04" rms="4.4791010022163391e-01" purity="5.5584824085235596e-01" nType="-99"/>
        </Node>
      </Node>
    </BinaryTree>
    <BinaryTree type="DecisionTree" boostWeight="1.0000000000000000e+00" itree="483">
      <Node pos="s" depth="0" NCoef="0" IVar="0" Cut="7.2616660594940186e-01" cType="1" res="-4.0976973250508308e-03" rms="4.3464630842208862e-01" purity="5.1288515329360962e-01" nType="0">
        <Node pos="l" depth="1" NCoef="0" IVar="2" Cut="9.6709167957305908e-01" cType="1" res="6.5147638320922852e-02" rms="4.1364708542823792e-01" purity="7.3248267173767090e-01" nType="0">
          <Node pos="l" depth="2" NCoef="0" IVar="-1" Cut="0.0000000000000000e+00" cType="1" res="2.7163648046553135e-03" rms="4.1019582748413086e-01" purity="7.1571379899978638e-01" nType="-99"/>
          <Node pos="r" depth="2" NCoef="0" IVar="-1" Cut="0.0000000000000000e+00" cType="1" res="-5.7996594114229083e-04" rms="4.1029417514801025e-01" purity="7.7013391256332397e-01" nType="-99"/>
        </Node>
        <Node pos="r" depth="1" NCoef="0" IVar="2" Cut="9.4396460056304932e-01" cType="1" res="-2.3501882329583168e-02" rms="4.3839368224143982e-01" purity="4.5134875178337097e-01" nType="0">
          <Node pos="l" depth="2" NCoef="0" IVar="-1" Cut="0.0000000000000000e+00" cType="1" res="-1.2330502504482865e-03" rms="4.2402097582817078e-01" purity="2.6746842265129089e-01" nType="-99"/>
          <Node pos="r" depth="2" NCoef="0" IVar="-1" Cut="0.0000000000000000e+00" cType="1" res="3.0898940167389810e-04" rms="4.4509410858154297e-01" purity="5.8642184734344482e-01" nType="-99"/>
        </Node>
      </Node>
    </BinaryTree>
    <BinaryTree type="DecisionTree" boostWeight="1.0000000000000000e+00" itree="484">
      <Node pos="s" depth="0" NCoef="0" IVar="0" Cut="8.2424014806747437e-01" cType="1" res="-2.2152360528707504e-02" rms="4.4603267312049866e-01" purity="4.9186244606971741e-01" nType="0">
        <Node pos="l" depth="1" NCoef="0" IVar="0" Cut="5.2631556987762451e-01" cType="1" res="-5.7336047291755676e-02" rms="4.5927205681800842e-01" purity="5.9590703248977661e-01" nType="0">
          <Node pos="l" depth="2" NCoef="0" IVar="-1" Cut="0.0000000000000000e+00" cType="1" res="1.0052773868665099e-03" rms="4.0488433837890625e-01" purity="7.0821613073348999e-01" nType="-99"/>
          <Node pos="r" depth="2" NCoef="0" IVar="-1" Cut="0.0000000000000000e+00" cType="1" res="-2.0083938725292683e-03" rms="4.7236233949661255e-01" purity="5.5739665031433105e-01" nType="-99"/>
        </Node>
        <Node pos="r" depth="1" NCoef="0" IVar="8" Cut="2.6744701862335205e+00" cType="1" res="-3.6167472135275602e-03" rms="4.3776145577430725e-01" purity="4.3704921007156372e-01" nType="0">
          <Node pos="l" depth="2" NCoef="0" IVar="-1" Cut="0.0000000000000000e+00" cType="1" res="2.5255605578422546e-04" rms="4.5020386576652527e-01" purity="4.8641887307167053e-01" nType="-99"/>
          <Node pos="r" depth="2" NCoef="0" IVar="-1" Cut="0.0000000000000000e+00" cType="1" res="-1.7819243948906660e-03" rms="3.3621859550476074e-01" purity="1.3637666404247284e-01" nType="-99"/>
        </Node>
      </Node>
    </BinaryTree>
    <BinaryTree type="DecisionTree" boostWeight="1.0000000000000000e+00" itree="485">
      <Node pos="s" depth="0" NCoef="0" IVar="6" Cut="5.6170211791992188e+01" cType="1" res="-2.0004784164484590e-04" rms="4.5006686449050903e-01" purity="5.2330780029296875e-01" nType="0">
        <Node pos="l" depth="1" NCoef="0" IVar="6" Cut="5.0781673431396484e+01" cType="1" res="-4.7874528914690018e-02" rms="4.5812347531318665e-01" purity="4.2728960514068604e-01" nType="0">
          <Node pos="l" depth="2" NCoef="0" IVar="-1" Cut="0.0000000000000000e+00" cType="1" res="-1.3784409966319799e-03" rms="4.5284336805343628e-01" purity="3.8201823830604553e-01" nType="-99"/>
          <Node pos="r" depth="2" NCoef="0" IVar="-1" Cut="0.0000000000000000e+00" cType="1" res="1.6821159515529871e-03" rms="4.5972585678100586e-01" purity="6.1745876073837280e-01" nType="-99"/>
        </Node>
        <Node pos="r" depth="1" NCoef="0" IVar="1" Cut="4.7930120849609375e+02" cType="1" res="2.1019954234361649e-02" rms="4.4479370117187500e-01" purity="5.6604576110839844e-01" nType="0">
          <Node pos="l" depth="2" NCoef="0" IVar="-1" Cut="0.0000000000000000e+00" cType="1" res="1.2275126064196229e-03" rms="4.3854171037673950e-01" purity="5.7584679126739502e-01" nType="-99"/>
          <Node pos="r" depth="2" NCoef="0" IVar="-1" Cut="0.0000000000000000e+00" cType="1" res="-5.3527118870988488e-04" rms="4.5031011104583740e-01" purity="5.5170947313308716e-01" nType="-99"/>
        </Node>
      </Node>
    </BinaryTree>
    <BinaryTree type="DecisionTree" boostWeight="1.0000000000000000e+00" itree="486">
      <Node pos="s" depth="0" NCoef="0" IVar="8" Cut="1.8432780504226685e+00" cType="1" res="-2.1716162562370300e-02" rms="4.4298523664474487e-01" purity="4.9445188045501709e-01" nType="0">
        <Node pos="l" depth="1" NCoef="0" IVar="7" Cut="9.2088267207145691e-02" cType="1" res="8.7235748767852783e-02" rms="4.2019742727279663e-01" purity="6.6676628589630127e-01" nType="0">
          <Node pos="l" depth="2" NCoef="0" IVar="-1" Cut="0.0000000000000000e+00" cType="1" res="1.9371217058505863e-04" rms="4.6273905038833618e-01" purity="5.6099116802215576e-01" nType="-99"/>
          <Node pos="r" depth="2" NCoef="0" IVar="-1" Cut="0.0000000000000000e+00" cType="1" res="5.2048666402697563e-03" rms="3.5255745053291321e-01" purity="7.7704501152038574e-01" nType="-99"/>
        </Node>
        <Node pos="r" depth="1" NCoef="0" IVar="5" Cut="9.0635314941406250e+02" cType="1" res="-3.4059725701808929e-02" rms="4.4380986690521240e-01" purity="4.7492972016334534e-01" nType="0">
          <Node pos="l" depth="2" NCoef="0" IVar="-1" Cut="0.0000000000000000e+00" cType="1" res="-8.5896730888634920e-04" rms="4.4385281205177307e-01" purity="4.6011990308761597e-01" nType="-99"/>
          <Node pos="r" depth="2" NCoef="0" IVar="-1" Cut="0.0000000000000000e+00" cType="1" res="2.0630445796996355e-03" rms="4.2802128195762634e-01" purity="6.9276642799377441e-01" nType="-99"/>
        </Node>
      </Node>
    </BinaryTree>
    <BinaryTree type="DecisionTree" boostWeight="1.0000000000000000e+00" itree="487">
      <Node pos="s" depth="0" NCoef="0" IVar="3" Cut="1.3468861389160156e+02" cType="1" res="-2.3701578378677368e-02" rms="4.3829721212387085e-01" purity="4.9029397964477539e-01" nType="0">
        <Node pos="l" depth="1" NCoef="0" IVar="2" Cut="9.4066905975341797e-01" cType="1" res="-5.2105858922004700e-03" rms="4.3483501672744751e-01" purity="5.1706588268280029e-01" nType="0">
          <Node pos="l" depth="2" NCoef="0" IVar="-1" Cut="0.0000000000000000e+00" cType="1" res="-9.9096167832612991e-04" rms="4.2679271101951599e-01" purity="3.1689831614494324e-01" nType="-99"/>
          <Node pos="r" depth="2" NCoef="0" IVar="-1" Cut="0.0000000000000000e+00" cType="1" res="7.6289515709504485e-04" rms="4.3627017736434937e-01" purity="6.4230346679687500e-01" nType="-99"/>
        </Node>
        <Node pos="r" depth="1" NCoef="0" IVar="6" Cut="6.6572525024414062e+01" cType="1" res="-1.0160936415195465e-01" rms="4.4421923160552979e-01" purity="3.7749639153480530e-01" nType="0">
          <Node pos="l" depth="2" NCoef="0" IVar="-1" Cut="0.0000000000000000e+00" cType="1" res="-3.2584322616457939e-03" rms="4.1164612770080566e-01" purity="2.4447736144065857e-01" nType="-99"/>
          <Node pos="r" depth="2" NCoef="0" IVar="-1" Cut="0.0000000000000000e+00" cType="1" res="-5.2931025857105851e-04" rms="4.5363363623619080e-01" purity="4.8219630122184753e-01" nType="-99"/>
        </Node>
      </Node>
    </BinaryTree>
    <BinaryTree type="DecisionTree" boostWeight="1.0000000000000000e+00" itree="488">
      <Node pos="s" depth="0" NCoef="0" IVar="8" Cut="2.4580707550048828e+00" cType="1" res="-1.5777127817273140e-02" rms="4.4003552198410034e-01" purity="5.0372660160064697e-01" nType="0">
        <Node pos="l" depth="1" NCoef="0" IVar="6" Cut="7.9482116699218750e+01" cType="1" res="1.9787934143096209e-03" rms="4.5052748918533325e-01" purity="5.7652240991592407e-01" nType="0">
          <Node pos="l" depth="2" NCoef="0" IVar="-1" Cut="0.0000000000000000e+00" cType="1" res="-5.4596440168097615e-04" rms="4.6507814526557922e-01" purity="4.9284613132476807e-01" nType="-99"/>
          <Node pos="r" depth="2" NCoef="0" IVar="-1" Cut="0.0000000000000000e+00" cType="1" res="1.3951455475762486e-03" rms="4.2319914698600769e-01" purity="7.0534425973892212e-01" nType="-99"/>
        </Node>
        <Node pos="r" depth="1" NCoef="0" IVar="6" Cut="9.3949478149414062e+01" cType="1" res="-8.7293587625026703e-02" rms="3.8679778575897217e-01" purity="2.1052341163158417e-01" nType="0">
          <Node pos="l" depth="2" NCoef="0" IVar="-1" Cut="0.0000000000000000e+00" cType="1" res="-2.1074092946946621e-03" rms="3.4044891595840454e-01" purity="1.4280742406845093e-01" nType="-99"/>
          <Node pos="r" depth="2" NCoef="0" IVar="-1" Cut="0.0000000000000000e+00" cType="1" res="-1.0119751095771790e-03" rms="4.2358249425888062e-01" purity="2.7412316203117371e-01" nType="-99"/>
        </Node>
      </Node>
    </BinaryTree>
    <BinaryTree type="DecisionTree" boostWeight="1.0000000000000000e+00" itree="489">
      <Node pos="s" depth="0" NCoef="0" IVar="3" Cut="1.3184132385253906e+02" cType="1" res="-1.4431450515985489e-02" rms="4.4548144936561584e-01" purity="5.0253885984420776e-01" nType="0">
        <Node pos="l" depth="1" NCoef="0" IVar="5" Cut="4.9154156494140625e+02" cType="1" res="4.0366812609136105e-03" rms="4.4281715154647827e-01" purity="5.2777534723281860e-01" nType="0">
          <Node pos="l" depth="2" NCoef="0" IVar="-1" Cut="0.0000000000000000e+00" cType="1" res="-6.6042668186128139e-04" rms="4.3876001238822937e-01" purity="4.2118144035339355e-01" nType="-99"/>
          <Node pos="r" depth="2" NCoef="0" IVar="-1" Cut="0.0000000000000000e+00" cType="1" res="9.3984487466514111e-04" rms="4.4349408149719238e-01" purity="6.1213839054107666e-01" nType="-99"/>
        </Node>
        <Node pos="r" depth="1" NCoef="0" IVar="3" Cut="1.3469731140136719e+02" cType="1" res="-7.3937393724918365e-02" rms="4.4882017374038696e-01" purity="4.2122480273246765e-01" nType="0">
          <Node pos="l" depth="2" NCoef="0" IVar="-1" Cut="0.0000000000000000e+00" cType="1" res="-5.3355115232989192e-04" rms="4.2770037055015564e-01" purity="4.8998630046844482e-01" nType="-99"/>
          <Node pos="r" depth="2" NCoef="0" IVar="-1" Cut="0.0000000000000000e+00" cType="1" res="-1.8072508974000812e-03" rms="4.5505639910697937e-01" purity="3.9583963155746460e-01" nType="-99"/>
        </Node>
      </Node>
    </BinaryTree>
    <BinaryTree type="DecisionTree" boostWeight="1.0000000000000000e+00" itree="490">
      <Node pos="s" depth="0" NCoef="0" IVar="2" Cut="9.2950677871704102e-01" cType="1" res="-8.4739737212657928e-03" rms="4.3580523133277893e-01" purity="5.0539171695709229e-01" nType="0">
        <Node pos="l" depth="1" NCoef="0" IVar="2" Cut="9.1867905855178833e-01" cType="1" res="-8.7521679699420929e-02" rms="4.0917497873306274e-01" purity="2.5108864903450012e-01" nType="0">
          <Node pos="l" depth="2" NCoef="0" IVar="-1" Cut="0.0000000000000000e+00" cType="1" res="-8.2902109716087580e-04" rms="3.9584439992904663e-01" purity="2.5844717025756836e-01" nType="-99"/>
          <Node pos="r" depth="2" NCoef="0" IVar="-1" Cut="0.0000000000000000e+00" cType="1" res="-1.9241413101553917e-03" rms="4.1782754659652710e-01" purity="2.4435229599475861e-01" nType="-99"/>
        </Node>
        <Node pos="r" depth="1" NCoef="0" IVar="6" Cut="4.1935352325439453e+01" cType="1" res="1.4423897489905357e-02" rms="4.4057923555374146e-01" purity="5.7905608415603638e-01" nType="0">
          <Node pos="l" depth="2" NCoef="0" IVar="-1" Cut="0.0000000000000000e+00" cType="1" res="-1.2799972901120782e-03" rms="4.6720018982887268e-01" purity="4.0615686774253845e-01" nType="-99"/>
          <Node pos="r" depth="2" NCoef="0" IVar="-1" Cut="0.0000000000000000e+00" cType="1" res="7.3111976962536573e-04" rms="4.3422874808311462e-01" purity="6.0796093940734863e-01" nType="-99"/>
        </Node>
      </Node>
    </BinaryTree>
    <BinaryTree type="DecisionTree" boostWeight="1.0000000000000000e+00" itree="491">
      <Node pos="s" depth="0" NCoef="0" IVar="1" Cut="4.6877960205078125e+02" cType="1" res="-1.9114721566438675e-02" rms="4.4249504804611206e-01" purity="4.9888667464256287e-01" nType="0">
        <Node pos="l" depth="1" NCoef="0" IVar="6" Cut="5.0150688171386719e+01" cType="1" res="1.8971896497532725e-03" rms="4.3304640054702759e-01" purity="4.8825037479400635e-01" nType="0">
          <Node pos="l" depth="2" NCoef="0" IVar="-1" Cut="0.0000000000000000e+00" cType="1" res="-1.0267805773764849e-03" rms="4.4395077228546143e-01" purity="3.8314872980117798e-01" nType="-99"/>
          <Node pos="r" depth="2" NCoef="0" IVar="-1" Cut="0.0000000000000000e+00" cType="1" res="6.2379764858633280e-04" rms="4.2547816038131714e-01" purity="5.3525859117507935e-01" nType="-99"/>
        </Node>
        <Node pos="r" depth="1" NCoef="0" IVar="0" Cut="1.2866451740264893e+00" cType="1" res="-6.0782834887504578e-02" rms="4.5781594514846802e-01" purity="5.1997929811477661e-01" nType="0">
          <Node pos="l" depth="2" NCoef="0" IVar="-1" Cut="0.0000000000000000e+00" cType="1" res="-1.9632147159427404e-03" rms="4.5646572113037109e-01" purity="5.5864018201828003e-01" nType="-99"/>
          <Node pos="r" depth="2" NCoef="0" IVar="-1" Cut="0.0000000000000000e+00" cType="1" res="8.5349538130685687e-04" rms="4.4832700490951538e-01" purity="3.6646223068237305e-01" nType="-99"/>
        </Node>
      </Node>
    </BinaryTree>
    <BinaryTree type="DecisionTree" boostWeight="1.0000000000000000e+00" itree="492">
      <Node pos="s" depth="0" NCoef="0" IVar="8" Cut="1.8487488031387329e+00" cType="1" res="-8.4903975948691368e-03" rms="4.4137516617774963e-01" purity="5.0567620992660522e-01" nType="0">
        <Node pos="l" depth="1" NCoef="0" IVar="8" Cut="1.7108879089355469e+00" cType="1" res="7.6693929731845856e-02" rms="4.4508790969848633e-01" purity="6.4410328865051270e-01" nType="0">
          <Node pos="l" depth="2" NCoef="0" IVar="-1" Cut="0.0000000000000000e+00" cType="1" res="-4.9611808208283037e-05" rms="4.6531292796134949e-01" purity="5.5342024564743042e-01" nType="-99"/>
          <Node pos="r" depth="2" NCoef="0" IVar="-1" Cut="0.0000000000000000e+00" cType="1" res="4.2123221792280674e-03" rms="4.0970286726951599e-01" purity="7.3323154449462891e-01" nType="-99"/>
        </Node>
        <Node pos="r" depth="1" NCoef="0" IVar="6" Cut="9.5864257812500000e+01" cType="1" res="-1.9511049613356590e-02" rms="4.3968850374221802e-01" purity="4.8776730895042419e-01" nType="0">
          <Node pos="l" depth="2" NCoef="0" IVar="-1" Cut="0.0000000000000000e+00" cType="1" res="-7.6109485235065222e-04" rms="4.4631707668304443e-01" purity="4.4587787985801697e-01" nType="-99"/>
          <Node pos="r" depth="2" NCoef="0" IVar="-1" Cut="0.0000000000000000e+00" cType="1" res="5.0182675477117300e-04" rms="4.2323562502861023e-01" purity="5.7254105806350708e-01" nType="-99"/>
        </Node>
      </Node>
    </BinaryTree>
    <BinaryTree type="DecisionTree" boostWeight="1.0000000000000000e+00" itree="493">
      <Node pos="s" depth="0" NCoef="0" IVar="0" Cut="1.1612598896026611e+00" cType="1" res="-6.4509366638958454e-03" rms="4.3363276124000549e-01" purity="4.9818322062492371e-01" nType="0">
        <Node pos="l" depth="1" NCoef="0" IVar="1" Cut="3.4293972778320312e+02" cType="1" res="1.8551819026470184e-02" rms="4.4479879736900330e-01" purity="6.3762640953063965e-01" nType="0">
          <Node pos="l" depth="2" NCoef="0" IVar="-1" Cut="0.0000000000000000e+00" cType="1" res="2.0814687013626099e-03" rms="4.3346846103668213e-01" purity="6.3692808151245117e-01" nType="-99"/>
          <Node pos="r" depth="2" NCoef="0" IVar="-1" Cut="0.0000000000000000e+00" cType="1" res="-1.8008353072218597e-04" rms="4.4651004672050476e-01" purity="6.3789910078048706e-01" nType="-99"/>
        </Node>
        <Node pos="r" depth="1" NCoef="0" IVar="6" Cut="1.0709266662597656e+02" cType="1" res="-4.6163663268089294e-02" rms="4.1217470169067383e-01" purity="2.7670085430145264e-01" nType="0">
          <Node pos="l" depth="2" NCoef="0" IVar="-1" Cut="0.0000000000000000e+00" cType="1" res="-1.1502240085974336e-03" rms="3.9835754036903381e-01" purity="2.3542103171348572e-01" nType="-99"/>
          <Node pos="r" depth="2" NCoef="0" IVar="-1" Cut="0.0000000000000000e+00" cType="1" res="3.2410776475444436e-04" rms="4.4487458467483521e-01" purity="3.9976102113723755e-01" nType="-99"/>
        </Node>
      </Node>
    </BinaryTree>
    <BinaryTree type="DecisionTree" boostWeight="1.0000000000000000e+00" itree="494">
      <Node pos="s" depth="0" NCoef="0" IVar="3" Cut="1.4313470458984375e+02" cType="1" res="3.0193119309842587e-03" rms="4.3950623273849487e-01" purity="5.2205681800842285e-01" nType="0">
        <Node pos="l" depth="1" NCoef="0" IVar="1" Cut="4.5304742431640625e+02" cType="1" res="1.6067655757069588e-02" rms="4.4076818227767944e-01" purity="5.4661577939987183e-01" nType="0">
          <Node pos="l" depth="2" NCoef="0" IVar="-1" Cut="0.0000000000000000e+00" cType="1" res="-2.5396997807547450e-04" rms="4.4141423702239990e-01" purity="4.8410484194755554e-01" nType="-99"/>
          <Node pos="r" depth="2" NCoef="0" IVar="-1" Cut="0.0000000000000000e+00" cType="1" res="2.2547203116118908e-03" rms="4.3317309021949768e-01" purity="6.8079537153244019e-01" nType="-99"/>
        </Node>
        <Node pos="r" depth="1" NCoef="0" IVar="-1" Cut="0.0000000000000000e+00" cType="1" res="-2.0059049129486084e-03" rms="4.1088846325874329e-01" purity="3.0664083361625671e-01" nType="-99"/>
      </Node>
    </BinaryTree>
    <BinaryTree type="DecisionTree" boostWeight="1.0000000000000000e+00" itree="495">
      <Node pos="s" depth="0" NCoef="0" IVar="3" Cut="1.0886929321289062e+02" cType="1" res="2.8346315957605839e-03" rms="4.4177469611167908e-01" purity="5.1803570985794067e-01" nType="0">
        <Node pos="l" depth="1" NCoef="0" IVar="3" Cut="1.0098038482666016e+02" cType="1" res="-8.6293257772922516e-02" rms="4.4334495067596436e-01" purity="3.5964748263359070e-01" nType="0">
          <Node pos="l" depth="2" NCoef="0" IVar="-1" Cut="0.0000000000000000e+00" cType="1" res="-2.2269359324127436e-03" rms="4.0129172801971436e-01" purity="2.5791525840759277e-01" nType="-99"/>
          <Node pos="r" depth="2" NCoef="0" IVar="-1" Cut="0.0000000000000000e+00" cType="1" res="-5.7008891599252820e-04" rms="4.8118180036544800e-01" purity="4.7885701060295105e-01" nType="-99"/>
        </Node>
        <Node pos="r" depth="1" NCoef="0" IVar="0" Cut="1.4408175945281982e+00" cType="1" res="1.8281543627381325e-02" rms="4.3966877460479736e-01" purity="5.4548627138137817e-01" nType="0">
          <Node pos="l" depth="2" NCoef="0" IVar="-1" Cut="0.0000000000000000e+00" cType="1" res="8.9875893900170922e-04" rms="4.4904941320419312e-01" purity="6.1637574434280396e-01" nType="-99"/>
          <Node pos="r" depth="2" NCoef="0" IVar="-1" Cut="0.0000000000000000e+00" cType="1" res="-1.1979022528976202e-03" rms="3.7998113036155701e-01" purity="2.0497974753379822e-01" nType="-99"/>
        </Node>
      </Node>
    </BinaryTree>
    <BinaryTree type="DecisionTree" boostWeight="1.0000000000000000e+00" itree="496">
      <Node pos="s" depth="0" NCoef="0" IVar="8" Cut="1.6813577413558960e+00" cType="1" res="-2.1876269951462746e-02" rms="4.4653022289276123e-01" purity="4.9629652500152588e-01" nType="0">
        <Node pos="l" depth="1" NCoef="0" IVar="-1" Cut="0.0000000000000000e+00" cType="1" res="-2.4229895789176226e-03" rms="4.6522116661071777e-01" purity="4.4046503305435181e-01" nType="-99"/>
        <Node pos="r" depth="1" NCoef="0" IVar="6" Cut="9.9376312255859375e+01" cType="1" res="-1.5590671449899673e-02" rms="4.4460356235504150e-01" purity="4.9961304664611816e-01" nType="0">
          <Node pos="l" depth="2" NCoef="0" IVar="-1" Cut="0.0000000000000000e+00" cType="1" res="-6.6744204377755523e-04" rms="4.4850772619247437e-01" purity="4.5799744129180908e-01" nType="-99"/>
          <Node pos="r" depth="2" NCoef="0" IVar="-1" Cut="0.0000000000000000e+00" cType="1" res="6.7021063296124339e-04" rms="4.3254849314689636e-01" purity="5.9813302755355835e-01" nType="-99"/>
        </Node>
      </Node>
    </BinaryTree>
    <BinaryTree type="DecisionTree" boostWeight="1.0000000000000000e+00" itree="497">
      <Node pos="s" depth="0" NCoef="0" IVar="8" Cut="2.5167510509490967e+00" cType="1" res="-1.1206687428057194e-02" rms="4.3688723444938660e-01" purity="4.9795487523078918e-01" nType="0">
        <Node pos="l" depth="1" NCoef="0" IVar="5" Cut="3.9378033447265625e+02" cType="1" res="5.6800781749188900e-03" rms="4.5013841986656189e-01" purity="5.6877803802490234e-01" nType="0">
          <Node pos="l" depth="2" NCoef="0" IVar="-1" Cut="0.0000000000000000e+00" cType="1" res="-1.4141487190499902e-03" rms="4.3869581818580627e-01" purity="3.5922536253929138e-01" nType="-99"/>
          <Node pos="r" depth="2" NCoef="0" IVar="-1" Cut="0.0000000000000000e+00" cType="1" res="3.7349713966250420e-04" rms="4.5041197538375854e-01" purity="5.9392905235290527e-01" nType="-99"/>
        </Node>
        <Node pos="r" depth="1" NCoef="0" IVar="2" Cut="9.4757723808288574e-01" cType="1" res="-8.9727975428104401e-02" rms="3.5878092050552368e-01" purity="1.6863614320755005e-01" nType="0">
          <Node pos="l" depth="2" NCoef="0" IVar="-1" Cut="0.0000000000000000e+00" cType="1" res="-1.3921945355832577e-03" rms="3.2408696413040161e-01" purity="1.2600280344486237e-01" nType="-99"/>
          <Node pos="r" depth="2" NCoef="0" IVar="-1" Cut="0.0000000000000000e+00" cType="1" res="-1.8655539024621248e-03" rms="4.0025547146797180e-01" purity="2.2725208103656769e-01" nType="-99"/>
        </Node>
      </Node>
    </BinaryTree>
    <BinaryTree type="DecisionTree" boostWeight="1.0000000000000000e+00" itree="498">
      <Node pos="s" depth="0" NCoef="0" IVar="6" Cut="4.1154800415039062e+01" cType="1" res="7.8209703788161278e-03" rms="4.3542152643203735e-01" purity="5.2322745323181152e-01" nType="0">
        <Node pos="l" depth="1" NCoef="0" IVar="2" Cut="9.5190447568893433e-01" cType="1" res="-9.2734567821025848e-02" rms="4.4727247953414917e-01" purity="3.2809591293334961e-01" nType="0">
          <Node pos="l" depth="2" NCoef="0" IVar="-1" Cut="0.0000000000000000e+00" cType="1" res="-8.2028598990291357e-04" rms="4.1687875986099243e-01" purity="2.7714213728904724e-01" nType="-99"/>
          <Node pos="r" depth="2" NCoef="0" IVar="-1" Cut="0.0000000000000000e+00" cType="1" res="-2.5378663558512926e-03" rms="4.7670465707778931e-01" purity="3.8901588320732117e-01" nType="-99"/>
        </Node>
        <Node pos="r" depth="1" NCoef="0" IVar="2" Cut="9.4327998161315918e-01" cType="1" res="2.4756766855716705e-02" rms="4.3109193444252014e-01" purity="5.5609196424484253e-01" nType="0">
          <Node pos="l" depth="2" NCoef="0" IVar="-1" Cut="0.0000000000000000e+00" cType="1" res="-4.7621160047128797e-04" rms="4.3915605545043945e-01" purity="3.6018499732017517e-01" nType="-99"/>
          <Node pos="r" depth="2" NCoef="0" IVar="-1" Cut="0.0000000000000000e+00" cType="1" res="1.6839525196701288e-03" rms="4.2235520482063293e-01" purity="6.8451106548309326e-01" nType="-99"/>
        </Node>
      </Node>
    </BinaryTree>
    <BinaryTree type="DecisionTree" boostWeight="1.0000000000000000e+00" itree="499">
      <Node pos="s" depth="0" NCoef="0" IVar="8" Cut="2.1476440429687500e+00" cType="1" res="8.5858171805739403e-03" rms="4.3530863523483276e-01" purity="5.1581519842147827e-01" nType="0">
        <Node pos="l" depth="1" NCoef="0" IVar="3" Cut="1.3493942260742188e+02" cType="1" res="4.7504719346761703e-02" rms="4.2947611212730408e-01" purity="6.3772302865982056e-01" nType="0">
          <Node pos="l" depth="2" NCoef="0" IVar="-1" Cut="0.0000000000000000e+00" cType="1" res="1.9247813615947962e-03" rms="4.2132413387298584e-01" purity="6.7069572210311890e-01" nType="-99"/>
          <Node pos="r" depth="2" NCoef="0" IVar="-1" Cut="0.0000000000000000e+00" cType="1" res="-1.1222077300772071e-03" rms="4.4801864027976990e-01" purity="4.9240854382514954e-01" nType="-99"/>
        </Node>
        <Node pos="r" depth="1" NCoef="0" IVar="2" Cut="9.6801513433456421e-01" cType="1" res="-2.5653539225459099e-02" rms="4.3752270936965942e-01" purity="4.0856531262397766e-01" nType="0">
          <Node pos="l" depth="2" NCoef="0" IVar="-1" Cut="0.0000000000000000e+00" cType="1" res="-8.8148593204095960e-04" rms="4.3867602944374084e-01" purity="3.4406214952468872e-01" nType="-99"/>
          <Node pos="r" depth="2" NCoef="0" IVar="-1" Cut="0.0000000000000000e+00" cType="1" res="2.5605659466236830e-03" rms="4.1591739654541016e-01" purity="7.0583581924438477e-01" nType="-99"/>
        </Node>
      </Node>
    </BinaryTree>
    <BinaryTree type="DecisionTree" boostWeight="1.0000000000000000e+00" itree="500">
      <Node pos="s" depth="0" NCoef="0" IVar="6" Cut="3.8437801361083984e+01" cType="1" res="5.8752484619617462e-04" rms="4.3971002101898193e-01" purity="5.2099549770355225e-01" nType="0">
        <Node pos="l" depth="1" NCoef="0" IVar="-1" Cut="0.0000000000000000e+00" cType="1" res="-1.4776806347072124e-03" rms="4.2291522026062012e-01" purity="3.0180037021636963e-01" nType="-99"/>
        <Node pos="r" depth="1" NCoef="0" IVar="8" Cut="2.1774761676788330e+00" cType="1" res="1.1233555153012276e-02" rms="4.4036242365837097e-01" purity="5.4626923799514771e-01" nType="0">
          <Node pos="l" depth="2" NCoef="0" IVar="-1" Cut="0.0000000000000000e+00" cType="1" res="1.2609665282070637e-03" rms="4.3212863802909851e-01" purity="6.6737526655197144e-01" nType="-99"/>
          <Node pos="r" depth="2" NCoef="0" IVar="-1" Cut="0.0000000000000000e+00" cType="1" res="-5.6020444026216865e-04" rms="4.4579112529754639e-01" purity="4.1543966531753540e-01" nType="-99"/>
        </Node>
      </Node>
    </BinaryTree>
    <BinaryTree type="DecisionTree" boostWeight="1.0000000000000000e+00" itree="501">
      <Node pos="s" depth="0" NCoef="0" IVar="6" Cut="9.3500000000000000e+01" cType="1" res="-3.9020969998091459e-03" rms="4.4301420450210571e-01" purity="5.1742869615554810e-01" nType="0">
        <Node pos="l" depth="1" NCoef="0" IVar="7" Cut="1.9075413048267365e-01" cType="1" res="-2.7679786086082458e-02" rms="4.5268657803535461e-01" purity="4.7095617651939392e-01" nType="0">
          <Node pos="l" depth="2" NCoef="0" IVar="-1" Cut="0.0000000000000000e+00" cType="1" res="-8.9138437760993838e-04" rms="4.5454514026641846e-01" purity="4.4316673278808594e-01" nType="-99"/>
          <Node pos="r" depth="2" NCoef="0" IVar="-1" Cut="0.0000000000000000e+00" cType="1" res="3.9047722239047289e-03" rms="4.0272107720375061e-01" purity="7.0881897211074829e-01" nType="-99"/>
        </Node>
        <Node pos="r" depth="1" NCoef="0" IVar="2" Cut="9.3507730960845947e-01" cType="1" res="4.4127397239208221e-02" rms="4.1870385408401489e-01" purity="6.1130023002624512e-01" nType="0">
          <Node pos="l" depth="2" NCoef="0" IVar="-1" Cut="0.0000000000000000e+00" cType="1" res="-8.4999779937788844e-04" rms="4.4556429982185364e-01" purity="3.4513035416603088e-01" nType="-99"/>
          <Node pos="r" depth="2" NCoef="0" IVar="-1" Cut="0.0000000000000000e+00" cType="1" res="2.7364345733076334e-03" rms="4.0037271380424500e-01" purity="7.2574573755264282e-01" nType="-99"/>
        </Node>
      </Node>
    </BinaryTree>
    <BinaryTree type="DecisionTree" boostWeight="1.0000000000000000e+00" itree="502">
      <Node pos="s" depth="0" NCoef="0" IVar="5" Cut="8.8331762695312500e+02" cType="1" res="-2.9585657641291618e-02" rms="4.4281888008117676e-01" purity="4.7882491350173950e-01" nType="0">
        <Node pos="l" depth="1" NCoef="0" IVar="0" Cut="4.7684314846992493e-01" cType="1" res="-3.8806013762950897e-02" rms="4.4360667467117310e-01" purity="4.6163797378540039e-01" nType="0">
          <Node pos="l" depth="2" NCoef="0" IVar="-1" Cut="0.0000000000000000e+00" cType="1" res="-3.0045825988054276e-03" rms="4.6671494841575623e-01" purity="4.9330756068229675e-01" nType="-99"/>
          <Node pos="r" depth="2" NCoef="0" IVar="-1" Cut="0.0000000000000000e+00" cType="1" res="-6.3560862326994538e-04" rms="4.4115743041038513e-01" purity="4.5971044898033142e-01" nType="-99"/>
        </Node>
        <Node pos="r" depth="1" NCoef="0" IVar="-1" Cut="0.0000000000000000e+00" cType="1" res="3.2091452740132809e-03" rms="4.1318121552467346e-01" purity="7.0692104101181030e-01" nType="-99"/>
      </Node>
    </BinaryTree>
    <BinaryTree type="DecisionTree" boostWeight="1.0000000000000000e+00" itree="503">
      <Node pos="s" depth="0" NCoef="0" IVar="6" Cut="4.0197597503662109e+01" cType="1" res="-1.1712991632521152e-02" rms="4.4154691696166992e-01" purity="5.0349491834640503e-01" nType="0">
        <Node pos="l" depth="1" NCoef="0" IVar="-1" Cut="0.0000000000000000e+00" cType="1" res="-1.9845291972160339e-03" rms="4.3802437186241150e-01" purity="3.0402797460556030e-01" nType="-99"/>
        <Node pos="r" depth="1" NCoef="0" IVar="2" Cut="9.4322127103805542e-01" cType="1" res="4.6425885520875454e-03" rms="4.3987673521041870e-01" purity="5.3499501943588257e-01" nType="0">
          <Node pos="l" depth="2" NCoef="0" IVar="-1" Cut="0.0000000000000000e+00" cType="1" res="-5.9042283101007342e-04" rms="4.4820576906204224e-01" purity="3.5097128152847290e-01" nType="-99"/>
          <Node pos="r" depth="2" NCoef="0" IVar="-1" Cut="0.0000000000000000e+00" cType="1" res="8.1897544441744685e-04" rms="4.3236553668975830e-01" purity="6.5772724151611328e-01" nType="-99"/>
        </Node>
      </Node>
    </BinaryTree>
    <BinaryTree type="DecisionTree" boostWeight="1.0000000000000000e+00" itree="504">
      <Node pos="s" depth="0" NCoef="0" IVar="7" Cut="1.4355860650539398e-01" cType="1" res="-2.7575058862566948e-02" rms="4.4521167874336243e-01" purity="4.8928600549697876e-01" nType="0">
        <Node pos="l" depth="1" NCoef="0" IVar="6" Cut="9.4577102661132812e+01" cType="1" res="-4.4004738330841064e-02" rms="4.4348382949829102e-01" purity="4.5384743809700012e-01" nType="0">
          <Node pos="l" depth="2" NCoef="0" IVar="-1" Cut="0.0000000000000000e+00" cType="1" res="-1.2266034027561545e-03" rms="4.4870364665985107e-01" purity="4.0399953722953796e-01" nType="-99"/>
          <Node pos="r" depth="2" NCoef="0" IVar="-1" Cut="0.0000000000000000e+00" cType="1" res="-2.1702298909076490e-05" rms="4.2934262752532959e-01" purity="5.5644631385803223e-01" nType="-99"/>
        </Node>
        <Node pos="r" depth="1" NCoef="0" IVar="2" Cut="9.6862202882766724e-01" cType="1" res="2.8889443725347519e-02" rms="4.4651392102241516e-01" purity="6.1107891798019409e-01" nType="0">
          <Node pos="l" depth="2" NCoef="0" IVar="-1" Cut="0.0000000000000000e+00" cType="1" res="1.5522040193900466e-03" rms="4.4542375206947327e-01" purity="5.9414541721343994e-01" nType="-99"/>
          <Node pos="r" depth="2" NCoef="0" IVar="-1" Cut="0.0000000000000000e+00" cType="1" res="-2.0070171449333429e-03" rms="4.3461847305297852e-01" purity="6.5247660875320435e-01" nType="-99"/>
        </Node>
      </Node>
    </BinaryTree>
    <BinaryTree type="DecisionTree" boostWeight="1.0000000000000000e+00" itree="505">
      <Node pos="s" depth="0" NCoef="0" IVar="3" Cut="1.3806275939941406e+02" cType="1" res="-2.1903701126575470e-02" rms="4.4578462839126587e-01" purity="4.9636948108673096e-01" nType="0">
        <Node pos="l" depth="1" NCoef="0" IVar="6" Cut="3.7967704772949219e+01" cType="1" res="-7.8396117314696312e-03" rms="4.4903177022933960e-01" purity="5.2399200201034546e-01" nType="0">
          <Node pos="l" depth="2" NCoef="0" IVar="-1" Cut="0.0000000000000000e+00" cType="1" res="-2.3497384972870350e-03" rms="4.1943195462226868e-01" purity="2.6544076204299927e-01" nType="-99"/>
          <Node pos="r" depth="2" NCoef="0" IVar="-1" Cut="0.0000000000000000e+00" cType="1" res="1.7718330491334200e-04" rms="4.4966453313827515e-01" purity="5.5344402790069580e-01" nType="-99"/>
        </Node>
        <Node pos="r" depth="1" NCoef="0" IVar="4" Cut="2.2992970275878906e+02" cType="1" res="-1.0513321310281754e-01" rms="4.1645088791847229e-01" purity="3.3290278911590576e-01" nType="0">
          <Node pos="l" depth="2" NCoef="0" IVar="-1" Cut="0.0000000000000000e+00" cType="1" res="-2.3328126408159733e-03" rms="4.3901610374450684e-01" purity="3.3375033736228943e-01" nType="-99"/>
          <Node pos="r" depth="2" NCoef="0" IVar="-1" Cut="0.0000000000000000e+00" cType="1" res="-1.3697968097403646e-03" rms="3.9175838232040405e-01" purity="3.3215388655662537e-01" nType="-99"/>
        </Node>
      </Node>
    </BinaryTree>
    <BinaryTree type="DecisionTree" boostWeight="1.0000000000000000e+00" itree="506">
      <Node pos="s" depth="0" NCoef="0" IVar="8" Cut="2.5714344978332520e+00" cType="1" res="-2.5025166571140289e-02" rms="4.3553280830383301e-01" purity="4.7726514935493469e-01" nType="0">
        <Node pos="l" depth="1" NCoef="0" IVar="0" Cut="1.4142340421676636e+00" cType="1" res="-8.1170797348022461e-03" rms="4.5106083154678345e-01" purity="5.4256111383438110e-01" nType="0">
          <Node pos="l" depth="2" NCoef="0" IVar="-1" Cut="0.0000000000000000e+00" cType="1" res="-3.9397095679305494e-04" rms="4.5112061500549316e-01" purity="5.5675399303436279e-01" nType="-99"/>
          <Node pos="r" depth="2" NCoef="0" IVar="-1" Cut="0.0000000000000000e+00" cType="1" res="2.0274277776479721e-03" rms="4.3720981478691101e-01" purity="3.9737296104431152e-01" nType="-99"/>
        </Node>
        <Node pos="r" depth="1" NCoef="0" IVar="-1" Cut="0.0000000000000000e+00" cType="1" res="-1.9508723635226488e-03" rms="3.2992869615554810e-01" purity="1.3760930299758911e-01" nType="-99"/>
      </Node>
    </BinaryTree>
    <BinaryTree type="DecisionTree" boostWeight="1.0000000000000000e+00" itree="507">
      <Node pos="s" depth="0" NCoef="0" IVar="7" Cut="8.0797560513019562e-02" cType="1" res="-9.3272635713219643e-03" rms="4.3391892313957214e-01" purity="4.9401891231536865e-01" nType="0">
        <Node pos="l" depth="1" NCoef="0" IVar="5" Cut="6.9440112304687500e+02" cType="1" res="-4.3608676642179489e-02" rms="4.3324598670005798e-01" purity="4.1692075133323669e-01" nType="0">
          <Node pos="l" depth="2" NCoef="0" IVar="-1" Cut="0.0000000000000000e+00" cType="1" res="-3.0681482166983187e-04" rms="4.2512482404708862e-01" purity="4.0871241688728333e-01" nType="-99"/>
          <Node pos="r" depth="2" NCoef="0" IVar="-1" Cut="0.0000000000000000e+00" cType="1" res="-1.8222578801214695e-03" rms="4.4249394536018372e-01" purity="4.3036258220672607e-01" nType="-99"/>
        </Node>
        <Node pos="r" depth="1" NCoef="0" IVar="1" Cut="4.2422399902343750e+02" cType="1" res="2.6229569688439369e-02" rms="4.3174955248832703e-01" purity="5.7398545742034912e-01" nType="0">
          <Node pos="l" depth="2" NCoef="0" IVar="-1" Cut="0.0000000000000000e+00" cType="1" res="-1.9000379325007088e-05" rms="4.3981963396072388e-01" purity="5.1062661409378052e-01" nType="-99"/>
          <Node pos="r" depth="2" NCoef="0" IVar="-1" Cut="0.0000000000000000e+00" cType="1" res="3.5523348487913609e-03" rms="3.9741420745849609e-01" purity="7.5637060403823853e-01" nType="-99"/>
        </Node>
      </Node>
    </BinaryTree>
    <BinaryTree type="DecisionTree" boostWeight="1.0000000000000000e+00" itree="508">
      <Node pos="s" depth="0" NCoef="0" IVar="3" Cut="1.3691036987304688e+02" cType="1" res="-1.0735099203884602e-02" rms="4.3076223134994507e-01" purity="4.9232959747314453e-01" nType="0">
        <Node pos="l" depth="1" NCoef="0" IVar="6" Cut="1.3726164245605469e+02" cType="1" res="6.7591532133519650e-03" rms="4.3554693460464478e-01" purity="5.2995073795318604e-01" nType="0">
          <Node pos="l" depth="2" NCoef="0" IVar="-1" Cut="0.0000000000000000e+00" cType="1" res="3.6398574593476951e-04" rms="4.3006831407546997e-01" purity="5.3448313474655151e-01" nType="-99"/>
          <Node pos="r" depth="2" NCoef="0" IVar="-1" Cut="0.0000000000000000e+00" cType="1" res="-2.8662453405559063e-03" rms="4.8677963018417358e-01" purity="4.6707314252853394e-01" nType="-99"/>
        </Node>
        <Node pos="r" depth="1" NCoef="0" IVar="6" Cut="9.0996047973632812e+01" cType="1" res="-9.0160831809043884e-02" rms="3.9879739284515381e-01" purity="3.2152575254440308e-01" nType="0">
          <Node pos="l" depth="2" NCoef="0" IVar="-1" Cut="0.0000000000000000e+00" cType="1" res="-2.2025322541594505e-03" rms="3.9435708522796631e-01" purity="2.5573557615280151e-01" nType="-99"/>
          <Node pos="r" depth="2" NCoef="0" IVar="-1" Cut="0.0000000000000000e+00" cType="1" res="2.6237068595946766e-05" rms="3.9286881685256958e-01" purity="4.6217146515846252e-01" nType="-99"/>
        </Node>
      </Node>
    </BinaryTree>
    <BinaryTree type="DecisionTree" boostWeight="1.0000000000000000e+00" itree="509">
      <Node pos="s" depth="0" NCoef="0" IVar="0" Cut="8.9627957344055176e-01" cType="1" res="9.5200901851058006e-03" rms="4.3631166219711304e-01" purity="5.1878249645233154e-01" nType="0">
        <Node pos="l" depth="1" NCoef="0" IVar="7" Cut="4.3348032981157303e-02" cType="1" res="6.0765255242586136e-02" rms="4.1991007328033447e-01" purity="7.0955985784530640e-01" nType="0">
          <Node pos="l" depth="2" NCoef="0" IVar="-1" Cut="0.0000000000000000e+00" cType="1" res="-8.0806179903447628e-04" rms="4.6571713685989380e-01" purity="6.0334599018096924e-01" nType="-99"/>
          <Node pos="r" depth="2" NCoef="0" IVar="-1" Cut="0.0000000000000000e+00" cType="1" res="2.3826509714126587e-03" rms="4.0749046206474304e-01" purity="7.3067164421081543e-01" nType="-99"/>
        </Node>
        <Node pos="r" depth="1" NCoef="0" IVar="3" Cut="1.1777493286132812e+02" cType="1" res="-2.1075082942843437e-02" rms="4.4299924373626709e-01" purity="4.0488165616989136e-01" nType="0">
          <Node pos="l" depth="2" NCoef="0" IVar="-1" Cut="0.0000000000000000e+00" cType="1" res="-1.1476882500573993e-03" rms="4.4230017066001892e-01" purity="3.3346578478813171e-01" nType="-99"/>
          <Node pos="r" depth="2" NCoef="0" IVar="-1" Cut="0.0000000000000000e+00" cType="1" res="1.1448119948909152e-05" rms="4.4176790118217468e-01" purity="4.4077754020690918e-01" nType="-99"/>
        </Node>
      </Node>
    </BinaryTree>
    <BinaryTree type="DecisionTree" boostWeight="1.0000000000000000e+00" itree="510">
      <Node pos="s" depth="0" NCoef="0" IVar="8" Cut="2.2139637470245361e+00" cType="1" res="5.9120608493685722e-03" rms="4.2708018422126770e-01" purity="5.2275460958480835e-01" nType="0">
        <Node pos="l" depth="1" NCoef="0" IVar="1" Cut="6.0509002685546875e+02" cType="1" res="4.2420759797096252e-02" rms="4.2594173550605774e-01" purity="6.4824080467224121e-01" nType="0">
          <Node pos="l" depth="2" NCoef="0" IVar="-1" Cut="0.0000000000000000e+00" cType="1" res="6.1346421716734767e-04" rms="4.3744426965713501e-01" purity="6.1783337593078613e-01" nType="-99"/>
          <Node pos="r" depth="2" NCoef="0" IVar="-1" Cut="0.0000000000000000e+00" cType="1" res="6.2967818230390549e-03" rms="3.3015090227127075e-01" purity="8.3050835132598877e-01" nType="-99"/>
        </Node>
        <Node pos="r" depth="1" NCoef="0" IVar="7" Cut="1.1510895937681198e-01" cType="1" res="-4.0070746093988419e-02" rms="4.2406061291694641e-01" purity="3.6470434069633484e-01" nType="0">
          <Node pos="l" depth="2" NCoef="0" IVar="-1" Cut="0.0000000000000000e+00" cType="1" res="-2.9253223328851163e-04" rms="4.1709536314010620e-01" purity="3.5794168710708618e-01" nType="-99"/>
          <Node pos="r" depth="2" NCoef="0" IVar="-1" Cut="0.0000000000000000e+00" cType="1" res="-1.9118605414405465e-03" rms="4.3460705876350403e-01" purity="3.8160157203674316e-01" nType="-99"/>
        </Node>
      </Node>
    </BinaryTree>
    <BinaryTree type="DecisionTree" boostWeight="1.0000000000000000e+00" itree="511">
      <Node pos="s" depth="0" NCoef="0" IVar="3" Cut="1.3528964233398438e+02" cType="1" res="-9.1602600878104568e-04" rms="4.3922877311706543e-01" purity="5.1581144332885742e-01" nType="0">
        <Node pos="l" depth="1" NCoef="0" IVar="8" Cut="1.8644599914550781e+00" cType="1" res="1.8274951726198196e-02" rms="4.3905809521675110e-01" purity="5.4805731773376465e-01" nType="0">
          <Node pos="l" depth="2" NCoef="0" IVar="-1" Cut="0.0000000000000000e+00" cType="1" res="3.0662333592772484e-03" rms="4.2633730173110962e-01" purity="7.0614355802536011e-01" nType="-99"/>
          <Node pos="r" depth="2" NCoef="0" IVar="-1" Cut="0.0000000000000000e+00" cType="1" res="1.1730705591617152e-04" rms="4.3927481770515442e-01" purity="5.2588111162185669e-01" nType="-99"/>
        </Node>
        <Node pos="r" depth="1" NCoef="0" IVar="5" Cut="6.9429364013671875e+02" cType="1" res="-8.1474520266056061e-02" rms="4.3071520328521729e-01" purity="3.8045215606689453e-01" nType="0">
          <Node pos="l" depth="2" NCoef="0" IVar="-1" Cut="0.0000000000000000e+00" cType="1" res="-6.8990362342447042e-04" rms="4.3172007799148560e-01" purity="3.9495468139648438e-01" nType="-99"/>
          <Node pos="r" depth="2" NCoef="0" IVar="-1" Cut="0.0000000000000000e+00" cType="1" res="-2.8988502454012632e-03" rms="4.1865622997283936e-01" purity="3.5786038637161255e-01" nType="-99"/>
        </Node>
      </Node>
    </BinaryTree>
    <BinaryTree type="DecisionTree" boostWeight="1.0000000000000000e+00" itree="512">
      <Node pos="s" depth="0" NCoef="0" IVar="6" Cut="4.1935352325439453e+01" cType="1" res="-1.9761901348829269e-02" rms="4.3922922015190125e-01" purity="4.9602356553077698e-01" nType="0">
        <Node pos="l" depth="1" NCoef="0" IVar="5" Cut="4.6387530517578125e+02" cType="1" res="-9.9211551249027252e-02" rms="4.4655489921569824e-01" purity="3.3060079813003540e-01" nType="0">
          <Node pos="l" depth="2" NCoef="0" IVar="-1" Cut="0.0000000000000000e+00" cType="1" res="-4.8471073387190700e-04" rms="4.3390795588493347e-01" purity="3.5824432969093323e-01" nType="-99"/>
          <Node pos="r" depth="2" NCoef="0" IVar="-1" Cut="0.0000000000000000e+00" cType="1" res="-2.4703163653612137e-03" rms="4.4750785827636719e-01" purity="3.0601683259010315e-01" nType="-99"/>
        </Node>
        <Node pos="r" depth="1" NCoef="0" IVar="4" Cut="3.9383337402343750e+02" cType="1" res="-5.7126334868371487e-03" rms="4.3641868233680725e-01" purity="5.2527564764022827e-01" nType="0">
          <Node pos="l" depth="2" NCoef="0" IVar="-1" Cut="0.0000000000000000e+00" cType="1" res="2.0012617460452020e-04" rms="4.4292482733726501e-01" purity="5.6514853239059448e-01" nType="-99"/>
          <Node pos="r" depth="2" NCoef="0" IVar="-1" Cut="0.0000000000000000e+00" cType="1" res="-1.7355493037030101e-03" rms="3.8087955117225647e-01" purity="2.7378875017166138e-01" nType="-99"/>
        </Node>
      </Node>
    </BinaryTree>
    <BinaryTree type="DecisionTree" boostWeight="1.0000000000000000e+00" itree="513">
      <Node pos="s" depth="0" NCoef="0" IVar="1" Cut="7.0060992431640625e+02" cType="1" res="-1.6100479289889336e-02" rms="4.3535146117210388e-01" purity="4.9604865908622742e-01" nType="0">
        <Node pos="l" depth="1" NCoef="0" IVar="7" Cut="1.5143574774265289e-01" cType="1" res="-2.5042084977030754e-02" rms="4.3801954388618469e-01" purity="4.8018741607666016e-01" nType="0">
          <Node pos="l" depth="2" NCoef="0" IVar="-1" Cut="0.0000000000000000e+00" cType="1" res="-9.1548357158899307e-04" rms="4.4081738591194153e-01" purity="4.3766239285469055e-01" nType="-99"/>
          <Node pos="r" depth="2" NCoef="0" IVar="-1" Cut="0.0000000000000000e+00" cType="1" res="1.2539786985144019e-03" rms="4.1967147588729858e-01" purity="6.3603216409683228e-01" nType="-99"/>
        </Node>
        <Node pos="r" depth="1" NCoef="0" IVar="-1" Cut="0.0000000000000000e+00" cType="1" res="2.7288014534860849e-03" rms="3.8432717323303223e-01" purity="6.9144165515899658e-01" nType="-99"/>
      </Node>
    </BinaryTree>
    <BinaryTree type="DecisionTree" boostWeight="1.0000000000000000e+00" itree="514">
      <Node pos="s" depth="0" NCoef="0" IVar="4" Cut="2.5266043090820312e+02" cType="1" res="-2.8993936255574226e-02" rms="4.3426099419593811e-01" purity="4.7312808036804199e-01" nType="0">
        <Node pos="l" depth="1" NCoef="0" IVar="6" Cut="4.6667942047119141e+01" cType="1" res="-5.7750530540943146e-03" rms="4.4344577193260193e-01" purity="5.2400606870651245e-01" nType="0">
          <Node pos="l" depth="2" NCoef="0" IVar="-1" Cut="0.0000000000000000e+00" cType="1" res="-1.3008636888116598e-03" rms="4.5049241185188293e-01" purity="3.5886707901954651e-01" nType="-99"/>
          <Node pos="r" depth="2" NCoef="0" IVar="-1" Cut="0.0000000000000000e+00" cType="1" res="4.0395540418103337e-04" rms="4.3875098228454590e-01" purity="5.7648956775665283e-01" nType="-99"/>
        </Node>
        <Node pos="r" depth="1" NCoef="0" IVar="3" Cut="1.3299079895019531e+02" cType="1" res="-7.1468934416770935e-02" rms="4.1357588768005371e-01" purity="3.8005548715591431e-01" nType="0">
          <Node pos="l" depth="2" NCoef="0" IVar="-1" Cut="0.0000000000000000e+00" cType="1" res="-8.4004475502297282e-04" rms="4.2821836471557617e-01" purity="4.3916469812393188e-01" nType="-99"/>
          <Node pos="r" depth="2" NCoef="0" IVar="-1" Cut="0.0000000000000000e+00" cType="1" res="-2.5760817807167768e-03" rms="3.7425333261489868e-01" purity="2.6075133681297302e-01" nType="-99"/>
        </Node>
      </Node>
    </BinaryTree>
    <BinaryTree type="DecisionTree" boostWeight="1.0000000000000000e+00" itree="515">
      <Node pos="s" depth="0" NCoef="0" IVar="7" Cut="1.3870714604854584e-01" cType="1" res="-2.2208428010344505e-02" rms="4.3743583559989929e-01" purity="4.8408040404319763e-01" nType="0">
        <Node pos="l" depth="1" NCoef="0" IVar="2" Cut="9.5157533884048462e-01" cType="1" res="-4.3727286159992218e-02" rms="4.3436563014984131e-01" purity="4.4127470254898071e-01" nType="0">
          <Node pos="l" depth="2" NCoef="0" IVar="-1" Cut="0.0000000000000000e+00" cType="1" res="-1.2208506232127547e-03" rms="4.2743360996246338e-01" purity="3.1836646795272827e-01" nType="-99"/>
          <Node pos="r" depth="2" NCoef="0" IVar="-1" Cut="0.0000000000000000e+00" cType="1" res="-2.2004119819030166e-04" rms="4.4091781973838806e-01" purity="6.0322153568267822e-01" nType="-99"/>
        </Node>
        <Node pos="r" depth="1" NCoef="0" IVar="5" Cut="4.7397192382812500e+02" cType="1" res="5.7215496897697449e-02" rms="4.3955874443054199e-01" purity="6.4207190275192261e-01" nType="0">
          <Node pos="l" depth="2" NCoef="0" IVar="-1" Cut="0.0000000000000000e+00" cType="1" res="-7.0987892104312778e-04" rms="4.6664857864379883e-01" purity="4.9472522735595703e-01" nType="-99"/>
          <Node pos="r" depth="2" NCoef="0" IVar="-1" Cut="0.0000000000000000e+00" cType="1" res="6.5242154523730278e-03" rms="3.7335821986198425e-01" purity="8.2596647739410400e-01" nType="-99"/>
        </Node>
      </Node>
    </BinaryTree>
    <BinaryTree type="DecisionTree" boostWeight="1.0000000000000000e+00" itree="516">
      <Node pos="s" depth="0" NCoef="0" IVar="7" Cut="1.9028107821941376e-01" cType="1" res="-1.8828755244612694e-02" rms="4.3895000219345093e-01" purity="4.9591073393821716e-01" nType="0">
        <Node pos="l" depth="1" NCoef="0" IVar="0" Cut="5.3377622365951538e-01" cType="1" res="-2.8647046536207199e-02" rms="4.3935561180114746e-01" purity="4.7260028123855591e-01" nType="0">
          <Node pos="l" depth="2" NCoef="0" IVar="-1" Cut="0.0000000000000000e+00" cType="1" res="2.8034336864948273e-03" rms="3.8447424769401550e-01" purity="7.7858120203018188e-01" nType="-99"/>
          <Node pos="r" depth="2" NCoef="0" IVar="-1" Cut="0.0000000000000000e+00" cType="1" res="-7.7432394027709961e-04" rms="4.4237524271011353e-01" purity="4.4639942049980164e-01" nType="-99"/>
        </Node>
        <Node pos="r" depth="1" NCoef="0" IVar="-1" Cut="0.0000000000000000e+00" cType="1" res="2.0189194474369287e-03" rms="4.2460656166076660e-01" purity="7.1102410554885864e-01" nType="-99"/>
      </Node>
    </BinaryTree>
    <BinaryTree type="DecisionTree" boostWeight="1.0000000000000000e+00" itree="517">
      <Node pos="s" depth="0" NCoef="0" IVar="6" Cut="9.2922508239746094e+01" cType="1" res="4.4081220403313637e-03" rms="4.3393138051033020e-01" purity="5.1933753490447998e-01" nType="0">
        <Node pos="l" depth="1" NCoef="0" IVar="2" Cut="9.2928129434585571e-01" cType="1" res="-2.5569291785359383e-02" rms="4.4154307246208191e-01" purity="4.6504151821136475e-01" nType="0">
          <Node pos="l" depth="2" NCoef="0" IVar="-1" Cut="0.0000000000000000e+00" cType="1" res="-1.6337326960638165e-03" rms="3.9270842075347900e-01" purity="2.2079749405384064e-01" nType="-99"/>
          <Node pos="r" depth="2" NCoef="0" IVar="-1" Cut="0.0000000000000000e+00" cType="1" res="-1.0439943434903398e-04" rms="4.5159280300140381e-01" purity="5.3110504150390625e-01" nType="-99"/>
        </Node>
        <Node pos="r" depth="1" NCoef="0" IVar="8" Cut="2.4890952110290527e+00" cType="1" res="6.7468553781509399e-02" rms="4.1037958860397339e-01" purity="6.3355463743209839e-01" nType="0">
          <Node pos="l" depth="2" NCoef="0" IVar="-1" Cut="0.0000000000000000e+00" cType="1" res="3.2578317914158106e-03" rms="3.9840775728225708e-01" purity="7.5082528591156006e-01" nType="-99"/>
          <Node pos="r" depth="2" NCoef="0" IVar="-1" Cut="0.0000000000000000e+00" cType="1" res="-3.1593121821060777e-04" rms="4.3190732598304749e-01" purity="2.9619154334068298e-01" nType="-99"/>
        </Node>
      </Node>
    </BinaryTree>
    <BinaryTree type="DecisionTree" boostWeight="1.0000000000000000e+00" itree="518">
      <Node pos="s" depth="0" NCoef="0" IVar="4" Cut="3.7716842651367188e+02" cType="1" res="-1.0162600316107273e-02" rms="4.3305724859237671e-01" purity="4.9626940488815308e-01" nType="0">
        <Node pos="l" depth="1" NCoef="0" IVar="8" Cut="2.1268584728240967e+00" cType="1" res="2.9030421283096075e-03" rms="4.3639850616455078e-01" purity="5.2980554103851318e-01" nType="0">
          <Node pos="l" depth="2" NCoef="0" IVar="-1" Cut="0.0000000000000000e+00" cType="1" res="9.6341967582702637e-04" rms="4.3957477807998657e-01" purity="6.4651477336883545e-01" nType="-99"/>
          <Node pos="r" depth="2" NCoef="0" IVar="-1" Cut="0.0000000000000000e+00" cType="1" res="-6.0936622321605682e-04" rms="4.3068242073059082e-01" purity="4.1988447308540344e-01" nType="-99"/>
        </Node>
        <Node pos="r" depth="1" NCoef="0" IVar="-1" Cut="0.0000000000000000e+00" cType="1" res="-1.7138066468760371e-03" rms="3.9878365397453308e-01" purity="2.7008363604545593e-01" nType="-99"/>
      </Node>
    </BinaryTree>
    <BinaryTree type="DecisionTree" boostWeight="1.0000000000000000e+00" itree="519">
      <Node pos="s" depth="0" NCoef="0" IVar="2" Cut="9.7483068704605103e-01" cType="1" res="-3.1472865492105484e-02" rms="4.3688985705375671e-01" purity="4.7926735877990723e-01" nType="0">
        <Node pos="l" depth="1" NCoef="0" IVar="0" Cut="6.1968803405761719e-01" cType="1" res="-4.5842304825782776e-02" rms="4.4288641214370728e-01" purity="4.3518593907356262e-01" nType="0">
          <Node pos="l" depth="2" NCoef="0" IVar="-1" Cut="0.0000000000000000e+00" cType="1" res="9.4803189858794212e-04" rms="4.3724331259727478e-01" purity="6.8144565820693970e-01" nType="-99"/>
          <Node pos="r" depth="2" NCoef="0" IVar="-1" Cut="0.0000000000000000e+00" cType="1" res="-1.1266906512901187e-03" rms="4.4231331348419189e-01" purity="3.9282158017158508e-01" nType="-99"/>
        </Node>
        <Node pos="r" depth="1" NCoef="0" IVar="8" Cut="2.2046201229095459e+00" cType="1" res="5.6978948414325714e-02" rms="3.8639840483665466e-01" purity="7.5061303377151489e-01" nType="0">
          <Node pos="l" depth="2" NCoef="0" IVar="-1" Cut="0.0000000000000000e+00" cType="1" res="6.8885646760463715e-04" rms="3.7964540719985962e-01" purity="7.7784901857376099e-01" nType="-99"/>
          <Node pos="r" depth="2" NCoef="0" IVar="-1" Cut="0.0000000000000000e+00" cType="1" res="3.8735542912036180e-03" rms="3.8830485939979553e-01" purity="7.0228701829910278e-01" nType="-99"/>
        </Node>
      </Node>
    </BinaryTree>
    <BinaryTree type="DecisionTree" boostWeight="1.0000000000000000e+00" itree="520">
      <Node pos="s" depth="0" NCoef="0" IVar="3" Cut="1.3220454406738281e+02" cType="1" res="-1.4668509364128113e-02" rms="4.3870922923088074e-01" purity="5.0151270627975464e-01" nType="0">
        <Node pos="l" depth="1" NCoef="0" IVar="3" Cut="1.0110152435302734e+02" cType="1" res="1.1222058674320579e-03" rms="4.4272670149803162e-01" purity="5.3741502761840820e-01" nType="0">
          <Node pos="l" depth="2" NCoef="0" IVar="-1" Cut="0.0000000000000000e+00" cType="1" res="-1.6323190648108721e-03" rms="4.2753988504409790e-01" purity="3.0856889486312866e-01" nType="-99"/>
          <Node pos="r" depth="2" NCoef="0" IVar="-1" Cut="0.0000000000000000e+00" cType="1" res="2.7506001060828567e-04" rms="4.4293692708015442e-01" purity="5.6144338846206665e-01" nType="-99"/>
        </Node>
        <Node pos="r" depth="1" NCoef="0" IVar="6" Cut="6.3367263793945312e+01" cType="1" res="-6.0820508748292923e-02" rms="4.2338782548904419e-01" purity="3.9657998085021973e-01" nType="0">
          <Node pos="l" depth="2" NCoef="0" IVar="-1" Cut="0.0000000000000000e+00" cType="1" res="-1.9893085118383169e-03" rms="4.0818688273429871e-01" purity="2.7775675058364868e-01" nType="-99"/>
          <Node pos="r" depth="2" NCoef="0" IVar="-1" Cut="0.0000000000000000e+00" cType="1" res="-5.7455000933259726e-04" rms="4.2859601974487305e-01" purity="4.6930798888206482e-01" nType="-99"/>
        </Node>
      </Node>
    </BinaryTree>
    <BinaryTree type="DecisionTree" boostWeight="1.0000000000000000e+00" itree="521">
      <Node pos="s" depth="0" NCoef="0" IVar="2" Cut="9.4915318489074707e-01" cType="1" res="-1.1211545206606388e-02" rms="4.4075122475624084e-01" purity="5.1011210680007935e-01" nType="0">
        <Node pos="l" depth="1" NCoef="0" IVar="1" Cut="5.4027490234375000e+02" cType="1" res="-5.7019930332899094e-02" rms="4.3871268630027771e-01" purity="3.4451031684875488e-01" nType="0">
          <Node pos="l" depth="2" NCoef="0" IVar="-1" Cut="0.0000000000000000e+00" cType="1" res="-1.2341906549409032e-03" rms="4.3554550409317017e-01" purity="3.1448933482170105e-01" nType="-99"/>
          <Node pos="r" depth="2" NCoef="0" IVar="-1" Cut="0.0000000000000000e+00" cType="1" res="2.7931990916840732e-04" rms="4.4637537002563477e-01" purity="4.8428043723106384e-01" nType="-99"/>
        </Node>
        <Node pos="r" depth="1" NCoef="0" IVar="3" Cut="1.1068035888671875e+02" cType="1" res="3.2578013837337494e-02" rms="4.3823736906051636e-01" purity="6.6841572523117065e-01" nType="0">
          <Node pos="l" depth="2" NCoef="0" IVar="-1" Cut="0.0000000000000000e+00" cType="1" res="-1.6684684669598937e-03" rms="4.4809120893478394e-01" purity="4.8926329612731934e-01" nType="-99"/>
          <Node pos="r" depth="2" NCoef="0" IVar="-1" Cut="0.0000000000000000e+00" cType="1" res="1.5967367216944695e-03" rms="4.3300583958625793e-01" purity="7.0380258560180664e-01" nType="-99"/>
        </Node>
      </Node>
    </BinaryTree>
    <BinaryTree type="DecisionTree" boostWeight="1.0000000000000000e+00" itree="522">
      <Node pos="s" depth="0" NCoef="0" IVar="6" Cut="9.9376312255859375e+01" cType="1" res="-1.5433198772370815e-02" rms="4.3690541386604309e-01" purity="4.9288988113403320e-01" nType="0">
        <Node pos="l" depth="1" NCoef="0" IVar="8" Cut="1.9530959129333496e+00" cType="1" res="-4.3976683169603348e-02" rms="4.4023147225379944e-01" purity="4.4371396303176880e-01" nType="0">
          <Node pos="l" depth="2" NCoef="0" IVar="-1" Cut="0.0000000000000000e+00" cType="1" res="5.6025275262072682e-04" rms="4.4670507311820984e-01" purity="6.0295218229293823e-01" nType="-99"/>
          <Node pos="r" depth="2" NCoef="0" IVar="-1" Cut="0.0000000000000000e+00" cType="1" res="-1.2677389895543456e-03" rms="4.3557578325271606e-01" purity="3.8965126872062683e-01" nType="-99"/>
        </Node>
        <Node pos="r" depth="1" NCoef="0" IVar="7" Cut="1.4530172944068909e-01" cType="1" res="6.4989514648914337e-02" rms="4.1701677441596985e-01" purity="6.3144558668136597e-01" nType="0">
          <Node pos="l" depth="2" NCoef="0" IVar="-1" Cut="0.0000000000000000e+00" cType="1" res="2.8795464895665646e-03" rms="4.0374311804771423e-01" purity="6.5101283788681030e-01" nType="-99"/>
          <Node pos="r" depth="2" NCoef="0" IVar="-1" Cut="0.0000000000000000e+00" cType="1" res="-9.6116767963394523e-04" rms="4.4815978407859802e-01" purity="5.5803018808364868e-01" nType="-99"/>
        </Node>
      </Node>
    </BinaryTree>
    <BinaryTree type="DecisionTree" boostWeight="1.0000000000000000e+00" itree="523">
      <Node pos="s" depth="0" NCoef="0" IVar="3" Cut="1.0145034027099609e+02" cType="1" res="-2.2061035037040710e-02" rms="4.3810659646987915e-01" purity="4.8970332741737366e-01" nType="0">
        <Node pos="l" depth="1" NCoef="0" IVar="-1" Cut="0.0000000000000000e+00" cType="1" res="-2.2259457036852837e-03" rms="3.9985612034797668e-01" purity="2.4223957955837250e-01" nType="-99"/>
        <Node pos="r" depth="1" NCoef="0" IVar="2" Cut="9.3423551321029663e-01" cType="1" res="-1.3218448497354984e-02" rms="4.3992519378662109e-01" purity="5.0999659299850464e-01" nType="0">
          <Node pos="l" depth="2" NCoef="0" IVar="-1" Cut="0.0000000000000000e+00" cType="1" res="-1.0072496952489018e-03" rms="4.2136693000793457e-01" purity="2.9121631383895874e-01" nType="-99"/>
          <Node pos="r" depth="2" NCoef="0" IVar="-1" Cut="0.0000000000000000e+00" cType="1" res="1.4981691492721438e-04" rms="4.4610917568206787e-01" purity="6.0217690467834473e-01" nType="-99"/>
        </Node>
      </Node>
    </BinaryTree>
    <BinaryTree type="DecisionTree" boostWeight="1.0000000000000000e+00" itree="524">
      <Node pos="s" depth="0" NCoef="0" IVar="2" Cut="9.6036738157272339e-01" cType="1" res="1.1831778829218820e-04" rms="4.2510488629341125e-01" purity="5.0364428758621216e-01" nType="0">
        <Node pos="l" depth="1" NCoef="0" IVar="7" Cut="1.8156881630420685e-01" cType="1" res="-2.9852142557501793e-02" rms="4.3470600247383118e-01" purity="3.9729696512222290e-01" nType="0">
          <Node pos="l" depth="2" NCoef="0" IVar="-1" Cut="0.0000000000000000e+00" cType="1" res="-8.2942895824089646e-04" rms="4.3010291457176208e-01" purity="3.7030845880508423e-01" nType="-99"/>
          <Node pos="r" depth="2" NCoef="0" IVar="-1" Cut="0.0000000000000000e+00" cType="1" res="2.4859306868165731e-03" rms="4.5145300030708313e-01" purity="6.2748378515243530e-01" nType="-99"/>
        </Node>
        <Node pos="r" depth="1" NCoef="0" IVar="2" Cut="9.8563188314437866e-01" cType="1" res="6.3373319804668427e-02" rms="3.9672920107841492e-01" purity="7.2809869050979614e-01" nType="0">
          <Node pos="l" depth="2" NCoef="0" IVar="-1" Cut="0.0000000000000000e+00" cType="1" res="3.1122602522373199e-03" rms="3.8171187043190002e-01" purity="7.4606937170028687e-01" nType="-99"/>
          <Node pos="r" depth="2" NCoef="0" IVar="-1" Cut="0.0000000000000000e+00" cType="1" res="-1.9376967102289200e-03" rms="4.3011897802352905e-01" purity="6.5611374378204346e-01" nType="-99"/>
        </Node>
      </Node>
    </BinaryTree>
    <BinaryTree type="DecisionTree" boostWeight="1.0000000000000000e+00" itree="525">
      <Node pos="s" depth="0" NCoef="0" IVar="7" Cut="3.1465087085962296e-02" cType="1" res="-1.5313038602471352e-02" rms="4.3909829854965210e-01" purity="5.0333786010742188e-01" nType="0">
        <Node pos="l" depth="1" NCoef="0" IVar="5" Cut="7.1325146484375000e+02" cType="1" res="-1.0305818915367126e-01" rms="4.2827773094177246e-01" purity="3.3051383495330811e-01" nType="0">
          <Node pos="l" depth="2" NCoef="0" IVar="-1" Cut="0.0000000000000000e+00" cType="1" res="-2.6460289955139160e-03" rms="4.1623887419700623e-01" purity="2.3137474060058594e-01" nType="-99"/>
          <Node pos="r" depth="2" NCoef="0" IVar="-1" Cut="0.0000000000000000e+00" cType="1" res="-3.9638314046896994e-04" rms="4.3289148807525635e-01" purity="4.8603197932243347e-01" nType="-99"/>
        </Node>
        <Node pos="r" depth="1" NCoef="0" IVar="0" Cut="1.4512213468551636e+00" cType="1" res="3.0760129448026419e-03" rms="4.3911564350128174e-01" purity="5.3955721855163574e-01" nType="0">
          <Node pos="l" depth="2" NCoef="0" IVar="-1" Cut="0.0000000000000000e+00" cType="1" res="4.2496202513575554e-04" rms="4.4851651787757874e-01" purity="5.9874767065048218e-01" nType="-99"/>
          <Node pos="r" depth="2" NCoef="0" IVar="-1" Cut="0.0000000000000000e+00" cType="1" res="-1.4823458623141050e-03" rms="3.6529925465583801e-01" purity="1.8377478420734406e-01" nType="-99"/>
        </Node>
      </Node>
    </BinaryTree>
    <BinaryTree type="DecisionTree" boostWeight="1.0000000000000000e+00" itree="526">
      <Node pos="s" depth="0" NCoef="0" IVar="0" Cut="4.4307208061218262e-01" cType="1" res="-1.5357228927314281e-02" rms="4.4385620951652527e-01" purity="5.0174236297607422e-01" nType="0">
        <Node pos="l" depth="1" NCoef="0" IVar="-1" Cut="0.0000000000000000e+00" cType="1" res="-3.0901099089533091e-03" rms="4.4571286439895630e-01" purity="5.1492047309875488e-01" nType="-99"/>
        <Node pos="r" depth="1" NCoef="0" IVar="8" Cut="1.8536835908889771e+00" cType="1" res="-7.6194009743630886e-03" rms="4.4252464175224304e-01" purity="5.0097167491912842e-01" nType="0">
          <Node pos="l" depth="2" NCoef="0" IVar="-1" Cut="0.0000000000000000e+00" cType="1" res="2.7460800483822823e-03" rms="4.0936186909675598e-01" purity="6.6867202520370483e-01" nType="-99"/>
          <Node pos="r" depth="2" NCoef="0" IVar="-1" Cut="0.0000000000000000e+00" cType="1" res="-4.2390840826556087e-04" rms="4.4428643584251404e-01" purity="4.8280057311058044e-01" nType="-99"/>
        </Node>
      </Node>
    </BinaryTree>
    <BinaryTree type="DecisionTree" boostWeight="1.0000000000000000e+00" itree="527">
      <Node pos="s" depth="0" NCoef="0" IVar="3" Cut="1.1013220977783203e+02" cType="1" res="-1.8036222085356712e-02" rms="4.4332596659660339e-01" purity="4.9705299735069275e-01" nType="0">
        <Node pos="l" depth="1" NCoef="0" IVar="2" Cut="9.5535326004028320e-01" cType="1" res="-7.8201480209827423e-02" rms="4.4246590137481689e-01" purity="3.5877072811126709e-01" nType="0">
          <Node pos="l" depth="2" NCoef="0" IVar="-1" Cut="0.0000000000000000e+00" cType="1" res="-4.2275988380424678e-04" rms="4.4248130917549133e-01" purity="3.3441960811614990e-01" nType="-99"/>
          <Node pos="r" depth="2" NCoef="0" IVar="-1" Cut="0.0000000000000000e+00" cType="1" res="-2.8022155165672302e-03" rms="4.3251347541809082e-01" purity="3.8966086506843567e-01" nType="-99"/>
        </Node>
        <Node pos="r" depth="1" NCoef="0" IVar="3" Cut="1.3025914001464844e+02" cType="1" res="-5.3632059134542942e-03" rms="4.4246503710746765e-01" purity="5.2618032693862915e-01" nType="0">
          <Node pos="l" depth="2" NCoef="0" IVar="-1" Cut="0.0000000000000000e+00" cType="1" res="4.3634659959934652e-04" rms="4.4174084067344666e-01" purity="5.7194441556930542e-01" nType="-99"/>
          <Node pos="r" depth="2" NCoef="0" IVar="-1" Cut="0.0000000000000000e+00" cType="1" res="-1.0244846343994141e-03" rms="4.4027006626129150e-01" purity="4.4020292162895203e-01" nType="-99"/>
        </Node>
      </Node>
    </BinaryTree>
    <BinaryTree type="DecisionTree" boostWeight="1.0000000000000000e+00" itree="528">
      <Node pos="s" depth="0" NCoef="0" IVar="7" Cut="6.3776239752769470e-02" cType="1" res="-1.6999823972582817e-02" rms="4.4173923134803772e-01" purity="4.9051442742347717e-01" nType="0">
        <Node pos="l" depth="1" NCoef="0" IVar="3" Cut="1.2991436767578125e+02" cType="1" res="-5.7620532810688019e-02" rms="4.2929881811141968e-01" purity="3.8049644231796265e-01" nType="0">
          <Node pos="l" depth="2" NCoef="0" IVar="-1" Cut="0.0000000000000000e+00" cType="1" res="-3.8630311610177159e-04" rms="4.3394473195075989e-01" purity="4.2953824996948242e-01" nType="-99"/>
          <Node pos="r" depth="2" NCoef="0" IVar="-1" Cut="0.0000000000000000e+00" cType="1" res="-2.0939945243299007e-03" rms="4.1294071078300476e-01" purity="2.9649028182029724e-01" nType="-99"/>
        </Node>
        <Node pos="r" depth="1" NCoef="0" IVar="6" Cut="9.4272369384765625e+01" cType="1" res="1.1176324449479580e-02" rms="4.4800832867622375e-01" purity="5.6682729721069336e-01" nType="0">
          <Node pos="l" depth="2" NCoef="0" IVar="-1" Cut="0.0000000000000000e+00" cType="1" res="-2.4231807037722319e-04" rms="4.6068164706230164e-01" purity="5.1544457674026489e-01" nType="-99"/>
          <Node pos="r" depth="2" NCoef="0" IVar="-1" Cut="0.0000000000000000e+00" cType="1" res="2.2065022494643927e-03" rms="4.0841731429100037e-01" purity="6.9725418090820312e-01" nType="-99"/>
        </Node>
      </Node>
    </BinaryTree>
    <BinaryTree type="DecisionTree" boostWeight="1.0000000000000000e+00" itree="529">
      <Node pos="s" depth="0" NCoef="0" IVar="2" Cut="9.4477194547653198e-01" cType="1" res="-1.7833022400736809e-02" rms="4.4808214902877808e-01" purity="5.0211375951766968e-01" nType="0">
        <Node pos="l" depth="1" NCoef="0" IVar="6" Cut="4.6873256683349609e+01" cType="1" res="-4.3838173151016235e-02" rms="4.3778982758522034e-01" purity="3.3738172054290771e-01" nType="0">
          <Node pos="l" depth="2" NCoef="0" IVar="-1" Cut="0.0000000000000000e+00" cType="1" res="-1.6240469412878156e-03" rms="3.9548686146736145e-01" purity="2.1170264482498169e-01" nType="-99"/>
          <Node pos="r" depth="2" NCoef="0" IVar="-1" Cut="0.0000000000000000e+00" cType="1" res="-4.7441647620871663e-04" rms="4.4796308875083923e-01" purity="3.7435564398765564e-01" nType="-99"/>
        </Node>
        <Node pos="r" depth="1" NCoef="0" IVar="2" Cut="9.5879745483398438e-01" cType="1" res="1.9313085358589888e-03" rms="4.5475551486015320e-01" purity="6.2731271982192993e-01" nType="0">
          <Node pos="l" depth="2" NCoef="0" IVar="-1" Cut="0.0000000000000000e+00" cType="1" res="1.6082276124507189e-03" rms="4.6553713083267212e-01" purity="6.2703943252563477e-01" nType="-99"/>
          <Node pos="r" depth="2" NCoef="0" IVar="-1" Cut="0.0000000000000000e+00" cType="1" res="-7.7520968625321984e-04" rms="4.4612729549407959e-01" purity="6.2744653224945068e-01" nType="-99"/>
        </Node>
      </Node>
    </BinaryTree>
    <BinaryTree type="DecisionTree" boostWeight="1.0000000000000000e+00" itree="530">
      <Node pos="s" depth="0" NCoef="0" IVar="6" Cut="1.3704864501953125e+02" cType="1" res="-1.3440340757369995e-02" rms="4.4029861688613892e-01" purity="5.0447934865951538e-01" nType="0">
        <Node pos="l" depth="1" NCoef="0" IVar="3" Cut="1.3269322204589844e+02" cType="1" res="-1.2366672744974494e-03" rms="4.3718692660331726e-01" purity="5.1658725738525391e-01" nType="0">
          <Node pos="l" depth="2" NCoef="0" IVar="-1" Cut="0.0000000000000000e+00" cType="1" res="3.5641464637592435e-04" rms="4.3307155370712280e-01" purity="5.4000705480575562e-01" nType="-99"/>
          <Node pos="r" depth="2" NCoef="0" IVar="-1" Cut="0.0000000000000000e+00" cType="1" res="-1.3534195022657514e-03" rms="4.4662630558013916e-01" purity="4.2715623974800110e-01" nType="-99"/>
        </Node>
        <Node pos="r" depth="1" NCoef="0" IVar="-1" Cut="0.0000000000000000e+00" cType="1" res="-2.5498259346932173e-03" rms="4.5272105932235718e-01" purity="3.8995265960693359e-01" nType="-99"/>
      </Node>
    </BinaryTree>
    <BinaryTree type="DecisionTree" boostWeight="1.0000000000000000e+00" itree="531">
      <Node pos="s" depth="0" NCoef="0" IVar="6" Cut="9.3002784729003906e+01" cType="1" res="-1.5754260122776031e-02" rms="4.3969041109085083e-01" purity="4.9825665354728699e-01" nType="0">
        <Node pos="l" depth="1" NCoef="0" IVar="1" Cut="5.2906768798828125e+02" cType="1" res="-3.4595277160406113e-02" rms="4.4330441951751709e-01" purity="4.5146992802619934e-01" nType="0">
          <Node pos="l" depth="2" NCoef="0" IVar="-1" Cut="0.0000000000000000e+00" cType="1" res="-3.8227497134357691e-04" rms="4.4019591808319092e-01" purity="4.6041730046272278e-01" nType="-99"/>
          <Node pos="r" depth="2" NCoef="0" IVar="-1" Cut="0.0000000000000000e+00" cType="1" res="-2.2346328478306532e-03" rms="4.5021831989288330e-01" purity="4.0099319815635681e-01" nType="-99"/>
        </Node>
        <Node pos="r" depth="1" NCoef="0" IVar="6" Cut="1.4637458801269531e+02" cType="1" res="2.5940105319023132e-02" rms="4.2865109443664551e-01" purity="6.0179352760314941e-01" nType="0">
          <Node pos="l" depth="2" NCoef="0" IVar="-1" Cut="0.0000000000000000e+00" cType="1" res="1.2611005222424865e-03" rms="4.1799432039260864e-01" purity="6.2757503986358643e-01" nType="-99"/>
          <Node pos="r" depth="2" NCoef="0" IVar="-1" Cut="0.0000000000000000e+00" cType="1" res="-1.4479007804766297e-03" rms="4.6055576205253601e-01" purity="4.9379870295524597e-01" nType="-99"/>
        </Node>
      </Node>
    </BinaryTree>
    <BinaryTree type="DecisionTree" boostWeight="1.0000000000000000e+00" itree="532">
      <Node pos="s" depth="0" NCoef="0" IVar="3" Cut="1.0763102722167969e+02" cType="1" res="-1.1260951869189739e-02" rms="4.3559142947196960e-01" purity="4.9939683079719543e-01" nType="0">
        <Node pos="l" depth="1" NCoef="0" IVar="7" Cut="7.6037555932998657e-02" cType="1" res="-1.0949388146400452e-01" rms="4.0294134616851807e-01" purity="3.1504392623901367e-01" nType="0">
          <Node pos="l" depth="2" NCoef="0" IVar="-1" Cut="0.0000000000000000e+00" cType="1" res="-2.7176265139132738e-03" rms="3.8102355599403381e-01" purity="2.3445069789886475e-01" nType="-99"/>
          <Node pos="r" depth="2" NCoef="0" IVar="-1" Cut="0.0000000000000000e+00" cType="1" res="-1.1320974444970489e-03" rms="4.2172196507453918e-01" purity="4.0573108196258545e-01" nType="-99"/>
        </Node>
        <Node pos="r" depth="1" NCoef="0" IVar="6" Cut="6.0052707672119141e+01" cType="1" res="4.0980908088386059e-03" rms="4.3849274516105652e-01" purity="5.2822101116180420e-01" nType="0">
          <Node pos="l" depth="2" NCoef="0" IVar="-1" Cut="0.0000000000000000e+00" cType="1" res="-8.2362204557284713e-04" rms="4.5982104539871216e-01" purity="4.3115746974945068e-01" nType="-99"/>
          <Node pos="r" depth="2" NCoef="0" IVar="-1" Cut="0.0000000000000000e+00" cType="1" res="7.5402611400932074e-04" rms="4.2378529906272888e-01" purity="5.8266228437423706e-01" nType="-99"/>
        </Node>
      </Node>
    </BinaryTree>
    <BinaryTree type="DecisionTree" boostWeight="1.0000000000000000e+00" itree="533">
      <Node pos="s" depth="0" NCoef="0" IVar="4" Cut="2.1210688781738281e+02" cType="1" res="-2.7977310121059418e-02" rms="4.3463125824928284e-01" purity="4.8104417324066162e-01" nType="0">
        <Node pos="l" depth="1" NCoef="0" IVar="6" Cut="1.1544506835937500e+02" cType="1" res="-5.2138660103082657e-02" rms="4.5403951406478882e-01" purity="4.8613026738166809e-01" nType="0">
          <Node pos="l" depth="2" NCoef="0" IVar="-1" Cut="0.0000000000000000e+00" cType="1" res="-7.4571033474057913e-04" rms="4.4899556040763855e-01" purity="4.8723012208938599e-01" nType="-99"/>
          <Node pos="r" depth="2" NCoef="0" IVar="-1" Cut="0.0000000000000000e+00" cType="1" res="-4.1641136631369591e-03" rms="4.7580972313880920e-01" purity="4.7630381584167480e-01" nType="-99"/>
        </Node>
        <Node pos="r" depth="1" NCoef="0" IVar="5" Cut="5.9415930175781250e+02" cType="1" res="7.5107454904355109e-05" rms="4.0916305780410767e-01" purity="4.7513899207115173e-01" nType="0">
          <Node pos="l" depth="2" NCoef="0" IVar="-1" Cut="0.0000000000000000e+00" cType="1" res="-8.7256636470556259e-04" rms="4.1208955645561218e-01" purity="3.6609897017478943e-01" nType="-99"/>
          <Node pos="r" depth="2" NCoef="0" IVar="-1" Cut="0.0000000000000000e+00" cType="1" res="1.1084026191383600e-03" rms="4.0113991498947144e-01" purity="5.8745539188385010e-01" nType="-99"/>
        </Node>
      </Node>
    </BinaryTree>
    <BinaryTree type="DecisionTree" boostWeight="1.0000000000000000e+00" itree="534">
      <Node pos="s" depth="0" NCoef="0" IVar="7" Cut="1.9364315271377563e-01" cType="1" res="-1.9899258390069008e-02" rms="4.3175649642944336e-01" purity="4.8957386612892151e-01" nType="0">
        <Node pos="l" depth="1" NCoef="0" IVar="5" Cut="4.8089511108398438e+02" cType="1" res="-3.0295381322503090e-02" rms="4.3319785594940186e-01" purity="4.6935278177261353e-01" nType="0">
          <Node pos="l" depth="2" NCoef="0" IVar="-1" Cut="0.0000000000000000e+00" cType="1" res="-1.3324911706149578e-03" rms="4.2290377616882324e-01" purity="3.4449234604835510e-01" nType="-99"/>
          <Node pos="r" depth="2" NCoef="0" IVar="-1" Cut="0.0000000000000000e+00" cType="1" res="-1.4986460155341774e-04" rms="4.3690907955169678e-01" purity="5.3761148452758789e-01" nType="-99"/>
        </Node>
        <Node pos="r" depth="1" NCoef="0" IVar="-1" Cut="0.0000000000000000e+00" cType="1" res="2.2492150310426950e-03" rms="4.0412539243698120e-01" purity="6.8446117639541626e-01" nType="-99"/>
      </Node>
    </BinaryTree>
    <BinaryTree type="DecisionTree" boostWeight="1.0000000000000000e+00" itree="535">
      <Node pos="s" depth="0" NCoef="0" IVar="8" Cut="2.1746609210968018e+00" cType="1" res="-7.8777931630611420e-03" rms="4.4121006131172180e-01" purity="5.0522232055664062e-01" nType="0">
        <Node pos="l" depth="1" NCoef="0" IVar="2" Cut="9.4869709014892578e-01" cType="1" res="2.8089690953493118e-02" rms="4.4224306941032410e-01" purity="6.3451617956161499e-01" nType="0">
          <Node pos="l" depth="2" NCoef="0" IVar="-1" Cut="0.0000000000000000e+00" cType="1" res="-1.9769958453252912e-04" rms="4.7673869132995605e-01" purity="4.8394936323165894e-01" nType="-99"/>
          <Node pos="r" depth="2" NCoef="0" IVar="-1" Cut="0.0000000000000000e+00" cType="1" res="2.2470951080322266e-03" rms="4.0606072545051575e-01" purity="7.6826673746109009e-01" nType="-99"/>
        </Node>
        <Node pos="r" depth="1" NCoef="0" IVar="7" Cut="1.6936771571636200e-01" cType="1" res="-4.3422609567642212e-02" rms="4.3728998303413391e-01" purity="3.7744781374931335e-01" nType="0">
          <Node pos="l" depth="2" NCoef="0" IVar="-1" Cut="0.0000000000000000e+00" cType="1" res="-6.0472782934084535e-04" rms="4.2928257584571838e-01" purity="3.7233668565750122e-01" nType="-99"/>
          <Node pos="r" depth="2" NCoef="0" IVar="-1" Cut="0.0000000000000000e+00" cType="1" res="-2.3268864024430513e-03" rms="4.7781431674957275e-01" purity="4.1023358702659607e-01" nType="-99"/>
        </Node>
      </Node>
    </BinaryTree>
    <BinaryTree type="DecisionTree" boostWeight="1.0000000000000000e+00" itree="536">
      <Node pos="s" depth="0" NCoef="0" IVar="2" Cut="9.2682862281799316e-01" cType="1" res="-1.3221829198300838e-02" rms="4.4247087836265564e-01" purity="5.0447034835815430e-01" nType="0">
        <Node pos="l" depth="1" NCoef="0" IVar="2" Cut="9.1751825809478760e-01" cType="1" res="-8.7832979857921600e-02" rms="3.9873310923576355e-01" purity="2.4667656421661377e-01" nType="0">
          <Node pos="l" depth="2" NCoef="0" IVar="-1" Cut="0.0000000000000000e+00" cType="1" res="-2.5172374444082379e-04" rms="4.0838459134101868e-01" purity="3.0305334925651550e-01" nType="-99"/>
          <Node pos="r" depth="2" NCoef="0" IVar="-1" Cut="0.0000000000000000e+00" cType="1" res="-2.2038477472960949e-03" rms="3.8101187348365784e-01" purity="2.0244246721267700e-01" nType="-99"/>
        </Node>
        <Node pos="r" depth="1" NCoef="0" IVar="1" Cut="5.6361395263671875e+02" cType="1" res="4.5910449698567390e-03" rms="4.5046427845954895e-01" purity="5.6601667404174805e-01" nType="0">
          <Node pos="l" depth="2" NCoef="0" IVar="-1" Cut="0.0000000000000000e+00" cType="1" res="4.9738067900761962e-04" rms="4.4646251201629639e-01" purity="5.6681412458419800e-01" nType="-99"/>
          <Node pos="r" depth="2" NCoef="0" IVar="-1" Cut="0.0000000000000000e+00" cType="1" res="-1.5756495995447040e-03" rms="4.6049320697784424e-01" purity="5.6260734796524048e-01" nType="-99"/>
        </Node>
      </Node>
    </BinaryTree>
    <BinaryTree type="DecisionTree" boostWeight="1.0000000000000000e+00" itree="537">
      <Node pos="s" depth="0" NCoef="0" IVar="4" Cut="4.2562005615234375e+02" cType="1" res="-4.5298589393496513e-03" rms="4.3952244520187378e-01" purity="5.1608473062515259e-01" nType="0">
        <Node pos="l" depth="1" NCoef="0" IVar="5" Cut="4.8099411010742188e+02" cType="1" res="6.8910224363207817e-03" rms="4.4048708677291870e-01" purity="5.4309844970703125e-01" nType="0">
          <Node pos="l" depth="2" NCoef="0" IVar="-1" Cut="0.0000000000000000e+00" cType="1" res="-8.0407160567119718e-04" rms="4.3859729170799255e-01" purity="4.0900644659996033e-01" nType="-99"/>
          <Node pos="r" depth="2" NCoef="0" IVar="-1" Cut="0.0000000000000000e+00" cType="1" res="1.1965018929913640e-03" rms="4.3822345137596130e-01" purity="6.4322346448898315e-01" nType="-99"/>
        </Node>
        <Node pos="r" depth="1" NCoef="0" IVar="-1" Cut="0.0000000000000000e+00" cType="1" res="-1.8897316185757518e-03" rms="4.1975140571594238e-01" purity="2.9294976592063904e-01" nType="-99"/>
      </Node>
    </BinaryTree>
    <BinaryTree type="DecisionTree" boostWeight="1.0000000000000000e+00" itree="538">
      <Node pos="s" depth="0" NCoef="0" IVar="6" Cut="1.5136581420898438e+02" cType="1" res="-2.2267127409577370e-02" rms="4.4390791654586792e-01" purity="4.9676203727722168e-01" nType="0">
        <Node pos="l" depth="1" NCoef="0" IVar="0" Cut="4.6674033999443054e-01" cType="1" res="-9.1738635674118996e-03" rms="4.3891456723213196e-01" purity="5.0684171915054321e-01" nType="0">
          <Node pos="l" depth="2" NCoef="0" IVar="-1" Cut="0.0000000000000000e+00" cType="1" res="-2.9595000669360161e-03" rms="4.7542566061019897e-01" purity="5.4734855890274048e-01" nType="-99"/>
          <Node pos="r" depth="2" NCoef="0" IVar="-1" Cut="0.0000000000000000e+00" cType="1" res="-9.2788150141132064e-06" rms="4.3485966324806213e-01" purity="5.0392293930053711e-01" nType="-99"/>
        </Node>
        <Node pos="r" depth="1" NCoef="0" IVar="-1" Cut="0.0000000000000000e+00" cType="1" res="-3.7678522057831287e-03" rms="4.7213807702064514e-01" purity="3.5850188136100769e-01" nType="-99"/>
      </Node>
    </BinaryTree>
    <BinaryTree type="DecisionTree" boostWeight="1.0000000000000000e+00" itree="539">
      <Node pos="s" depth="0" NCoef="0" IVar="3" Cut="1.3031269836425781e+02" cType="1" res="-1.9974140450358391e-02" rms="4.3396276235580444e-01" purity="4.8354715108871460e-01" nType="0">
        <Node pos="l" depth="1" NCoef="0" IVar="0" Cut="6.2555837631225586e-01" cType="1" res="2.5730181951075792e-03" rms="4.3216040730476379e-01" purity="5.1878118515014648e-01" nType="0">
          <Node pos="l" depth="2" NCoef="0" IVar="-1" Cut="0.0000000000000000e+00" cType="1" res="3.6407213192433119e-03" rms="3.6115923523902893e-01" purity="7.9884493350982666e-01" nType="-99"/>
          <Node pos="r" depth="2" NCoef="0" IVar="-1" Cut="0.0000000000000000e+00" cType="1" res="-3.4687118022702634e-04" rms="4.4003888964653015e-01" purity="4.7218778729438782e-01" nType="-99"/>
        </Node>
        <Node pos="r" depth="1" NCoef="0" IVar="8" Cut="1.9936537742614746e+00" cType="1" res="-7.5173616409301758e-02" rms="4.3342113494873047e-01" purity="3.9728790521621704e-01" nType="0">
          <Node pos="l" depth="2" NCoef="0" IVar="-1" Cut="0.0000000000000000e+00" cType="1" res="-3.0981432646512985e-03" rms="4.7885203361511230e-01" purity="4.2162296175956726e-01" nType="-99"/>
          <Node pos="r" depth="2" NCoef="0" IVar="-1" Cut="0.0000000000000000e+00" cType="1" res="-8.8277040049433708e-04" rms="4.1371166706085205e-01" purity="3.8959443569183350e-01" nType="-99"/>
        </Node>
      </Node>
    </BinaryTree>
    <BinaryTree type="DecisionTree" boostWeight="1.0000000000000000e+00" itree="540">
      <Node pos="s" depth="0" NCoef="0" IVar="6" Cut="7.1884788513183594e+01" cType="1" res="-9.8778875544667244e-03" rms="4.2729213833808899e-01" purity="4.9835303425788879e-01" nType="0">
        <Node pos="l" depth="1" NCoef="0" IVar="8" Cut="1.8718136548995972e+00" cType="1" res="-4.6746432781219482e-02" rms="4.4218027591705322e-01" purity="4.2491412162780762e-01" nType="0">
          <Node pos="l" depth="2" NCoef="0" IVar="-1" Cut="0.0000000000000000e+00" cType="1" res="5.7293276768177748e-04" rms="4.5704969763755798e-01" purity="5.7679319381713867e-01" nType="-99"/>
          <Node pos="r" depth="2" NCoef="0" IVar="-1" Cut="0.0000000000000000e+00" cType="1" res="-1.2067835777997971e-03" rms="4.3666216731071472e-01" purity="3.8808661699295044e-01" nType="-99"/>
        </Node>
        <Node pos="r" depth="1" NCoef="0" IVar="0" Cut="1.4287276268005371e+00" cType="1" res="2.4981671944260597e-02" rms="4.0968126058578491e-01" purity="5.6779032945632935e-01" nType="0">
          <Node pos="l" depth="2" NCoef="0" IVar="-1" Cut="0.0000000000000000e+00" cType="1" res="1.4279496390372515e-03" rms="4.1526433825492859e-01" purity="6.8215495347976685e-01" nType="-99"/>
          <Node pos="r" depth="2" NCoef="0" IVar="-1" Cut="0.0000000000000000e+00" cType="1" res="-8.6006021592766047e-04" rms="3.8309827446937561e-01" purity="2.2252851724624634e-01" nType="-99"/>
        </Node>
      </Node>
    </BinaryTree>
    <BinaryTree type="DecisionTree" boostWeight="1.0000000000000000e+00" itree="541">
      <Node pos="s" depth="0" NCoef="0" IVar="2" Cut="9.2714911699295044e-01" cType="1" res="-2.1625824738293886e-03" rms="4.3611007928848267e-01" purity="5.0485241413116455e-01" nType="0">
        <Node pos="l" depth="1" NCoef="0" IVar="2" Cut="9.1798067092895508e-01" cType="1" res="-6.6405907273292542e-02" rms="4.0597730875015259e-01" purity="2.5290662050247192e-01" nType="0">
          <Node pos="l" depth="2" NCoef="0" IVar="-1" Cut="0.0000000000000000e+00" cType="1" res="-1.7905160348163918e-05" rms="4.2299476265907288e-01" purity="3.0661544203758240e-01" nType="-99"/>
          <Node pos="r" depth="2" NCoef="0" IVar="-1" Cut="0.0000000000000000e+00" cType="1" res="-1.9948016852140427e-03" rms="3.7908285856246948e-01" purity="2.0231293141841888e-01" nType="-99"/>
        </Node>
        <Node pos="r" depth="1" NCoef="0" IVar="7" Cut="7.8681141138076782e-02" cType="1" res="1.4489200897514820e-02" rms="4.4206556677818298e-01" purity="5.7015639543533325e-01" nType="0">
          <Node pos="l" depth="2" NCoef="0" IVar="-1" Cut="0.0000000000000000e+00" cType="1" res="-3.7603557575494051e-04" rms="4.3662276864051819e-01" purity="4.7817677259445190e-01" nType="-99"/>
          <Node pos="r" depth="2" NCoef="0" IVar="-1" Cut="0.0000000000000000e+00" cType="1" res="1.1567051988095045e-03" rms="4.4484084844589233e-01" purity="6.5118241310119629e-01" nType="-99"/>
        </Node>
      </Node>
    </BinaryTree>
    <BinaryTree type="DecisionTree" boostWeight="1.0000000000000000e+00" itree="542">
      <Node pos="s" depth="0" NCoef="0" IVar="0" Cut="1.4514617919921875e+00" cType="1" res="-6.9913361221551895e-03" rms="4.2938789725303650e-01" purity="4.9916952848434448e-01" nType="0">
        <Node pos="l" depth="1" NCoef="0" IVar="3" Cut="1.0533341979980469e+02" cType="1" res="1.1748614721000195e-02" rms="4.4287741184234619e-01" purity="5.7429146766662598e-01" nType="0">
          <Node pos="l" depth="2" NCoef="0" IVar="-1" Cut="0.0000000000000000e+00" cType="1" res="-1.5020654536783695e-03" rms="4.3839958310127258e-01" purity="3.8097628951072693e-01" nType="-99"/>
          <Node pos="r" depth="2" NCoef="0" IVar="-1" Cut="0.0000000000000000e+00" cType="1" res="5.3878279868513346e-04" rms="4.4202402234077454e-01" purity="5.9613084793090820e-01" nType="-99"/>
        </Node>
        <Node pos="r" depth="1" NCoef="0" IVar="3" Cut="1.2434868621826172e+02" cType="1" res="-9.0470172464847565e-02" rms="3.5132062435150146e-01" purity="1.6453185677528381e-01" nType="0">
          <Node pos="l" depth="2" NCoef="0" IVar="-1" Cut="0.0000000000000000e+00" cType="1" res="-9.8153506405651569e-04" rms="3.6926236748695374e-01" purity="1.9372543692588806e-01" nType="-99"/>
          <Node pos="r" depth="2" NCoef="0" IVar="-1" Cut="0.0000000000000000e+00" cType="1" res="-2.0258687436580658e-03" rms="3.3084905147552490e-01" purity="1.3845340907573700e-01" nType="-99"/>
        </Node>
      </Node>
    </BinaryTree>
    <BinaryTree type="DecisionTree" boostWeight="1.0000000000000000e+00" itree="543">
      <Node pos="s" depth="0" NCoef="0" IVar="8" Cut="1.7006680965423584e+00" cType="1" res="-1.3181777670979500e-02" rms="4.4168710708618164e-01" purity="5.0526767969131470e-01" nType="0">
        <Node pos="l" depth="1" NCoef="0" IVar="-1" Cut="0.0000000000000000e+00" cType="1" res="-2.8391450177878141e-03" rms="4.4850048422813416e-01" purity="4.1601496934890747e-01" nType="-99"/>
        <Node pos="r" depth="1" NCoef="0" IVar="3" Cut="1.0145034027099609e+02" cType="1" res="-2.7219874318689108e-03" rms="4.3930554389953613e-01" purity="5.1150882244110107e-01" nType="0">
          <Node pos="l" depth="2" NCoef="0" IVar="-1" Cut="0.0000000000000000e+00" cType="1" res="-2.2710470948368311e-03" rms="4.0927308797836304e-01" purity="2.6093122363090515e-01" nType="-99"/>
          <Node pos="r" depth="2" NCoef="0" IVar="-1" Cut="0.0000000000000000e+00" cType="1" res="2.0693105761893094e-04" rms="4.3949067592620850e-01" purity="5.3141236305236816e-01" nType="-99"/>
        </Node>
      </Node>
    </BinaryTree>
    <BinaryTree type="DecisionTree" boostWeight="1.0000000000000000e+00" itree="544">
      <Node pos="s" depth="0" NCoef="0" IVar="0" Cut="1.4752266407012939e+00" cType="1" res="3.2751148100942373e-03" rms="4.3328082561492920e-01" purity="5.0934678316116333e-01" nType="0">
        <Node pos="l" depth="1" NCoef="0" IVar="3" Cut="1.3045545959472656e+02" cType="1" res="2.1587496623396873e-02" rms="4.4695210456848145e-01" purity="5.8591878414154053e-01" nType="0">
          <Node pos="l" depth="2" NCoef="0" IVar="-1" Cut="0.0000000000000000e+00" cType="1" res="1.0915179736912251e-03" rms="4.4345277547836304e-01" purity="6.1968874931335449e-01" nType="-99"/>
          <Node pos="r" depth="2" NCoef="0" IVar="-1" Cut="0.0000000000000000e+00" cType="1" res="-7.5585331069305539e-04" rms="4.5061114430427551e-01" purity="5.0044089555740356e-01" nType="-99"/>
        </Node>
        <Node pos="r" depth="1" NCoef="0" IVar="6" Cut="9.2034210205078125e+01" cType="1" res="-7.7638246119022369e-02" rms="3.5571300983428955e-01" purity="1.7101317644119263e-01" nType="0">
          <Node pos="l" depth="2" NCoef="0" IVar="-1" Cut="0.0000000000000000e+00" cType="1" res="-2.0320280455052853e-03" rms="2.9902854561805725e-01" purity="1.1204384267330170e-01" nType="-99"/>
          <Node pos="r" depth="2" NCoef="0" IVar="-1" Cut="0.0000000000000000e+00" cType="1" res="-5.4778275080025196e-04" rms="4.1644304990768433e-01" purity="2.5203523039817810e-01" nType="-99"/>
        </Node>
      </Node>
    </BinaryTree>
    <BinaryTree type="DecisionTree" boostWeight="1.0000000000000000e+00" itree="545">
      <Node pos="s" depth="0" NCoef="0" IVar="5" Cut="7.5826104736328125e+02" cType="1" res="-1.7073608934879303e-02" rms="4.3999853730201721e-01" purity="4.8933112621307373e-01" nType="0">
        <Node pos="l" depth="1" NCoef="0" IVar="0" Cut="1.0348247289657593e+00" cType="1" res="-2.8528422117233276e-02" rms="4.4124913215637207e-01" purity="4.6537959575653076e-01" nType="0">
          <Node pos="l" depth="2" NCoef="0" IVar="-1" Cut="0.0000000000000000e+00" cType="1" res="2.5506649762974121e-05" rms="4.5052653551101685e-01" purity="6.3051003217697144e-01" nType="-99"/>
          <Node pos="r" depth="2" NCoef="0" IVar="-1" Cut="0.0000000000000000e+00" cType="1" res="-1.0133780306205153e-03" rms="4.3008118867874146e-01" purity="3.0465504527091980e-01" nType="-99"/>
        </Node>
        <Node pos="r" depth="1" NCoef="0" IVar="2" Cut="9.6314549446105957e-01" cType="1" res="4.7874800860881805e-02" rms="4.2706885933876038e-01" purity="6.2513554096221924e-01" nType="0">
          <Node pos="l" depth="2" NCoef="0" IVar="-1" Cut="0.0000000000000000e+00" cType="1" res="2.2677837405353785e-03" rms="4.1739758849143982e-01" purity="6.0231757164001465e-01" nType="-99"/>
          <Node pos="r" depth="2" NCoef="0" IVar="-1" Cut="0.0000000000000000e+00" cType="1" res="-1.3278516707941890e-03" rms="4.3202292919158936e-01" purity="6.6981095075607300e-01" nType="-99"/>
        </Node>
      </Node>
    </BinaryTree>
    <BinaryTree type="DecisionTree" boostWeight="1.0000000000000000e+00" itree="546">
      <Node pos="s" depth="0" NCoef="0" IVar="4" Cut="3.4907916259765625e+02" cType="1" res="-4.8994072712957859e-03" rms="4.3211933970451355e-01" purity="5.0290161371231079e-01" nType="0">
        <Node pos="l" depth="1" NCoef="0" IVar="1" Cut="6.0099755859375000e+02" cType="1" res="1.3466159813106060e-02" rms="4.3772485852241516e-01" purity="5.5002510547637939e-01" nType="0">
          <Node pos="l" depth="2" NCoef="0" IVar="-1" Cut="0.0000000000000000e+00" cType="1" res="1.2564061762532219e-05" rms="4.4371524453163147e-01" purity="5.2663975954055786e-01" nType="-99"/>
          <Node pos="r" depth="2" NCoef="0" IVar="-1" Cut="0.0000000000000000e+00" cType="1" res="8.4740286692976952e-03" rms="2.9687052965164185e-01" purity="8.6484175920486450e-01" nType="-99"/>
        </Node>
        <Node pos="r" depth="1" NCoef="0" IVar="3" Cut="1.2306363677978516e+02" cType="1" res="-8.0513246357440948e-02" rms="3.9943212270736694e-01" purity="3.0888706445693970e-01" nType="0">
          <Node pos="l" depth="2" NCoef="0" IVar="-1" Cut="0.0000000000000000e+00" cType="1" res="-2.0946615841239691e-03" rms="3.9610683917999268e-01" purity="2.6028481125831604e-01" nType="-99"/>
          <Node pos="r" depth="2" NCoef="0" IVar="-1" Cut="0.0000000000000000e+00" cType="1" res="-7.7908049570396543e-04" rms="3.9819678664207458e-01" purity="3.5659337043762207e-01" nType="-99"/>
        </Node>
      </Node>
    </BinaryTree>
    <BinaryTree type="DecisionTree" boostWeight="1.0000000000000000e+00" itree="547">
      <Node pos="s" depth="0" NCoef="0" IVar="4" Cut="3.1128277587890625e+02" cType="1" res="-1.8572153523564339e-02" rms="4.3644964694976807e-01" purity="4.9172270298004150e-01" nType="0">
        <Node pos="l" depth="1" NCoef="0" IVar="4" Cut="1.3724949645996094e+02" cType="1" res="9.4334821915253997e-04" rms="4.4165682792663574e-01" purity="5.3923189640045166e-01" nType="0">
          <Node pos="l" depth="2" NCoef="0" IVar="-1" Cut="0.0000000000000000e+00" cType="1" res="-1.4424169203266501e-03" rms="4.5257201790809631e-01" purity="4.2470228672027588e-01" nType="-99"/>
          <Node pos="r" depth="2" NCoef="0" IVar="-1" Cut="0.0000000000000000e+00" cType="1" res="4.1677782428450882e-04" rms="4.3734028935432434e-01" purity="5.6380796432495117e-01" nType="-99"/>
        </Node>
        <Node pos="r" depth="1" NCoef="0" IVar="8" Cut="2.1037518978118896e+00" cType="1" res="-8.2215838134288788e-02" rms="4.1265496611595154e-01" purity="3.3678665757179260e-01" nType="0">
          <Node pos="l" depth="2" NCoef="0" IVar="-1" Cut="0.0000000000000000e+00" cType="1" res="-3.3519456628710032e-03" rms="4.6721377968788147e-01" purity="4.1410806775093079e-01" nType="-99"/>
          <Node pos="r" depth="2" NCoef="0" IVar="-1" Cut="0.0000000000000000e+00" cType="1" res="-8.3459500456228852e-04" rms="3.8154456019401550e-01" purity="3.0611884593963623e-01" nType="-99"/>
        </Node>
      </Node>
    </BinaryTree>
    <BinaryTree type="DecisionTree" boostWeight="1.0000000000000000e+00" itree="548">
      <Node pos="s" depth="0" NCoef="0" IVar="1" Cut="4.6380877685546875e+02" cType="1" res="-1.9153162837028503e-02" rms="4.3924039602279663e-01" purity="4.9269342422485352e-01" nType="0">
        <Node pos="l" depth="1" NCoef="0" IVar="8" Cut="1.9031952619552612e+00" cType="1" res="2.7054284146288410e-05" rms="4.3678438663482666e-01" purity="4.8629176616668701e-01" nType="0">
          <Node pos="l" depth="2" NCoef="0" IVar="-1" Cut="0.0000000000000000e+00" cType="1" res="2.9732517432421446e-03" rms="4.2977786064147949e-01" purity="6.9219881296157837e-01" nType="-99"/>
          <Node pos="r" depth="2" NCoef="0" IVar="-1" Cut="0.0000000000000000e+00" cType="1" res="-3.2303971238434315e-04" rms="4.3555694818496704e-01" purity="4.5564368367195129e-01" nType="-99"/>
        </Node>
        <Node pos="r" depth="1" NCoef="0" IVar="5" Cut="8.3275433349609375e+02" cType="1" res="-6.0395445674657822e-02" rms="4.4166332483291626e-01" purity="5.0645852088928223e-01" nType="0">
          <Node pos="l" depth="2" NCoef="0" IVar="-1" Cut="0.0000000000000000e+00" cType="1" res="-1.9724280573427677e-03" rms="4.3824699521064758e-01" purity="4.4850310683250427e-01" nType="-99"/>
          <Node pos="r" depth="2" NCoef="0" IVar="-1" Cut="0.0000000000000000e+00" cType="1" res="7.8951445175334811e-04" rms="4.3790835142135620e-01" purity="6.5460646152496338e-01" nType="-99"/>
        </Node>
      </Node>
    </BinaryTree>
    <BinaryTree type="DecisionTree" boostWeight="1.0000000000000000e+00" itree="549">
      <Node pos="s" depth="0" NCoef="0" IVar="4" Cut="4.0464324951171875e+02" cType="1" res="-2.2786678746342659e-02" rms="4.4107994437217712e-01" purity="4.9434787034988403e-01" nType="0">
        <Node pos="l" depth="1" NCoef="0" IVar="4" Cut="1.3405667114257812e+02" cType="1" res="-1.4596402645111084e-02" rms="4.4584459066390991e-01" purity="5.2086299657821655e-01" nType="0">
          <Node pos="l" depth="2" NCoef="0" IVar="-1" Cut="0.0000000000000000e+00" cType="1" res="-1.5919563593342900e-03" rms="4.6152496337890625e-01" purity="4.1414999961853027e-01" nType="-99"/>
          <Node pos="r" depth="2" NCoef="0" IVar="-1" Cut="0.0000000000000000e+00" cType="1" res="-6.1508129874709994e-05" rms="4.4208568334579468e-01" purity="5.3848397731781006e-01" nType="-99"/>
        </Node>
        <Node pos="r" depth="1" NCoef="0" IVar="-1" Cut="0.0000000000000000e+00" cType="1" res="-1.5641960781067610e-03" rms="3.9774513244628906e-01" purity="2.9358586668968201e-01" nType="-99"/>
      </Node>
    </BinaryTree>
    <BinaryTree type="DecisionTree" boostWeight="1.0000000000000000e+00" itree="550">
      <Node pos="s" depth="0" NCoef="0" IVar="7" Cut="1.9280035793781281e-01" cType="1" res="-2.3829113692045212e-02" rms="4.3750432133674622e-01" purity="4.8258998990058899e-01" nType="0">
        <Node pos="l" depth="1" NCoef="0" IVar="3" Cut="1.4323150634765625e+02" cType="1" res="-3.4227184951305389e-02" rms="4.3822717666625977e-01" purity="4.6150389313697815e-01" nType="0">
          <Node pos="l" depth="2" NCoef="0" IVar="-1" Cut="0.0000000000000000e+00" cType="1" res="-5.3850689437240362e-04" rms="4.4239374995231628e-01" purity="4.8106080293655396e-01" nType="-99"/>
          <Node pos="r" depth="2" NCoef="0" IVar="-1" Cut="0.0000000000000000e+00" cType="1" res="-1.9046317320317030e-03" rms="3.9365082979202271e-01" purity="2.9717814922332764e-01" nType="-99"/>
        </Node>
        <Node pos="r" depth="1" NCoef="0" IVar="-1" Cut="0.0000000000000000e+00" cType="1" res="1.9485349766910076e-03" rms="4.1871023178100586e-01" purity="6.7752295732498169e-01" nType="-99"/>
      </Node>
    </BinaryTree>
    <BinaryTree type="DecisionTree" boostWeight="1.0000000000000000e+00" itree="551">
      <Node pos="s" depth="0" NCoef="0" IVar="2" Cut="9.4605976343154907e-01" cType="1" res="-1.7962805926799774e-02" rms="4.3580415844917297e-01" purity="4.9423027038574219e-01" nType="0">
        <Node pos="l" depth="1" NCoef="0" IVar="4" Cut="3.6599795532226562e+02" cType="1" res="-5.6516960263252258e-02" rms="4.3624520301818848e-01" purity="3.2864722609519958e-01" nType="0">
          <Node pos="l" depth="2" NCoef="0" IVar="-1" Cut="0.0000000000000000e+00" cType="1" res="-6.2075292225927114e-04" rms="4.5019701123237610e-01" purity="3.6923748254776001e-01" nType="-99"/>
          <Node pos="r" depth="2" NCoef="0" IVar="-1" Cut="0.0000000000000000e+00" cType="1" res="-2.4281854275614023e-03" rms="3.6251035332679749e-01" purity="1.6432431340217590e-01" nType="-99"/>
        </Node>
        <Node pos="r" depth="1" NCoef="0" IVar="3" Cut="1.0819899749755859e+02" cType="1" res="1.4042076654732227e-02" rms="4.3283686041831970e-01" purity="6.3168531656265259e-01" nType="0">
          <Node pos="l" depth="2" NCoef="0" IVar="-1" Cut="0.0000000000000000e+00" cType="1" res="-1.5335339121520519e-03" rms="4.4992968440055847e-01" purity="4.6003875136375427e-01" nType="-99"/>
          <Node pos="r" depth="2" NCoef="0" IVar="-1" Cut="0.0000000000000000e+00" cType="1" res="7.6017767423763871e-04" rms="4.2872589826583862e-01" purity="6.5713477134704590e-01" nType="-99"/>
        </Node>
      </Node>
    </BinaryTree>
    <BinaryTree type="DecisionTree" boostWeight="1.0000000000000000e+00" itree="552">
      <Node pos="s" depth="0" NCoef="0" IVar="1" Cut="3.8943829345703125e+02" cType="1" res="-1.5170447528362274e-02" rms="4.3460378050804138e-01" purity="4.9083143472671509e-01" nType="0">
        <Node pos="l" depth="1" NCoef="0" IVar="2" Cut="9.6189618110656738e-01" cType="1" res="-4.7227360308170319e-02" rms="4.2959433794021606e-01" purity="4.0855979919433594e-01" nType="0">
          <Node pos="l" depth="2" NCoef="0" IVar="-1" Cut="0.0000000000000000e+00" cType="1" res="-1.2639557244256139e-03" rms="4.2492285370826721e-01" purity="3.1879216432571411e-01" nType="-99"/>
          <Node pos="r" depth="2" NCoef="0" IVar="-1" Cut="0.0000000000000000e+00" cType="1" res="5.1931355847045779e-04" rms="4.3406197428703308e-01" purity="6.3445270061492920e-01" nType="-99"/>
        </Node>
        <Node pos="r" depth="1" NCoef="0" IVar="4" Cut="4.4159405517578125e+02" cType="1" res="1.7063982784748077e-02" rms="4.3721979856491089e-01" purity="5.7355868816375732e-01" nType="0">
          <Node pos="l" depth="2" NCoef="0" IVar="-1" Cut="0.0000000000000000e+00" cType="1" res="9.8350050393491983e-04" rms="4.4051629304885864e-01" purity="6.3571757078170776e-01" nType="-99"/>
          <Node pos="r" depth="2" NCoef="0" IVar="-1" Cut="0.0000000000000000e+00" cType="1" res="-1.2699904618784785e-03" rms="4.1136714816093445e-01" purity="2.9905572533607483e-01" nType="-99"/>
        </Node>
      </Node>
    </BinaryTree>
    <BinaryTree type="DecisionTree" boostWeight="1.0000000000000000e+00" itree="553">
      <Node pos="s" depth="0" NCoef="0" IVar="4" Cut="2.8475268554687500e+02" cType="1" res="-2.2523047402501106e-02" rms="4.3627735972404480e-01" purity="4.8875081539154053e-01" nType="0">
        <Node pos="l" depth="1" NCoef="0" IVar="5" Cut="4.8099411010742188e+02" cType="1" res="-3.8689179345965385e-03" rms="4.3726283311843872e-01" purity="5.3135186433792114e-01" nType="0">
          <Node pos="l" depth="2" NCoef="0" IVar="-1" Cut="0.0000000000000000e+00" cType="1" res="-1.1262043844908476e-03" rms="4.3662661314010620e-01" purity="4.0487113595008850e-01" nType="-99"/>
          <Node pos="r" depth="2" NCoef="0" IVar="-1" Cut="0.0000000000000000e+00" cType="1" res="1.1858807411044836e-03" rms="4.3185991048812866e-01" purity="6.4155131578445435e-01" nType="-99"/>
        </Node>
        <Node pos="r" depth="1" NCoef="0" IVar="0" Cut="1.2347080707550049e+00" cType="1" res="-7.3087900876998901e-02" rms="4.2953979969024658e-01" purity="3.7327402830123901e-01" nType="0">
          <Node pos="l" depth="2" NCoef="0" IVar="-1" Cut="0.0000000000000000e+00" cType="1" res="-2.4509304203093052e-03" rms="4.5045974850654602e-01" purity="4.8339751362800598e-01" nType="-99"/>
          <Node pos="r" depth="2" NCoef="0" IVar="-1" Cut="0.0000000000000000e+00" cType="1" res="-4.5559892896562815e-04" rms="4.0163907408714294e-01" purity="2.6372054219245911e-01" nType="-99"/>
        </Node>
      </Node>
    </BinaryTree>
    <BinaryTree type="DecisionTree" boostWeight="1.0000000000000000e+00" itree="554">
      <Node pos="s" depth="0" NCoef="0" IVar="0" Cut="1.4410302639007568e+00" cType="1" res="-9.1986749321222305e-03" rms="4.3228641152381897e-01" purity="4.9713376164436340e-01" nType="0">
        <Node pos="l" depth="1" NCoef="0" IVar="6" Cut="1.4463522338867188e+02" cType="1" res="5.2523110061883926e-03" rms="4.4536623358726501e-01" purity="5.7047092914581299e-01" nType="0">
          <Node pos="l" depth="2" NCoef="0" IVar="-1" Cut="0.0000000000000000e+00" cType="1" res="3.5553329507820308e-04" rms="4.4465750455856323e-01" purity="5.7887184619903564e-01" nType="-99"/>
          <Node pos="r" depth="2" NCoef="0" IVar="-1" Cut="0.0000000000000000e+00" cType="1" res="-2.2683613933622837e-03" rms="4.3492090702056885e-01" purity="4.6722775697708130e-01" nType="-99"/>
        </Node>
        <Node pos="r" depth="1" NCoef="0" IVar="5" Cut="5.5691967773437500e+02" cType="1" res="-7.1772903203964233e-02" rms="3.6379128694534302e-01" purity="1.7957626283168793e-01" nType="0">
          <Node pos="l" depth="2" NCoef="0" IVar="-1" Cut="0.0000000000000000e+00" cType="1" res="-2.0900103263556957e-03" rms="3.1031206250190735e-01" purity="1.1916150897741318e-01" nType="-99"/>
          <Node pos="r" depth="2" NCoef="0" IVar="-1" Cut="0.0000000000000000e+00" cType="1" res="-7.2089293098542839e-05" rms="4.2005974054336548e-01" purity="2.6668888330459595e-01" nType="-99"/>
        </Node>
      </Node>
    </BinaryTree>
    <BinaryTree type="DecisionTree" boostWeight="1.0000000000000000e+00" itree="555">
      <Node pos="s" depth="0" NCoef="0" IVar="7" Cut="1.7796371877193451e-01" cType="1" res="-3.3290680497884750e-02" rms="4.3605571985244751e-01" purity="4.7483557462692261e-01" nType="0">
        <Node pos="l" depth="1" NCoef="0" IVar="6" Cut="4.1848106384277344e+01" cType="1" res="-4.8214104026556015e-02" rms="4.3291774392127991e-01" purity="4.4140160083770752e-01" nType="0">
          <Node pos="l" depth="2" NCoef="0" IVar="-1" Cut="0.0000000000000000e+00" cType="1" res="-2.1220913622528315e-03" rms="4.3142458796501160e-01" purity="2.8569719195365906e-01" nType="-99"/>
          <Node pos="r" depth="2" NCoef="0" IVar="-1" Cut="0.0000000000000000e+00" cType="1" res="-7.4317457620054483e-04" rms="4.3172430992126465e-01" purity="4.6553140878677368e-01" nType="-99"/>
        </Node>
        <Node pos="r" depth="1" NCoef="0" IVar="8" Cut="2.1115438938140869e+00" cType="1" res="6.6482789814472198e-02" rms="4.4376975297927856e-01" purity="6.9836497306823730e-01" nType="0">
          <Node pos="l" depth="2" NCoef="0" IVar="-1" Cut="0.0000000000000000e+00" cType="1" res="4.8917676322162151e-03" rms="3.9972987771034241e-01" purity="7.9737359285354614e-01" nType="-99"/>
          <Node pos="r" depth="2" NCoef="0" IVar="-1" Cut="0.0000000000000000e+00" cType="1" res="-4.7972900210879743e-04" rms="4.8125758767127991e-01" purity="5.6939178705215454e-01" nType="-99"/>
        </Node>
      </Node>
    </BinaryTree>
    <BinaryTree type="DecisionTree" boostWeight="1.0000000000000000e+00" itree="556">
      <Node pos="s" depth="0" NCoef="0" IVar="8" Cut="2.4567599296569824e+00" cType="1" res="1.2731666676700115e-02" rms="4.3516260385513306e-01" purity="5.2839744091033936e-01" nType="0">
        <Node pos="l" depth="1" NCoef="0" IVar="3" Cut="1.1105148315429688e+02" cType="1" res="2.9202263802289963e-02" rms="4.4534987211227417e-01" purity="6.0396540164947510e-01" nType="0">
          <Node pos="l" depth="2" NCoef="0" IVar="-1" Cut="0.0000000000000000e+00" cType="1" res="-9.2786661116406322e-04" rms="4.7495713829994202e-01" purity="4.7413864731788635e-01" nType="-99"/>
          <Node pos="r" depth="2" NCoef="0" IVar="-1" Cut="0.0000000000000000e+00" cType="1" res="1.1274372227489948e-03" rms="4.3730470538139343e-01" purity="6.3078153133392334e-01" nType="-99"/>
        </Node>
        <Node pos="r" depth="1" NCoef="0" IVar="7" Cut="4.7754779458045959e-02" cType="1" res="-5.2426498383283615e-02" rms="3.8543748855590820e-01" purity="2.2944819927215576e-01" nType="0">
          <Node pos="l" depth="2" NCoef="0" IVar="-1" Cut="0.0000000000000000e+00" cType="1" res="-2.0657759159803391e-04" rms="3.8168343901634216e-01" purity="2.3767571151256561e-01" nType="-99"/>
          <Node pos="r" depth="2" NCoef="0" IVar="-1" Cut="0.0000000000000000e+00" cType="1" res="-1.4321762137115002e-03" rms="3.8536134362220764e-01" purity="2.2421243786811829e-01" nType="-99"/>
        </Node>
      </Node>
    </BinaryTree>
    <BinaryTree type="DecisionTree" boostWeight="1.0000000000000000e+00" itree="557">
      <Node pos="s" depth="0" NCoef="0" IVar="0" Cut="4.3856656551361084e-01" cType="1" res="4.3245792039670050e-04" rms="4.4002869725227356e-01" purity="5.1493263244628906e-01" nType="0">
        <Node pos="l" depth="1" NCoef="0" IVar="-1" Cut="0.0000000000000000e+00" cType="1" res="-3.6192906554788351e-03" rms="4.7580224275588989e-01" purity="5.0368088483810425e-01" nType="-99"/>
        <Node pos="r" depth="1" NCoef="0" IVar="3" Cut="1.0763102722167969e+02" cType="1" res="9.7995307296514511e-03" rms="4.3604192137718201e-01" purity="5.1557016372680664e-01" nType="0">
          <Node pos="l" depth="2" NCoef="0" IVar="-1" Cut="0.0000000000000000e+00" cType="1" res="-1.7334322910755873e-03" rms="4.2490378022193909e-01" purity="3.1298175454139709e-01" nType="-99"/>
          <Node pos="r" depth="2" NCoef="0" IVar="-1" Cut="0.0000000000000000e+00" cType="1" res="6.3507672166451812e-04" rms="4.3542888760566711e-01" purity="5.4887402057647705e-01" nType="-99"/>
        </Node>
      </Node>
    </BinaryTree>
    <BinaryTree type="DecisionTree" boostWeight="1.0000000000000000e+00" itree="558">
      <Node pos="s" depth="0" NCoef="0" IVar="7" Cut="1.1647970974445343e-01" cType="1" res="-8.5748638957738876e-03" rms="4.4078451395034790e-01" purity="5.0674062967300415e-01" nType="0">
        <Node pos="l" depth="1" NCoef="0" IVar="2" Cut="9.5200645923614502e-01" cType="1" res="-3.4458171576261520e-02" rms="4.4596162438392639e-01" purity="4.4611322879791260e-01" nType="0">
          <Node pos="l" depth="2" NCoef="0" IVar="-1" Cut="0.0000000000000000e+00" cType="1" res="-1.6089301425381564e-05" rms="4.3154102563858032e-01" purity="3.6742886900901794e-01" nType="-99"/>
          <Node pos="r" depth="2" NCoef="0" IVar="-1" Cut="0.0000000000000000e+00" cType="1" res="-1.5482347225770354e-03" rms="4.5770144462585449e-01" purity="5.2661007642745972e-01" nType="-99"/>
        </Node>
        <Node pos="r" depth="1" NCoef="0" IVar="8" Cut="1.9501597881317139e+00" cType="1" res="5.3037475794553757e-02" rms="4.2186769843101501e-01" purity="6.5105730295181274e-01" nType="0">
          <Node pos="l" depth="2" NCoef="0" IVar="-1" Cut="0.0000000000000000e+00" cType="1" res="4.5057921670377254e-03" rms="3.7940651178359985e-01" purity="7.8326958417892456e-01" nType="-99"/>
          <Node pos="r" depth="2" NCoef="0" IVar="-1" Cut="0.0000000000000000e+00" cType="1" res="5.8661273214966059e-04" rms="4.3054258823394775e-01" purity="6.0925579071044922e-01" nType="-99"/>
        </Node>
      </Node>
    </BinaryTree>
    <BinaryTree type="DecisionTree" boostWeight="1.0000000000000000e+00" itree="559">
      <Node pos="s" depth="0" NCoef="0" IVar="7" Cut="2.0980085432529449e-01" cType="1" res="-2.0894661545753479e-02" rms="4.4014236330986023e-01" purity="4.9277341365814209e-01" nType="0">
        <Node pos="l" depth="1" NCoef="0" IVar="6" Cut="1.0543533325195312e+02" cType="1" res="-3.0593926087021828e-02" rms="4.4083273410797119e-01" purity="4.7337105870246887e-01" nType="0">
          <Node pos="l" depth="2" NCoef="0" IVar="-1" Cut="0.0000000000000000e+00" cType="1" res="-9.7543274750933051e-04" rms="4.4543284177780151e-01" purity="4.2960265278816223e-01" nType="-99"/>
          <Node pos="r" depth="2" NCoef="0" IVar="-1" Cut="0.0000000000000000e+00" cType="1" res="7.7175017213448882e-04" rms="4.2048221826553345e-01" purity="6.1202716827392578e-01" nType="-99"/>
        </Node>
        <Node pos="r" depth="1" NCoef="0" IVar="-1" Cut="0.0000000000000000e+00" cType="1" res="3.4223515540361404e-03" rms="4.1066703200340271e-01" purity="7.4530810117721558e-01" nType="-99"/>
      </Node>
    </BinaryTree>
    <BinaryTree type="DecisionTree" boostWeight="1.0000000000000000e+00" itree="560">
      <Node pos="s" depth="0" NCoef="0" IVar="4" Cut="3.1380493164062500e+02" cType="1" res="-1.2396287173032761e-02" rms="4.4310680031776428e-01" purity="4.9998259544372559e-01" nType="0">
        <Node pos="l" depth="1" NCoef="0" IVar="6" Cut="7.1971878051757812e+01" cType="1" res="8.0697489902377129e-03" rms="4.4877064228057861e-01" purity="5.5321270227432251e-01" nType="0">
          <Node pos="l" depth="2" NCoef="0" IVar="-1" Cut="0.0000000000000000e+00" cType="1" res="-6.8469223333522677e-04" rms="4.6449583768844604e-01" purity="4.6646070480346680e-01" nType="-99"/>
          <Node pos="r" depth="2" NCoef="0" IVar="-1" Cut="0.0000000000000000e+00" cType="1" res="1.6854362329468131e-03" rms="4.2300251126289368e-01" purity="6.5906327962875366e-01" nType="-99"/>
        </Node>
        <Node pos="r" depth="1" NCoef="0" IVar="0" Cut="1.2571063041687012e+00" cType="1" res="-7.8837707638740540e-02" rms="4.1733714938163757e-01" purity="3.2717514038085938e-01" nType="0">
          <Node pos="l" depth="2" NCoef="0" IVar="-1" Cut="0.0000000000000000e+00" cType="1" res="-2.6671516243368387e-03" rms="4.6531361341476440e-01" purity="4.5817372202873230e-01" nType="-99"/>
          <Node pos="r" depth="2" NCoef="0" IVar="-1" Cut="0.0000000000000000e+00" cType="1" res="-7.3092215461656451e-04" rms="3.7188085913658142e-01" purity="2.2845070064067841e-01" nType="-99"/>
        </Node>
      </Node>
    </BinaryTree>
    <BinaryTree type="DecisionTree" boostWeight="1.0000000000000000e+00" itree="561">
      <Node pos="s" depth="0" NCoef="0" IVar="1" Cut="3.8432702636718750e+02" cType="1" res="-3.5089950542896986e-03" rms="4.4483828544616699e-01" purity="5.0716286897659302e-01" nType="0">
        <Node pos="l" depth="1" NCoef="0" IVar="2" Cut="9.6055722236633301e-01" cType="1" res="-3.7351749837398529e-02" rms="4.4335719943046570e-01" purity="4.2455789446830750e-01" nType="0">
          <Node pos="l" depth="2" NCoef="0" IVar="-1" Cut="0.0000000000000000e+00" cType="1" res="-1.1172827798873186e-03" rms="4.3912526965141296e-01" purity="3.3080014586448669e-01" nType="-99"/>
          <Node pos="r" depth="2" NCoef="0" IVar="-1" Cut="0.0000000000000000e+00" cType="1" res="6.2002352206036448e-04" rms="4.4640389084815979e-01" purity="6.2886738777160645e-01" nType="-99"/>
        </Node>
        <Node pos="r" depth="1" NCoef="0" IVar="4" Cut="2.9781689453125000e+02" cType="1" res="3.1163429841399193e-02" rms="4.4368147850036621e-01" purity="5.9179288148880005e-01" nType="0">
          <Node pos="l" depth="2" NCoef="0" IVar="-1" Cut="0.0000000000000000e+00" cType="1" res="1.8233979353681207e-03" rms="4.3417546153068542e-01" purity="6.7165040969848633e-01" nType="-99"/>
          <Node pos="r" depth="2" NCoef="0" IVar="-1" Cut="0.0000000000000000e+00" cType="1" res="-5.3073914023116231e-04" rms="4.5332583785057068e-01" purity="4.6083518862724304e-01" nType="-99"/>
        </Node>
      </Node>
    </BinaryTree>
    <BinaryTree type="DecisionTree" boostWeight="1.0000000000000000e+00" itree="562">
      <Node pos="s" depth="0" NCoef="0" IVar="6" Cut="7.4160957336425781e+01" cType="1" res="3.0114511027932167e-03" rms="4.3243566155433655e-01" purity="5.2019745111465454e-01" nType="0">
        <Node pos="l" depth="1" NCoef="0" IVar="3" Cut="1.2541304016113281e+02" cType="1" res="-3.2455816864967346e-02" rms="4.4693103432655334e-01" purity="4.4674953818321228e-01" nType="0">
          <Node pos="l" depth="2" NCoef="0" IVar="-1" Cut="0.0000000000000000e+00" cType="1" res="4.2121636215597391e-04" rms="4.4534441828727722e-01" purity="5.0856757164001465e-01" nType="-99"/>
          <Node pos="r" depth="2" NCoef="0" IVar="-1" Cut="0.0000000000000000e+00" cType="1" res="-1.6655770596116781e-03" rms="4.4168850779533386e-01" purity="3.7845754623413086e-01" nType="-99"/>
        </Node>
        <Node pos="r" depth="1" NCoef="0" IVar="2" Cut="9.4869202375411987e-01" cType="1" res="3.9910353720188141e-02" rms="4.1360497474670410e-01" purity="5.9661006927490234e-01" nType="0">
          <Node pos="l" depth="2" NCoef="0" IVar="-1" Cut="0.0000000000000000e+00" cType="1" res="-1.5755597269162536e-04" rms="4.3287026882171631e-01" purity="4.2379048466682434e-01" nType="-99"/>
          <Node pos="r" depth="2" NCoef="0" IVar="-1" Cut="0.0000000000000000e+00" cType="1" res="3.0983241740614176e-03" rms="3.8863810896873474e-01" purity="7.6312708854675293e-01" nType="-99"/>
        </Node>
      </Node>
    </BinaryTree>
    <BinaryTree type="DecisionTree" boostWeight="1.0000000000000000e+00" itree="563">
      <Node pos="s" depth="0" NCoef="0" IVar="3" Cut="1.0789703369140625e+02" cType="1" res="-4.5678899623453617e-03" rms="4.4428464770317078e-01" purity="5.2438795566558838e-01" nType="0">
        <Node pos="l" depth="1" NCoef="0" IVar="4" Cut="2.1531521606445312e+02" cType="1" res="-8.8522590696811676e-02" rms="4.7829520702362061e-01" purity="3.9167919754981995e-01" nType="0">
          <Node pos="l" depth="2" NCoef="0" IVar="-1" Cut="0.0000000000000000e+00" cType="1" res="-3.3020551782101393e-03" rms="4.8950511217117310e-01" purity="3.8181924819946289e-01" nType="-99"/>
          <Node pos="r" depth="2" NCoef="0" IVar="-1" Cut="0.0000000000000000e+00" cType="1" res="1.0812223626999184e-04" rms="4.4753578305244446e-01" purity="4.0151438117027283e-01" nType="-99"/>
        </Node>
        <Node pos="r" depth="1" NCoef="0" IVar="3" Cut="1.3744351196289062e+02" cType="1" res="7.5593017973005772e-03" rms="4.3782553076744080e-01" purity="5.4355758428573608e-01" nType="0">
          <Node pos="l" depth="2" NCoef="0" IVar="-1" Cut="0.0000000000000000e+00" cType="1" res="6.1752204783260822e-04" rms="4.3740579485893250e-01" purity="5.7964938879013062e-01" nType="-99"/>
          <Node pos="r" depth="2" NCoef="0" IVar="-1" Cut="0.0000000000000000e+00" cType="1" res="-1.3507134281098843e-03" rms="4.3149992823600769e-01" purity="3.9086642861366272e-01" nType="-99"/>
        </Node>
      </Node>
    </BinaryTree>
    <BinaryTree type="DecisionTree" boostWeight="1.0000000000000000e+00" itree="564">
      <Node pos="s" depth="0" NCoef="0" IVar="6" Cut="4.4437404632568359e+01" cType="1" res="-1.1985155753791332e-02" rms="4.3551495671272278e-01" purity="5.0155276060104370e-01" nType="0">
        <Node pos="l" depth="1" NCoef="0" IVar="4" Cut="1.5674882507324219e+02" cType="1" res="-8.7833710014820099e-02" rms="4.4354286789894104e-01" purity="3.4694483876228333e-01" nType="0">
          <Node pos="l" depth="2" NCoef="0" IVar="-1" Cut="0.0000000000000000e+00" cType="1" res="-5.4890668252483010e-04" rms="4.6163550019264221e-01" purity="4.1782632470130920e-01" nType="-99"/>
          <Node pos="r" depth="2" NCoef="0" IVar="-1" Cut="0.0000000000000000e+00" cType="1" res="-2.1009147167205811e-03" rms="4.2604508996009827e-01" purity="2.9898473620414734e-01" nType="-99"/>
        </Node>
        <Node pos="r" depth="1" NCoef="0" IVar="8" Cut="2.5683133602142334e+00" cType="1" res="3.6166792269796133e-03" rms="4.3219771981239319e-01" purity="5.3335517644882202e-01" nType="0">
          <Node pos="l" depth="2" NCoef="0" IVar="-1" Cut="0.0000000000000000e+00" cType="1" res="5.0660275155678391e-04" rms="4.4301450252532959e-01" purity="6.0177642107009888e-01" nType="-99"/>
          <Node pos="r" depth="2" NCoef="0" IVar="-1" Cut="0.0000000000000000e+00" cType="1" res="-1.6500302590429783e-03" rms="3.5153862833976746e-01" purity="1.5629026293754578e-01" nType="-99"/>
        </Node>
      </Node>
    </BinaryTree>
    <BinaryTree type="DecisionTree" boostWeight="1.0000000000000000e+00" itree="565">
      <Node pos="s" depth="0" NCoef="0" IVar="8" Cut="1.7184084653854370e+00" cType="1" res="-2.4616193026304245e-02" rms="4.4509524106979370e-01" purity="4.8507478833198547e-01" nType="0">
        <Node pos="l" depth="1" NCoef="0" IVar="-1" Cut="0.0000000000000000e+00" cType="1" res="-2.2410263773053885e-03" rms="4.6217462420463562e-01" purity="4.3814271688461304e-01" nType="-99"/>
        <Node pos="r" depth="1" NCoef="0" IVar="3" Cut="1.3945716857910156e+02" cType="1" res="-1.8246551975607872e-02" rms="4.4319161772727966e-01" purity="4.8826640844345093e-01" nType="0">
          <Node pos="l" depth="2" NCoef="0" IVar="-1" Cut="0.0000000000000000e+00" cType="1" res="-1.9054116273764521e-04" rms="4.4599214196205139e-01" purity="5.0876891613006592e-01" nType="-99"/>
          <Node pos="r" depth="2" NCoef="0" IVar="-1" Cut="0.0000000000000000e+00" cType="1" res="-1.6202534316107631e-03" rms="4.1738188266754150e-01" purity="3.4696647524833679e-01" nType="-99"/>
        </Node>
      </Node>
    </BinaryTree>
    <BinaryTree type="DecisionTree" boostWeight="1.0000000000000000e+00" itree="566">
      <Node pos="s" depth="0" NCoef="0" IVar="3" Cut="1.3178091430664062e+02" cType="1" res="-1.5376307070255280e-02" rms="4.3530660867691040e-01" purity="4.9333766102790833e-01" nType="0">
        <Node pos="l" depth="1" NCoef="0" IVar="0" Cut="6.2555837631225586e-01" cType="1" res="5.7442644611001015e-03" rms="4.3488395214080811e-01" purity="5.2799427509307861e-01" nType="0">
          <Node pos="l" depth="2" NCoef="0" IVar="-1" Cut="0.0000000000000000e+00" cType="1" res="2.9875875916332006e-03" rms="3.8737413287162781e-01" purity="7.7783691883087158e-01" nType="-99"/>
          <Node pos="r" depth="2" NCoef="0" IVar="-1" Cut="0.0000000000000000e+00" cType="1" res="-2.0547381427604705e-04" rms="4.4118431210517883e-01" purity="4.8291227221488953e-01" nType="-99"/>
        </Node>
        <Node pos="r" depth="1" NCoef="0" IVar="7" Cut="1.0923909395933151e-01" cType="1" res="-7.7149793505668640e-02" rms="4.3063545227050781e-01" purity="3.9197400212287903e-01" nType="0">
          <Node pos="l" depth="2" NCoef="0" IVar="-1" Cut="0.0000000000000000e+00" cType="1" res="-1.9870218820869923e-03" rms="4.1885480284690857e-01" purity="3.3117985725402832e-01" nType="-99"/>
          <Node pos="r" depth="2" NCoef="0" IVar="-1" Cut="0.0000000000000000e+00" cType="1" res="3.7370566860772669e-04" rms="4.4826808571815491e-01" purity="5.5794262886047363e-01" nType="-99"/>
        </Node>
      </Node>
    </BinaryTree>
    <BinaryTree type="DecisionTree" boostWeight="1.0000000000000000e+00" itree="567">
      <Node pos="s" depth="0" NCoef="0" IVar="2" Cut="9.2721462249755859e-01" cType="1" res="-1.0043068788945675e-02" rms="4.2447295784950256e-01" purity="4.9368196725845337e-01" nType="0">
        <Node pos="l" depth="1" NCoef="0" IVar="3" Cut="1.2440239715576172e+02" cType="1" res="-8.3181664347648621e-02" rms="3.8871610164642334e-01" purity="2.3294652998447418e-01" nType="0">
          <Node pos="l" depth="2" NCoef="0" IVar="-1" Cut="0.0000000000000000e+00" cType="1" res="-2.2600263764616102e-04" rms="4.1420358419418335e-01" purity="3.0219739675521851e-01" nType="-99"/>
          <Node pos="r" depth="2" NCoef="0" IVar="-1" Cut="0.0000000000000000e+00" cType="1" res="-2.1928208880126476e-03" rms="3.5728010535240173e-01" purity="1.7803736031055450e-01" nType="-99"/>
        </Node>
        <Node pos="r" depth="1" NCoef="0" IVar="8" Cut="2.5147526264190674e+00" cType="1" res="1.0423196479678154e-02" rms="4.3173852562904358e-01" purity="5.6664323806762695e-01" nType="0">
          <Node pos="l" depth="2" NCoef="0" IVar="-1" Cut="0.0000000000000000e+00" cType="1" res="7.0309167494997382e-04" rms="4.3812614679336548e-01" purity="6.3782596588134766e-01" nType="-99"/>
          <Node pos="r" depth="2" NCoef="0" IVar="-1" Cut="0.0000000000000000e+00" cType="1" res="-1.3223871355876327e-03" rms="3.8681107759475708e-01" purity="2.1062177419662476e-01" nType="-99"/>
        </Node>
      </Node>
    </BinaryTree>
    <BinaryTree type="DecisionTree" boostWeight="1.0000000000000000e+00" itree="568">
      <Node pos="s" depth="0" NCoef="0" IVar="7" Cut="2.3835401237010956e-01" cType="1" res="-1.4900677837431431e-02" rms="4.4014292955398560e-01" purity="4.9910292029380798e-01" nType="0">
        <Node pos="l" depth="1" NCoef="0" IVar="0" Cut="1.4752266407012939e+00" cType="1" res="-8.7812161073088646e-03" rms="4.3755596876144409e-01" purity="4.9817845225334167e-01" nType="0">
          <Node pos="l" depth="2" NCoef="0" IVar="-1" Cut="0.0000000000000000e+00" cType="1" res="1.0106008994625881e-04" rms="4.5217698812484741e-01" purity="5.6803160905838013e-01" nType="-99"/>
          <Node pos="r" depth="2" NCoef="0" IVar="-1" Cut="0.0000000000000000e+00" cType="1" res="-1.2533528497442603e-03" rms="3.5716369748115540e-01" purity="1.7892515659332275e-01" nType="-99"/>
        </Node>
        <Node pos="r" depth="1" NCoef="0" IVar="-1" Cut="0.0000000000000000e+00" cType="1" res="-2.4910832289606333e-03" rms="4.7017058730125427e-01" purity="5.1500689983367920e-01" nType="-99"/>
      </Node>
    </BinaryTree>
    <BinaryTree type="DecisionTree" boostWeight="1.0000000000000000e+00" itree="569">
      <Node pos="s" depth="0" NCoef="0" IVar="4" Cut="4.8758825683593750e+02" cType="1" res="-2.0313670858740807e-02" rms="4.3448603153228760e-01" purity="4.8428404331207275e-01" nType="0">
        <Node pos="l" depth="1" NCoef="0" IVar="5" Cut="5.0947604370117188e+02" cType="1" res="-7.1880957111716270e-03" rms="4.3621051311492920e-01" purity="5.1149815320968628e-01" nType="0">
          <Node pos="l" depth="2" NCoef="0" IVar="-1" Cut="0.0000000000000000e+00" cType="1" res="-8.1943906843662262e-04" rms="4.3262729048728943e-01" purity="4.1235756874084473e-01" nType="-99"/>
          <Node pos="r" depth="2" NCoef="0" IVar="-1" Cut="0.0000000000000000e+00" cType="1" res="7.2346068918704987e-04" rms="4.3688750267028809e-01" purity="6.0907632112503052e-01" nType="-99"/>
        </Node>
        <Node pos="r" depth="1" NCoef="0" IVar="-1" Cut="0.0000000000000000e+00" cType="1" res="-2.3747708182781935e-03" rms="3.9318674802780151e-01" purity="2.1099397540092468e-01" nType="-99"/>
      </Node>
    </BinaryTree>
    <BinaryTree type="DecisionTree" boostWeight="1.0000000000000000e+00" itree="570">
      <Node pos="s" depth="0" NCoef="0" IVar="4" Cut="4.0464324951171875e+02" cType="1" res="-1.1903828009963036e-02" rms="4.3738183379173279e-01" purity="5.0562971830368042e-01" nType="0">
        <Node pos="l" depth="1" NCoef="0" IVar="2" Cut="9.7729533910751343e-01" cType="1" res="1.2540607713162899e-03" rms="4.4242843985557556e-01" purity="5.4378622770309448e-01" nType="0">
          <Node pos="l" depth="2" NCoef="0" IVar="-1" Cut="0.0000000000000000e+00" cType="1" res="-2.5285352603532374e-04" rms="4.5353171229362488e-01" purity="5.0213682651519775e-01" nType="-99"/>
          <Node pos="r" depth="2" NCoef="0" IVar="-1" Cut="0.0000000000000000e+00" cType="1" res="3.7580090574920177e-03" rms="3.4898290038108826e-01" purity="8.1775385141372681e-01" nType="-99"/>
        </Node>
        <Node pos="r" depth="1" NCoef="0" IVar="-1" Cut="0.0000000000000000e+00" cType="1" res="-1.7568845069035888e-03" rms="3.9444527029991150e-01" purity="2.6647412776947021e-01" nType="-99"/>
      </Node>
    </BinaryTree>
    <BinaryTree type="DecisionTree" boostWeight="1.0000000000000000e+00" itree="571">
      <Node pos="s" depth="0" NCoef="0" IVar="2" Cut="9.7318148612976074e-01" cType="1" res="-8.2009900361299515e-03" rms="4.4047081470489502e-01" purity="5.0330263376235962e-01" nType="0">
        <Node pos="l" depth="1" NCoef="0" IVar="6" Cut="1.3194911193847656e+02" cType="1" res="-2.2821297869086266e-02" rms="4.5097437500953674e-01" purity="4.5319849252700806e-01" nType="0">
          <Node pos="l" depth="2" NCoef="0" IVar="-1" Cut="0.0000000000000000e+00" cType="1" res="-2.1279312204569578e-04" rms="4.4860935211181641e-01" purity="4.6091052889823914e-01" nType="-99"/>
          <Node pos="r" depth="2" NCoef="0" IVar="-1" Cut="0.0000000000000000e+00" cType="1" res="-2.3226961493492126e-03" rms="4.5759662985801697e-01" purity="3.9624550938606262e-01" nType="-99"/>
        </Node>
        <Node pos="r" depth="1" NCoef="0" IVar="1" Cut="4.3455593872070312e+02" cType="1" res="6.6825680434703827e-02" rms="3.7314730882644653e-01" purity="7.6042091846466064e-01" nType="0">
          <Node pos="l" depth="2" NCoef="0" IVar="-1" Cut="0.0000000000000000e+00" cType="1" res="5.8572913985699415e-04" rms="4.2204737663269043e-01" purity="6.7314016819000244e-01" nType="-99"/>
          <Node pos="r" depth="2" NCoef="0" IVar="-1" Cut="0.0000000000000000e+00" cType="1" res="9.5803355798125267e-03" rms="2.3043055832386017e-01" purity="9.2617827653884888e-01" nType="-99"/>
        </Node>
      </Node>
    </BinaryTree>
    <BinaryTree type="DecisionTree" boostWeight="1.0000000000000000e+00" itree="572">
      <Node pos="s" depth="0" NCoef="0" IVar="7" Cut="2.3830617964267731e-01" cType="1" res="-3.0934171751141548e-02" rms="4.3664073944091797e-01" purity="4.7503593564033508e-01" nType="0">
        <Node pos="l" depth="1" NCoef="0" IVar="2" Cut="9.4447910785675049e-01" cType="1" res="-2.1678198128938675e-02" rms="4.3179556727409363e-01" purity="4.7686859965324402e-01" nType="0">
          <Node pos="l" depth="2" NCoef="0" IVar="-1" Cut="0.0000000000000000e+00" cType="1" res="-9.5333054196089506e-04" rms="4.1262245178222656e-01" purity="3.0002140998840332e-01" nType="-99"/>
          <Node pos="r" depth="2" NCoef="0" IVar="-1" Cut="0.0000000000000000e+00" cType="1" res="8.1867903645616025e-05" rms="4.4433888792991638e-01" purity="6.1243152618408203e-01" nType="-99"/>
        </Node>
        <Node pos="r" depth="1" NCoef="0" IVar="-1" Cut="0.0000000000000000e+00" cType="1" res="-3.1432274263352156e-03" rms="4.8229980468750000e-01" purity="4.4823610782623291e-01" nType="-99"/>
      </Node>
    </BinaryTree>
    <BinaryTree type="DecisionTree" boostWeight="1.0000000000000000e+00" itree="573">
      <Node pos="s" depth="0" NCoef="0" IVar="1" Cut="2.8165341186523438e+02" cType="1" res="2.1533163089770824e-04" rms="4.4262301921844482e-01" purity="5.1092034578323364e-01" nType="0">
        <Node pos="l" depth="1" NCoef="0" IVar="-1" Cut="0.0000000000000000e+00" cType="1" res="-1.3690810883417726e-03" rms="3.9829513430595398e-01" purity="2.7478951215744019e-01" nType="-99"/>
        <Node pos="r" depth="1" NCoef="0" IVar="1" Cut="3.1084368896484375e+02" cType="1" res="1.2894031591713428e-02" rms="4.4790744781494141e-01" purity="5.4819905757904053e-01" nType="0">
          <Node pos="l" depth="2" NCoef="0" IVar="-1" Cut="0.0000000000000000e+00" cType="1" res="3.6453732755035162e-03" rms="4.5013710856437683e-01" purity="6.3094013929367065e-01" nType="-99"/>
          <Node pos="r" depth="2" NCoef="0" IVar="-1" Cut="0.0000000000000000e+00" cType="1" res="1.2140841135988012e-05" rms="4.4583362340927124e-01" purity="5.3975290060043335e-01" nType="-99"/>
        </Node>
      </Node>
    </BinaryTree>
    <BinaryTree type="DecisionTree" boostWeight="1.0000000000000000e+00" itree="574">
      <Node pos="s" depth="0" NCoef="0" IVar="3" Cut="1.4495802307128906e+02" cType="1" res="-2.7442414313554764e-02" rms="4.3892273306846619e-01" purity="4.8190516233444214e-01" nType="0">
        <Node pos="l" depth="1" NCoef="0" IVar="0" Cut="4.6886804699897766e-01" cType="1" res="-1.7414664849638939e-02" rms="4.4059756398200989e-01" purity="4.9967357516288757e-01" nType="0">
          <Node pos="l" depth="2" NCoef="0" IVar="-1" Cut="0.0000000000000000e+00" cType="1" res="-3.1072052661329508e-03" rms="4.4264715909957886e-01" purity="5.2280718088150024e-01" nType="-99"/>
          <Node pos="r" depth="2" NCoef="0" IVar="-1" Cut="0.0000000000000000e+00" cType="1" res="-1.8164100765716285e-04" rms="4.3904355168342590e-01" purity="4.9799183011054993e-01" nType="-99"/>
        </Node>
        <Node pos="r" depth="1" NCoef="0" IVar="-1" Cut="0.0000000000000000e+00" cType="1" res="-2.3763999342918396e-03" rms="4.0115803480148315e-01" purity="2.7606070041656494e-01" nType="-99"/>
      </Node>
    </BinaryTree>
    <BinaryTree type="DecisionTree" boostWeight="1.0000000000000000e+00" itree="575">
      <Node pos="s" depth="0" NCoef="0" IVar="0" Cut="1.0102362632751465e+00" cType="1" res="-1.1694295331835747e-02" rms="4.3387597799301147e-01" purity="4.9068164825439453e-01" nType="0">
        <Node pos="l" depth="1" NCoef="0" IVar="8" Cut="1.7744243144989014e+00" cType="1" res="2.0119113847613335e-02" rms="4.4136309623718262e-01" purity="6.6460698843002319e-01" nType="0">
          <Node pos="l" depth="2" NCoef="0" IVar="-1" Cut="0.0000000000000000e+00" cType="1" res="-1.9748345948755741e-03" rms="4.7435590624809265e-01" purity="5.1727503538131714e-01" nType="-99"/>
          <Node pos="r" depth="2" NCoef="0" IVar="-1" Cut="0.0000000000000000e+00" cType="1" res="1.0465402156114578e-03" rms="4.3340149521827698e-01" purity="6.8761777877807617e-01" nType="-99"/>
        </Node>
        <Node pos="r" depth="1" NCoef="0" IVar="5" Cut="5.9953704833984375e+02" cType="1" res="-4.0570117533206940e-02" rms="4.2490935325622559e-01" purity="3.3281627297401428e-01" nType="0">
          <Node pos="l" depth="2" NCoef="0" IVar="-1" Cut="0.0000000000000000e+00" cType="1" res="-1.4389965217560530e-03" rms="4.0812370181083679e-01" purity="2.7967783808708191e-01" nType="-99"/>
          <Node pos="r" depth="2" NCoef="0" IVar="-1" Cut="0.0000000000000000e+00" cType="1" res="1.1291203554719687e-03" rms="4.4761401414871216e-01" purity="4.5434039831161499e-01" nType="-99"/>
        </Node>
      </Node>
    </BinaryTree>
    <BinaryTree type="DecisionTree" boostWeight="1.0000000000000000e+00" itree="576">
      <Node pos="s" depth="0" NCoef="0" IVar="2" Cut="9.3091416358947754e-01" cType="1" res="-9.3070194125175476e-03" rms="4.3856745958328247e-01" purity="5.0896525382995605e-01" nType="0">
        <Node pos="l" depth="1" NCoef="0" IVar="1" Cut="4.4947857666015625e+02" cType="1" res="-6.0655873268842697e-02" rms="4.1320320963859558e-01" purity="2.7990204095840454e-01" nType="0">
          <Node pos="l" depth="2" NCoef="0" IVar="-1" Cut="0.0000000000000000e+00" cType="1" res="-1.5186633681878448e-03" rms="4.0487334132194519e-01" purity="2.3489290475845337e-01" nType="-99"/>
          <Node pos="r" depth="2" NCoef="0" IVar="-1" Cut="0.0000000000000000e+00" cType="1" res="3.6626888322643936e-04" rms="4.2317259311676025e-01" purity="3.9230167865753174e-01" nType="-99"/>
        </Node>
        <Node pos="r" depth="1" NCoef="0" IVar="3" Cut="1.2116820526123047e+02" cType="1" res="5.1252357661724091e-03" rms="4.4436952471733093e-01" purity="5.7334649562835693e-01" nType="0">
          <Node pos="l" depth="2" NCoef="0" IVar="-1" Cut="0.0000000000000000e+00" cType="1" res="-6.0245190979912877e-04" rms="4.5318382978439331e-01" purity="5.2573966979980469e-01" nType="-99"/>
          <Node pos="r" depth="2" NCoef="0" IVar="-1" Cut="0.0000000000000000e+00" cType="1" res="7.1778905112296343e-04" rms="4.3611311912536621e-01" purity="6.0916984081268311e-01" nType="-99"/>
        </Node>
      </Node>
    </BinaryTree>
    <BinaryTree type="DecisionTree" boostWeight="1.0000000000000000e+00" itree="577">
      <Node pos="s" depth="0" NCoef="0" IVar="3" Cut="1.3334547424316406e+02" cType="1" res="-1.6794869676232338e-02" rms="4.3582445383071899e-01" purity="4.9411845207214355e-01" nType="0">
        <Node pos="l" depth="1" NCoef="0" IVar="1" Cut="2.8015829467773438e+02" cType="1" res="3.7483021151274443e-03" rms="4.3633654713630676e-01" purity="5.3034573793411255e-01" nType="0">
          <Node pos="l" depth="2" NCoef="0" IVar="-1" Cut="0.0000000000000000e+00" cType="1" res="-1.4880344970151782e-03" rms="4.0215018391609192e-01" purity="2.7339422702789307e-01" nType="-99"/>
          <Node pos="r" depth="2" NCoef="0" IVar="-1" Cut="0.0000000000000000e+00" cType="1" res="4.2622562614269555e-04" rms="4.3997216224670410e-01" purity="5.7183057069778442e-01" nType="-99"/>
        </Node>
        <Node pos="r" depth="1" NCoef="0" IVar="1" Cut="3.5763031005859375e+02" cType="1" res="-8.3720892667770386e-02" rms="4.2735689878463745e-01" purity="3.7609624862670898e-01" nType="0">
          <Node pos="l" depth="2" NCoef="0" IVar="-1" Cut="0.0000000000000000e+00" cType="1" res="2.9240709409350529e-05" rms="4.2575991153717041e-01" purity="3.6647817492485046e-01" nType="-99"/>
          <Node pos="r" depth="2" NCoef="0" IVar="-1" Cut="0.0000000000000000e+00" cType="1" res="-2.1648749243468046e-03" rms="4.2315983772277832e-01" purity="3.7998682260513306e-01" nType="-99"/>
        </Node>
      </Node>
    </BinaryTree>
    <BinaryTree type="DecisionTree" boostWeight="1.0000000000000000e+00" itree="578">
      <Node pos="s" depth="0" NCoef="0" IVar="2" Cut="9.7403633594512939e-01" cType="1" res="-1.2366293929517269e-02" rms="4.3710637092590332e-01" purity="4.9655115604400635e-01" nType="0">
        <Node pos="l" depth="1" NCoef="0" IVar="6" Cut="1.4258570861816406e+02" cType="1" res="-2.8253166005015373e-02" rms="4.4657006859779358e-01" purity="4.4818690419197083e-01" nType="0">
          <Node pos="l" depth="2" NCoef="0" IVar="-1" Cut="0.0000000000000000e+00" cType="1" res="-3.2646130421198905e-04" rms="4.4452503323554993e-01" purity="4.5762726664543152e-01" nType="-99"/>
          <Node pos="r" depth="2" NCoef="0" IVar="-1" Cut="0.0000000000000000e+00" cType="1" res="-3.0818684026598930e-03" rms="4.4686853885650635e-01" purity="3.4143614768981934e-01" nType="-99"/>
        </Node>
        <Node pos="r" depth="1" NCoef="0" IVar="6" Cut="6.4987136840820312e+01" cType="1" res="7.5497299432754517e-02" rms="3.6836770176887512e-01" purity="7.6403349637985229e-01" nType="0">
          <Node pos="l" depth="2" NCoef="0" IVar="-1" Cut="0.0000000000000000e+00" cType="1" res="-3.7818573764525354e-04" rms="4.4282463192939758e-01" purity="6.0157555341720581e-01" nType="-99"/>
          <Node pos="r" depth="2" NCoef="0" IVar="-1" Cut="0.0000000000000000e+00" cType="1" res="7.3176883161067963e-03" rms="2.8278610110282898e-01" purity="8.8579350709915161e-01" nType="-99"/>
        </Node>
      </Node>
    </BinaryTree>
    <BinaryTree type="DecisionTree" boostWeight="1.0000000000000000e+00" itree="579">
      <Node pos="s" depth="0" NCoef="0" IVar="3" Cut="1.3534906005859375e+02" cType="1" res="-2.1695977076888084e-02" rms="4.3624415993690491e-01" purity="4.8498043417930603e-01" nType="0">
        <Node pos="l" depth="1" NCoef="0" IVar="6" Cut="4.2010826110839844e+01" cType="1" res="-6.4572175033390522e-03" rms="4.3757361173629761e-01" purity="5.1602208614349365e-01" nType="0">
          <Node pos="l" depth="2" NCoef="0" IVar="-1" Cut="0.0000000000000000e+00" cType="1" res="-1.6354784602299333e-03" rms="4.4540050625801086e-01" purity="3.2478863000869751e-01" nType="-99"/>
          <Node pos="r" depth="2" NCoef="0" IVar="-1" Cut="0.0000000000000000e+00" cType="1" res="2.4368564481846988e-04" rms="4.3401336669921875e-01" purity="5.5178284645080566e-01" nType="-99"/>
        </Node>
        <Node pos="r" depth="1" NCoef="0" IVar="6" Cut="6.9570030212402344e+01" cType="1" res="-8.4662720561027527e-02" rms="4.2495232820510864e-01" purity="3.5671579837799072e-01" nType="0">
          <Node pos="l" depth="2" NCoef="0" IVar="-1" Cut="0.0000000000000000e+00" cType="1" res="-2.2690964397042990e-03" rms="4.2448398470878601e-01" purity="2.7667072415351868e-01" nType="-99"/>
          <Node pos="r" depth="2" NCoef="0" IVar="-1" Cut="0.0000000000000000e+00" cType="1" res="-9.1447099111974239e-04" rms="4.2125684022903442e-01" purity="4.2780146002769470e-01" nType="-99"/>
        </Node>
      </Node>
    </BinaryTree>
    <BinaryTree type="DecisionTree" boostWeight="1.0000000000000000e+00" itree="580">
      <Node pos="s" depth="0" NCoef="0" IVar="6" Cut="7.6722106933593750e+01" cType="1" res="-1.8714440986514091e-02" rms="4.3680286407470703e-01" purity="4.9229687452316284e-01" nType="0">
        <Node pos="l" depth="1" NCoef="0" IVar="1" Cut="4.6179821777343750e+02" cType="1" res="-4.1442506015300751e-02" rms="4.4593557715415955e-01" purity="4.3448010087013245e-01" nType="0">
          <Node pos="l" depth="2" NCoef="0" IVar="-1" Cut="0.0000000000000000e+00" cType="1" res="-3.3065039315260947e-04" rms="4.4773453474044800e-01" purity="4.6179080009460449e-01" nType="-99"/>
          <Node pos="r" depth="2" NCoef="0" IVar="-1" Cut="0.0000000000000000e+00" cType="1" res="-2.2842450998723507e-03" rms="4.2789292335510254e-01" purity="3.3831441402435303e-01" nType="-99"/>
        </Node>
        <Node pos="r" depth="1" NCoef="0" IVar="4" Cut="3.7900207519531250e+02" cType="1" res="8.6996369063854218e-03" rms="4.2390823364257812e-01" purity="5.6203413009643555e-01" nType="0">
          <Node pos="l" depth="2" NCoef="0" IVar="-1" Cut="0.0000000000000000e+00" cType="1" res="8.7043165694922209e-04" rms="4.2143282294273376e-01" purity="6.2012308835983276e-01" nType="-99"/>
          <Node pos="r" depth="2" NCoef="0" IVar="-1" Cut="0.0000000000000000e+00" cType="1" res="-1.4291261322796345e-03" rms="4.2148646712303162e-01" purity="3.4578973054885864e-01" nType="-99"/>
        </Node>
      </Node>
    </BinaryTree>
    <BinaryTree type="DecisionTree" boostWeight="1.0000000000000000e+00" itree="581">
      <Node pos="s" depth="0" NCoef="0" IVar="2" Cut="9.7403633594512939e-01" cType="1" res="-1.2257943861186504e-02" rms="4.3689921498298645e-01" purity="4.9488759040832520e-01" nType="0">
        <Node pos="l" depth="1" NCoef="0" IVar="5" Cut="8.8539605712890625e+02" cType="1" res="-2.6511562988162041e-02" rms="4.4498854875564575e-01" purity="4.5072555541992188e-01" nType="0">
          <Node pos="l" depth="2" NCoef="0" IVar="-1" Cut="0.0000000000000000e+00" cType="1" res="-6.9586420431733131e-04" rms="4.4507911801338196e-01" purity="4.3404212594032288e-01" nType="-99"/>
          <Node pos="r" depth="2" NCoef="0" IVar="-1" Cut="0.0000000000000000e+00" cType="1" res="1.9408744992688298e-03" rms="4.3300569057464600e-01" purity="6.3055175542831421e-01" nType="-99"/>
        </Node>
        <Node pos="r" depth="1" NCoef="0" IVar="6" Cut="7.6535636901855469e+01" cType="1" res="7.0682778954505920e-02" rms="3.7590968608856201e-01" purity="7.5186312198638916e-01" nType="0">
          <Node pos="l" depth="2" NCoef="0" IVar="-1" Cut="0.0000000000000000e+00" cType="1" res="3.1130239949561656e-04" rms="4.2710316181182861e-01" purity="6.3507431745529175e-01" nType="-99"/>
          <Node pos="r" depth="2" NCoef="0" IVar="-1" Cut="0.0000000000000000e+00" cType="1" res="8.0133182927966118e-03" rms="2.7880012989044189e-01" purity="9.0249037742614746e-01" nType="-99"/>
        </Node>
      </Node>
    </BinaryTree>
    <BinaryTree type="DecisionTree" boostWeight="1.0000000000000000e+00" itree="582">
      <Node pos="s" depth="0" NCoef="0" IVar="6" Cut="9.6719741821289062e+01" cType="1" res="-2.0251750946044922e-02" rms="4.3425571918487549e-01" purity="4.8396715521812439e-01" nType="0">
        <Node pos="l" depth="1" NCoef="0" IVar="7" Cut="1.9133999943733215e-01" cType="1" res="-3.9130993187427521e-02" rms="4.3875241279602051e-01" purity="4.4134202599525452e-01" nType="0">
          <Node pos="l" depth="2" NCoef="0" IVar="-1" Cut="0.0000000000000000e+00" cType="1" res="-1.0656130034476519e-03" rms="4.3749800324440002e-01" purity="4.1026201844215393e-01" nType="-99"/>
          <Node pos="r" depth="2" NCoef="0" IVar="-1" Cut="0.0000000000000000e+00" cType="1" res="2.5410787202417850e-03" rms="4.2674535512924194e-01" purity="7.0180654525756836e-01" nType="-99"/>
        </Node>
        <Node pos="r" depth="1" NCoef="0" IVar="6" Cut="1.5296876525878906e+02" cType="1" res="2.2417820990085602e-02" rms="4.2080786824226379e-01" purity="5.8030551671981812e-01" nType="0">
          <Node pos="l" depth="2" NCoef="0" IVar="-1" Cut="0.0000000000000000e+00" cType="1" res="1.4347548130899668e-03" rms="4.1111847758293152e-01" purity="6.2902909517288208e-01" nType="-99"/>
          <Node pos="r" depth="2" NCoef="0" IVar="-1" Cut="0.0000000000000000e+00" cType="1" res="-2.0323756616562605e-03" rms="4.3890193104743958e-01" purity="3.7579888105392456e-01" nType="-99"/>
        </Node>
      </Node>
    </BinaryTree>
    <BinaryTree type="DecisionTree" boostWeight="1.0000000000000000e+00" itree="583">
      <Node pos="s" depth="0" NCoef="0" IVar="7" Cut="2.4567477405071259e-01" cType="1" res="-5.3912764415144920e-03" rms="4.2989364266395569e-01" purity="4.9821746349334717e-01" nType="0">
        <Node pos="l" depth="1" NCoef="0" IVar="2" Cut="9.3017476797103882e-01" cType="1" res="2.0215862896293402e-03" rms="4.2553353309631348e-01" purity="4.9797743558883667e-01" nType="0">
          <Node pos="l" depth="2" NCoef="0" IVar="-1" Cut="0.0000000000000000e+00" cType="1" res="-9.3685270985588431e-04" rms="4.0904933214187622e-01" purity="2.6877382397651672e-01" nType="-99"/>
          <Node pos="r" depth="2" NCoef="0" IVar="-1" Cut="0.0000000000000000e+00" cType="1" res="4.8701613559387624e-04" rms="4.2919513583183289e-01" purity="5.7360011339187622e-01" nType="-99"/>
        </Node>
        <Node pos="r" depth="1" NCoef="0" IVar="-1" Cut="0.0000000000000000e+00" cType="1" res="-3.0985288321971893e-03" rms="4.8343139886856079e-01" purity="5.0261759757995605e-01" nType="-99"/>
      </Node>
    </BinaryTree>
    <BinaryTree type="DecisionTree" boostWeight="1.0000000000000000e+00" itree="584">
      <Node pos="s" depth="0" NCoef="0" IVar="6" Cut="4.8652767181396484e+01" cType="1" res="-2.3823954164981842e-02" rms="4.3691205978393555e-01" purity="4.8422929644584656e-01" nType="0">
        <Node pos="l" depth="1" NCoef="0" IVar="5" Cut="4.8914471435546875e+02" cType="1" res="-7.5044929981231689e-02" rms="4.3858644366264343e-01" purity="3.4912261366844177e-01" nType="0">
          <Node pos="l" depth="2" NCoef="0" IVar="-1" Cut="0.0000000000000000e+00" cType="1" res="-1.7754683503881097e-03" rms="4.3271356821060181e-01" purity="3.0395817756652832e-01" nType="-99"/>
          <Node pos="r" depth="2" NCoef="0" IVar="-1" Cut="0.0000000000000000e+00" cType="1" res="-1.6790354857221246e-04" rms="4.4235885143280029e-01" purity="4.3745130300521851e-01" nType="-99"/>
        </Node>
        <Node pos="r" depth="1" NCoef="0" IVar="0" Cut="6.9797140359878540e-01" cType="1" res="-8.3175087347626686e-03" rms="4.3521678447723389e-01" purity="5.2513098716735840e-01" nType="0">
          <Node pos="l" depth="2" NCoef="0" IVar="-1" Cut="0.0000000000000000e+00" cType="1" res="2.3526831064373255e-03" rms="4.0102565288543701e-01" purity="7.7191436290740967e-01" nType="-99"/>
          <Node pos="r" depth="2" NCoef="0" IVar="-1" Cut="0.0000000000000000e+00" cType="1" res="-5.6112423771992326e-04" rms="4.4092169404029846e-01" purity="4.6709385514259338e-01" nType="-99"/>
        </Node>
      </Node>
    </BinaryTree>
    <BinaryTree type="DecisionTree" boostWeight="1.0000000000000000e+00" itree="585">
      <Node pos="s" depth="0" NCoef="0" IVar="3" Cut="1.4540649414062500e+02" cType="1" res="-9.0751126408576965e-03" rms="4.4515055418014526e-01" purity="5.0906157493591309e-01" nType="0">
        <Node pos="l" depth="1" NCoef="0" IVar="1" Cut="3.5391308593750000e+02" cType="1" res="-2.1798277157358825e-04" rms="4.4892805814743042e-01" purity="5.2946513891220093e-01" nType="0">
          <Node pos="l" depth="2" NCoef="0" IVar="-1" Cut="0.0000000000000000e+00" cType="1" res="9.5671613235026598e-04" rms="4.3779477477073669e-01" purity="5.1640671491622925e-01" nType="-99"/>
          <Node pos="r" depth="2" NCoef="0" IVar="-1" Cut="0.0000000000000000e+00" cType="1" res="-5.7157309493049979e-04" rms="4.5313659310340881e-01" purity="5.3669083118438721e-01" nType="-99"/>
        </Node>
        <Node pos="r" depth="1" NCoef="0" IVar="-1" Cut="0.0000000000000000e+00" cType="1" res="-2.0067174918949604e-03" rms="3.8531702756881714e-01" purity="2.7608010172843933e-01" nType="-99"/>
      </Node>
    </BinaryTree>
    <BinaryTree type="DecisionTree" boostWeight="1.0000000000000000e+00" itree="586">
      <Node pos="s" depth="0" NCoef="0" IVar="8" Cut="2.5714344978332520e+00" cType="1" res="-1.2091289972886443e-03" rms="4.3373209238052368e-01" purity="5.1287311315536499e-01" nType="0">
        <Node pos="l" depth="1" NCoef="0" IVar="4" Cut="1.4656864929199219e+02" cType="1" res="1.0666906833648682e-02" rms="4.4474536180496216e-01" purity="5.7062864303588867e-01" nType="0">
          <Node pos="l" depth="2" NCoef="0" IVar="-1" Cut="0.0000000000000000e+00" cType="1" res="-1.1583019513636827e-03" rms="4.5624151825904846e-01" purity="4.5414406061172485e-01" nType="-99"/>
          <Node pos="r" depth="2" NCoef="0" IVar="-1" Cut="0.0000000000000000e+00" cType="1" res="6.6133477957919240e-04" rms="4.4051861763000488e-01" purity="5.9745323657989502e-01" nType="-99"/>
        </Node>
        <Node pos="r" depth="1" NCoef="0" IVar="-1" Cut="0.0000000000000000e+00" cType="1" res="-1.4121347339823842e-03" rms="3.5153603553771973e-01" purity="1.6346691548824310e-01" nType="-99"/>
      </Node>
    </BinaryTree>
    <BinaryTree type="DecisionTree" boostWeight="1.0000000000000000e+00" itree="587">
      <Node pos="s" depth="0" NCoef="0" IVar="8" Cut="1.7013607025146484e+00" cType="1" res="-1.0838117450475693e-02" rms="4.3909615278244019e-01" purity="5.0015091896057129e-01" nType="0">
        <Node pos="l" depth="1" NCoef="0" IVar="-1" Cut="0.0000000000000000e+00" cType="1" res="-3.1797820702195168e-03" rms="4.6673300862312317e-01" purity="4.1190421581268311e-01" nType="-99"/>
        <Node pos="r" depth="1" NCoef="0" IVar="8" Cut="2.1797070503234863e+00" cType="1" res="-4.9836182733997703e-04" rms="4.3523159623146057e-01" purity="5.0590199232101440e-01" nType="0">
          <Node pos="l" depth="2" NCoef="0" IVar="-1" Cut="0.0000000000000000e+00" cType="1" res="1.4119525440037251e-03" rms="4.3742442131042480e-01" purity="6.6131347417831421e-01" nType="-99"/>
          <Node pos="r" depth="2" NCoef="0" IVar="-1" Cut="0.0000000000000000e+00" cType="1" res="-9.0311991516500711e-04" rms="4.2805358767509460e-01" purity="3.6772549152374268e-01" nType="-99"/>
        </Node>
      </Node>
    </BinaryTree>
    <BinaryTree type="DecisionTree" boostWeight="1.0000000000000000e+00" itree="588">
      <Node pos="s" depth="0" NCoef="0" IVar="6" Cut="1.3217483520507812e+02" cType="1" res="-2.1855309605598450e-02" rms="4.3647754192352295e-01" purity="4.8671546578407288e-01" nType="0">
        <Node pos="l" depth="1" NCoef="0" IVar="6" Cut="4.5215068817138672e+01" cType="1" res="-1.0756160132586956e-02" rms="4.3699732422828674e-01" purity="4.9392884969711304e-01" nType="0">
          <Node pos="l" depth="2" NCoef="0" IVar="-1" Cut="0.0000000000000000e+00" cType="1" res="-1.5567973023280501e-03" rms="4.3408349156379700e-01" purity="3.1196579337120056e-01" nType="-99"/>
          <Node pos="r" depth="2" NCoef="0" IVar="-1" Cut="0.0000000000000000e+00" cType="1" res="2.4092970124911517e-04" rms="4.3528422713279724e-01" purity="5.4105800390243530e-01" nType="-99"/>
        </Node>
        <Node pos="r" depth="1" NCoef="0" IVar="5" Cut="7.3183612060546875e+02" cType="1" res="-1.0722844302654266e-01" rms="4.2282891273498535e-01" purity="4.3123126029968262e-01" nType="0">
          <Node pos="l" depth="2" NCoef="0" IVar="-1" Cut="0.0000000000000000e+00" cType="1" res="-3.0909159686416388e-03" rms="4.1687616705894470e-01" purity="3.1959536671638489e-01" nType="-99"/>
          <Node pos="r" depth="2" NCoef="0" IVar="-1" Cut="0.0000000000000000e+00" cType="1" res="-6.9895212072879076e-04" rms="4.1673889756202698e-01" purity="5.7535725831985474e-01" nType="-99"/>
        </Node>
      </Node>
    </BinaryTree>
    <BinaryTree type="DecisionTree" boostWeight="1.0000000000000000e+00" itree="589">
      <Node pos="s" depth="0" NCoef="0" IVar="6" Cut="5.5153778076171875e+01" cType="1" res="-1.1598613113164902e-02" rms="4.3197923898696899e-01" purity="4.8741593956947327e-01" nType="0">
        <Node pos="l" depth="1" NCoef="0" IVar="7" Cut="1.6426864266395569e-01" cType="1" res="-6.9695197045803070e-02" rms="4.3451741337776184e-01" purity="3.7193730473518372e-01" nType="0">
          <Node pos="l" depth="2" NCoef="0" IVar="-1" Cut="0.0000000000000000e+00" cType="1" res="-1.6741481376811862e-03" rms="4.2334237694740295e-01" purity="3.1701809167861938e-01" nType="-99"/>
          <Node pos="r" depth="2" NCoef="0" IVar="-1" Cut="0.0000000000000000e+00" cType="1" res="1.3922988437116146e-03" rms="4.6194934844970703e-01" purity="6.2663078308105469e-01" nType="-99"/>
        </Node>
        <Node pos="r" depth="1" NCoef="0" IVar="3" Cut="1.3181982421875000e+02" cType="1" res="1.2037400156259537e-02" rms="4.2869505286216736e-01" purity="5.3439724445343018e-01" nType="0">
          <Node pos="l" depth="2" NCoef="0" IVar="-1" Cut="0.0000000000000000e+00" cType="1" res="9.6389831742271781e-04" rms="4.2293560504913330e-01" purity="5.8269387483596802e-01" nType="-99"/>
          <Node pos="r" depth="2" NCoef="0" IVar="-1" Cut="0.0000000000000000e+00" cType="1" res="-1.0636496590450406e-03" rms="4.3592521548271179e-01" purity="4.1562995314598083e-01" nType="-99"/>
        </Node>
      </Node>
    </BinaryTree>
    <BinaryTree type="DecisionTree" boostWeight="1.0000000000000000e+00" itree="590">
      <Node pos="s" depth="0" NCoef="0" IVar="7" Cut="4.7894079238176346e-02" cType="1" res="4.9501569010317326e-03" rms="4.3047377467155457e-01" purity="5.1008516550064087e-01" nType="0">
        <Node pos="l" depth="1" NCoef="0" IVar="2" Cut="9.6650815010070801e-01" cType="1" res="-5.3332425653934479e-02" rms="4.2537117004394531e-01" purity="3.7634122371673584e-01" nType="0">
          <Node pos="l" depth="2" NCoef="0" IVar="-1" Cut="0.0000000000000000e+00" cType="1" res="-1.4351566787809134e-03" rms="4.2651697993278503e-01" purity="3.1616774201393127e-01" nType="-99"/>
          <Node pos="r" depth="2" NCoef="0" IVar="-1" Cut="0.0000000000000000e+00" cType="1" res="1.5977207804098725e-03" rms="4.0059238672256470e-01" purity="6.4116454124450684e-01" nType="-99"/>
        </Node>
        <Node pos="r" depth="1" NCoef="0" IVar="6" Cut="5.6734054565429688e+01" cType="1" res="2.8355577960610390e-02" rms="4.3028995394706726e-01" purity="5.6379473209381104e-01" nType="0">
          <Node pos="l" depth="2" NCoef="0" IVar="-1" Cut="0.0000000000000000e+00" cType="1" res="-3.9901206037029624e-04" rms="4.5426478981971741e-01" purity="4.6010690927505493e-01" nType="-99"/>
          <Node pos="r" depth="2" NCoef="0" IVar="-1" Cut="0.0000000000000000e+00" cType="1" res="1.4260839670896530e-03" rms="4.1433146595954895e-01" purity="6.2009292840957642e-01" nType="-99"/>
        </Node>
      </Node>
    </BinaryTree>
    <BinaryTree type="DecisionTree" boostWeight="1.0000000000000000e+00" itree="591">
      <Node pos="s" depth="0" NCoef="0" IVar="4" Cut="4.8718719482421875e+02" cType="1" res="-2.3004280403256416e-02" rms="4.3871703743934631e-01" purity="4.9698388576507568e-01" nType="0">
        <Node pos="l" depth="1" NCoef="0" IVar="2" Cut="9.7515785694122314e-01" cType="1" res="-1.6151666641235352e-02" rms="4.4161376357078552e-01" purity="5.1526546478271484e-01" nType="0">
          <Node pos="l" depth="2" NCoef="0" IVar="-1" Cut="0.0000000000000000e+00" cType="1" res="-6.0972978826612234e-04" rms="4.5164331793785095e-01" purity="4.6936517953872681e-01" nType="-99"/>
          <Node pos="r" depth="2" NCoef="0" IVar="-1" Cut="0.0000000000000000e+00" cType="1" res="2.1424363367259502e-03" rms="3.7259030342102051e-01" purity="7.6954036951065063e-01" nType="-99"/>
        </Node>
        <Node pos="r" depth="1" NCoef="0" IVar="-1" Cut="0.0000000000000000e+00" cType="1" res="-1.9758974667638540e-03" rms="3.8740739226341248e-01" purity="2.5602358579635620e-01" nType="-99"/>
      </Node>
    </BinaryTree>
    <BinaryTree type="DecisionTree" boostWeight="1.0000000000000000e+00" itree="592">
      <Node pos="s" depth="0" NCoef="0" IVar="0" Cut="6.9125801324844360e-01" cType="1" res="-1.9849581643939018e-02" rms="4.4213417172431946e-01" purity="4.9676471948623657e-01" nType="0">
        <Node pos="l" depth="1" NCoef="0" IVar="0" Cut="5.1958233118057251e-01" cType="1" res="-8.0952137708663940e-02" rms="4.5316648483276367e-01" purity="5.6503033638000488e-01" nType="0">
          <Node pos="l" depth="2" NCoef="0" IVar="-1" Cut="0.0000000000000000e+00" cType="1" res="7.3690299177542329e-04" rms="4.3779665231704712e-01" purity="6.9832599163055420e-01" nType="-99"/>
          <Node pos="r" depth="2" NCoef="0" IVar="-1" Cut="0.0000000000000000e+00" cType="1" res="-2.5429686065763235e-03" rms="4.5108073949813843e-01" purity="4.9829858541488647e-01" nType="-99"/>
        </Node>
        <Node pos="r" depth="1" NCoef="0" IVar="3" Cut="1.0340111541748047e+02" cType="1" res="-2.9739394085481763e-04" rms="4.3674367666244507e-01" purity="4.7492042183876038e-01" nType="0">
          <Node pos="l" depth="2" NCoef="0" IVar="-1" Cut="0.0000000000000000e+00" cType="1" res="-1.9044785294681787e-03" rms="4.0654778480529785e-01" purity="2.4488882720470428e-01" nType="-99"/>
          <Node pos="r" depth="2" NCoef="0" IVar="-1" Cut="0.0000000000000000e+00" cType="1" res="2.7128731017000973e-04" rms="4.3831565976142883e-01" purity="5.0119465589523315e-01" nType="-99"/>
        </Node>
      </Node>
    </BinaryTree>
    <BinaryTree type="DecisionTree" boostWeight="1.0000000000000000e+00" itree="593">
      <Node pos="s" depth="0" NCoef="0" IVar="4" Cut="2.8281469726562500e+02" cType="1" res="5.8734888443723321e-04" rms="4.2967507243156433e-01" purity="5.0880831480026245e-01" nType="0">
        <Node pos="l" depth="1" NCoef="0" IVar="6" Cut="9.7343330383300781e+01" cType="1" res="2.3016285151243210e-02" rms="4.3511629104614258e-01" purity="5.6436330080032349e-01" nType="0">
          <Node pos="l" depth="2" NCoef="0" IVar="-1" Cut="0.0000000000000000e+00" cType="1" res="-1.0999728146998677e-05" rms="4.4097203016281128e-01" purity="5.1323533058166504e-01" nType="-99"/>
          <Node pos="r" depth="2" NCoef="0" IVar="-1" Cut="0.0000000000000000e+00" cType="1" res="3.2573933713138103e-03" rms="4.0541476011276245e-01" purity="7.3408102989196777e-01" nType="-99"/>
        </Node>
        <Node pos="r" depth="1" NCoef="0" IVar="6" Cut="1.0927523040771484e+02" cType="1" res="-5.2945274859666824e-02" rms="4.1148909926414490e-01" purity="3.7621167302131653e-01" nType="0">
          <Node pos="l" depth="2" NCoef="0" IVar="-1" Cut="0.0000000000000000e+00" cType="1" res="-1.6416670987382531e-03" rms="4.0425997972488403e-01" purity="2.9276788234710693e-01" nType="-99"/>
          <Node pos="r" depth="2" NCoef="0" IVar="-1" Cut="0.0000000000000000e+00" cType="1" res="6.3503772253170609e-04" rms="4.1395205259323120e-01" purity="5.3310251235961914e-01" nType="-99"/>
        </Node>
      </Node>
    </BinaryTree>
    <BinaryTree type="DecisionTree" boostWeight="1.0000000000000000e+00" itree="594">
      <Node pos="s" depth="0" NCoef="0" IVar="5" Cut="3.9424221801757812e+02" cType="1" res="-4.3273577466607094e-03" rms="4.3249759078025818e-01" purity="5.0345057249069214e-01" nType="0">
        <Node pos="l" depth="1" NCoef="0" IVar="-1" Cut="0.0000000000000000e+00" cType="1" res="-1.2710287701338530e-03" rms="4.2837670445442200e-01" purity="3.3123663067817688e-01" nType="-99"/>
        <Node pos="r" depth="1" NCoef="0" IVar="1" Cut="4.4767788696289062e+02" cType="1" res="4.0643848478794098e-03" rms="4.3231317400932312e-01" purity="5.2564841508865356e-01" nType="0">
          <Node pos="l" depth="2" NCoef="0" IVar="-1" Cut="0.0000000000000000e+00" cType="1" res="8.2520954310894012e-04" rms="4.2911481857299805e-01" purity="5.3297275304794312e-01" nType="-99"/>
          <Node pos="r" depth="2" NCoef="0" IVar="-1" Cut="0.0000000000000000e+00" cType="1" res="-8.8203186169266701e-04" rms="4.3288883566856384e-01" purity="5.1547616720199585e-01" nType="-99"/>
        </Node>
      </Node>
    </BinaryTree>
    <BinaryTree type="DecisionTree" boostWeight="1.0000000000000000e+00" itree="595">
      <Node pos="s" depth="0" NCoef="0" IVar="8" Cut="2.5111050605773926e+00" cType="1" res="2.1536727435886860e-03" rms="4.3438890576362610e-01" purity="5.0806802511215210e-01" nType="0">
        <Node pos="l" depth="1" NCoef="0" IVar="6" Cut="3.7574871063232422e+01" cType="1" res="1.5283336862921715e-02" rms="4.4332328438758850e-01" purity="5.6931602954864502e-01" nType="0">
          <Node pos="l" depth="2" NCoef="0" IVar="-1" Cut="0.0000000000000000e+00" cType="1" res="-1.1766472598537803e-03" rms="4.3109586834907532e-01" purity="3.2695090770721436e-01" nType="-99"/>
          <Node pos="r" depth="2" NCoef="0" IVar="-1" Cut="0.0000000000000000e+00" cType="1" res="6.4792996272444725e-04" rms="4.4371256232261658e-01" purity="6.0030537843704224e-01" nType="-99"/>
        </Node>
        <Node pos="r" depth="1" NCoef="0" IVar="-1" Cut="0.0000000000000000e+00" cType="1" res="-1.2238891795277596e-03" rms="3.7733596563339233e-01" purity="1.8972747027873993e-01" nType="-99"/>
      </Node>
    </BinaryTree>
    <BinaryTree type="DecisionTree" boostWeight="1.0000000000000000e+00" itree="596">
      <Node pos="s" depth="0" NCoef="0" IVar="1" Cut="6.5351031494140625e+02" cType="1" res="2.5352654047310352e-03" rms="4.3703517317771912e-01" purity="5.0763112306594849e-01" nType="0">
        <Node pos="l" depth="1" NCoef="0" IVar="6" Cut="5.3670394897460938e+01" cType="1" res="1.3024156913161278e-02" rms="4.3260714411735535e-01" purity="5.0819802284240723e-01" nType="0">
          <Node pos="l" depth="2" NCoef="0" IVar="-1" Cut="0.0000000000000000e+00" cType="1" res="-8.7976589566096663e-04" rms="4.4646418094635010e-01" purity="3.9458051323890686e-01" nType="-99"/>
          <Node pos="r" depth="2" NCoef="0" IVar="-1" Cut="0.0000000000000000e+00" cType="1" res="1.0027363896369934e-03" rms="4.2369493842124939e-01" purity="5.5827075242996216e-01" nType="-99"/>
        </Node>
        <Node pos="r" depth="1" NCoef="0" IVar="3" Cut="1.2462132263183594e+02" cType="1" res="-7.3221907019615173e-02" rms="4.6073710918426514e-01" purity="5.0353693962097168e-01" nType="0">
          <Node pos="l" depth="2" NCoef="0" IVar="-1" Cut="0.0000000000000000e+00" cType="1" res="-2.8708043973892927e-03" rms="4.9426019191741943e-01" purity="4.3596357107162476e-01" nType="-99"/>
          <Node pos="r" depth="2" NCoef="0" IVar="-1" Cut="0.0000000000000000e+00" cType="1" res="1.1453811021056026e-04" rms="4.0955364704132080e-01" purity="5.7253187894821167e-01" nType="-99"/>
        </Node>
      </Node>
    </BinaryTree>
    <BinaryTree type="DecisionTree" boostWeight="1.0000000000000000e+00" itree="597">
      <Node pos="s" depth="0" NCoef="0" IVar="6" Cut="1.3862837219238281e+02" cType="1" res="-7.0547405630350113e-03" rms="4.4226250052452087e-01" purity="5.1021748781204224e-01" nType="0">
        <Node pos="l" depth="1" NCoef="0" IVar="6" Cut="1.0262696838378906e+02" cType="1" res="1.2932074023410678e-03" rms="4.4329583644866943e-01" purity="5.2045363187789917e-01" nType="0">
          <Node pos="l" depth="2" NCoef="0" IVar="-1" Cut="0.0000000000000000e+00" cType="1" res="-3.6209716927260160e-04" rms="4.5213729143142700e-01" purity="4.7650143504142761e-01" nType="-99"/>
          <Node pos="r" depth="2" NCoef="0" IVar="-1" Cut="0.0000000000000000e+00" cType="1" res="2.3565266747027636e-03" rms="3.9753985404968262e-01" purity="6.9701820611953735e-01" nType="-99"/>
        </Node>
        <Node pos="r" depth="1" NCoef="0" IVar="-1" Cut="0.0000000000000000e+00" cType="1" res="-2.1746885031461716e-03" rms="4.2167457938194275e-01" purity="4.0372937917709351e-01" nType="-99"/>
      </Node>
    </BinaryTree>
    <BinaryTree type="DecisionTree" boostWeight="1.0000000000000000e+00" itree="598">
      <Node pos="s" depth="0" NCoef="0" IVar="2" Cut="9.5369148254394531e-01" cType="1" res="-1.0179465636610985e-02" rms="4.3580690026283264e-01" purity="4.9880215525627136e-01" nType="0">
        <Node pos="l" depth="1" NCoef="0" IVar="0" Cut="1.0362902879714966e+00" cType="1" res="-3.3247251063585281e-02" rms="4.3994814157485962e-01" purity="3.7280362844467163e-01" nType="0">
          <Node pos="l" depth="2" NCoef="0" IVar="-1" Cut="0.0000000000000000e+00" cType="1" res="6.2113271269481629e-05" rms="4.7910284996032715e-01" purity="5.5039453506469727e-01" nType="-99"/>
          <Node pos="r" depth="2" NCoef="0" IVar="-1" Cut="0.0000000000000000e+00" cType="1" res="-1.1471377220004797e-03" rms="4.0038624405860901e-01" purity="2.1926476061344147e-01" nType="-99"/>
        </Node>
        <Node pos="r" depth="1" NCoef="0" IVar="1" Cut="3.1497537231445312e+02" cType="1" res="1.8936721608042717e-02" rms="4.2875474691390991e-01" purity="6.5783762931823730e-01" nType="0">
          <Node pos="l" depth="2" NCoef="0" IVar="-1" Cut="0.0000000000000000e+00" cType="1" res="3.0790399760007858e-03" rms="4.2988336086273193e-01" purity="6.6156351566314697e-01" nType="-99"/>
          <Node pos="r" depth="2" NCoef="0" IVar="-1" Cut="0.0000000000000000e+00" cType="1" res="-9.9967561254743487e-05" rms="4.2544323205947876e-01" purity="6.5694260597229004e-01" nType="-99"/>
        </Node>
      </Node>
    </BinaryTree>
    <BinaryTree type="DecisionTree" boostWeight="1.0000000000000000e+00" itree="599">
      <Node pos="s" depth="0" NCoef="0" IVar="4" Cut="2.9514923095703125e+02" cType="1" res="-1.4695214340463281e-03" rms="4.3055841326713562e-01" purity="5.0094980001449585e-01" nType="0">
        <Node pos="l" depth="1" NCoef="0" IVar="8" Cut="1.8449248075485229e+00" cType="1" res="2.0661853253841400e-02" rms="4.3627989292144775e-01" purity="5.5991417169570923e-01" nType="0">
          <Node pos="l" depth="2" NCoef="0" IVar="-1" Cut="0.0000000000000000e+00" cType="1" res="4.3458077125251293e-03" rms="3.8540729880332947e-01" purity="7.2817540168762207e-01" nType="-99"/>
          <Node pos="r" depth="2" NCoef="0" IVar="-1" Cut="0.0000000000000000e+00" cType="1" res="1.7126592865679413e-04" rms="4.3961977958679199e-01" purity="5.4120945930480957e-01" nType="-99"/>
        </Node>
        <Node pos="r" depth="1" NCoef="0" IVar="1" Cut="4.5177899169921875e+02" cType="1" res="-6.1392117291688919e-02" rms="4.0869933366775513e-01" purity="3.4129863977432251e-01" nType="0">
          <Node pos="l" depth="2" NCoef="0" IVar="-1" Cut="0.0000000000000000e+00" cType="1" res="-2.1343973930925131e-03" rms="3.6023947596549988e-01" purity="1.8378601968288422e-01" nType="-99"/>
          <Node pos="r" depth="2" NCoef="0" IVar="-1" Cut="0.0000000000000000e+00" cType="1" res="-1.6262964345514774e-04" rms="4.3869188427925110e-01" purity="4.7566229104995728e-01" nType="-99"/>
        </Node>
      </Node>
    </BinaryTree>
    <BinaryTree type="DecisionTree" boostWeight="1.0000000000000000e+00" itree="600">
      <Node pos="s" depth="0" NCoef="0" IVar="4" Cut="3.1648150634765625e+02" cType="1" res="-2.6927776634693146e-03" rms="4.3362158536911011e-01" purity="5.1048386096954346e-01" nType="0">
        <Node pos="l" depth="1" NCoef="0" IVar="3" Cut="1.2530649566650391e+02" cType="1" res="2.0239261910319328e-02" rms="4.3867528438568115e-01" purity="5.6228488683700562e-01" nType="0">
          <Node pos="l" depth="2" NCoef="0" IVar="-1" Cut="0.0000000000000000e+00" cType="1" res="1.3730736682191491e-03" rms="4.2621091008186340e-01" purity="6.0856169462203979e-01" nType="-99"/>
          <Node pos="r" depth="2" NCoef="0" IVar="-1" Cut="0.0000000000000000e+00" cType="1" res="-4.1197042446583509e-04" rms="4.4905179738998413e-01" purity="5.1030951738357544e-01" nType="-99"/>
        </Node>
        <Node pos="r" depth="1" NCoef="0" IVar="3" Cut="1.2165080261230469e+02" cType="1" res="-8.2022964954376221e-02" rms="4.0578955411911011e-01" purity="3.3128550648689270e-01" nType="0">
          <Node pos="l" depth="2" NCoef="0" IVar="-1" Cut="0.0000000000000000e+00" cType="1" res="-2.4640373885631561e-03" rms="3.9482611417770386e-01" purity="2.6874697208404541e-01" nType="-99"/>
          <Node pos="r" depth="2" NCoef="0" IVar="-1" Cut="0.0000000000000000e+00" cType="1" res="-5.6710094213485718e-04" rms="4.0722894668579102e-01" purity="3.8492417335510254e-01" nType="-99"/>
        </Node>
      </Node>
    </BinaryTree>
    <BinaryTree type="DecisionTree" boostWeight="1.0000000000000000e+00" itree="601">
      <Node pos="s" depth="0" NCoef="0" IVar="4" Cut="1.7951147460937500e+02" cType="1" res="-8.6378669366240501e-03" rms="4.3726423382759094e-01" purity="5.0717443227767944e-01" nType="0">
        <Node pos="l" depth="1" NCoef="0" IVar="2" Cut="9.6136873960494995e-01" cType="1" res="3.1467411667108536e-02" rms="4.4210773706436157e-01" purity="5.5847758054733276e-01" nType="0">
          <Node pos="l" depth="2" NCoef="0" IVar="-1" Cut="0.0000000000000000e+00" cType="1" res="-1.9777280976995826e-04" rms="4.6098726987838745e-01" purity="4.4857564568519592e-01" nType="-99"/>
          <Node pos="r" depth="2" NCoef="0" IVar="-1" Cut="0.0000000000000000e+00" cType="1" res="5.3348219953477383e-03" rms="3.7579420208930969e-01" purity="8.1814223527908325e-01" nType="-99"/>
        </Node>
        <Node pos="r" depth="1" NCoef="0" IVar="3" Cut="1.0886929321289062e+02" cType="1" res="-2.9537893831729889e-02" rms="4.3324977159500122e-01" purity="4.8043891787528992e-01" nType="0">
          <Node pos="l" depth="2" NCoef="0" IVar="-1" Cut="0.0000000000000000e+00" cType="1" res="-2.4627377279102802e-03" rms="4.3163716793060303e-01" purity="2.9050493240356445e-01" nType="-99"/>
          <Node pos="r" depth="2" NCoef="0" IVar="-1" Cut="0.0000000000000000e+00" cType="1" res="-2.1018263942096382e-04" rms="4.3045312166213989e-01" purity="5.1580792665481567e-01" nType="-99"/>
        </Node>
      </Node>
    </BinaryTree>
    <BinaryTree type="DecisionTree" boostWeight="1.0000000000000000e+00" itree="602">
      <Node pos="s" depth="0" NCoef="0" IVar="7" Cut="6.2055706977844238e-02" cType="1" res="2.6927695143967867e-03" rms="4.3884190917015076e-01" purity="5.1977068185806274e-01" nType="0">
        <Node pos="l" depth="1" NCoef="0" IVar="7" Cut="3.9956226944923401e-02" cType="1" res="-4.3270096182823181e-02" rms="4.4070968031883240e-01" purity="4.1091340780258179e-01" nType="0">
          <Node pos="l" depth="2" NCoef="0" IVar="-1" Cut="0.0000000000000000e+00" cType="1" res="1.7875811317935586e-04" rms="4.3874016404151917e-01" purity="4.4019356369972229e-01" nType="-99"/>
          <Node pos="r" depth="2" NCoef="0" IVar="-1" Cut="0.0000000000000000e+00" cType="1" res="-1.8970475066453218e-03" rms="4.3521162867546082e-01" purity="3.7616682052612305e-01" nType="-99"/>
        </Node>
        <Node pos="r" depth="1" NCoef="0" IVar="5" Cut="4.0543630981445312e+02" cType="1" res="3.1150156632065773e-02" rms="4.3525540828704834e-01" purity="5.8716845512390137e-01" nType="0">
          <Node pos="l" depth="2" NCoef="0" IVar="-1" Cut="0.0000000000000000e+00" cType="1" res="-9.0742192696779966e-04" rms="4.4675996899604797e-01" purity="3.9314797520637512e-01" nType="-99"/>
          <Node pos="r" depth="2" NCoef="0" IVar="-1" Cut="0.0000000000000000e+00" cType="1" res="1.2103207409381866e-03" rms="4.3098539113998413e-01" purity="6.2769478559494019e-01" nType="-99"/>
        </Node>
      </Node>
    </BinaryTree>
    <BinaryTree type="DecisionTree" boostWeight="1.0000000000000000e+00" itree="603">
      <Node pos="s" depth="0" NCoef="0" IVar="2" Cut="9.3910819292068481e-01" cType="1" res="-8.8070408673956990e-04" rms="4.3958273530006409e-01" purity="5.1737928390502930e-01" nType="0">
        <Node pos="l" depth="1" NCoef="0" IVar="7" Cut="8.9504651725292206e-02" cType="1" res="-5.3365357220172882e-02" rms="4.3011090159416199e-01" purity="3.0813273787498474e-01" nType="0">
          <Node pos="l" depth="2" NCoef="0" IVar="-1" Cut="0.0000000000000000e+00" cType="1" res="-1.6321036964654922e-03" rms="4.1182854771614075e-01" purity="2.4894298613071442e-01" nType="-99"/>
          <Node pos="r" depth="2" NCoef="0" IVar="-1" Cut="0.0000000000000000e+00" cType="1" res="2.6267208158969879e-04" rms="4.5107766985893250e-01" purity="4.0729850530624390e-01" nType="-99"/>
        </Node>
        <Node pos="r" depth="1" NCoef="0" IVar="8" Cut="2.3127303123474121e+00" cType="1" res="2.9873276129364967e-02" rms="4.4215381145477295e-01" purity="6.3998961448669434e-01" nType="0">
          <Node pos="l" depth="2" NCoef="0" IVar="-1" Cut="0.0000000000000000e+00" cType="1" res="2.2959023772273213e-04" rms="4.3982827663421631e-01" purity="6.7890286445617676e-01" nType="-99"/>
          <Node pos="r" depth="2" NCoef="0" IVar="-1" Cut="0.0000000000000000e+00" cType="1" res="2.2211584728211164e-03" rms="4.4256952404975891e-01" purity="5.2367299795150757e-01" nType="-99"/>
        </Node>
      </Node>
    </BinaryTree>
    <BinaryTree type="DecisionTree" boostWeight="1.0000000000000000e+00" itree="604">
      <Node pos="s" depth="0" NCoef="0" IVar="5" Cut="3.9824884033203125e+02" cType="1" res="-1.9985985010862350e-02" rms="4.3236818909645081e-01" purity="4.9138122797012329e-01" nType="0">
        <Node pos="l" depth="1" NCoef="0" IVar="-1" Cut="0.0000000000000000e+00" cType="1" res="-1.7838944913819432e-03" rms="3.9538496732711792e-01" purity="2.7370822429656982e-01" nType="-99"/>
        <Node pos="r" depth="1" NCoef="0" IVar="3" Cut="1.1332186889648438e+02" cType="1" res="-8.3227669820189476e-03" rms="4.3606057763099670e-01" purity="5.2202039957046509e-01" nType="0">
          <Node pos="l" depth="2" NCoef="0" IVar="-1" Cut="0.0000000000000000e+00" cType="1" res="-1.2918644351884723e-03" rms="4.4060915708541870e-01" purity="4.1557228565216064e-01" nType="-99"/>
          <Node pos="r" depth="2" NCoef="0" IVar="-1" Cut="0.0000000000000000e+00" cType="1" res="1.8032058142125607e-04" rms="4.3342792987823486e-01" purity="5.5207645893096924e-01" nType="-99"/>
        </Node>
      </Node>
    </BinaryTree>
    <BinaryTree type="DecisionTree" boostWeight="1.0000000000000000e+00" itree="605">
      <Node pos="s" depth="0" NCoef="0" IVar="8" Cut="1.8860964775085449e+00" cType="1" res="-2.0116934552788734e-02" rms="4.3772807717323303e-01" purity="4.9043807387351990e-01" nType="0">
        <Node pos="l" depth="1" NCoef="0" IVar="7" Cut="8.8776163756847382e-02" cType="1" res="8.6992800235748291e-02" rms="4.1707333922386169e-01" purity="6.7142969369888306e-01" nType="0">
          <Node pos="l" depth="2" NCoef="0" IVar="-1" Cut="0.0000000000000000e+00" cType="1" res="-3.6931541399098933e-04" rms="4.5177179574966431e-01" purity="5.2161628007888794e-01" nType="-99"/>
          <Node pos="r" depth="2" NCoef="0" IVar="-1" Cut="0.0000000000000000e+00" cType="1" res="7.8671500086784363e-03" rms="3.3672609925270081e-01" purity="8.4215748310089111e-01" nType="-99"/>
        </Node>
        <Node pos="r" depth="1" NCoef="0" IVar="3" Cut="1.3299079895019531e+02" cType="1" res="-3.5610884428024292e-02" rms="4.3847489356994629e-01" purity="4.6425673365592957e-01" nType="0">
          <Node pos="l" depth="2" NCoef="0" IVar="-1" Cut="0.0000000000000000e+00" cType="1" res="-2.9656078550033271e-04" rms="4.4123160839080811e-01" purity="5.0484317541122437e-01" nType="-99"/>
          <Node pos="r" depth="2" NCoef="0" IVar="-1" Cut="0.0000000000000000e+00" cType="1" res="-2.0535176154226065e-03" rms="4.2256510257720947e-01" purity="3.4025543928146362e-01" nType="-99"/>
        </Node>
      </Node>
    </BinaryTree>
    <BinaryTree type="DecisionTree" boostWeight="1.0000000000000000e+00" itree="606">
      <Node pos="s" depth="0" NCoef="0" IVar="6" Cut="9.4327194213867188e+01" cType="1" res="-3.7721257656812668e-02" rms="4.4115644693374634e-01" purity="4.7377261519432068e-01" nType="0">
        <Node pos="l" depth="1" NCoef="0" IVar="6" Cut="4.3452491760253906e+01" cType="1" res="-5.7666864246129990e-02" rms="4.4328969717025757e-01" purity="4.2831039428710938e-01" nType="0">
          <Node pos="l" depth="2" NCoef="0" IVar="-1" Cut="0.0000000000000000e+00" cType="1" res="-1.8307631835341454e-03" rms="4.2700794339179993e-01" purity="3.2026413083076477e-01" nType="-99"/>
          <Node pos="r" depth="2" NCoef="0" IVar="-1" Cut="0.0000000000000000e+00" cType="1" res="-8.9175195898860693e-04" rms="4.4734817743301392e-01" purity="4.6271660923957825e-01" nType="-99"/>
        </Node>
        <Node pos="r" depth="1" NCoef="0" IVar="6" Cut="1.4819010925292969e+02" cType="1" res="3.9826040156185627e-03" rms="4.3370845913887024e-01" purity="5.6882858276367188e-01" nType="0">
          <Node pos="l" depth="2" NCoef="0" IVar="-1" Cut="0.0000000000000000e+00" cType="1" res="9.4535714015364647e-04" rms="4.2298448085784912e-01" purity="6.1745518445968628e-01" nType="-99"/>
          <Node pos="r" depth="2" NCoef="0" IVar="-1" Cut="0.0000000000000000e+00" cType="1" res="-2.1124999038875103e-03" rms="4.5531448721885681e-01" purity="3.8874888420104980e-01" nType="-99"/>
        </Node>
      </Node>
    </BinaryTree>
    <BinaryTree type="DecisionTree" boostWeight="1.0000000000000000e+00" itree="607">
      <Node pos="s" depth="0" NCoef="0" IVar="4" Cut="3.7647360229492188e+02" cType="1" res="-1.5576031990349293e-02" rms="4.3294456601142883e-01" purity="4.9088180065155029e-01" nType="0">
        <Node pos="l" depth="1" NCoef="0" IVar="3" Cut="1.3195138549804688e+02" cType="1" res="1.1039593955501914e-03" rms="4.4379985332489014e-01" purity="5.3857100009918213e-01" nType="0">
          <Node pos="l" depth="2" NCoef="0" IVar="-1" Cut="0.0000000000000000e+00" cType="1" res="4.4056927436031401e-04" rms="4.3917152285575867e-01" purity="5.6962519884109497e-01" nType="-99"/>
          <Node pos="r" depth="2" NCoef="0" IVar="-1" Cut="0.0000000000000000e+00" cType="1" res="-1.0637779487296939e-03" rms="4.5338395237922668e-01" purity="4.4329753518104553e-01" nType="-99"/>
        </Node>
        <Node pos="r" depth="1" NCoef="0" IVar="6" Cut="1.0784761810302734e+02" cType="1" res="-9.7876116633415222e-02" rms="3.6377999186515808e-01" purity="2.5558060407638550e-01" nType="0">
          <Node pos="l" depth="2" NCoef="0" IVar="-1" Cut="0.0000000000000000e+00" cType="1" res="-2.2985779214650393e-03" rms="3.3864185214042664e-01" purity="1.7916645109653473e-01" nType="-99"/>
          <Node pos="r" depth="2" NCoef="0" IVar="-1" Cut="0.0000000000000000e+00" cType="1" res="-6.4329925226047635e-04" rms="3.9245516061782837e-01" purity="3.7821540236473083e-01" nType="-99"/>
        </Node>
      </Node>
    </BinaryTree>
    <BinaryTree type="DecisionTree" boostWeight="1.0000000000000000e+00" itree="608">
      <Node pos="s" depth="0" NCoef="0" IVar="3" Cut="1.0255906677246094e+02" cType="1" res="-3.9620269089937210e-03" rms="4.4071838259696960e-01" purity="5.0917077064514160e-01" nType="0">
        <Node pos="l" depth="1" NCoef="0" IVar="-1" Cut="0.0000000000000000e+00" cType="1" res="-1.7373886657878757e-03" rms="4.4129529595375061e-01" purity="3.0693235993385315e-01" nType="-99"/>
        <Node pos="r" depth="1" NCoef="0" IVar="8" Cut="1.8146272897720337e+00" cType="1" res="4.9427258782088757e-03" rms="4.3964621424674988e-01" purity="5.2884519100189209e-01" nType="0">
          <Node pos="l" depth="2" NCoef="0" IVar="-1" Cut="0.0000000000000000e+00" cType="1" res="-1.2567737139761448e-03" rms="4.5785111188888550e-01" purity="5.0690793991088867e-01" nType="-99"/>
          <Node pos="r" depth="2" NCoef="0" IVar="-1" Cut="0.0000000000000000e+00" cType="1" res="2.6046670973300934e-04" rms="4.3733310699462891e-01" purity="5.3095084428787231e-01" nType="-99"/>
        </Node>
      </Node>
    </BinaryTree>
    <BinaryTree type="DecisionTree" boostWeight="1.0000000000000000e+00" itree="609">
      <Node pos="s" depth="0" NCoef="0" IVar="4" Cut="2.6689581298828125e+02" cType="1" res="-2.3319502361118793e-03" rms="4.3452879786491394e-01" purity="5.0817942619323730e-01" nType="0">
        <Node pos="l" depth="1" NCoef="0" IVar="5" Cut="7.1259423828125000e+02" cType="1" res="2.3763822391629219e-02" rms="4.3669626116752625e-01" purity="5.6709885597229004e-01" nType="0">
          <Node pos="l" depth="2" NCoef="0" IVar="-1" Cut="0.0000000000000000e+00" cType="1" res="2.5914181605912745e-04" rms="4.4182693958282471e-01" purity="5.3968256711959839e-01" nType="-99"/>
          <Node pos="r" depth="2" NCoef="0" IVar="-1" Cut="0.0000000000000000e+00" cType="1" res="4.5518311671912670e-03" rms="3.7739443778991699e-01" purity="7.9159224033355713e-01" nType="-99"/>
        </Node>
        <Node pos="r" depth="1" NCoef="0" IVar="3" Cut="1.1995477294921875e+02" cType="1" res="-5.9898979961872101e-02" rms="4.2406761646270752e-01" purity="3.7820383906364441e-01" nType="0">
          <Node pos="l" depth="2" NCoef="0" IVar="-1" Cut="0.0000000000000000e+00" cType="1" res="-2.0579849369823933e-03" rms="4.1537842154502869e-01" purity="3.0324181914329529e-01" nType="-99"/>
          <Node pos="r" depth="2" NCoef="0" IVar="-1" Cut="0.0000000000000000e+00" cType="1" res="-5.8570480905473232e-04" rms="4.2672201991081238e-01" purity="4.2935836315155029e-01" nType="-99"/>
        </Node>
      </Node>
    </BinaryTree>
    <BinaryTree type="DecisionTree" boostWeight="1.0000000000000000e+00" itree="610">
      <Node pos="s" depth="0" NCoef="0" IVar="8" Cut="1.7417718172073364e+00" cType="1" res="-2.4302970618009567e-02" rms="4.4283303618431091e-01" purity="4.8593172430992126e-01" nType="0">
        <Node pos="l" depth="1" NCoef="0" IVar="-1" Cut="0.0000000000000000e+00" cType="1" res="-2.3423987440764904e-03" rms="4.4325280189514160e-01" purity="4.1221651434898376e-01" nType="-99"/>
        <Node pos="r" depth="1" NCoef="0" IVar="3" Cut="1.4158389282226562e+02" cType="1" res="-1.4948680996894836e-02" rms="4.4153115153312683e-01" purity="4.9218007922172546e-01" nType="0">
          <Node pos="l" depth="2" NCoef="0" IVar="-1" Cut="0.0000000000000000e+00" cType="1" res="-6.9664238253608346e-05" rms="4.4439062476158142e-01" purity="5.1839905977249146e-01" nType="-99"/>
          <Node pos="r" depth="2" NCoef="0" IVar="-1" Cut="0.0000000000000000e+00" cType="1" res="-1.8391784979030490e-03" rms="4.0921655297279358e-01" purity="2.9792845249176025e-01" nType="-99"/>
        </Node>
      </Node>
    </BinaryTree>
    <BinaryTree type="DecisionTree" boostWeight="1.0000000000000000e+00" itree="611">
      <Node pos="s" depth="0" NCoef="0" IVar="7" Cut="1.9413261115550995e-01" cType="1" res="-1.4308002777397633e-02" rms="4.3345725536346436e-01" purity="4.9593302607536316e-01" nType="0">
        <Node pos="l" depth="1" NCoef="0" IVar="2" Cut="9.7139227390289307e-01" cType="1" res="-2.4128058925271034e-02" rms="4.3295571208000183e-01" purity="4.7063654661178589e-01" nType="0">
          <Node pos="l" depth="2" NCoef="0" IVar="-1" Cut="0.0000000000000000e+00" cType="1" res="-7.4024382047355175e-04" rms="4.3862259387969971e-01" purity="4.1544449329376221e-01" nType="-99"/>
          <Node pos="r" depth="2" NCoef="0" IVar="-1" Cut="0.0000000000000000e+00" cType="1" res="1.2959277955815196e-03" rms="4.0009555220603943e-01" purity="7.2339451313018799e-01" nType="-99"/>
        </Node>
        <Node pos="r" depth="1" NCoef="0" IVar="-1" Cut="0.0000000000000000e+00" cType="1" res="2.4117196444422007e-03" rms="4.2717856168746948e-01" purity="7.3476606607437134e-01" nType="-99"/>
      </Node>
    </BinaryTree>
    <BinaryTree type="DecisionTree" boostWeight="1.0000000000000000e+00" itree="612">
      <Node pos="s" depth="0" NCoef="0" IVar="7" Cut="2.2302372753620148e-01" cType="1" res="-3.1014483422040939e-02" rms="4.3737900257110596e-01" purity="4.7771412134170532e-01" nType="0">
        <Node pos="l" depth="1" NCoef="0" IVar="6" Cut="8.3804328918457031e+01" cType="1" res="-3.7965677678585052e-02" rms="4.3851554393768311e-01" purity="4.6427965164184570e-01" nType="0">
          <Node pos="l" depth="2" NCoef="0" IVar="-1" Cut="0.0000000000000000e+00" cType="1" res="-1.1764221126213670e-03" rms="4.4695144891738892e-01" purity="4.0960922837257385e-01" nType="-99"/>
          <Node pos="r" depth="2" NCoef="0" IVar="-1" Cut="0.0000000000000000e+00" cType="1" res="-1.4216708950698376e-04" rms="4.2415988445281982e-01" purity="5.4220277070999146e-01" nType="-99"/>
        </Node>
        <Node pos="r" depth="1" NCoef="0" IVar="-1" Cut="0.0000000000000000e+00" cType="1" res="2.5155367329716682e-03" rms="4.0052434802055359e-01" purity="7.0193463563919067e-01" nType="-99"/>
      </Node>
    </BinaryTree>
    <BinaryTree type="DecisionTree" boostWeight="1.0000000000000000e+00" itree="613">
      <Node pos="s" depth="0" NCoef="0" IVar="8" Cut="2.1848649978637695e+00" cType="1" res="-2.6944022625684738e-02" rms="4.3240097165107727e-01" purity="4.8726105690002441e-01" nType="0">
        <Node pos="l" depth="1" NCoef="0" IVar="8" Cut="2.0957059860229492e+00" cType="1" res="3.7180022336542606e-03" rms="4.4287309050559998e-01" purity="6.1374366283416748e-01" nType="0">
          <Node pos="l" depth="2" NCoef="0" IVar="-1" Cut="0.0000000000000000e+00" cType="1" res="-4.1025198879651725e-04" rms="4.4728183746337891e-01" purity="5.9872257709503174e-01" nType="-99"/>
          <Node pos="r" depth="2" NCoef="0" IVar="-1" Cut="0.0000000000000000e+00" cType="1" res="2.3815294262021780e-03" rms="4.1430437564849854e-01" purity="6.7294830083847046e-01" nType="-99"/>
        </Node>
        <Node pos="r" depth="1" NCoef="0" IVar="7" Cut="1.6170257329940796e-01" cType="1" res="-6.1862640082836151e-02" rms="4.1742330789566040e-01" purity="3.4321978688240051e-01" nType="0">
          <Node pos="l" depth="2" NCoef="0" IVar="-1" Cut="0.0000000000000000e+00" cType="1" res="-8.2242145435884595e-04" rms="4.1548535227775574e-01" purity="3.5018560290336609e-01" nType="-99"/>
          <Node pos="r" depth="2" NCoef="0" IVar="-1" Cut="0.0000000000000000e+00" cType="1" res="-2.9989893082529306e-03" rms="4.0938884019851685e-01" purity="3.0387425422668457e-01" nType="-99"/>
        </Node>
      </Node>
    </BinaryTree>
    <BinaryTree type="DecisionTree" boostWeight="1.0000000000000000e+00" itree="614">
      <Node pos="s" depth="0" NCoef="0" IVar="3" Cut="1.0081282806396484e+02" cType="1" res="-2.3644302040338516e-02" rms="4.3946433067321777e-01" purity="4.9387907981872559e-01" nType="0">
        <Node pos="l" depth="1" NCoef="0" IVar="-1" Cut="0.0000000000000000e+00" cType="1" res="-2.6518770027905703e-03" rms="3.7809404730796814e-01" purity="2.0665709674358368e-01" nType="-99"/>
        <Node pos="r" depth="1" NCoef="0" IVar="3" Cut="1.3630184936523438e+02" cType="1" res="-1.2419390492141247e-02" rms="4.4274550676345825e-01" purity="5.1931577920913696e-01" nType="0">
          <Node pos="l" depth="2" NCoef="0" IVar="-1" Cut="0.0000000000000000e+00" cType="1" res="1.0765699698822573e-04" rms="4.4210827350616455e-01" purity="5.5288475751876831e-01" nType="-99"/>
          <Node pos="r" depth="2" NCoef="0" IVar="-1" Cut="0.0000000000000000e+00" cType="1" res="-1.7716644797474146e-03" rms="4.3767431378364563e-01" purity="3.7141671776771545e-01" nType="-99"/>
        </Node>
      </Node>
    </BinaryTree>
    <BinaryTree type="DecisionTree" boostWeight="1.0000000000000000e+00" itree="615">
      <Node pos="s" depth="0" NCoef="0" IVar="2" Cut="9.8299491405487061e-01" cType="1" res="-2.3064458742737770e-02" rms="4.3962103128433228e-01" purity="4.9075853824615479e-01" nType="0">
        <Node pos="l" depth="1" NCoef="0" IVar="7" Cut="2.3753243684768677e-01" cType="1" res="-3.0013415962457657e-02" rms="4.4470453262329102e-01" purity="4.6813198924064636e-01" nType="0">
          <Node pos="l" depth="2" NCoef="0" IVar="-1" Cut="0.0000000000000000e+00" cType="1" res="-4.9465015763416886e-04" rms="4.4145077466964722e-01" purity="4.6769234538078308e-01" nType="-99"/>
          <Node pos="r" depth="2" NCoef="0" IVar="-1" Cut="0.0000000000000000e+00" cType="1" res="-2.4870033375918865e-03" rms="4.7991842031478882e-01" purity="4.7477832436561584e-01" nType="-99"/>
        </Node>
        <Node pos="r" depth="1" NCoef="0" IVar="-1" Cut="0.0000000000000000e+00" cType="1" res="2.6503258850425482e-03" rms="3.5780712962150574e-01" purity="7.7712154388427734e-01" nType="-99"/>
      </Node>
    </BinaryTree>
    <BinaryTree type="DecisionTree" boostWeight="1.0000000000000000e+00" itree="616">
      <Node pos="s" depth="0" NCoef="0" IVar="7" Cut="2.2926066815853119e-01" cType="1" res="-3.2148503232747316e-03" rms="4.3987369537353516e-01" purity="5.0848227739334106e-01" nType="0">
        <Node pos="l" depth="1" NCoef="0" IVar="0" Cut="6.3600325584411621e-01" cType="1" res="7.0281890220940113e-03" rms="4.3616485595703125e-01" purity="5.0899714231491089e-01" nType="0">
          <Node pos="l" depth="2" NCoef="0" IVar="-1" Cut="0.0000000000000000e+00" cType="1" res="2.8290813788771629e-03" rms="4.0288406610488892e-01" purity="7.6760524511337280e-01" nType="-99"/>
          <Node pos="r" depth="2" NCoef="0" IVar="-1" Cut="0.0000000000000000e+00" cType="1" res="-1.4120938431005925e-04" rms="4.4022533297538757e-01" purity="4.6427571773529053e-01" nType="-99"/>
        </Node>
        <Node pos="r" depth="1" NCoef="0" IVar="-1" Cut="0.0000000000000000e+00" cType="1" res="-3.0981358140707016e-03" rms="4.6539470553398132e-01" purity="5.0183707475662231e-01" nType="-99"/>
      </Node>
    </BinaryTree>
    <BinaryTree type="DecisionTree" boostWeight="1.0000000000000000e+00" itree="617">
      <Node pos="s" depth="0" NCoef="0" IVar="5" Cut="8.4770068359375000e+02" cType="1" res="8.7869251146912575e-03" rms="4.3648928403854370e-01" purity="5.2283602952957153e-01" nType="0">
        <Node pos="l" depth="1" NCoef="0" IVar="1" Cut="4.7733255004882812e+02" cType="1" res="-6.9735315628349781e-04" rms="4.3888559937477112e-01" purity="5.0268006324768066e-01" nType="0">
          <Node pos="l" depth="2" NCoef="0" IVar="-1" Cut="0.0000000000000000e+00" cType="1" res="3.6037128302268684e-04" rms="4.3235594034194946e-01" purity="5.0230687856674194e-01" nType="-99"/>
          <Node pos="r" depth="2" NCoef="0" IVar="-1" Cut="0.0000000000000000e+00" cType="1" res="-1.2788022868335247e-03" rms="4.5545148849487305e-01" purity="5.0392562150955200e-01" nType="-99"/>
        </Node>
        <Node pos="r" depth="1" NCoef="0" IVar="1" Cut="7.5280273437500000e+02" cType="1" res="8.8303506374359131e-02" rms="4.0725758671760559e-01" purity="6.9182461500167847e-01" nType="0">
          <Node pos="l" depth="2" NCoef="0" IVar="-1" Cut="0.0000000000000000e+00" cType="1" res="4.1291844099760056e-03" rms="3.9431968331336975e-01" purity="7.4730372428894043e-01" nType="-99"/>
          <Node pos="r" depth="2" NCoef="0" IVar="-1" Cut="0.0000000000000000e+00" cType="1" res="1.4456065837293863e-03" rms="4.1659981012344360e-01" purity="6.3816076517105103e-01" nType="-99"/>
        </Node>
      </Node>
    </BinaryTree>
    <BinaryTree type="DecisionTree" boostWeight="1.0000000000000000e+00" itree="618">
      <Node pos="s" depth="0" NCoef="0" IVar="0" Cut="5.4527485370635986e-01" cType="1" res="1.6091881552711129e-03" rms="4.4071277976036072e-01" purity="5.2276033163070679e-01" nType="0">
        <Node pos="l" depth="1" NCoef="0" IVar="-1" Cut="0.0000000000000000e+00" cType="1" res="3.6223283968865871e-03" rms="3.8940340280532837e-01" purity="8.0293488502502441e-01" nType="-99"/>
        <Node pos="r" depth="1" NCoef="0" IVar="0" Cut="8.4361994266510010e-01" cType="1" res="-9.1407578438520432e-03" rms="4.4466182589530945e-01" purity="4.9206313490867615e-01" nType="0">
          <Node pos="l" depth="2" NCoef="0" IVar="-1" Cut="0.0000000000000000e+00" cType="1" res="-1.3876698212698102e-03" rms="4.6272909641265869e-01" purity="6.1048817634582520e-01" nType="-99"/>
          <Node pos="r" depth="2" NCoef="0" IVar="-1" Cut="0.0000000000000000e+00" cType="1" res="2.1260722132865340e-04" rms="4.3532595038414001e-01" purity="4.4186142086982727e-01" nType="-99"/>
        </Node>
      </Node>
    </BinaryTree>
    <BinaryTree type="DecisionTree" boostWeight="1.0000000000000000e+00" itree="619">
      <Node pos="s" depth="0" NCoef="0" IVar="2" Cut="9.8485010862350464e-01" cType="1" res="-1.5519201755523682e-02" rms="4.4185385107994080e-01" purity="4.9925690889358521e-01" nType="0">
        <Node pos="l" depth="1" NCoef="0" IVar="6" Cut="5.0173698425292969e+01" cType="1" res="-2.3220017552375793e-02" rms="4.4513458013534546e-01" purity="4.7986555099487305e-01" nType="0">
          <Node pos="l" depth="2" NCoef="0" IVar="-1" Cut="0.0000000000000000e+00" cType="1" res="-1.3760924339294434e-03" rms="4.4309371709823608e-01" purity="3.4693804383277893e-01" nType="-99"/>
          <Node pos="r" depth="2" NCoef="0" IVar="-1" Cut="0.0000000000000000e+00" cType="1" res="-1.0748983186203986e-04" rms="4.4422474503517151e-01" purity="5.2281939983367920e-01" nType="-99"/>
        </Node>
        <Node pos="r" depth="1" NCoef="0" IVar="-1" Cut="0.0000000000000000e+00" cType="1" res="5.6241974234580994e-03" rms="3.5131484270095825e-01" purity="8.4507358074188232e-01" nType="-99"/>
      </Node>
    </BinaryTree>
    <BinaryTree type="DecisionTree" boostWeight="1.0000000000000000e+00" itree="620">
      <Node pos="s" depth="0" NCoef="0" IVar="0" Cut="8.3225858211517334e-01" cType="1" res="-1.5609751455485821e-02" rms="4.3222370743751526e-01" purity="4.9067169427871704e-01" nType="0">
        <Node pos="l" depth="1" NCoef="0" IVar="7" Cut="1.5309959650039673e-01" cType="1" res="2.9732413589954376e-02" rms="4.2873153090476990e-01" purity="6.9508361816406250e-01" nType="0">
          <Node pos="l" depth="2" NCoef="0" IVar="-1" Cut="0.0000000000000000e+00" cType="1" res="1.4811183791607618e-04" rms="4.4259357452392578e-01" purity="6.6565376520156860e-01" nType="-99"/>
          <Node pos="r" depth="2" NCoef="0" IVar="-1" Cut="0.0000000000000000e+00" cType="1" res="3.1157480552792549e-03" rms="3.7869369983673096e-01" purity="7.7806186676025391e-01" nType="-99"/>
        </Node>
        <Node pos="r" depth="1" NCoef="0" IVar="7" Cut="1.4670456945896149e-01" cType="1" res="-3.7564311176538467e-02" rms="4.3219864368438721e-01" purity="3.9169600605964661e-01" nType="0">
          <Node pos="l" depth="2" NCoef="0" IVar="-1" Cut="0.0000000000000000e+00" cType="1" res="-4.4045766117051244e-04" rms="4.2597129940986633e-01" purity="3.8716053962707520e-01" nType="-99"/>
          <Node pos="r" depth="2" NCoef="0" IVar="-1" Cut="0.0000000000000000e+00" cType="1" res="-2.1271568257361650e-03" rms="4.5299622416496277e-01" purity="4.1284793615341187e-01" nType="-99"/>
        </Node>
      </Node>
    </BinaryTree>
    <BinaryTree type="DecisionTree" boostWeight="1.0000000000000000e+00" itree="621">
      <Node pos="s" depth="0" NCoef="0" IVar="0" Cut="9.1589397192001343e-01" cType="1" res="-5.2369446493685246e-03" rms="4.4608834385871887e-01" purity="5.0912803411483765e-01" nType="0">
        <Node pos="l" depth="1" NCoef="0" IVar="0" Cut="7.2865909337997437e-01" cType="1" res="-3.5661891102790833e-02" rms="4.5150443911552429e-01" purity="6.1537361145019531e-01" nType="0">
          <Node pos="l" depth="2" NCoef="0" IVar="-1" Cut="0.0000000000000000e+00" cType="1" res="3.5854618181474507e-04" rms="4.3210652470588684e-01" purity="6.7854481935501099e-01" nType="-99"/>
          <Node pos="r" depth="2" NCoef="0" IVar="-1" Cut="0.0000000000000000e+00" cType="1" res="-2.0430309232324362e-03" rms="4.6650385856628418e-01" purity="5.4317718744277954e-01" nType="-99"/>
        </Node>
        <Node pos="r" depth="1" NCoef="0" IVar="0" Cut="1.0070308446884155e+00" cType="1" res="1.9004508852958679e-02" rms="4.4022291898727417e-01" purity="4.2447555065155029e-01" nType="0">
          <Node pos="l" depth="2" NCoef="0" IVar="-1" Cut="0.0000000000000000e+00" cType="1" res="4.5588947832584381e-03" rms="3.7990880012512207e-01" purity="7.6462370157241821e-01" nType="-99"/>
          <Node pos="r" depth="2" NCoef="0" IVar="-1" Cut="0.0000000000000000e+00" cType="1" res="-1.0666913112800103e-05" rms="4.4492453336715698e-01" purity="3.7512880563735962e-01" nType="-99"/>
        </Node>
      </Node>
    </BinaryTree>
    <BinaryTree type="DecisionTree" boostWeight="1.0000000000000000e+00" itree="622">
      <Node pos="s" depth="0" NCoef="0" IVar="3" Cut="1.0118151855468750e+02" cType="1" res="-1.1007509194314480e-02" rms="4.3635627627372742e-01" purity="5.0548720359802246e-01" nType="0">
        <Node pos="l" depth="1" NCoef="0" IVar="-1" Cut="0.0000000000000000e+00" cType="1" res="-2.5163267273455858e-03" rms="3.8569569587707520e-01" purity="2.1545474231243134e-01" nType="-99"/>
        <Node pos="r" depth="1" NCoef="0" IVar="3" Cut="1.3946623229980469e+02" cType="1" res="2.9527745209634304e-03" rms="4.3846654891967773e-01" purity="5.3366941213607788e-01" nType="0">
          <Node pos="l" depth="2" NCoef="0" IVar="-1" Cut="0.0000000000000000e+00" cType="1" res="4.4146904838271439e-04" rms="4.4065484404563904e-01" purity="5.6628930568695068e-01" nType="-99"/>
          <Node pos="r" depth="2" NCoef="0" IVar="-1" Cut="0.0000000000000000e+00" cType="1" res="-1.8511866219341755e-03" rms="4.0993008017539978e-01" purity="3.2457649707794189e-01" nType="-99"/>
        </Node>
      </Node>
    </BinaryTree>
    <BinaryTree type="DecisionTree" boostWeight="1.0000000000000000e+00" itree="623">
      <Node pos="s" depth="0" NCoef="0" IVar="6" Cut="7.4175369262695312e+01" cType="1" res="-1.6656255349516869e-02" rms="4.3715444207191467e-01" purity="4.9569755792617798e-01" nType="0">
        <Node pos="l" depth="1" NCoef="0" IVar="3" Cut="1.3768634033203125e+02" cType="1" res="-4.3717704713344574e-02" rms="4.5011937618255615e-01" purity="4.2817041277885437e-01" nType="0">
          <Node pos="l" depth="2" NCoef="0" IVar="-1" Cut="0.0000000000000000e+00" cType="1" res="-5.6164636043831706e-04" rms="4.5479068160057068e-01" purity="4.5189994573593140e-01" nType="-99"/>
          <Node pos="r" depth="2" NCoef="0" IVar="-1" Cut="0.0000000000000000e+00" cType="1" res="-2.6430638972669840e-03" rms="4.0523120760917664e-01" purity="2.7454277873039246e-01" nType="-99"/>
        </Node>
        <Node pos="r" depth="1" NCoef="0" IVar="8" Cut="2.5054388046264648e+00" cType="1" res="1.2229510582983494e-02" rms="4.2096197605133057e-01" purity="5.6777697801589966e-01" nType="0">
          <Node pos="l" depth="2" NCoef="0" IVar="-1" Cut="0.0000000000000000e+00" cType="1" res="9.6998916706070304e-04" rms="4.2302301526069641e-01" purity="6.7122292518615723e-01" nType="-99"/>
          <Node pos="r" depth="2" NCoef="0" IVar="-1" Cut="0.0000000000000000e+00" cType="1" res="-1.0692747309803963e-03" rms="4.0619617700576782e-01" purity="2.3267506062984467e-01" nType="-99"/>
        </Node>
      </Node>
    </BinaryTree>
    <BinaryTree type="DecisionTree" boostWeight="1.0000000000000000e+00" itree="624">
      <Node pos="s" depth="0" NCoef="0" IVar="3" Cut="1.0008258056640625e+02" cType="1" res="-1.1688307859003544e-02" rms="4.3739658594131470e-01" purity="4.9832209944725037e-01" nType="0">
        <Node pos="l" depth="1" NCoef="0" IVar="-1" Cut="0.0000000000000000e+00" cType="1" res="-1.9503426738083363e-03" rms="4.0974631905555725e-01" purity="2.4587868154048920e-01" nType="-99"/>
        <Node pos="r" depth="1" NCoef="0" IVar="8" Cut="1.7536922693252563e+00" cType="1" res="-2.8860312886536121e-03" rms="4.3850725889205933e-01" purity="5.1956492662429810e-01" nType="0">
          <Node pos="l" depth="2" NCoef="0" IVar="-1" Cut="0.0000000000000000e+00" cType="1" res="-2.3502083495259285e-03" rms="4.6009698510169983e-01" purity="4.5584771037101746e-01" nType="-99"/>
          <Node pos="r" depth="2" NCoef="0" IVar="-1" Cut="0.0000000000000000e+00" cType="1" res="1.4728801033925265e-04" rms="4.3541905283927917e-01" purity="5.2432680130004883e-01" nType="-99"/>
        </Node>
      </Node>
    </BinaryTree>
    <BinaryTree type="DecisionTree" boostWeight="1.0000000000000000e+00" itree="625">
      <Node pos="s" depth="0" NCoef="0" IVar="7" Cut="2.3777131736278534e-01" cType="1" res="-1.8156492151319981e-03" rms="4.3836387991905212e-01" purity="5.0530731678009033e-01" nType="0">
        <Node pos="l" depth="1" NCoef="0" IVar="5" Cut="4.2919943237304688e+02" cType="1" res="6.4351810142397881e-03" rms="4.3514662981033325e-01" purity="5.0602400302886963e-01" nType="0">
          <Node pos="l" depth="2" NCoef="0" IVar="-1" Cut="0.0000000000000000e+00" cType="1" res="-8.9400523575022817e-04" rms="4.2106321454048157e-01" purity="3.4725433588027954e-01" nType="-99"/>
          <Node pos="r" depth="2" NCoef="0" IVar="-1" Cut="0.0000000000000000e+00" cType="1" res="4.8794943722896278e-04" rms="4.3765839934349060e-01" purity="5.4798376560211182e-01" nType="-99"/>
        </Node>
        <Node pos="r" depth="1" NCoef="0" IVar="-1" Cut="0.0000000000000000e+00" cType="1" res="-2.8773248195648193e-03" rms="4.6802893280982971e-01" purity="4.9321389198303223e-01" nType="-99"/>
      </Node>
    </BinaryTree>
    <BinaryTree type="DecisionTree" boostWeight="1.0000000000000000e+00" itree="626">
      <Node pos="s" depth="0" NCoef="0" IVar="2" Cut="9.1373670101165771e-01" cType="1" res="-3.0487965792417526e-02" rms="4.3921124935150146e-01" purity="4.7415262460708618e-01" nType="0">
        <Node pos="l" depth="1" NCoef="0" IVar="-1" Cut="0.0000000000000000e+00" cType="1" res="-1.8872295040637255e-03" rms="3.9408233761787415e-01" purity="2.0319376885890961e-01" nType="-99"/>
        <Node pos="r" depth="1" NCoef="0" IVar="6" Cut="9.5864257812500000e+01" cType="1" res="-2.2569259628653526e-02" rms="4.4190880656242371e-01" purity="4.9707186222076416e-01" nType="0">
          <Node pos="l" depth="2" NCoef="0" IVar="-1" Cut="0.0000000000000000e+00" cType="1" res="-8.8868825696408749e-04" rms="4.4428229331970215e-01" purity="4.4737488031387329e-01" nType="-99"/>
          <Node pos="r" depth="2" NCoef="0" IVar="-1" Cut="0.0000000000000000e+00" cType="1" res="7.6766085112467408e-04" rms="4.3210029602050781e-01" purity="6.1510646343231201e-01" nType="-99"/>
        </Node>
      </Node>
    </BinaryTree>
    <BinaryTree type="DecisionTree" boostWeight="1.0000000000000000e+00" itree="627">
      <Node pos="s" depth="0" NCoef="0" IVar="0" Cut="9.1670811176300049e-01" cType="1" res="1.2863720767199993e-03" rms="4.4669029116630554e-01" purity="5.1467752456665039e-01" nType="0">
        <Node pos="l" depth="1" NCoef="0" IVar="8" Cut="2.0558905601501465e+00" cType="1" res="-3.2873317599296570e-02" rms="4.6876773238182068e-01" purity="6.2236708402633667e-01" nType="0">
          <Node pos="l" depth="2" NCoef="0" IVar="-1" Cut="0.0000000000000000e+00" cType="1" res="7.3263404192402959e-04" rms="4.4887697696685791e-01" purity="6.7966789007186890e-01" nType="-99"/>
          <Node pos="r" depth="2" NCoef="0" IVar="-1" Cut="0.0000000000000000e+00" cType="1" res="-2.5366996414959431e-03" rms="4.8269468545913696e-01" purity="5.4675847291946411e-01" nType="-99"/>
        </Node>
        <Node pos="r" depth="1" NCoef="0" IVar="1" Cut="3.9080209350585938e+02" cType="1" res="2.8529034927487373e-02" rms="4.2631092667579651e-01" purity="4.2879417538642883e-01" nType="0">
          <Node pos="l" depth="2" NCoef="0" IVar="-1" Cut="0.0000000000000000e+00" cType="1" res="-3.6418094532564282e-04" rms="4.2876598238945007e-01" purity="3.5934025049209595e-01" nType="-99"/>
          <Node pos="r" depth="2" NCoef="0" IVar="-1" Cut="0.0000000000000000e+00" cType="1" res="2.1790314931422472e-03" rms="4.1550898551940918e-01" purity="5.1656830310821533e-01" nType="-99"/>
        </Node>
      </Node>
    </BinaryTree>
    <BinaryTree type="DecisionTree" boostWeight="1.0000000000000000e+00" itree="628">
      <Node pos="s" depth="0" NCoef="0" IVar="7" Cut="1.7049412429332733e-01" cType="1" res="4.5582600869238377e-03" rms="4.3514159321784973e-01" purity="5.1412361860275269e-01" nType="0">
        <Node pos="l" depth="1" NCoef="0" IVar="8" Cut="2.5688741207122803e+00" cType="1" res="1.7036741599440575e-02" rms="4.2931947112083435e-01" purity="5.0624942779541016e-01" nType="0">
          <Node pos="l" depth="2" NCoef="0" IVar="-1" Cut="0.0000000000000000e+00" cType="1" res="7.0794322527945042e-04" rms="4.3688288331031799e-01" purity="5.6802523136138916e-01" nType="-99"/>
          <Node pos="r" depth="2" NCoef="0" IVar="-1" Cut="0.0000000000000000e+00" cType="1" res="-9.5624255482107401e-04" rms="3.8185185194015503e-01" purity="1.9196155667304993e-01" nType="-99"/>
        </Node>
        <Node pos="r" depth="1" NCoef="0" IVar="3" Cut="1.2185913085937500e+02" cType="1" res="-5.5595882236957550e-02" rms="4.5742896199226379e-01" purity="5.5208206176757812e-01" nType="0">
          <Node pos="l" depth="2" NCoef="0" IVar="-1" Cut="0.0000000000000000e+00" cType="1" res="-2.9569666367024183e-03" rms="4.8599389195442200e-01" purity="4.9429827928543091e-01" nType="-99"/>
          <Node pos="r" depth="2" NCoef="0" IVar="-1" Cut="0.0000000000000000e+00" cType="1" res="6.9469574373215437e-04" rms="4.1070255637168884e-01" purity="6.0830378532409668e-01" nType="-99"/>
        </Node>
      </Node>
    </BinaryTree>
    <BinaryTree type="DecisionTree" boostWeight="1.0000000000000000e+00" itree="629">
      <Node pos="s" depth="0" NCoef="0" IVar="1" Cut="3.8943829345703125e+02" cType="1" res="-1.7858406528830528e-02" rms="4.3794953823089600e-01" purity="4.9359324574470520e-01" nType="0">
        <Node pos="l" depth="1" NCoef="0" IVar="2" Cut="9.2708492279052734e-01" cType="1" res="-4.8006374388933182e-02" rms="4.3741229176521301e-01" purity="4.1604587435722351e-01" nType="0">
          <Node pos="l" depth="2" NCoef="0" IVar="-1" Cut="0.0000000000000000e+00" cType="1" res="-1.9080734346061945e-03" rms="3.5171666741371155e-01" purity="1.5887956321239471e-01" nType="-99"/>
          <Node pos="r" depth="2" NCoef="0" IVar="-1" Cut="0.0000000000000000e+00" cType="1" res="-5.7788519188761711e-04" rms="4.5608836412429810e-01" purity="4.8649442195892334e-01" nType="-99"/>
        </Node>
        <Node pos="r" depth="1" NCoef="0" IVar="5" Cut="6.2882440185546875e+02" cType="1" res="1.3355324976146221e-02" rms="4.3631571531295776e-01" purity="5.7388192415237427e-01" nType="0">
          <Node pos="l" depth="2" NCoef="0" IVar="-1" Cut="0.0000000000000000e+00" cType="1" res="2.2404761984944344e-03" rms="4.1653874516487122e-01" purity="6.3307881355285645e-01" nType="-99"/>
          <Node pos="r" depth="2" NCoef="0" IVar="-1" Cut="0.0000000000000000e+00" cType="1" res="-5.9927086113020778e-04" rms="4.4234895706176758e-01" purity="5.4101872444152832e-01" nType="-99"/>
        </Node>
      </Node>
    </BinaryTree>
    <BinaryTree type="DecisionTree" boostWeight="1.0000000000000000e+00" itree="630">
      <Node pos="s" depth="0" NCoef="0" IVar="0" Cut="4.5348557829856873e-01" cType="1" res="-2.3650007322430611e-02" rms="4.3546164035797119e-01" purity="4.7735774517059326e-01" nType="0">
        <Node pos="l" depth="1" NCoef="0" IVar="-1" Cut="0.0000000000000000e+00" cType="1" res="-3.8117521908134222e-03" rms="4.5256447792053223e-01" purity="4.7975385189056396e-01" nType="-99"/>
        <Node pos="r" depth="1" NCoef="0" IVar="8" Cut="2.1412100791931152e+00" cType="1" res="-1.3386779464781284e-02" rms="4.3228822946548462e-01" purity="4.7721070051193237e-01" nType="0">
          <Node pos="l" depth="2" NCoef="0" IVar="-1" Cut="0.0000000000000000e+00" cType="1" res="4.7574957716278732e-04" rms="4.4656401872634888e-01" purity="6.1581695079803467e-01" nType="-99"/>
          <Node pos="r" depth="2" NCoef="0" IVar="-1" Cut="0.0000000000000000e+00" cType="1" res="-7.7187042916193604e-04" rms="4.1920998692512512e-01" purity="3.7043926119804382e-01" nType="-99"/>
        </Node>
      </Node>
    </BinaryTree>
    <BinaryTree type="DecisionTree" boostWeight="1.0000000000000000e+00" itree="631">
      <Node pos="s" depth="0" NCoef="0" IVar="7" Cut="2.0562003552913666e-01" cType="1" res="-7.7525875531136990e-03" rms="4.3989074230194092e-01" purity="4.9977213144302368e-01" nType="0">
        <Node pos="l" depth="1" NCoef="0" IVar="0" Cut="4.5348557829856873e-01" cType="1" res="-1.5849431976675987e-02" rms="4.3985947966575623e-01" purity="4.8138937354087830e-01" nType="0">
          <Node pos="l" depth="2" NCoef="0" IVar="-1" Cut="0.0000000000000000e+00" cType="1" res="-2.8242594562470913e-03" rms="4.5936495065689087e-01" purity="5.2348130941390991e-01" nType="-99"/>
          <Node pos="r" depth="2" NCoef="0" IVar="-1" Cut="0.0000000000000000e+00" cType="1" res="-1.8202864157501608e-04" rms="4.3756625056266785e-01" purity="4.7878870368003845e-01" nType="-99"/>
        </Node>
        <Node pos="r" depth="1" NCoef="0" IVar="-1" Cut="0.0000000000000000e+00" cType="1" res="3.1339207198470831e-03" rms="4.2643988132476807e-01" purity="7.3957663774490356e-01" nType="-99"/>
      </Node>
    </BinaryTree>
    <BinaryTree type="DecisionTree" boostWeight="1.0000000000000000e+00" itree="632">
      <Node pos="s" depth="0" NCoef="0" IVar="0" Cut="5.9725761413574219e-01" cType="1" res="-1.0451724752783775e-02" rms="4.3767917156219482e-01" purity="4.9752798676490784e-01" nType="0">
        <Node pos="l" depth="1" NCoef="0" IVar="3" Cut="1.2359967803955078e+02" cType="1" res="7.3161810636520386e-02" rms="4.0370091795921326e-01" purity="7.5662904977798462e-01" nType="0">
          <Node pos="l" depth="2" NCoef="0" IVar="-1" Cut="0.0000000000000000e+00" cType="1" res="4.6142805367708206e-03" rms="3.5033988952636719e-01" purity="8.2043594121932983e-01" nType="-99"/>
          <Node pos="r" depth="2" NCoef="0" IVar="-1" Cut="0.0000000000000000e+00" cType="1" res="5.9114868054166436e-04" rms="4.3636763095855713e-01" purity="7.0308846235275269e-01" nType="-99"/>
        </Node>
        <Node pos="r" depth="1" NCoef="0" IVar="6" Cut="4.6568489074707031e+01" cType="1" res="-2.3394899442791939e-02" rms="4.4129213690757751e-01" purity="4.5741975307464600e-01" nType="0">
          <Node pos="l" depth="2" NCoef="0" IVar="-1" Cut="0.0000000000000000e+00" cType="1" res="-1.4431182062253356e-03" rms="4.2148098349571228e-01" purity="3.0825716257095337e-01" nType="-99"/>
          <Node pos="r" depth="2" NCoef="0" IVar="-1" Cut="0.0000000000000000e+00" cType="1" res="-1.6147702990565449e-04" rms="4.4521629810333252e-01" purity="4.9820616841316223e-01" nType="-99"/>
        </Node>
      </Node>
    </BinaryTree>
    <BinaryTree type="DecisionTree" boostWeight="1.0000000000000000e+00" itree="633">
      <Node pos="s" depth="0" NCoef="0" IVar="7" Cut="1.3073515892028809e-01" cType="1" res="-3.1498525291681290e-02" rms="4.3576502799987793e-01" purity="4.8371830582618713e-01" nType="0">
        <Node pos="l" depth="1" NCoef="0" IVar="3" Cut="1.2775189208984375e+02" cType="1" res="-4.9346249550580978e-02" rms="4.3200206756591797e-01" purity="4.3846106529235840e-01" nType="0">
          <Node pos="l" depth="2" NCoef="0" IVar="-1" Cut="0.0000000000000000e+00" cType="1" res="-4.9084174679592252e-04" rms="4.3401643633842468e-01" purity="4.8332223296165466e-01" nType="-99"/>
          <Node pos="r" depth="2" NCoef="0" IVar="-1" Cut="0.0000000000000000e+00" cType="1" res="-1.7718282761052251e-03" rms="4.2537328600883484e-01" purity="3.6873388290405273e-01" nType="-99"/>
        </Node>
        <Node pos="r" depth="1" NCoef="0" IVar="5" Cut="4.7274291992187500e+02" cType="1" res="2.1590843796730042e-02" rms="4.4253614544868469e-01" purity="6.1833935976028442e-01" nType="0">
          <Node pos="l" depth="2" NCoef="0" IVar="-1" Cut="0.0000000000000000e+00" cType="1" res="-4.7895582974888384e-04" rms="4.5895987749099731e-01" purity="4.9822843074798584e-01" nType="-99"/>
          <Node pos="r" depth="2" NCoef="0" IVar="-1" Cut="0.0000000000000000e+00" cType="1" res="2.1396777592599392e-03" rms="4.2154285311698914e-01" purity="7.3427605628967285e-01" nType="-99"/>
        </Node>
      </Node>
    </BinaryTree>
    <BinaryTree type="DecisionTree" boostWeight="1.0000000000000000e+00" itree="634">
      <Node pos="s" depth="0" NCoef="0" IVar="4" Cut="1.4755334472656250e+02" cType="1" res="-8.5362615063786507e-03" rms="4.3755888938903809e-01" purity="5.0324642658233643e-01" nType="0">
        <Node pos="l" depth="1" NCoef="0" IVar="7" Cut="7.7765442430973053e-02" cType="1" res="-5.9230379760265350e-02" rms="4.3786603212356567e-01" purity="4.1768345236778259e-01" nType="0">
          <Node pos="l" depth="2" NCoef="0" IVar="-1" Cut="0.0000000000000000e+00" cType="1" res="-2.3657300043851137e-03" rms="4.0058559179306030e-01" purity="2.7090582251548767e-01" nType="-99"/>
          <Node pos="r" depth="2" NCoef="0" IVar="-1" Cut="0.0000000000000000e+00" cType="1" res="2.7115066768601537e-04" rms="4.5322477817535400e-01" purity="5.3708839416503906e-01" nType="-99"/>
        </Node>
        <Node pos="r" depth="1" NCoef="0" IVar="6" Cut="5.5961597442626953e+01" cType="1" res="2.6468608994036913e-03" rms="4.3669953942298889e-01" purity="5.2212160825729370e-01" nType="0">
          <Node pos="l" depth="2" NCoef="0" IVar="-1" Cut="0.0000000000000000e+00" cType="1" res="-7.5835915049538016e-04" rms="4.4294333457946777e-01" purity="4.0345385670661926e-01" nType="-99"/>
          <Node pos="r" depth="2" NCoef="0" IVar="-1" Cut="0.0000000000000000e+00" cType="1" res="4.2905402369797230e-04" rms="4.3355509638786316e-01" purity="5.6309449672698975e-01" nType="-99"/>
        </Node>
      </Node>
    </BinaryTree>
    <BinaryTree type="DecisionTree" boostWeight="1.0000000000000000e+00" itree="635">
      <Node pos="s" depth="0" NCoef="0" IVar="8" Cut="2.1221587657928467e+00" cType="1" res="-1.4059088192880154e-02" rms="4.3080747127532959e-01" purity="4.9281725287437439e-01" nType="0">
        <Node pos="l" depth="1" NCoef="0" IVar="3" Cut="1.3052639770507812e+02" cType="1" res="3.0358696356415749e-02" rms="4.2761570215225220e-01" purity="6.3788151741027832e-01" nType="0">
          <Node pos="l" depth="2" NCoef="0" IVar="-1" Cut="0.0000000000000000e+00" cType="1" res="1.7322216881439090e-03" rms="4.0801298618316650e-01" purity="6.7279273271560669e-01" nType="-99"/>
          <Node pos="r" depth="2" NCoef="0" IVar="-1" Cut="0.0000000000000000e+00" cType="1" res="-1.2577755842357874e-03" rms="4.6188741922378540e-01" purity="5.5059915781021118e-01" nType="-99"/>
        </Node>
        <Node pos="r" depth="1" NCoef="0" IVar="6" Cut="1.2671251678466797e+02" cType="1" res="-4.7777213156223297e-02" rms="4.3016314506530762e-01" purity="3.8269707560539246e-01" nType="0">
          <Node pos="l" depth="2" NCoef="0" IVar="-1" Cut="0.0000000000000000e+00" cType="1" res="-6.0431601013988256e-04" rms="4.3197080492973328e-01" purity="3.9087066054344177e-01" nType="-99"/>
          <Node pos="r" depth="2" NCoef="0" IVar="-1" Cut="0.0000000000000000e+00" cType="1" res="-2.0646073389798403e-03" rms="4.1529855132102966e-01" purity="3.4882190823554993e-01" nType="-99"/>
        </Node>
      </Node>
    </BinaryTree>
    <BinaryTree type="DecisionTree" boostWeight="1.0000000000000000e+00" itree="636">
      <Node pos="s" depth="0" NCoef="0" IVar="1" Cut="6.8618585205078125e+02" cType="1" res="-1.0238260030746460e-02" rms="4.4477900862693787e-01" purity="5.0819623470306396e-01" nType="0">
        <Node pos="l" depth="1" NCoef="0" IVar="6" Cut="3.8950820922851562e+01" cType="1" res="-2.0515756681561470e-02" rms="4.4709926843643188e-01" purity="4.8975294828414917e-01" nType="0">
          <Node pos="l" depth="2" NCoef="0" IVar="-1" Cut="0.0000000000000000e+00" cType="1" res="-1.9478537142276764e-03" rms="4.4966593384742737e-01" purity="3.0757528543472290e-01" nType="-99"/>
          <Node pos="r" depth="2" NCoef="0" IVar="-1" Cut="0.0000000000000000e+00" cType="1" res="-1.9655615324154496e-04" rms="4.4536370038986206e-01" purity="5.1164120435714722e-01" nType="-99"/>
        </Node>
        <Node pos="r" depth="1" NCoef="0" IVar="-1" Cut="0.0000000000000000e+00" cType="1" res="4.0668356232345104e-03" rms="3.9511319994926453e-01" purity="7.3109215497970581e-01" nType="-99"/>
      </Node>
    </BinaryTree>
    <BinaryTree type="DecisionTree" boostWeight="1.0000000000000000e+00" itree="637">
      <Node pos="s" depth="0" NCoef="0" IVar="0" Cut="4.5224785804748535e-01" cType="1" res="-1.4970058575272560e-02" rms="4.4206184148788452e-01" purity="4.9401512742042542e-01" nType="0">
        <Node pos="l" depth="1" NCoef="0" IVar="-1" Cut="0.0000000000000000e+00" cType="1" res="-3.2569412142038345e-03" rms="4.5094931125640869e-01" purity="5.0596833229064941e-01" nType="-99"/>
        <Node pos="r" depth="1" NCoef="0" IVar="2" Cut="9.1389286518096924e-01" cType="1" res="-6.7183608189225197e-03" rms="4.4016459584236145e-01" purity="4.9329206347465515e-01" nType="0">
          <Node pos="l" depth="2" NCoef="0" IVar="-1" Cut="0.0000000000000000e+00" cType="1" res="-1.4058817178010941e-03" rms="3.9070984721183777e-01" purity="2.1526190638542175e-01" nType="-99"/>
          <Node pos="r" depth="2" NCoef="0" IVar="-1" Cut="0.0000000000000000e+00" cType="1" res="4.3815696699311957e-05" rms="4.4451937079429626e-01" purity="5.2434712648391724e-01" nType="-99"/>
        </Node>
      </Node>
    </BinaryTree>
    <BinaryTree type="DecisionTree" boostWeight="1.0000000000000000e+00" itree="638">
      <Node pos="s" depth="0" NCoef="0" IVar="5" Cut="7.6750280761718750e+02" cType="1" res="-3.3518322743475437e-03" rms="4.3334785103797913e-01" purity="5.0785624980926514e-01" nType="0">
        <Node pos="l" depth="1" NCoef="0" IVar="3" Cut="1.4067370605468750e+02" cType="1" res="-1.5553023666143417e-02" rms="4.3824738264083862e-01" purity="4.8347607254981995e-01" nType="0">
          <Node pos="l" depth="2" NCoef="0" IVar="-1" Cut="0.0000000000000000e+00" cType="1" res="-1.4585031021852046e-04" rms="4.4008877873420715e-01" purity="5.0410687923431396e-01" nType="-99"/>
          <Node pos="r" depth="2" NCoef="0" IVar="-1" Cut="0.0000000000000000e+00" cType="1" res="-1.6643960261717439e-03" rms="4.1364106535911560e-01" purity="3.0235755443572998e-01" nType="-99"/>
        </Node>
        <Node pos="r" depth="1" NCoef="0" IVar="4" Cut="3.6873974609375000e+02" cType="1" res="6.2733963131904602e-02" rms="3.9935797452926636e-01" purity="6.3990759849548340e-01" nType="0">
          <Node pos="l" depth="2" NCoef="0" IVar="-1" Cut="0.0000000000000000e+00" cType="1" res="5.5617894977331161e-03" rms="3.5271784663200378e-01" purity="8.0589151382446289e-01" nType="-99"/>
          <Node pos="r" depth="2" NCoef="0" IVar="-1" Cut="0.0000000000000000e+00" cType="1" res="-8.5180345922708511e-04" rms="4.2750015854835510e-01" purity="4.3780061602592468e-01" nType="-99"/>
        </Node>
      </Node>
    </BinaryTree>
    <BinaryTree type="DecisionTree" boostWeight="1.0000000000000000e+00" itree="639">
      <Node pos="s" depth="0" NCoef="0" IVar="6" Cut="6.4546417236328125e+01" cType="1" res="2.6087129954248667e-03" rms="4.3440952897071838e-01" purity="5.1667630672454834e-01" nType="0">
        <Node pos="l" depth="1" NCoef="0" IVar="5" Cut="5.8678405761718750e+02" cType="1" res="-2.9735466465353966e-02" rms="4.4748499989509583e-01" purity="4.3813148140907288e-01" nType="0">
          <Node pos="l" depth="2" NCoef="0" IVar="-1" Cut="0.0000000000000000e+00" cType="1" res="-1.6169991567949182e-07" rms="4.4583684206008911e-01" purity="4.5827057957649231e-01" nType="-99"/>
          <Node pos="r" depth="2" NCoef="0" IVar="-1" Cut="0.0000000000000000e+00" cType="1" res="-2.1737639326602221e-03" rms="4.4035270810127258e-01" purity="3.7710008025169373e-01" nType="-99"/>
        </Node>
        <Node pos="r" depth="1" NCoef="0" IVar="4" Cut="4.3398468017578125e+02" cType="1" res="2.5347575545310974e-02" rms="4.2350015044212341e-01" purity="5.7189553976058960e-01" nType="0">
          <Node pos="l" depth="2" NCoef="0" IVar="-1" Cut="0.0000000000000000e+00" cType="1" res="9.5648859860375524e-04" rms="4.2096382379531860e-01" purity="5.9944099187850952e-01" nType="-99"/>
          <Node pos="r" depth="2" NCoef="0" IVar="-1" Cut="0.0000000000000000e+00" cType="1" res="-1.1944444850087166e-03" rms="4.3355673551559448e-01" purity="3.5324844717979431e-01" nType="-99"/>
        </Node>
      </Node>
    </BinaryTree>
    <BinaryTree type="DecisionTree" boostWeight="1.0000000000000000e+00" itree="640">
      <Node pos="s" depth="0" NCoef="0" IVar="4" Cut="3.1394195556640625e+02" cType="1" res="-2.8782021254301071e-03" rms="4.3777799606323242e-01" purity="5.1398414373397827e-01" nType="0">
        <Node pos="l" depth="1" NCoef="0" IVar="5" Cut="7.3412152099609375e+02" cType="1" res="1.3992591761052608e-02" rms="4.4556325674057007e-01" purity="5.6411790847778320e-01" nType="0">
          <Node pos="l" depth="2" NCoef="0" IVar="-1" Cut="0.0000000000000000e+00" cType="1" res="5.4298892791848630e-05" rms="4.5205563306808472e-01" purity="5.3731417655944824e-01" nType="-99"/>
          <Node pos="r" depth="2" NCoef="0" IVar="-1" Cut="0.0000000000000000e+00" cType="1" res="3.9981971494853497e-03" rms="3.7509965896606445e-01" purity="7.8369295597076416e-01" nType="-99"/>
        </Node>
        <Node pos="r" depth="1" NCoef="0" IVar="5" Cut="5.9682745361328125e+02" cType="1" res="-5.9098318219184875e-02" rms="4.0573814511299133e-01" purity="3.4691867232322693e-01" nType="0">
          <Node pos="l" depth="2" NCoef="0" IVar="-1" Cut="0.0000000000000000e+00" cType="1" res="-2.0357680041342974e-03" rms="3.4862262010574341e-01" purity="1.7448486387729645e-01" nType="-99"/>
          <Node pos="r" depth="2" NCoef="0" IVar="-1" Cut="0.0000000000000000e+00" cType="1" res="-3.6404276033863425e-04" rms="4.3465280532836914e-01" purity="4.6175011992454529e-01" nType="-99"/>
        </Node>
      </Node>
    </BinaryTree>
    <BinaryTree type="DecisionTree" boostWeight="1.0000000000000000e+00" itree="641">
      <Node pos="s" depth="0" NCoef="0" IVar="3" Cut="1.0819899749755859e+02" cType="1" res="8.1959646195173264e-03" rms="4.3448689579963684e-01" purity="5.2375000715255737e-01" nType="0">
        <Node pos="l" depth="1" NCoef="0" IVar="2" Cut="9.5877540111541748e-01" cType="1" res="-9.7602955996990204e-02" rms="4.4336476922035217e-01" purity="3.5248711705207825e-01" nType="0">
          <Node pos="l" depth="2" NCoef="0" IVar="-1" Cut="0.0000000000000000e+00" cType="1" res="-5.9834023704752326e-04" rms="4.2230021953582764e-01" purity="3.2831165194511414e-01" nType="-99"/>
          <Node pos="r" depth="2" NCoef="0" IVar="-1" Cut="0.0000000000000000e+00" cType="1" res="-4.0937196463346481e-03" rms="4.5611959695816040e-01" purity="3.8990172743797302e-01" nType="-99"/>
        </Node>
        <Node pos="r" depth="1" NCoef="0" IVar="5" Cut="8.4859118652343750e+02" cType="1" res="2.7709566056728363e-02" rms="4.2999550700187683e-01" purity="5.5533784627914429e-01" nType="0">
          <Node pos="l" depth="2" NCoef="0" IVar="-1" Cut="0.0000000000000000e+00" cType="1" res="4.4378192978911102e-04" rms="4.3235701322555542e-01" purity="5.3370803594589233e-01" nType="-99"/>
          <Node pos="r" depth="2" NCoef="0" IVar="-1" Cut="0.0000000000000000e+00" cType="1" res="4.9663595855236053e-03" rms="3.9023616909980774e-01" purity="7.9454272985458374e-01" nType="-99"/>
        </Node>
      </Node>
    </BinaryTree>
    <BinaryTree type="DecisionTree" boostWeight="1.0000000000000000e+00" itree="642">
      <Node pos="s" depth="0" NCoef="0" IVar="5" Cut="8.8539605712890625e+02" cType="1" res="-1.9267320632934570e-02" rms="4.4656994938850403e-01" purity="5.0299030542373657e-01" nType="0">
        <Node pos="l" depth="1" NCoef="0" IVar="6" Cut="4.1463836669921875e+01" cType="1" res="-2.9168609529733658e-02" rms="4.4979876279830933e-01" purity="4.8632746934890747e-01" nType="0">
          <Node pos="l" depth="2" NCoef="0" IVar="-1" Cut="0.0000000000000000e+00" cType="1" res="-1.5904114115983248e-03" rms="4.2316195368766785e-01" purity="3.1002789735794067e-01" nType="-99"/>
          <Node pos="r" depth="2" NCoef="0" IVar="-1" Cut="0.0000000000000000e+00" cType="1" res="-3.7244873237796128e-04" rms="4.5352604985237122e-01" purity="5.1955538988113403e-01" nType="-99"/>
        </Node>
        <Node pos="r" depth="1" NCoef="0" IVar="-1" Cut="0.0000000000000000e+00" cType="1" res="2.4192044511437416e-03" rms="3.9910098910331726e-01" purity="6.7101931571960449e-01" nType="-99"/>
      </Node>
    </BinaryTree>
    <BinaryTree type="DecisionTree" boostWeight="1.0000000000000000e+00" itree="643">
      <Node pos="s" depth="0" NCoef="0" IVar="5" Cut="4.9233987426757812e+02" cType="1" res="-4.5310026034712791e-03" rms="4.3389853835105896e-01" purity="4.9768334627151489e-01" nType="0">
        <Node pos="l" depth="1" NCoef="0" IVar="8" Cut="2.0841007232666016e+00" cType="1" res="-4.2741451412439346e-02" rms="4.3509417772293091e-01" purity="4.0517237782478333e-01" nType="0">
          <Node pos="l" depth="2" NCoef="0" IVar="-1" Cut="0.0000000000000000e+00" cType="1" res="5.7721789926290512e-04" rms="4.5156237483024597e-01" purity="5.5597394704818726e-01" nType="-99"/>
          <Node pos="r" depth="2" NCoef="0" IVar="-1" Cut="0.0000000000000000e+00" cType="1" res="-1.3401312753558159e-03" rms="4.2317461967468262e-01" purity="3.3479103446006775e-01" nType="-99"/>
        </Node>
        <Node pos="r" depth="1" NCoef="0" IVar="3" Cut="1.2745973968505859e+02" cType="1" res="2.2429613396525383e-02" rms="4.3101945519447327e-01" purity="5.6295740604400635e-01" nType="0">
          <Node pos="l" depth="2" NCoef="0" IVar="-1" Cut="0.0000000000000000e+00" cType="1" res="1.5314047923311591e-03" rms="4.2997214198112488e-01" purity="6.1916208267211914e-01" nType="-99"/>
          <Node pos="r" depth="2" NCoef="0" IVar="-1" Cut="0.0000000000000000e+00" cType="1" res="-4.7898010234348476e-04" rms="4.2853444814682007e-01" purity="4.8478391766548157e-01" nType="-99"/>
        </Node>
      </Node>
    </BinaryTree>
    <BinaryTree type="DecisionTree" boostWeight="1.0000000000000000e+00" itree="644">
      <Node pos="s" depth="0" NCoef="0" IVar="6" Cut="4.6422935485839844e+01" cType="1" res="-1.2230958789587021e-02" rms="4.3428865075111389e-01" purity="5.0737792253494263e-01" nType="0">
        <Node pos="l" depth="1" NCoef="0" IVar="4" Cut="1.7217184448242188e+02" cType="1" res="-7.8048005700111389e-02" rms="4.3378952145576477e-01" purity="3.3848085999488831e-01" nType="0">
          <Node pos="l" depth="2" NCoef="0" IVar="-1" Cut="0.0000000000000000e+00" cType="1" res="5.3875427693128586e-04" rms="4.7774615883827209e-01" purity="4.8991441726684570e-01" nType="-99"/>
          <Node pos="r" depth="2" NCoef="0" IVar="-1" Cut="0.0000000000000000e+00" cType="1" res="-2.5778175331652164e-03" rms="3.8196215033531189e-01" purity="2.2992116212844849e-01" nType="-99"/>
        </Node>
        <Node pos="r" depth="1" NCoef="0" IVar="8" Cut="2.0487027168273926e+00" cType="1" res="3.1574864406138659e-03" rms="4.3296456336975098e-01" purity="5.4686707258224487e-01" nType="0">
          <Node pos="l" depth="2" NCoef="0" IVar="-1" Cut="0.0000000000000000e+00" cType="1" res="1.4823928941041231e-03" rms="4.0881055593490601e-01" purity="7.1086257696151733e-01" nType="-99"/>
          <Node pos="r" depth="2" NCoef="0" IVar="-1" Cut="0.0000000000000000e+00" cType="1" res="-3.6071153590455651e-04" rms="4.4110202789306641e-01" purity="4.7914677858352661e-01" nType="-99"/>
        </Node>
      </Node>
    </BinaryTree>
    <BinaryTree type="DecisionTree" boostWeight="1.0000000000000000e+00" itree="645">
      <Node pos="s" depth="0" NCoef="0" IVar="3" Cut="1.4003033447265625e+02" cType="1" res="-1.6959596425294876e-02" rms="4.3141382932662964e-01" purity="4.8190012574195862e-01" nType="0">
        <Node pos="l" depth="1" NCoef="0" IVar="3" Cut="1.0087654113769531e+02" cType="1" res="-5.1753278821706772e-03" rms="4.3755599856376648e-01" purity="5.1145231723785400e-01" nType="0">
          <Node pos="l" depth="2" NCoef="0" IVar="-1" Cut="0.0000000000000000e+00" cType="1" res="-1.8381559057161212e-03" rms="4.3665203452110291e-01" purity="2.8324005007743835e-01" nType="-99"/>
          <Node pos="r" depth="2" NCoef="0" IVar="-1" Cut="0.0000000000000000e+00" cType="1" res="1.0615923383738846e-04" rms="4.3637576699256897e-01" purity="5.3364068269729614e-01" nType="-99"/>
        </Node>
        <Node pos="r" depth="1" NCoef="0" IVar="-1" Cut="0.0000000000000000e+00" cType="1" res="-1.8500207224860787e-03" rms="3.7700164318084717e-01" purity="2.7963009476661682e-01" nType="-99"/>
      </Node>
    </BinaryTree>
    <BinaryTree type="DecisionTree" boostWeight="1.0000000000000000e+00" itree="646">
      <Node pos="s" depth="0" NCoef="0" IVar="4" Cut="2.1245429992675781e+02" cType="1" res="-1.9708553329110146e-02" rms="4.4499683380126953e-01" purity="4.9939626455307007e-01" nType="0">
        <Node pos="l" depth="1" NCoef="0" IVar="5" Cut="6.0233489990234375e+02" cType="1" res="-4.9763027578592300e-02" rms="4.5649167895317078e-01" purity="4.9540853500366211e-01" nType="0">
          <Node pos="l" depth="2" NCoef="0" IVar="-1" Cut="0.0000000000000000e+00" cType="1" res="-4.5172250247560441e-04" rms="4.5323479175567627e-01" purity="5.0703203678131104e-01" nType="-99"/>
          <Node pos="r" depth="2" NCoef="0" IVar="-1" Cut="0.0000000000000000e+00" cType="1" res="-2.7122823521494865e-03" rms="4.5528241991996765e-01" purity="4.5990300178527832e-01" nType="-99"/>
        </Node>
        <Node pos="r" depth="1" NCoef="0" IVar="1" Cut="4.4688995361328125e+02" cType="1" res="1.4558155089616776e-02" rms="4.2895603179931641e-01" purity="5.0394284725189209e-01" nType="0">
          <Node pos="l" depth="2" NCoef="0" IVar="-1" Cut="0.0000000000000000e+00" cType="1" res="-6.0011376626789570e-04" rms="4.3517896533012390e-01" purity="3.9625030755996704e-01" nType="-99"/>
          <Node pos="r" depth="2" NCoef="0" IVar="-1" Cut="0.0000000000000000e+00" cType="1" res="1.6730965580791235e-03" rms="4.1833132505416870e-01" purity="6.0929733514785767e-01" nType="-99"/>
        </Node>
      </Node>
    </BinaryTree>
    <BinaryTree type="DecisionTree" boostWeight="1.0000000000000000e+00" itree="647">
      <Node pos="s" depth="0" NCoef="0" IVar="1" Cut="7.6270159912109375e+02" cType="1" res="-8.9563592337071896e-04" rms="4.3844962120056152e-01" purity="5.0226050615310669e-01" nType="0">
        <Node pos="l" depth="1" NCoef="0" IVar="2" Cut="9.3486160039901733e-01" cType="1" res="1.1564909480512142e-02" rms="4.3536570668220520e-01" purity="5.0857836008071899e-01" nType="0">
          <Node pos="l" depth="2" NCoef="0" IVar="-1" Cut="0.0000000000000000e+00" cType="1" res="-6.8375025875866413e-04" rms="4.2401203513145447e-01" purity="2.9768022894859314e-01" nType="-99"/>
          <Node pos="r" depth="2" NCoef="0" IVar="-1" Cut="0.0000000000000000e+00" cType="1" res="8.2130217924714088e-04" rms="4.3848001956939697e-01" purity="6.0154479742050171e-01" nType="-99"/>
        </Node>
        <Node pos="r" depth="1" NCoef="0" IVar="-1" Cut="0.0000000000000000e+00" cType="1" res="-3.6482936702668667e-03" rms="4.3913763761520386e-01" purity="4.0045118331909180e-01" nType="-99"/>
      </Node>
    </BinaryTree>
    <BinaryTree type="DecisionTree" boostWeight="1.0000000000000000e+00" itree="648">
      <Node pos="s" depth="0" NCoef="0" IVar="3" Cut="1.3959989929199219e+02" cType="1" res="-2.3739155381917953e-02" rms="4.3715623021125793e-01" purity="4.8447272181510925e-01" nType="0">
        <Node pos="l" depth="1" NCoef="0" IVar="8" Cut="1.7755038738250732e+00" cType="1" res="-1.3060054741799831e-02" rms="4.4010621309280396e-01" purity="5.1038181781768799e-01" nType="0">
          <Node pos="l" depth="2" NCoef="0" IVar="-1" Cut="0.0000000000000000e+00" cType="1" res="-2.2684144787490368e-03" rms="4.6585720777511597e-01" purity="4.7087085247039795e-01" nType="-99"/>
          <Node pos="r" depth="2" NCoef="0" IVar="-1" Cut="0.0000000000000000e+00" cType="1" res="-1.0030707198893651e-04" rms="4.3679165840148926e-01" purity="5.1369625329971313e-01" nType="-99"/>
        </Node>
        <Node pos="r" depth="1" NCoef="0" IVar="0" Cut="9.9715304374694824e-01" cType="1" res="-9.2646881937980652e-02" rms="4.1100203990936279e-01" purity="3.1729215383529663e-01" nType="0">
          <Node pos="l" depth="2" NCoef="0" IVar="-1" Cut="0.0000000000000000e+00" cType="1" res="-1.2617690954357386e-03" rms="4.7676527500152588e-01" purity="5.2826184034347534e-01" nType="-99"/>
          <Node pos="r" depth="2" NCoef="0" IVar="-1" Cut="0.0000000000000000e+00" cType="1" res="-1.9891886040568352e-03" rms="3.6525371670722961e-01" purity="1.9247300922870636e-01" nType="-99"/>
        </Node>
      </Node>
    </BinaryTree>
    <BinaryTree type="DecisionTree" boostWeight="1.0000000000000000e+00" itree="649">
      <Node pos="s" depth="0" NCoef="0" IVar="3" Cut="1.0869512939453125e+02" cType="1" res="-2.6750909164547920e-02" rms="4.3663123250007629e-01" purity="4.8774880170822144e-01" nType="0">
        <Node pos="l" depth="1" NCoef="0" IVar="7" Cut="7.2126433253288269e-02" cType="1" res="-1.1474075913429260e-01" rms="4.1332498192787170e-01" purity="3.1345590949058533e-01" nType="0">
          <Node pos="l" depth="2" NCoef="0" IVar="-1" Cut="0.0000000000000000e+00" cType="1" res="-9.6671120263636112e-04" rms="3.9968729019165039e-01" purity="3.2131248712539673e-01" nType="-99"/>
          <Node pos="r" depth="2" NCoef="0" IVar="-1" Cut="0.0000000000000000e+00" cType="1" res="-2.7801671531051397e-03" rms="4.1676530241966248e-01" purity="3.0632680654525757e-01" nType="-99"/>
        </Node>
        <Node pos="r" depth="1" NCoef="0" IVar="3" Cut="1.4047702026367188e+02" cType="1" res="-1.1154798790812492e-02" rms="4.3879660964012146e-01" purity="5.1864200830459595e-01" nType="0">
          <Node pos="l" depth="2" NCoef="0" IVar="-1" Cut="0.0000000000000000e+00" cType="1" res="1.5583077038172632e-04" rms="4.4570800662040710e-01" purity="5.5781084299087524e-01" nType="-99"/>
          <Node pos="r" depth="2" NCoef="0" IVar="-1" Cut="0.0000000000000000e+00" cType="1" res="-1.9629243761301041e-03" rms="3.8446754217147827e-01" purity="3.0355834960937500e-01" nType="-99"/>
        </Node>
      </Node>
    </BinaryTree>
    <BinaryTree type="DecisionTree" boostWeight="1.0000000000000000e+00" itree="650">
      <Node pos="s" depth="0" NCoef="0" IVar="0" Cut="6.1312842369079590e-01" cType="1" res="-1.2616635300219059e-02" rms="4.4326418638229370e-01" purity="5.0169926881790161e-01" nType="0">
        <Node pos="l" depth="1" NCoef="0" IVar="8" Cut="1.9416021108627319e+00" cType="1" res="5.5084560066461563e-02" rms="4.1992276906967163e-01" purity="7.3250216245651245e-01" nType="0">
          <Node pos="l" depth="2" NCoef="0" IVar="-1" Cut="0.0000000000000000e+00" cType="1" res="-7.9071917571127415e-04" rms="4.7057998180389404e-01" purity="6.3032215833663940e-01" nType="-99"/>
          <Node pos="r" depth="2" NCoef="0" IVar="-1" Cut="0.0000000000000000e+00" cType="1" res="5.9640742838382721e-03" rms="3.2551673054695129e-01" purity="8.5019028186798096e-01" nType="-99"/>
        </Node>
        <Node pos="r" depth="1" NCoef="0" IVar="0" Cut="6.8626308441162109e-01" cType="1" res="-2.3064047098159790e-02" rms="4.4584286212921143e-01" purity="4.6608260273933411e-01" nType="0">
          <Node pos="l" depth="2" NCoef="0" IVar="-1" Cut="0.0000000000000000e+00" cType="1" res="-2.3800549097359180e-03" rms="4.6917358040809631e-01" purity="4.9786481261253357e-01" nType="-99"/>
          <Node pos="r" depth="2" NCoef="0" IVar="-1" Cut="0.0000000000000000e+00" cType="1" res="-3.0046462779864669e-04" rms="4.4264355301856995e-01" purity="4.6329739689826965e-01" nType="-99"/>
        </Node>
      </Node>
    </BinaryTree>
    <BinaryTree type="DecisionTree" boostWeight="1.0000000000000000e+00" itree="651">
      <Node pos="s" depth="0" NCoef="0" IVar="0" Cut="7.1518450975418091e-01" cType="1" res="-1.8463172018527985e-02" rms="4.3148368597030640e-01" purity="4.8477479815483093e-01" nType="0">
        <Node pos="l" depth="1" NCoef="0" IVar="6" Cut="6.9760513305664062e+01" cType="1" res="2.7538713067770004e-02" rms="4.2936354875564575e-01" purity="7.0370268821716309e-01" nType="0">
          <Node pos="l" depth="2" NCoef="0" IVar="-1" Cut="0.0000000000000000e+00" cType="1" res="1.9255052320659161e-03" rms="4.2650657892227173e-01" purity="6.7337739467620850e-01" nType="-99"/>
          <Node pos="r" depth="2" NCoef="0" IVar="-1" Cut="0.0000000000000000e+00" cType="1" res="-8.2094356184825301e-04" rms="4.2648887634277344e-01" purity="7.3554748296737671e-01" nType="-99"/>
        </Node>
        <Node pos="r" depth="1" NCoef="0" IVar="6" Cut="9.4577102661132812e+01" cType="1" res="-3.0688570812344551e-02" rms="4.3122079968452454e-01" purity="4.2659279704093933e-01" nType="0">
          <Node pos="l" depth="2" NCoef="0" IVar="-1" Cut="0.0000000000000000e+00" cType="1" res="-9.5121847698464990e-04" rms="4.2547142505645752e-01" purity="3.7699037790298462e-01" nType="-99"/>
          <Node pos="r" depth="2" NCoef="0" IVar="-1" Cut="0.0000000000000000e+00" cType="1" res="1.9220166723243892e-04" rms="4.4064182043075562e-01" purity="5.3160119056701660e-01" nType="-99"/>
        </Node>
      </Node>
    </BinaryTree>
    <BinaryTree type="DecisionTree" boostWeight="1.0000000000000000e+00" itree="652">
      <Node pos="s" depth="0" NCoef="0" IVar="8" Cut="2.5677564144134521e+00" cType="1" res="1.3668262399733067e-03" rms="4.3112593889236450e-01" purity="5.1151907444000244e-01" nType="0">
        <Node pos="l" depth="1" NCoef="0" IVar="0" Cut="7.1552270650863647e-01" cType="1" res="1.6385281458497047e-02" rms="4.4167542457580566e-01" purity="5.7298666238784790e-01" nType="0">
          <Node pos="l" depth="2" NCoef="0" IVar="-1" Cut="0.0000000000000000e+00" cType="1" res="1.9751400686800480e-03" rms="4.1811966896057129e-01" purity="7.4355316162109375e-01" nType="-99"/>
          <Node pos="r" depth="2" NCoef="0" IVar="-1" Cut="0.0000000000000000e+00" cType="1" res="1.0781915079860482e-05" rms="4.4812580943107605e-01" purity="5.1614809036254883e-01" nType="-99"/>
        </Node>
        <Node pos="r" depth="1" NCoef="0" IVar="-1" Cut="0.0000000000000000e+00" cType="1" res="-1.5309524023905396e-03" rms="3.5355126857757568e-01" purity="1.6231204569339752e-01" nType="-99"/>
      </Node>
    </BinaryTree>
    <BinaryTree type="DecisionTree" boostWeight="1.0000000000000000e+00" itree="653">
      <Node pos="s" depth="0" NCoef="0" IVar="2" Cut="9.4654852151870728e-01" cType="1" res="-3.8206685334444046e-02" rms="4.4581699371337891e-01" purity="4.7459977865219116e-01" nType="0">
        <Node pos="l" depth="1" NCoef="0" IVar="1" Cut="3.8192178344726562e+02" cType="1" res="-5.5287415161728859e-03" rms="4.3596220016479492e-01" purity="3.6642053723335266e-01" nType="0">
          <Node pos="l" depth="2" NCoef="0" IVar="-1" Cut="0.0000000000000000e+00" cType="1" res="-8.9993834262713790e-04" rms="4.2938777804374695e-01" purity="2.8619575500488281e-01" nType="-99"/>
          <Node pos="r" depth="2" NCoef="0" IVar="-1" Cut="0.0000000000000000e+00" cType="1" res="8.6002721218392253e-04" rms="4.3747267127037048e-01" purity="4.4548541307449341e-01" nType="-99"/>
        </Node>
        <Node pos="r" depth="1" NCoef="0" IVar="2" Cut="9.7662192583084106e-01" cType="1" res="-6.1454351991415024e-02" rms="4.5125898718833923e-01" purity="5.5156040191650391e-01" nType="0">
          <Node pos="l" depth="2" NCoef="0" IVar="-1" Cut="0.0000000000000000e+00" cType="1" res="-1.7769258702173829e-03" rms="4.6920844912528992e-01" purity="5.0870817899703979e-01" nType="-99"/>
          <Node pos="r" depth="2" NCoef="0" IVar="-1" Cut="0.0000000000000000e+00" cType="1" res="1.3465891242958605e-04" rms="3.8188418745994568e-01" purity="6.8677479028701782e-01" nType="-99"/>
        </Node>
      </Node>
    </BinaryTree>
    <BinaryTree type="DecisionTree" boostWeight="1.0000000000000000e+00" itree="654">
      <Node pos="s" depth="0" NCoef="0" IVar="3" Cut="1.0061682128906250e+02" cType="1" res="-8.4370439872145653e-03" rms="4.3731838464736938e-01" purity="5.0150418281555176e-01" nType="0">
        <Node pos="l" depth="1" NCoef="0" IVar="-1" Cut="0.0000000000000000e+00" cType="1" res="-2.0531199406832457e-03" rms="3.9683172106742859e-01" purity="2.6329660415649414e-01" nType="-99"/>
        <Node pos="r" depth="1" NCoef="0" IVar="8" Cut="2.1179790496826172e+00" cType="1" res="-4.3749966425821185e-04" rms="4.3904873728752136e-01" purity="5.1885008811950684e-01" nType="0">
          <Node pos="l" depth="2" NCoef="0" IVar="-1" Cut="0.0000000000000000e+00" cType="1" res="8.6058099986985326e-04" rms="4.3535301089286804e-01" purity="6.5338987112045288e-01" nType="-99"/>
          <Node pos="r" depth="2" NCoef="0" IVar="-1" Cut="0.0000000000000000e+00" cType="1" res="-5.4299028124660254e-04" rms="4.4010093808174133e-01" purity="4.1640266776084900e-01" nType="-99"/>
        </Node>
      </Node>
    </BinaryTree>
    <BinaryTree type="DecisionTree" boostWeight="1.0000000000000000e+00" itree="655">
      <Node pos="s" depth="0" NCoef="0" IVar="8" Cut="1.6926208734512329e+00" cType="1" res="-1.9502492621541023e-02" rms="4.4733706116676331e-01" purity="5.0709062814712524e-01" nType="0">
        <Node pos="l" depth="1" NCoef="0" IVar="-1" Cut="0.0000000000000000e+00" cType="1" res="-3.0797973740845919e-03" rms="4.9636611342430115e-01" purity="4.2678502202033997e-01" nType="-99"/>
        <Node pos="r" depth="1" NCoef="0" IVar="2" Cut="9.1899931430816650e-01" cType="1" res="-1.0035632178187370e-02" rms="4.4229820370674133e-01" purity="5.1233249902725220e-01" nType="0">
          <Node pos="l" depth="2" NCoef="0" IVar="-1" Cut="0.0000000000000000e+00" cType="1" res="1.6647024312987924e-03" rms="4.3656745553016663e-01" purity="4.0693432092666626e-01" nType="-99"/>
          <Node pos="r" depth="2" NCoef="0" IVar="-1" Cut="0.0000000000000000e+00" cType="1" res="-3.8818811299279332e-04" rms="4.4198161363601685e-01" purity="5.2081328630447388e-01" nType="-99"/>
        </Node>
      </Node>
    </BinaryTree>
    <BinaryTree type="DecisionTree" boostWeight="1.0000000000000000e+00" itree="656">
      <Node pos="s" depth="0" NCoef="0" IVar="7" Cut="5.5590841919183731e-02" cType="1" res="-5.1567479968070984e-03" rms="4.4443321228027344e-01" purity="5.0471615791320801e-01" nType="0">
        <Node pos="l" depth="1" NCoef="0" IVar="2" Cut="9.6896374225616455e-01" cType="1" res="-4.2104143649339676e-02" rms="4.2722138762474060e-01" purity="3.7754154205322266e-01" nType="0">
          <Node pos="l" depth="2" NCoef="0" IVar="-1" Cut="0.0000000000000000e+00" cType="1" res="-1.2548418017104268e-03" rms="4.3382394313812256e-01" purity="3.1742897629737854e-01" nType="-99"/>
          <Node pos="r" depth="2" NCoef="0" IVar="-1" Cut="0.0000000000000000e+00" cType="1" res="2.5534329470247030e-03" rms="3.6659622192382812e-01" purity="6.8518364429473877e-01" nType="-99"/>
        </Node>
        <Node pos="r" depth="1" NCoef="0" IVar="4" Cut="1.3654783630371094e+02" cType="1" res="1.4638444408774376e-02" rms="4.5214560627937317e-01" purity="5.7285213470458984e-01" nType="0">
          <Node pos="l" depth="2" NCoef="0" IVar="-1" Cut="0.0000000000000000e+00" cType="1" res="-1.4748552348464727e-03" rms="4.6001496911048889e-01" purity="4.3107819557189941e-01" nType="-99"/>
          <Node pos="r" depth="2" NCoef="0" IVar="-1" Cut="0.0000000000000000e+00" cType="1" res="7.6741585507988930e-04" rms="4.4866353273391724e-01" purity="5.9821587800979614e-01" nType="-99"/>
        </Node>
      </Node>
    </BinaryTree>
    <BinaryTree type="DecisionTree" boostWeight="1.0000000000000000e+00" itree="657">
      <Node pos="s" depth="0" NCoef="0" IVar="2" Cut="9.2756181955337524e-01" cType="1" res="-8.0528995022177696e-03" rms="4.3471577763557434e-01" purity="5.0702279806137085e-01" nType="0">
        <Node pos="l" depth="1" NCoef="0" IVar="2" Cut="9.1835892200469971e-01" cType="1" res="-6.7477077245712280e-02" rms="4.1223552823066711e-01" purity="2.7042523026466370e-01" nType="0">
          <Node pos="l" depth="2" NCoef="0" IVar="-1" Cut="0.0000000000000000e+00" cType="1" res="-2.8026665677316487e-04" rms="4.2262598872184753e-01" purity="3.0980744957923889e-01" nType="-99"/>
          <Node pos="r" depth="2" NCoef="0" IVar="-1" Cut="0.0000000000000000e+00" cType="1" res="-1.7842455999925733e-03" rms="3.9691799879074097e-01" purity="2.3506742715835571e-01" nType="-99"/>
        </Node>
        <Node pos="r" depth="1" NCoef="0" IVar="7" Cut="4.0197312831878662e-02" cType="1" res="6.2473583966493607e-03" rms="4.3875434994697571e-01" purity="5.6395936012268066e-01" nType="0">
          <Node pos="l" depth="2" NCoef="0" IVar="-1" Cut="0.0000000000000000e+00" cType="1" res="-1.1480019893497229e-03" rms="4.3718081712722778e-01" purity="3.9774778485298157e-01" nType="-99"/>
          <Node pos="r" depth="2" NCoef="0" IVar="-1" Cut="0.0000000000000000e+00" cType="1" res="6.5858528250828385e-04" rms="4.3736287951469421e-01" purity="6.1418277025222778e-01" nType="-99"/>
        </Node>
      </Node>
    </BinaryTree>
    <BinaryTree type="DecisionTree" boostWeight="1.0000000000000000e+00" itree="658">
      <Node pos="s" depth="0" NCoef="0" IVar="5" Cut="5.2185107421875000e+02" cType="1" res="-4.8424177803099155e-03" rms="4.4609299302101135e-01" purity="5.1243978738784790e-01" nType="0">
        <Node pos="l" depth="1" NCoef="0" IVar="5" Cut="4.8255584716796875e+02" cType="1" res="2.2619340568780899e-02" rms="4.3429988622665405e-01" purity="4.8835811018943787e-01" nType="0">
          <Node pos="l" depth="2" NCoef="0" IVar="-1" Cut="0.0000000000000000e+00" cType="1" res="-1.3434460561256856e-04" rms="4.4188326597213745e-01" purity="4.4395336508750916e-01" nType="-99"/>
          <Node pos="r" depth="2" NCoef="0" IVar="-1" Cut="0.0000000000000000e+00" cType="1" res="4.0368004702031612e-03" rms="3.8290819525718689e-01" purity="6.6046154499053955e-01" nType="-99"/>
        </Node>
        <Node pos="r" depth="1" NCoef="0" IVar="5" Cut="8.4489318847656250e+02" cType="1" res="-2.7738193050026894e-02" rms="4.5442518591880798e-01" purity="5.3251755237579346e-01" nType="0">
          <Node pos="l" depth="2" NCoef="0" IVar="-1" Cut="0.0000000000000000e+00" cType="1" res="-1.1226861970499158e-03" rms="4.5451045036315918e-01" purity="5.0520890951156616e-01" nType="-99"/>
          <Node pos="r" depth="2" NCoef="0" IVar="-1" Cut="0.0000000000000000e+00" cType="1" res="1.5477518318220973e-03" rms="4.4439309835433960e-01" purity="6.3985437154769897e-01" nType="-99"/>
        </Node>
      </Node>
    </BinaryTree>
    <BinaryTree type="DecisionTree" boostWeight="1.0000000000000000e+00" itree="659">
      <Node pos="s" depth="0" NCoef="0" IVar="6" Cut="1.3736293029785156e+02" cType="1" res="-1.9169666338711977e-03" rms="4.4268438220024109e-01" purity="5.1817965507507324e-01" nType="0">
        <Node pos="l" depth="1" NCoef="0" IVar="6" Cut="9.4499015808105469e+01" cType="1" res="7.7285468578338623e-03" rms="4.4052007794380188e-01" purity="5.2673953771591187e-01" nType="0">
          <Node pos="l" depth="2" NCoef="0" IVar="-1" Cut="0.0000000000000000e+00" cType="1" res="-1.8845064914785326e-04" rms="4.4760516285896301e-01" purity="4.8136591911315918e-01" nType="-99"/>
          <Node pos="r" depth="2" NCoef="0" IVar="-1" Cut="0.0000000000000000e+00" cType="1" res="1.7313772113993764e-03" rms="4.1390779614448547e-01" purity="6.6555798053741455e-01" nType="-99"/>
        </Node>
        <Node pos="r" depth="1" NCoef="0" IVar="-1" Cut="0.0000000000000000e+00" cType="1" res="-2.3006317205727100e-03" rms="4.5256426930427551e-01" purity="4.2884492874145508e-01" nType="-99"/>
      </Node>
    </BinaryTree>
    <BinaryTree type="DecisionTree" boostWeight="1.0000000000000000e+00" itree="660">
      <Node pos="s" depth="0" NCoef="0" IVar="2" Cut="9.2580527067184448e-01" cType="1" res="-9.0233245864510536e-03" rms="4.4439852237701416e-01" purity="5.0684064626693726e-01" nType="0">
        <Node pos="l" depth="1" NCoef="0" IVar="0" Cut="1.0420892238616943e+00" cType="1" res="-6.6997513175010681e-02" rms="4.1920319199562073e-01" purity="2.6228681206703186e-01" nType="0">
          <Node pos="l" depth="2" NCoef="0" IVar="-1" Cut="0.0000000000000000e+00" cType="1" res="-1.8541547469794750e-03" rms="4.5087382197380066e-01" purity="3.2474258542060852e-01" nType="-99"/>
          <Node pos="r" depth="2" NCoef="0" IVar="-1" Cut="0.0000000000000000e+00" cType="1" res="-2.3713626433163881e-04" rms="3.7785696983337402e-01" purity="2.0121994614601135e-01" nType="-99"/>
        </Node>
        <Node pos="r" depth="1" NCoef="0" IVar="6" Cut="1.1269119262695312e+02" cType="1" res="3.7263415288180113e-03" rms="4.4874662160873413e-01" purity="5.6062287092208862e-01" nType="0">
          <Node pos="l" depth="2" NCoef="0" IVar="-1" Cut="0.0000000000000000e+00" cType="1" res="4.2830541497096419e-04" rms="4.4501456618309021e-01" purity="5.5652421712875366e-01" nType="-99"/>
          <Node pos="r" depth="2" NCoef="0" IVar="-1" Cut="0.0000000000000000e+00" cType="1" res="-1.2466810876503587e-03" rms="4.5812267065048218e-01" purity="5.7515704631805420e-01" nType="-99"/>
        </Node>
      </Node>
    </BinaryTree>
    <BinaryTree type="DecisionTree" boostWeight="1.0000000000000000e+00" itree="661">
      <Node pos="s" depth="0" NCoef="0" IVar="3" Cut="1.0145034027099609e+02" cType="1" res="-2.4882843717932701e-02" rms="4.3659842014312744e-01" purity="4.8426762223243713e-01" nType="0">
        <Node pos="l" depth="1" NCoef="0" IVar="-1" Cut="0.0000000000000000e+00" cType="1" res="-1.7952591879293323e-03" rms="3.8137188553810120e-01" purity="2.3786152899265289e-01" nType="-99"/>
        <Node pos="r" depth="1" NCoef="0" IVar="8" Cut="1.7212055921554565e+00" cType="1" res="-1.7727544531226158e-02" rms="4.4050574302673340e-01" purity="5.0635594129562378e-01" nType="0">
          <Node pos="l" depth="2" NCoef="0" IVar="-1" Cut="0.0000000000000000e+00" cType="1" res="-2.1033745724707842e-03" rms="4.6277689933776855e-01" purity="4.6527525782585144e-01" nType="-99"/>
          <Node pos="r" depth="2" NCoef="0" IVar="-1" Cut="0.0000000000000000e+00" cType="1" res="-2.6553522911854088e-04" rms="4.3842008709907532e-01" purity="5.0891661643981934e-01" nType="-99"/>
        </Node>
      </Node>
    </BinaryTree>
    <BinaryTree type="DecisionTree" boostWeight="1.0000000000000000e+00" itree="662">
      <Node pos="s" depth="0" NCoef="0" IVar="7" Cut="1.9270168244838715e-01" cType="1" res="-9.5042278990149498e-03" rms="4.3974605202674866e-01" purity="4.9646061658859253e-01" nType="0">
        <Node pos="l" depth="1" NCoef="0" IVar="6" Cut="4.1751464843750000e+01" cType="1" res="-1.9001217558979988e-02" rms="4.4023168087005615e-01" purity="4.7424009442329407e-01" nType="0">
          <Node pos="l" depth="2" NCoef="0" IVar="-1" Cut="0.0000000000000000e+00" cType="1" res="-1.6090540448203683e-03" rms="4.4226190447807312e-01" purity="3.1347632408142090e-01" nType="-99"/>
          <Node pos="r" depth="2" NCoef="0" IVar="-1" Cut="0.0000000000000000e+00" cType="1" res="-1.3472609862219542e-04" rms="4.3859180808067322e-01" purity="5.0200212001800537e-01" nType="-99"/>
        </Node>
        <Node pos="r" depth="1" NCoef="0" IVar="-1" Cut="0.0000000000000000e+00" cType="1" res="2.3855252657085657e-03" rms="4.2386174201965332e-01" purity="7.1406489610671997e-01" nType="-99"/>
      </Node>
    </BinaryTree>
    <BinaryTree type="DecisionTree" boostWeight="1.0000000000000000e+00" itree="663">
      <Node pos="s" depth="0" NCoef="0" IVar="1" Cut="3.1853054809570312e+02" cType="1" res="-1.2574040330946445e-02" rms="4.4206869602203369e-01" purity="4.9608159065246582e-01" nType="0">
        <Node pos="l" depth="1" NCoef="0" IVar="1" Cut="2.7265051269531250e+02" cType="1" res="3.5781554877758026e-02" rms="4.3674060702323914e-01" purity="4.4437327980995178e-01" nType="0">
          <Node pos="l" depth="2" NCoef="0" IVar="-1" Cut="0.0000000000000000e+00" cType="1" res="-8.4899767534807324e-04" rms="4.1068989038467407e-01" purity="3.0562910437583923e-01" nType="-99"/>
          <Node pos="r" depth="2" NCoef="0" IVar="-1" Cut="0.0000000000000000e+00" cType="1" res="2.2859002929180861e-03" rms="4.4592371582984924e-01" purity="5.4909557104110718e-01" nType="-99"/>
        </Node>
        <Node pos="r" depth="1" NCoef="0" IVar="6" Cut="8.8381584167480469e+01" cType="1" res="-2.6303818449378014e-02" rms="4.4260796904563904e-01" purity="5.1076334714889526e-01" nType="0">
          <Node pos="l" depth="2" NCoef="0" IVar="-1" Cut="0.0000000000000000e+00" cType="1" res="-1.0690640192478895e-03" rms="4.5720902085304260e-01" purity="4.5701351761817932e-01" nType="-99"/>
          <Node pos="r" depth="2" NCoef="0" IVar="-1" Cut="0.0000000000000000e+00" cType="1" res="2.0163487351965159e-04" rms="4.2069488763809204e-01" purity="5.7969748973846436e-01" nType="-99"/>
        </Node>
      </Node>
    </BinaryTree>
    <BinaryTree type="DecisionTree" boostWeight="1.0000000000000000e+00" itree="664">
      <Node pos="s" depth="0" NCoef="0" IVar="2" Cut="9.2901360988616943e-01" cType="1" res="-9.5371156930923462e-03" rms="4.2764550447463989e-01" purity="4.8664259910583496e-01" nType="0">
        <Node pos="l" depth="1" NCoef="0" IVar="2" Cut="9.1831350326538086e-01" cType="1" res="-6.6513679921627045e-02" rms="3.9549949765205383e-01" purity="2.4649396538734436e-01" nType="0">
          <Node pos="l" depth="2" NCoef="0" IVar="-1" Cut="0.0000000000000000e+00" cType="1" res="2.7495087124407291e-04" rms="4.1418960690498352e-01" purity="3.1812557578086853e-01" nType="-99"/>
          <Node pos="r" depth="2" NCoef="0" IVar="-1" Cut="0.0000000000000000e+00" cType="1" res="-2.2748291958123446e-03" rms="3.6318492889404297e-01" purity="1.8256852030754089e-01" nType="-99"/>
        </Node>
        <Node pos="r" depth="1" NCoef="0" IVar="5" Cut="4.6947631835937500e+02" cType="1" res="7.1334806270897388e-03" rms="4.3519538640975952e-01" purity="5.5690693855285645e-01" nType="0">
          <Node pos="l" depth="2" NCoef="0" IVar="-1" Cut="0.0000000000000000e+00" cType="1" res="-9.9138321820646524e-04" rms="4.4739228487014771e-01" purity="4.2354336380958557e-01" nType="-99"/>
          <Node pos="r" depth="2" NCoef="0" IVar="-1" Cut="0.0000000000000000e+00" cType="1" res="1.0064686648547649e-03" rms="4.2569717764854431e-01" purity="6.2500303983688354e-01" nType="-99"/>
        </Node>
      </Node>
    </BinaryTree>
    <BinaryTree type="DecisionTree" boostWeight="1.0000000000000000e+00" itree="665">
      <Node pos="s" depth="0" NCoef="0" IVar="2" Cut="9.2612105607986450e-01" cType="1" res="-1.9968084525316954e-03" rms="4.3226185441017151e-01" purity="5.0395196676254272e-01" nType="0">
        <Node pos="l" depth="1" NCoef="0" IVar="2" Cut="9.1773122549057007e-01" cType="1" res="-5.9650812298059464e-02" rms="4.0944322943687439e-01" purity="2.5557798147201538e-01" nType="0">
          <Node pos="l" depth="2" NCoef="0" IVar="-1" Cut="0.0000000000000000e+00" cType="1" res="-4.6489469241350889e-04" rms="4.2354604601860046e-01" purity="2.8177624940872192e-01" nType="-99"/>
          <Node pos="r" depth="2" NCoef="0" IVar="-1" Cut="0.0000000000000000e+00" cType="1" res="-1.6222080448642373e-03" rms="3.9082050323486328e-01" purity="2.2801624238491058e-01" nType="-99"/>
        </Node>
        <Node pos="r" depth="1" NCoef="0" IVar="7" Cut="2.3166707158088684e-01" cType="1" res="1.1735004372894764e-02" rms="4.3639957904815674e-01" purity="5.6310880184173584e-01" nType="0">
          <Node pos="l" depth="2" NCoef="0" IVar="-1" Cut="0.0000000000000000e+00" cType="1" res="4.7676300164312124e-04" rms="4.3496829271316528e-01" purity="5.6370198726654053e-01" nType="-99"/>
          <Node pos="r" depth="2" NCoef="0" IVar="-1" Cut="0.0000000000000000e+00" cType="1" res="-2.5224236305803061e-03" rms="4.3980550765991211e-01" purity="5.5455458164215088e-01" nType="-99"/>
        </Node>
      </Node>
    </BinaryTree>
    <BinaryTree type="DecisionTree" boostWeight="1.0000000000000000e+00" itree="666">
      <Node pos="s" depth="0" NCoef="0" IVar="8" Cut="1.7734575271606445e+00" cType="1" res="-8.3710886538028717e-03" rms="4.4227823615074158e-01" purity="5.0591194629669189e-01" nType="0">
        <Node pos="l" depth="1" NCoef="0" IVar="-1" Cut="0.0000000000000000e+00" cType="1" res="-1.7867990536615252e-03" rms="4.5975112915039062e-01" purity="4.6451839804649353e-01" nType="-99"/>
        <Node pos="r" depth="1" NCoef="0" IVar="6" Cut="1.4929704284667969e+02" cType="1" res="-4.9295154167339206e-04" rms="4.3977338075637817e-01" purity="5.0982904434204102e-01" nType="0">
          <Node pos="l" depth="2" NCoef="0" IVar="-1" Cut="0.0000000000000000e+00" cType="1" res="1.4063325943425298e-04" rms="4.3689408898353577e-01" purity="5.1507574319839478e-01" nType="-99"/>
          <Node pos="r" depth="2" NCoef="0" IVar="-1" Cut="0.0000000000000000e+00" cType="1" res="-2.1559717133641243e-03" rms="4.6962559223175049e-01" purity="4.3078547716140747e-01" nType="-99"/>
        </Node>
      </Node>
    </BinaryTree>
    <BinaryTree type="DecisionTree" boostWeight="1.0000000000000000e+00" itree="667">
      <Node pos="s" depth="0" NCoef="0" IVar="1" Cut="5.9465087890625000e+02" cType="1" res="-1.2727960944175720e-02" rms="4.3563112616539001e-01" purity="4.9091482162475586e-01" nType="0">
        <Node pos="l" depth="1" NCoef="0" IVar="3" Cut="1.3869592285156250e+02" cType="1" res="-2.4791890755295753e-02" rms="4.4162312150001526e-01" purity="4.6754205226898193e-01" nType="0">
          <Node pos="l" depth="2" NCoef="0" IVar="-1" Cut="0.0000000000000000e+00" cType="1" res="-2.6217033155262470e-04" rms="4.4690638780593872e-01" purity="4.9878928065299988e-01" nType="-99"/>
          <Node pos="r" depth="2" NCoef="0" IVar="-1" Cut="0.0000000000000000e+00" cType="1" res="-2.0288380328565836e-03" rms="3.9512971043586731e-01" purity="2.6257106661796570e-01" nType="-99"/>
        </Node>
        <Node pos="r" depth="1" NCoef="0" IVar="6" Cut="1.1465669250488281e+02" cType="1" res="6.7170940339565277e-02" rms="3.8420456647872925e-01" purity="6.4571195840835571e-01" nType="0">
          <Node pos="l" depth="2" NCoef="0" IVar="-1" Cut="0.0000000000000000e+00" cType="1" res="4.9381895223632455e-04" rms="4.0410465002059937e-01" purity="5.6393903493881226e-01" nType="-99"/>
          <Node pos="r" depth="2" NCoef="0" IVar="-1" Cut="0.0000000000000000e+00" cType="1" res="4.5178984291851521e-03" rms="3.4788528084754944e-01" purity="7.4959969520568848e-01" nType="-99"/>
        </Node>
      </Node>
    </BinaryTree>
    <BinaryTree type="DecisionTree" boostWeight="1.0000000000000000e+00" itree="668">
      <Node pos="s" depth="0" NCoef="0" IVar="4" Cut="4.4117990112304688e+02" cType="1" res="-1.3652606867253780e-02" rms="4.3887722492218018e-01" purity="4.9401450157165527e-01" nType="0">
        <Node pos="l" depth="1" NCoef="0" IVar="1" Cut="5.0758496093750000e+02" cType="1" res="-5.0295973196625710e-03" rms="4.4359862804412842e-01" purity="5.2115345001220703e-01" nType="0">
          <Node pos="l" depth="2" NCoef="0" IVar="-1" Cut="0.0000000000000000e+00" cType="1" res="-4.0427755448035896e-04" rms="4.4813743233680725e-01" purity="4.8304790258407593e-01" nType="-99"/>
          <Node pos="r" depth="2" NCoef="0" IVar="-1" Cut="0.0000000000000000e+00" cType="1" res="1.4389771968126297e-03" rms="4.2104709148406982e-01" purity="6.6859018802642822e-01" nType="-99"/>
        </Node>
        <Node pos="r" depth="1" NCoef="0" IVar="-1" Cut="0.0000000000000000e+00" cType="1" res="-1.7398355994373560e-03" rms="3.8107898831367493e-01" purity="2.3430931568145752e-01" nType="-99"/>
      </Node>
    </BinaryTree>
    <BinaryTree type="DecisionTree" boostWeight="1.0000000000000000e+00" itree="669">
      <Node pos="s" depth="0" NCoef="0" IVar="1" Cut="4.5513192749023438e+02" cType="1" res="-7.6321471715345979e-04" rms="4.4107136130332947e-01" purity="5.1710218191146851e-01" nType="0">
        <Node pos="l" depth="1" NCoef="0" IVar="1" Cut="4.0227453613281250e+02" cType="1" res="2.8731402009725571e-02" rms="4.3084773421287537e-01" purity="5.1017755270004272e-01" nType="0">
          <Node pos="l" depth="2" NCoef="0" IVar="-1" Cut="0.0000000000000000e+00" cType="1" res="1.5209021512418985e-04" rms="4.3830454349517822e-01" purity="4.7595253586769104e-01" nType="-99"/>
          <Node pos="r" depth="2" NCoef="0" IVar="-1" Cut="0.0000000000000000e+00" cType="1" res="3.4817617852240801e-03" rms="3.8532531261444092e-01" purity="6.5348237752914429e-01" nType="-99"/>
        </Node>
        <Node pos="r" depth="1" NCoef="0" IVar="7" Cut="6.9533079862594604e-02" cType="1" res="-4.9861382693052292e-02" rms="4.5334777235984802e-01" purity="5.2862930297851562e-01" nType="0">
          <Node pos="l" depth="2" NCoef="0" IVar="-1" Cut="0.0000000000000000e+00" cType="1" res="-3.4307565783819882e-06" rms="4.4173532724380493e-01" purity="5.1925140619277954e-01" nType="-99"/>
          <Node pos="r" depth="2" NCoef="0" IVar="-1" Cut="0.0000000000000000e+00" cType="1" res="-2.8011773247271776e-03" rms="4.6014055609703064e-01" purity="5.4140239953994751e-01" nType="-99"/>
        </Node>
      </Node>
    </BinaryTree>
    <BinaryTree type="DecisionTree" boostWeight="1.0000000000000000e+00" itree="670">
      <Node pos="s" depth="0" NCoef="0" IVar="3" Cut="1.4003033447265625e+02" cType="1" res="-4.0158941410481930e-03" rms="4.3583250045776367e-01" purity="5.0360512733459473e-01" nType="0">
        <Node pos="l" depth="1" NCoef="0" IVar="0" Cut="5.6344068050384521e-01" cType="1" res="1.7908077687025070e-02" rms="4.3795946240425110e-01" purity="5.4233503341674805e-01" nType="0">
          <Node pos="l" depth="2" NCoef="0" IVar="-1" Cut="0.0000000000000000e+00" cType="1" res="-1.3192363549023867e-03" rms="4.4265949726104736e-01" purity="6.2173289060592651e-01" nType="-99"/>
          <Node pos="r" depth="2" NCoef="0" IVar="-1" Cut="0.0000000000000000e+00" cType="1" res="7.0546363713219762e-04" rms="4.3595016002655029e-01" purity="5.2920597791671753e-01" nType="-99"/>
        </Node>
        <Node pos="r" depth="1" NCoef="0" IVar="4" Cut="2.5930001831054688e+02" cType="1" res="-1.3023616373538971e-01" rms="4.0068843960762024e-01" purity="2.8063002228736877e-01" nType="0">
          <Node pos="l" depth="2" NCoef="0" IVar="-1" Cut="0.0000000000000000e+00" cType="1" res="-2.7197340968996286e-03" rms="4.1892823576927185e-01" purity="3.1424227356910706e-01" nType="-99"/>
          <Node pos="r" depth="2" NCoef="0" IVar="-1" Cut="0.0000000000000000e+00" cType="1" res="-2.0358178298920393e-03" rms="3.7919858098030090e-01" purity="2.4638676643371582e-01" nType="-99"/>
        </Node>
      </Node>
    </BinaryTree>
    <BinaryTree type="DecisionTree" boostWeight="1.0000000000000000e+00" itree="671">
      <Node pos="s" depth="0" NCoef="0" IVar="0" Cut="4.5625704526901245e-01" cType="1" res="-5.4583657765761018e-04" rms="4.4255098700523376e-01" purity="5.1376134157180786e-01" nType="0">
        <Node pos="l" depth="1" NCoef="0" IVar="-1" Cut="0.0000000000000000e+00" cType="1" res="-2.3341800551861525e-03" rms="4.5249357819557190e-01" purity="5.7354450225830078e-01" nType="-99"/>
        <Node pos="r" depth="1" NCoef="0" IVar="8" Cut="2.1140773296356201e+00" cType="1" res="5.3858063183724880e-03" rms="4.4124087691307068e-01" purity="5.1028954982757568e-01" nType="0">
          <Node pos="l" depth="2" NCoef="0" IVar="-1" Cut="0.0000000000000000e+00" cType="1" res="1.0799549054354429e-03" rms="4.4625794887542725e-01" purity="6.4905440807342529e-01" nType="-99"/>
          <Node pos="r" depth="2" NCoef="0" IVar="-1" Cut="0.0000000000000000e+00" cType="1" res="-4.0201126830652356e-04" rms="4.3611788749694824e-01" purity="4.1728916764259338e-01" nType="-99"/>
        </Node>
      </Node>
    </BinaryTree>
    <BinaryTree type="DecisionTree" boostWeight="1.0000000000000000e+00" itree="672">
      <Node pos="s" depth="0" NCoef="0" IVar="7" Cut="4.0135610848665237e-02" cType="1" res="-1.8900375813245773e-02" rms="4.4493865966796875e-01" purity="4.9097719788551331e-01" nType="0">
        <Node pos="l" depth="1" NCoef="0" IVar="0" Cut="1.1002314090728760e+00" cType="1" res="-7.2523660957813263e-02" rms="4.3912202119827271e-01" purity="3.6384350061416626e-01" nType="0">
          <Node pos="l" depth="2" NCoef="0" IVar="-1" Cut="0.0000000000000000e+00" cType="1" res="-2.8195655904710293e-03" rms="4.5397731661796570e-01" purity="4.5855844020843506e-01" nType="-99"/>
          <Node pos="r" depth="2" NCoef="0" IVar="-1" Cut="0.0000000000000000e+00" cType="1" res="-2.6608360349200666e-04" rms="4.1759902238845825e-01" purity="2.8894922137260437e-01" nType="-99"/>
        </Node>
        <Node pos="r" depth="1" NCoef="0" IVar="6" Cut="1.2993469238281250e+02" cType="1" res="-2.7636433951556683e-03" rms="4.4541236758232117e-01" purity="5.2923530340194702e-01" nType="0">
          <Node pos="l" depth="2" NCoef="0" IVar="-1" Cut="0.0000000000000000e+00" cType="1" res="1.9223090203013271e-04" rms="4.4184443354606628e-01" purity="5.3788346052169800e-01" nType="-99"/>
          <Node pos="r" depth="2" NCoef="0" IVar="-1" Cut="0.0000000000000000e+00" cType="1" res="-2.1322960965335369e-03" rms="4.6341726183891296e-01" purity="4.5912614464759827e-01" nType="-99"/>
        </Node>
      </Node>
    </BinaryTree>
    <BinaryTree type="DecisionTree" boostWeight="1.0000000000000000e+00" itree="673">
      <Node pos="s" depth="0" NCoef="0" IVar="5" Cut="8.8415087890625000e+02" cType="1" res="1.8586810678243637e-02" rms="4.2804729938507080e-01" purity="5.2479243278503418e-01" nType="0">
        <Node pos="l" depth="1" NCoef="0" IVar="8" Cut="2.4057805538177490e+00" cType="1" res="7.3312884196639061e-03" rms="4.2943871021270752e-01" purity="5.0441819429397583e-01" nType="0">
          <Node pos="l" depth="2" NCoef="0" IVar="-1" Cut="0.0000000000000000e+00" cType="1" res="5.9756101109087467e-04" rms="4.3719777464866638e-01" purity="5.8812201023101807e-01" nType="-99"/>
          <Node pos="r" depth="2" NCoef="0" IVar="-1" Cut="0.0000000000000000e+00" cType="1" res="-8.9842034503817558e-04" rms="4.0056321024894714e-01" purity="2.5385960936546326e-01" nType="-99"/>
        </Node>
        <Node pos="r" depth="1" NCoef="0" IVar="-1" Cut="0.0000000000000000e+00" cType="1" res="6.2237977981567383e-03" rms="3.8196548819541931e-01" purity="7.8413677215576172e-01" nType="-99"/>
      </Node>
    </BinaryTree>
    <BinaryTree type="DecisionTree" boostWeight="1.0000000000000000e+00" itree="674">
      <Node pos="s" depth="0" NCoef="0" IVar="6" Cut="8.5406585693359375e+01" cType="1" res="-1.4209845103323460e-02" rms="4.3623262643814087e-01" purity="4.8614662885665894e-01" nType="0">
        <Node pos="l" depth="1" NCoef="0" IVar="7" Cut="6.3594795763492584e-02" cType="1" res="-4.0812436491250992e-02" rms="4.4498920440673828e-01" purity="4.2348328232765198e-01" nType="0">
          <Node pos="l" depth="2" NCoef="0" IVar="-1" Cut="0.0000000000000000e+00" cType="1" res="2.2098633053246886e-04" rms="4.2187973856925964e-01" purity="3.9198401570320129e-01" nType="-99"/>
          <Node pos="r" depth="2" NCoef="0" IVar="-1" Cut="0.0000000000000000e+00" cType="1" res="-1.2953357072547078e-03" rms="4.5424178242683411e-01" purity="4.3980789184570312e-01" nType="-99"/>
        </Node>
        <Node pos="r" depth="1" NCoef="0" IVar="4" Cut="3.6684100341796875e+02" cType="1" res="2.7483180165290833e-02" rms="4.1875737905502319e-01" purity="5.8435606956481934e-01" nType="0">
          <Node pos="l" depth="2" NCoef="0" IVar="-1" Cut="0.0000000000000000e+00" cType="1" res="1.3599211815744638e-03" rms="4.1246610879898071e-01" purity="6.5185105800628662e-01" nType="-99"/>
          <Node pos="r" depth="2" NCoef="0" IVar="-1" Cut="0.0000000000000000e+00" cType="1" res="-8.7163451826199889e-04" rms="4.3127259612083435e-01" purity="3.6637818813323975e-01" nType="-99"/>
        </Node>
      </Node>
    </BinaryTree>
    <BinaryTree type="DecisionTree" boostWeight="1.0000000000000000e+00" itree="675">
      <Node pos="s" depth="0" NCoef="0" IVar="1" Cut="7.6270159912109375e+02" cType="1" res="2.6410457212477922e-04" rms="4.3387979269027710e-01" purity="5.1286965608596802e-01" nType="0">
        <Node pos="l" depth="1" NCoef="0" IVar="2" Cut="9.3849700689315796e-01" cType="1" res="7.1816216222941875e-03" rms="4.3094414472579956e-01" purity="5.1401335000991821e-01" nType="0">
          <Node pos="l" depth="2" NCoef="0" IVar="-1" Cut="0.0000000000000000e+00" cType="1" res="-6.6289532696828246e-04" rms="4.1680952906608582e-01" purity="3.0476424098014832e-01" nType="-99"/>
          <Node pos="r" depth="2" NCoef="0" IVar="-1" Cut="0.0000000000000000e+00" cType="1" res="7.9150113742798567e-04" rms="4.3639531731605530e-01" purity="6.2308192253112793e-01" nType="-99"/>
        </Node>
        <Node pos="r" depth="1" NCoef="0" IVar="-1" Cut="0.0000000000000000e+00" cType="1" res="-2.3526374716311693e-03" rms="4.6444642543792725e-01" purity="4.9474319815635681e-01" nType="-99"/>
      </Node>
    </BinaryTree>
    <BinaryTree type="DecisionTree" boostWeight="1.0000000000000000e+00" itree="676">
      <Node pos="s" depth="0" NCoef="0" IVar="1" Cut="7.0021557617187500e+02" cType="1" res="-8.9449314400553703e-03" rms="4.4417810440063477e-01" purity="5.0384539365768433e-01" nType="0">
        <Node pos="l" depth="1" NCoef="0" IVar="0" Cut="4.5454645156860352e-01" cType="1" res="-2.0662151277065277e-02" rms="4.4691365957260132e-01" purity="4.8465430736541748e-01" nType="0">
          <Node pos="l" depth="2" NCoef="0" IVar="-1" Cut="0.0000000000000000e+00" cType="1" res="-3.2834724988788366e-03" rms="4.5215249061584473e-01" purity="4.6338593959808350e-01" nType="-99"/>
          <Node pos="r" depth="2" NCoef="0" IVar="-1" Cut="0.0000000000000000e+00" cType="1" res="-2.3726520885247737e-04" rms="4.4483569264411926e-01" purity="4.8601210117340088e-01" nType="-99"/>
        </Node>
        <Node pos="r" depth="1" NCoef="0" IVar="-1" Cut="0.0000000000000000e+00" cType="1" res="5.5451029911637306e-03" rms="3.6458110809326172e-01" purity="7.7673560380935669e-01" nType="-99"/>
      </Node>
    </BinaryTree>
    <BinaryTree type="DecisionTree" boostWeight="1.0000000000000000e+00" itree="677">
      <Node pos="s" depth="0" NCoef="0" IVar="4" Cut="1.3556314086914062e+02" cType="1" res="-4.4125816784799099e-03" rms="4.3962526321411133e-01" purity="5.1011806726455688e-01" nType="0">
        <Node pos="l" depth="1" NCoef="0" IVar="3" Cut="1.2344384765625000e+02" cType="1" res="-7.2723485529422760e-02" rms="4.5783284306526184e-01" purity="4.3379047513008118e-01" nType="0">
          <Node pos="l" depth="2" NCoef="0" IVar="-1" Cut="0.0000000000000000e+00" cType="1" res="-3.8920980296097696e-04" rms="4.8556631803512573e-01" purity="5.1368540525436401e-01" nType="-99"/>
          <Node pos="r" depth="2" NCoef="0" IVar="-1" Cut="0.0000000000000000e+00" cType="1" res="-2.0363456569612026e-03" rms="4.2705658078193665e-01" purity="3.6496934294700623e-01" nType="-99"/>
        </Node>
        <Node pos="r" depth="1" NCoef="0" IVar="8" Cut="2.1868395805358887e+00" cType="1" res="5.9150140732526779e-03" rms="4.3587586283683777e-01" purity="5.2165764570236206e-01" nType="0">
          <Node pos="l" depth="2" NCoef="0" IVar="-1" Cut="0.0000000000000000e+00" cType="1" res="9.0722530148923397e-04" rms="4.3578836321830750e-01" purity="6.5054255723953247e-01" nType="-99"/>
          <Node pos="r" depth="2" NCoef="0" IVar="-1" Cut="0.0000000000000000e+00" cType="1" res="-4.7466540127061307e-04" rms="4.3400427699089050e-01" purity="3.8767257332801819e-01" nType="-99"/>
        </Node>
      </Node>
    </BinaryTree>
    <BinaryTree type="DecisionTree" boostWeight="1.0000000000000000e+00" itree="678">
      <Node pos="s" depth="0" NCoef="0" IVar="2" Cut="9.8076105117797852e-01" cType="1" res="2.8281621052883565e-04" rms="4.3613222241401672e-01" purity="5.1167672872543335e-01" nType="0">
        <Node pos="l" depth="1" NCoef="0" IVar="2" Cut="9.3474888801574707e-01" cType="1" res="9.8583037033677101e-03" rms="4.3484109640121460e-01" purity="4.9604159593582153e-01" nType="0">
          <Node pos="l" depth="2" NCoef="0" IVar="-1" Cut="0.0000000000000000e+00" cType="1" res="-6.4239586936309934e-04" rms="4.2254683375358582e-01" purity="3.0655843019485474e-01" nType="-99"/>
          <Node pos="r" depth="2" NCoef="0" IVar="-1" Cut="0.0000000000000000e+00" cType="1" res="7.9413288040086627e-04" rms="4.3892887234687805e-01" purity="5.8727133274078369e-01" nType="-99"/>
        </Node>
        <Node pos="r" depth="1" NCoef="0" IVar="2" Cut="9.8689943552017212e-01" cType="1" res="-7.4650079011917114e-02" rms="4.3895208835601807e-01" purity="6.3402950763702393e-01" nType="0">
          <Node pos="l" depth="2" NCoef="0" IVar="-1" Cut="0.0000000000000000e+00" cType="1" res="-3.4730935003608465e-03" rms="4.2435735464096069e-01" purity="5.6263321638107300e-01" nType="-99"/>
          <Node pos="r" depth="2" NCoef="0" IVar="-1" Cut="0.0000000000000000e+00" cType="1" res="-7.1340909926220775e-04" rms="4.4613763689994812e-01" purity="7.0431578159332275e-01" nType="-99"/>
        </Node>
      </Node>
    </BinaryTree>
    <BinaryTree type="DecisionTree" boostWeight="1.0000000000000000e+00" itree="679">
      <Node pos="s" depth="0" NCoef="0" IVar="8" Cut="1.8835556507110596e+00" cType="1" res="6.5623996779322624e-03" rms="4.3857580423355103e-01" purity="5.2441632747650146e-01" nType="0">
        <Node pos="l" depth="1" NCoef="0" IVar="0" Cut="7.7629882097244263e-01" cType="1" res="9.5823816955089569e-02" rms="4.3202000856399536e-01" purity="6.9475823640823364e-01" nType="0">
          <Node pos="l" depth="2" NCoef="0" IVar="-1" Cut="0.0000000000000000e+00" cType="1" res="1.5880550490692258e-03" rms="4.2827060818672180e-01" purity="7.0655679702758789e-01" nType="-99"/>
          <Node pos="r" depth="2" NCoef="0" IVar="-1" Cut="0.0000000000000000e+00" cType="1" res="4.2784959077835083e-03" rms="4.3045610189437866e-01" purity="6.7556774616241455e-01" nType="-99"/>
        </Node>
        <Node pos="r" depth="1" NCoef="0" IVar="7" Cut="6.2055706977844238e-02" cType="1" res="-7.5645106844604015e-03" rms="4.3794000148773193e-01" purity="4.9745723605155945e-01" nType="0">
          <Node pos="l" depth="2" NCoef="0" IVar="-1" Cut="0.0000000000000000e+00" cType="1" res="-8.2541117444634438e-04" rms="4.2544186115264893e-01" purity="3.9804506301879883e-01" nType="-99"/>
          <Node pos="r" depth="2" NCoef="0" IVar="-1" Cut="0.0000000000000000e+00" cType="1" res="3.3965337206609547e-04" rms="4.4419437646865845e-01" purity="5.5951106548309326e-01" nType="-99"/>
        </Node>
      </Node>
    </BinaryTree>
    <BinaryTree type="DecisionTree" boostWeight="1.0000000000000000e+00" itree="680">
      <Node pos="s" depth="0" NCoef="0" IVar="7" Cut="7.0181652903556824e-02" cType="1" res="-1.1607973137870431e-03" rms="4.3128320574760437e-01" purity="5.0474941730499268e-01" nType="0">
        <Node pos="l" depth="1" NCoef="0" IVar="2" Cut="9.3488389253616333e-01" cType="1" res="3.5019397735595703e-02" rms="4.1513845324516296e-01" purity="4.7030153870582581e-01" nType="0">
          <Node pos="l" depth="2" NCoef="0" IVar="-1" Cut="0.0000000000000000e+00" cType="1" res="-6.5120041836053133e-04" rms="4.1820600628852844e-01" purity="2.7227780222892761e-01" nType="-99"/>
          <Node pos="r" depth="2" NCoef="0" IVar="-1" Cut="0.0000000000000000e+00" cType="1" res="1.9653788767755032e-03" rms="4.0767538547515869e-01" purity="5.8881491422653198e-01" nType="-99"/>
        </Node>
        <Node pos="r" depth="1" NCoef="0" IVar="3" Cut="1.1799555969238281e+02" cType="1" res="-2.5312896817922592e-02" rms="4.4007989764213562e-01" purity="5.2774512767791748e-01" nType="0">
          <Node pos="l" depth="2" NCoef="0" IVar="-1" Cut="0.0000000000000000e+00" cType="1" res="-1.9236764637753367e-03" rms="4.6505102515220642e-01" purity="4.6643963456153870e-01" nType="-99"/>
          <Node pos="r" depth="2" NCoef="0" IVar="-1" Cut="0.0000000000000000e+00" cType="1" res="5.8135490689892322e-05" rms="4.2588639259338379e-01" purity="5.5409020185470581e-01" nType="-99"/>
        </Node>
      </Node>
    </BinaryTree>
    <BinaryTree type="DecisionTree" boostWeight="1.0000000000000000e+00" itree="681">
      <Node pos="s" depth="0" NCoef="0" IVar="2" Cut="9.5965200662612915e-01" cType="1" res="6.3623522873967886e-04" rms="4.4083449244499207e-01" purity="5.1694828271865845e-01" nType="0">
        <Node pos="l" depth="1" NCoef="0" IVar="2" Cut="9.4401466846466064e-01" cType="1" res="3.1047327443957329e-02" rms="4.3533903360366821e-01" purity="4.5948523283004761e-01" nType="0">
          <Node pos="l" depth="2" NCoef="0" IVar="-1" Cut="0.0000000000000000e+00" cType="1" res="-1.0844984353752807e-04" rms="4.3369755148887634e-01" purity="3.6218845844268799e-01" nType="-99"/>
          <Node pos="r" depth="2" NCoef="0" IVar="-1" Cut="0.0000000000000000e+00" cType="1" res="2.6577615644782782e-03" rms="4.2984014749526978e-01" purity="6.4499747753143311e-01" nType="-99"/>
        </Node>
        <Node pos="r" depth="1" NCoef="0" IVar="0" Cut="9.1670811176300049e-01" cType="1" res="-4.7716200351715088e-02" rms="4.4517666101455688e-01" purity="6.0831218957901001e-01" nType="0">
          <Node pos="l" depth="2" NCoef="0" IVar="-1" Cut="0.0000000000000000e+00" cType="1" res="-3.1364234164357185e-03" rms="4.4348961114883423e-01" purity="6.8886965513229370e-01" nType="-99"/>
          <Node pos="r" depth="2" NCoef="0" IVar="-1" Cut="0.0000000000000000e+00" cType="1" res="-2.5227811420336366e-04" rms="4.4342687726020813e-01" purity="5.3914850950241089e-01" nType="-99"/>
        </Node>
      </Node>
    </BinaryTree>
    <BinaryTree type="DecisionTree" boostWeight="1.0000000000000000e+00" itree="682">
      <Node pos="s" depth="0" NCoef="0" IVar="6" Cut="1.4399215698242188e+02" cType="1" res="-1.1008647270500660e-02" rms="4.3627631664276123e-01" purity="4.9878457188606262e-01" nType="0">
        <Node pos="l" depth="1" NCoef="0" IVar="6" Cut="7.7599617004394531e+01" cType="1" res="-3.8297597784548998e-03" rms="4.3522700667381287e-01" purity="5.0544852018356323e-01" nType="0">
          <Node pos="l" depth="2" NCoef="0" IVar="-1" Cut="0.0000000000000000e+00" cType="1" res="-5.6974944891408086e-04" rms="4.4717881083488464e-01" purity="4.3753787875175476e-01" nType="-99"/>
          <Node pos="r" depth="2" NCoef="0" IVar="-1" Cut="0.0000000000000000e+00" cType="1" res="7.5234688119962811e-04" rms="4.1685569286346436e-01" purity="5.9411418437957764e-01" nType="-99"/>
        </Node>
        <Node pos="r" depth="1" NCoef="0" IVar="-1" Cut="0.0000000000000000e+00" cType="1" res="-1.8192550633102655e-03" rms="4.3864262104034424e-01" purity="4.0654355287551880e-01" nType="-99"/>
      </Node>
    </BinaryTree>
    <BinaryTree type="DecisionTree" boostWeight="1.0000000000000000e+00" itree="683">
      <Node pos="s" depth="0" NCoef="0" IVar="1" Cut="3.9806900024414062e+02" cType="1" res="3.9626834914088249e-03" rms="4.3805226683616638e-01" purity="5.1860499382019043e-01" nType="0">
        <Node pos="l" depth="1" NCoef="0" IVar="6" Cut="5.3153709411621094e+01" cType="1" res="-3.5114049911499023e-02" rms="4.4290634989738464e-01" purity="4.3106919527053833e-01" nType="0">
          <Node pos="l" depth="2" NCoef="0" IVar="-1" Cut="0.0000000000000000e+00" cType="1" res="-1.7162420554086566e-03" rms="4.3527886271476746e-01" purity="3.3967715501785278e-01" nType="-99"/>
          <Node pos="r" depth="2" NCoef="0" IVar="-1" Cut="0.0000000000000000e+00" cType="1" res="1.0145775013370439e-04" rms="4.4329619407653809e-01" purity="4.9068596959114075e-01" nType="-99"/>
        </Node>
        <Node pos="r" depth="1" NCoef="0" IVar="8" Cut="2.0487027168273926e+00" cType="1" res="5.2346624433994293e-02" rms="4.2704021930694580e-01" purity="6.2698990106582642e-01" nType="0">
          <Node pos="l" depth="2" NCoef="0" IVar="-1" Cut="0.0000000000000000e+00" cType="1" res="3.6367918364703655e-03" rms="3.9049330353736877e-01" purity="7.7182847261428833e-01" nType="-99"/>
          <Node pos="r" depth="2" NCoef="0" IVar="-1" Cut="0.0000000000000000e+00" cType="1" res="5.7912850752472878e-04" rms="4.4443398714065552e-01" purity="5.4245531558990479e-01" nType="-99"/>
        </Node>
      </Node>
    </BinaryTree>
    <BinaryTree type="DecisionTree" boostWeight="1.0000000000000000e+00" itree="684">
      <Node pos="s" depth="0" NCoef="0" IVar="6" Cut="1.3113040161132812e+02" cType="1" res="-1.3891548849642277e-02" rms="4.3440675735473633e-01" purity="5.0026166439056396e-01" nType="0">
        <Node pos="l" depth="1" NCoef="0" IVar="2" Cut="9.2644304037094116e-01" cType="1" res="-1.0965043911710382e-03" rms="4.3224027752876282e-01" purity="5.0844258069992065e-01" nType="0">
          <Node pos="l" depth="2" NCoef="0" IVar="-1" Cut="0.0000000000000000e+00" cType="1" res="-9.9639187101274729e-04" rms="3.8219153881072998e-01" purity="2.4062164127826691e-01" nType="-99"/>
          <Node pos="r" depth="2" NCoef="0" IVar="-1" Cut="0.0000000000000000e+00" cType="1" res="2.7865264564752579e-04" rms="4.4186767935752869e-01" purity="5.6946355104446411e-01" nType="-99"/>
        </Node>
        <Node pos="r" depth="1" NCoef="0" IVar="7" Cut="7.3001705110073090e-02" cType="1" res="-1.0950782895088196e-01" rms="4.3860489130020142e-01" purity="4.3912613391876221e-01" nType="0">
          <Node pos="l" depth="2" NCoef="0" IVar="-1" Cut="0.0000000000000000e+00" cType="1" res="-1.5328421723097563e-03" rms="3.9958548545837402e-01" purity="4.2059367895126343e-01" nType="-99"/>
          <Node pos="r" depth="2" NCoef="0" IVar="-1" Cut="0.0000000000000000e+00" cType="1" res="-3.2575572840869427e-03" rms="4.7272700071334839e-01" purity="4.5829486846923828e-01" nType="-99"/>
        </Node>
      </Node>
    </BinaryTree>
    <BinaryTree type="DecisionTree" boostWeight="1.0000000000000000e+00" itree="685">
      <Node pos="s" depth="0" NCoef="0" IVar="6" Cut="1.4957153320312500e+02" cType="1" res="-1.2730417773127556e-02" rms="4.3250054121017456e-01" purity="4.9678304791450500e-01" nType="0">
        <Node pos="l" depth="1" NCoef="0" IVar="2" Cut="9.3491125106811523e-01" cType="1" res="-5.7183993048965931e-03" rms="4.2878228425979614e-01" purity="5.0322896242141724e-01" nType="0">
          <Node pos="l" depth="2" NCoef="0" IVar="-1" Cut="0.0000000000000000e+00" cType="1" res="-1.0259834816679358e-03" rms="4.2188143730163574e-01" purity="2.8466859459877014e-01" nType="-99"/>
          <Node pos="r" depth="2" NCoef="0" IVar="-1" Cut="0.0000000000000000e+00" cType="1" res="3.5776774166151881e-04" rms="4.2969644069671631e-01" purity="5.8688259124755859e-01" nType="-99"/>
        </Node>
        <Node pos="r" depth="1" NCoef="0" IVar="-1" Cut="0.0000000000000000e+00" cType="1" res="-2.7950927615165710e-03" rms="4.7346094250679016e-01" purity="3.9669227600097656e-01" nType="-99"/>
      </Node>
    </BinaryTree>
    <BinaryTree type="DecisionTree" boostWeight="1.0000000000000000e+00" itree="686">
      <Node pos="s" depth="0" NCoef="0" IVar="3" Cut="1.0145034027099609e+02" cType="1" res="-3.4251656383275986e-02" rms="4.4270867109298706e-01" purity="4.8048463463783264e-01" nType="0">
        <Node pos="l" depth="1" NCoef="0" IVar="-1" Cut="0.0000000000000000e+00" cType="1" res="-2.2737123072147369e-03" rms="4.1221228241920471e-01" purity="2.5071001052856445e-01" nType="-99"/>
        <Node pos="r" depth="1" NCoef="0" IVar="1" Cut="3.8837304687500000e+02" cType="1" res="-2.5831464678049088e-02" rms="4.4409391283988953e-01" purity="4.9949011206626892e-01" nType="0">
          <Node pos="l" depth="2" NCoef="0" IVar="-1" Cut="0.0000000000000000e+00" cType="1" res="-1.0166335850954056e-03" rms="4.4744411110877991e-01" purity="4.2386457324028015e-01" nType="-99"/>
          <Node pos="r" depth="2" NCoef="0" IVar="-1" Cut="0.0000000000000000e+00" cType="1" res="6.7747394496109337e-05" rms="4.3866550922393799e-01" purity="5.8105051517486572e-01" nType="-99"/>
        </Node>
      </Node>
    </BinaryTree>
    <BinaryTree type="DecisionTree" boostWeight="1.0000000000000000e+00" itree="687">
      <Node pos="s" depth="0" NCoef="0" IVar="5" Cut="9.6048583984375000e+02" cType="1" res="-8.4268376231193542e-03" rms="4.4094124436378479e-01" purity="5.0462883710861206e-01" nType="0">
        <Node pos="l" depth="1" NCoef="0" IVar="4" Cut="2.9785824584960938e+02" cType="1" res="-1.4990515075623989e-02" rms="4.4449818134307861e-01" purity="4.9264493584632874e-01" nType="0">
          <Node pos="l" depth="2" NCoef="0" IVar="-1" Cut="0.0000000000000000e+00" cType="1" res="-2.5269311663578264e-05" rms="4.4821482896804810e-01" purity="5.4185563325881958e-01" nType="-99"/>
          <Node pos="r" depth="2" NCoef="0" IVar="-1" Cut="0.0000000000000000e+00" cType="1" res="-1.2724131811410189e-03" rms="4.2780333757400513e-01" purity="3.2128241658210754e-01" nType="-99"/>
        </Node>
        <Node pos="r" depth="1" NCoef="0" IVar="-1" Cut="0.0000000000000000e+00" cType="1" res="2.9378097970038652e-03" rms="3.6913377046585083e-01" purity="6.8595582246780396e-01" nType="-99"/>
      </Node>
    </BinaryTree>
    <BinaryTree type="DecisionTree" boostWeight="1.0000000000000000e+00" itree="688">
      <Node pos="s" depth="0" NCoef="0" IVar="1" Cut="3.5994680786132812e+02" cType="1" res="-1.1441726237535477e-02" rms="4.4397285580635071e-01" purity="5.0853741168975830e-01" nType="0">
        <Node pos="l" depth="1" NCoef="0" IVar="0" Cut="1.3946706056594849e+00" cType="1" res="3.5246182233095169e-02" rms="4.3645545840263367e-01" purity="4.8695331811904907e-01" nType="0">
          <Node pos="l" depth="2" NCoef="0" IVar="-1" Cut="0.0000000000000000e+00" cType="1" res="1.3957379851490259e-03" rms="4.5293781161308289e-01" purity="5.8427250385284424e-01" nType="-99"/>
          <Node pos="r" depth="2" NCoef="0" IVar="-1" Cut="0.0000000000000000e+00" cType="1" res="-9.1392052127048373e-04" rms="3.6974704265594482e-01" purity="1.8880370259284973e-01" nType="-99"/>
        </Node>
        <Node pos="r" depth="1" NCoef="0" IVar="8" Cut="2.2994542121887207e+00" cType="1" res="-3.7885084748268127e-02" rms="4.4601199030876160e-01" purity="5.2076232433319092e-01" nType="0">
          <Node pos="l" depth="2" NCoef="0" IVar="-1" Cut="0.0000000000000000e+00" cType="1" res="-1.4191727386787534e-03" rms="4.4876450300216675e-01" purity="5.6538629531860352e-01" nType="-99"/>
          <Node pos="r" depth="2" NCoef="0" IVar="-1" Cut="0.0000000000000000e+00" cType="1" res="5.6985346600413322e-04" rms="4.3183729052543640e-01" purity="3.9896166324615479e-01" nType="-99"/>
        </Node>
      </Node>
    </BinaryTree>
    <BinaryTree type="DecisionTree" boostWeight="1.0000000000000000e+00" itree="689">
      <Node pos="s" depth="0" NCoef="0" IVar="3" Cut="1.4601870727539062e+02" cType="1" res="-5.0350627861917019e-03" rms="4.3444669246673584e-01" purity="5.0300514698028564e-01" nType="0">
        <Node pos="l" depth="1" NCoef="0" IVar="3" Cut="1.1559226989746094e+02" cType="1" res="5.3437552414834499e-03" rms="4.3882042169570923e-01" purity="5.2550566196441650e-01" nType="0">
          <Node pos="l" depth="2" NCoef="0" IVar="-1" Cut="0.0000000000000000e+00" cType="1" res="-7.9718272900208831e-04" rms="4.3933880329132080e-01" purity="4.4207569956779480e-01" nType="-99"/>
          <Node pos="r" depth="2" NCoef="0" IVar="-1" Cut="0.0000000000000000e+00" cType="1" res="5.7642604224383831e-04" rms="4.3729040026664734e-01" purity="5.6082987785339355e-01" nType="-99"/>
        </Node>
        <Node pos="r" depth="1" NCoef="0" IVar="-1" Cut="0.0000000000000000e+00" cType="1" res="-2.1577943116426468e-03" rms="3.6085894703865051e-01" purity="2.4736014008522034e-01" nType="-99"/>
      </Node>
    </BinaryTree>
    <BinaryTree type="DecisionTree" boostWeight="1.0000000000000000e+00" itree="690">
      <Node pos="s" depth="0" NCoef="0" IVar="8" Cut="1.7010542154312134e+00" cType="1" res="5.2497400902211666e-03" rms="4.2995253205299377e-01" purity="5.1305299997329712e-01" nType="0">
        <Node pos="l" depth="1" NCoef="0" IVar="-1" Cut="0.0000000000000000e+00" cType="1" res="-2.3143086582422256e-03" rms="4.8259490728378296e-01" purity="4.6680980920791626e-01" nType="-99"/>
        <Node pos="r" depth="1" NCoef="0" IVar="8" Cut="1.8648151159286499e+00" cType="1" res="1.2509784661233425e-02" rms="4.2551329731941223e-01" purity="5.1580548286437988e-01" nType="0">
          <Node pos="l" depth="2" NCoef="0" IVar="-1" Cut="0.0000000000000000e+00" cType="1" res="4.6759778633713722e-03" rms="3.8400423526763916e-01" purity="7.5636452436447144e-01" nType="-99"/>
          <Node pos="r" depth="2" NCoef="0" IVar="-1" Cut="0.0000000000000000e+00" cType="1" res="6.7847111495211720e-05" rms="4.2696994543075562e-01" purity="4.9768465757369995e-01" nType="-99"/>
        </Node>
      </Node>
    </BinaryTree>
    <BinaryTree type="DecisionTree" boostWeight="1.0000000000000000e+00" itree="691">
      <Node pos="s" depth="0" NCoef="0" IVar="2" Cut="9.4109064340591431e-01" cType="1" res="7.7826003544032574e-03" rms="4.3153187632560730e-01" purity="5.0772708654403687e-01" nType="0">
        <Node pos="l" depth="1" NCoef="0" IVar="7" Cut="5.7375434786081314e-02" cType="1" res="-2.4153510108590126e-02" rms="4.2005512118339539e-01" purity="3.1699222326278687e-01" nType="0">
          <Node pos="l" depth="2" NCoef="0" IVar="-1" Cut="0.0000000000000000e+00" cType="1" res="-1.4494160423055291e-03" rms="3.9674329757690430e-01" purity="2.2272199392318726e-01" nType="-99"/>
          <Node pos="r" depth="2" NCoef="0" IVar="-1" Cut="0.0000000000000000e+00" cType="1" res="3.4423725446686149e-04" rms="4.3176686763763428e-01" purity="3.8707530498504639e-01" nType="-99"/>
        </Node>
        <Node pos="r" depth="1" NCoef="0" IVar="3" Cut="1.1740338134765625e+02" cType="1" res="2.8380980715155602e-02" rms="4.3754017353057861e-01" purity="6.3074862957000732e-01" nType="0">
          <Node pos="l" depth="2" NCoef="0" IVar="-1" Cut="0.0000000000000000e+00" cType="1" res="-5.5941811297088861e-04" rms="4.7386983036994934e-01" purity="5.6242710351943970e-01" nType="-99"/>
          <Node pos="r" depth="2" NCoef="0" IVar="-1" Cut="0.0000000000000000e+00" cType="1" res="1.4850851148366928e-03" rms="4.1766962409019470e-01" purity="6.6202384233474731e-01" nType="-99"/>
        </Node>
      </Node>
    </BinaryTree>
    <BinaryTree type="DecisionTree" boostWeight="1.0000000000000000e+00" itree="692">
      <Node pos="s" depth="0" NCoef="0" IVar="3" Cut="1.0694594573974609e+02" cType="1" res="1.8101524561643600e-02" rms="4.3690794706344604e-01" purity="5.4454886913299561e-01" nType="0">
        <Node pos="l" depth="1" NCoef="0" IVar="5" Cut="5.9525225830078125e+02" cType="1" res="-8.0806307494640350e-02" rms="4.5212492346763611e-01" purity="3.7099263072013855e-01" nType="0">
          <Node pos="l" depth="2" NCoef="0" IVar="-1" Cut="0.0000000000000000e+00" cType="1" res="-4.1626376332715154e-04" rms="4.2380991578102112e-01" purity="3.6258339881896973e-01" nType="-99"/>
          <Node pos="r" depth="2" NCoef="0" IVar="-1" Cut="0.0000000000000000e+00" cType="1" res="-2.4599956814199686e-03" rms="4.7034624218940735e-01" purity="3.7874820828437805e-01" nType="-99"/>
        </Node>
        <Node pos="r" depth="1" NCoef="0" IVar="2" Cut="9.2372542619705200e-01" cType="1" res="3.4440860152244568e-02" rms="4.3216970562934875e-01" purity="5.7321995496749878e-01" nType="0">
          <Node pos="l" depth="2" NCoef="0" IVar="-1" Cut="0.0000000000000000e+00" cType="1" res="-9.3522679526358843e-04" rms="4.1796362400054932e-01" purity="2.9460033774375916e-01" nType="-99"/>
          <Node pos="r" depth="2" NCoef="0" IVar="-1" Cut="0.0000000000000000e+00" cType="1" res="1.2845736928284168e-03" rms="4.3267717957496643e-01" purity="6.1640942096710205e-01" nType="-99"/>
        </Node>
      </Node>
    </BinaryTree>
    <BinaryTree type="DecisionTree" boostWeight="1.0000000000000000e+00" itree="693">
      <Node pos="s" depth="0" NCoef="0" IVar="3" Cut="1.0255906677246094e+02" cType="1" res="8.9504825882613659e-04" rms="4.3474254012107849e-01" purity="5.0898331403732300e-01" nType="0">
        <Node pos="l" depth="1" NCoef="0" IVar="-1" Cut="0.0000000000000000e+00" cType="1" res="-1.6486130189150572e-03" rms="3.9092698693275452e-01" purity="2.8506407141685486e-01" nType="-99"/>
        <Node pos="r" depth="1" NCoef="0" IVar="6" Cut="1.3298399353027344e+02" cType="1" res="8.8253431022167206e-03" rms="4.3715003132820129e-01" purity="5.2716004848480225e-01" nType="0">
          <Node pos="l" depth="2" NCoef="0" IVar="-1" Cut="0.0000000000000000e+00" cType="1" res="4.6982686035335064e-04" rms="4.3238574266433716e-01" purity="5.3447586297988892e-01" nType="-99"/>
          <Node pos="r" depth="2" NCoef="0" IVar="-1" Cut="0.0000000000000000e+00" cType="1" res="-1.7746560042724013e-03" rms="4.6288356184959412e-01" purity="4.7103071212768555e-01" nType="-99"/>
        </Node>
      </Node>
    </BinaryTree>
    <BinaryTree type="DecisionTree" boostWeight="1.0000000000000000e+00" itree="694">
      <Node pos="s" depth="0" NCoef="0" IVar="4" Cut="1.1463147735595703e+02" cType="1" res="-9.2893904075026512e-03" rms="4.4695544242858887e-01" purity="5.0479048490524292e-01" nType="0">
        <Node pos="l" depth="1" NCoef="0" IVar="-1" Cut="0.0000000000000000e+00" cType="1" res="3.7281301338225603e-03" rms="4.0708357095718384e-01" purity="5.7293879985809326e-01" nType="-99"/>
        <Node pos="r" depth="1" NCoef="0" IVar="2" Cut="9.1842150688171387e-01" cType="1" res="-1.8845694139599800e-02" rms="4.4756743311882019e-01" purity="5.0056475400924683e-01" nType="0">
          <Node pos="l" depth="2" NCoef="0" IVar="-1" Cut="0.0000000000000000e+00" cType="1" res="1.8923539901152253e-03" rms="4.6652719378471375e-01" purity="4.3864503502845764e-01" nType="-99"/>
          <Node pos="r" depth="2" NCoef="0" IVar="-1" Cut="0.0000000000000000e+00" cType="1" res="-6.1210576677694917e-04" rms="4.4497838616371155e-01" purity="5.0520175695419312e-01" nType="-99"/>
        </Node>
      </Node>
    </BinaryTree>
    <BinaryTree type="DecisionTree" boostWeight="1.0000000000000000e+00" itree="695">
      <Node pos="s" depth="0" NCoef="0" IVar="7" Cut="1.6766241192817688e-01" cType="1" res="-9.3766851350665092e-03" rms="4.4026947021484375e-01" purity="5.0908535718917847e-01" nType="0">
        <Node pos="l" depth="1" NCoef="0" IVar="2" Cut="9.8223775625228882e-01" cType="1" res="7.4122729711234570e-03" rms="4.3120145797729492e-01" purity="5.0349080562591553e-01" nType="0">
          <Node pos="l" depth="2" NCoef="0" IVar="-1" Cut="0.0000000000000000e+00" cType="1" res="-1.7445816411054693e-05" rms="4.3686854839324951e-01" purity="4.7719904780387878e-01" nType="-99"/>
          <Node pos="r" depth="2" NCoef="0" IVar="-1" Cut="0.0000000000000000e+00" cType="1" res="4.3264348059892654e-03" rms="3.4242025017738342e-01" purity="8.1539845466613770e-01" nType="-99"/>
        </Node>
        <Node pos="r" depth="1" NCoef="0" IVar="7" Cut="1.8898391723632812e-01" cType="1" res="-9.0400233864784241e-02" rms="4.7333881258964539e-01" purity="5.3608477115631104e-01" nType="0">
          <Node pos="l" depth="2" NCoef="0" IVar="-1" Cut="0.0000000000000000e+00" cType="1" res="-3.7224986590445042e-03" rms="4.5872738957405090e-01" purity="3.5930359363555908e-01" nType="-99"/>
          <Node pos="r" depth="2" NCoef="0" IVar="-1" Cut="0.0000000000000000e+00" cType="1" res="-5.3678912809118629e-04" rms="4.6725469827651978e-01" purity="6.3677531480789185e-01" nType="-99"/>
        </Node>
      </Node>
    </BinaryTree>
    <BinaryTree type="DecisionTree" boostWeight="1.0000000000000000e+00" itree="696">
      <Node pos="s" depth="0" NCoef="0" IVar="7" Cut="1.0317729413509369e-01" cType="1" res="-5.9936097823083401e-03" rms="4.4267049431800842e-01" purity="5.0496858358383179e-01" nType="0">
        <Node pos="l" depth="1" NCoef="0" IVar="5" Cut="6.9578674316406250e+02" cType="1" res="1.8139217048883438e-02" rms="4.3313637375831604e-01" purity="4.9114468693733215e-01" nType="0">
          <Node pos="l" depth="2" NCoef="0" IVar="-1" Cut="0.0000000000000000e+00" cType="1" res="1.0258789407089353e-03" rms="4.2646247148513794e-01" purity="4.8607492446899414e-01" nType="-99"/>
          <Node pos="r" depth="2" NCoef="0" IVar="-1" Cut="0.0000000000000000e+00" cType="1" res="-8.2853686762973666e-04" rms="4.4052267074584961e-01" purity="5.0078189373016357e-01" nType="-99"/>
        </Node>
        <Node pos="r" depth="1" NCoef="0" IVar="8" Cut="1.8758223056793213e+00" cType="1" res="-4.0352094918489456e-02" rms="4.5369112491607666e-01" purity="5.2464991807937622e-01" nType="0">
          <Node pos="l" depth="2" NCoef="0" IVar="-1" Cut="0.0000000000000000e+00" cType="1" res="4.0964274667203426e-03" rms="3.9709603786468506e-01" purity="7.3824942111968994e-01" nType="-99"/>
          <Node pos="r" depth="2" NCoef="0" IVar="-1" Cut="0.0000000000000000e+00" cType="1" res="-1.4385543763637543e-03" rms="4.5610219240188599e-01" purity="4.9179098010063171e-01" nType="-99"/>
        </Node>
      </Node>
    </BinaryTree>
    <BinaryTree type="DecisionTree" boostWeight="1.0000000000000000e+00" itree="697">
      <Node pos="s" depth="0" NCoef="0" IVar="8" Cut="2.6091065406799316e+00" cType="1" res="4.8990468494594097e-03" rms="4.3349567055702209e-01" purity="5.1023310422897339e-01" nType="0">
        <Node pos="l" depth="1" NCoef="0" IVar="8" Cut="1.9140180349349976e+00" cType="1" res="1.3828622177243233e-02" rms="4.4340348243713379e-01" purity="5.5894815921783447e-01" nType="0">
          <Node pos="l" depth="2" NCoef="0" IVar="-1" Cut="0.0000000000000000e+00" cType="1" res="-9.6910825232043862e-04" rms="4.5891338586807251e-01" purity="5.4720836877822876e-01" nType="-99"/>
          <Node pos="r" depth="2" NCoef="0" IVar="-1" Cut="0.0000000000000000e+00" cType="1" res="6.6675053676590323e-04" rms="4.3818193674087524e-01" purity="5.6190782785415649e-01" nType="-99"/>
        </Node>
        <Node pos="r" depth="1" NCoef="0" IVar="-1" Cut="0.0000000000000000e+00" cType="1" res="-1.2023845920339227e-03" rms="3.4739914536476135e-01" purity="1.5963226556777954e-01" nType="-99"/>
      </Node>
    </BinaryTree>
    <BinaryTree type="DecisionTree" boostWeight="1.0000000000000000e+00" itree="698">
      <Node pos="s" depth="0" NCoef="0" IVar="5" Cut="8.1208380126953125e+02" cType="1" res="1.5900989819783717e-04" rms="4.3765324354171753e-01" purity="5.1241827011108398e-01" nType="0">
        <Node pos="l" depth="1" NCoef="0" IVar="8" Cut="2.1907572746276855e+00" cType="1" res="-1.1161123402416706e-02" rms="4.3888795375823975e-01" purity="4.8658472299575806e-01" nType="0">
          <Node pos="l" depth="2" NCoef="0" IVar="-1" Cut="0.0000000000000000e+00" cType="1" res="-7.2074081981554627e-04" rms="4.4603171944618225e-01" purity="5.5106836557388306e-01" nType="-99"/>
          <Node pos="r" depth="2" NCoef="0" IVar="-1" Cut="0.0000000000000000e+00" cType="1" res="3.3614842686802149e-04" rms="4.2863416671752930e-01" purity="4.0881910920143127e-01" nType="-99"/>
        </Node>
        <Node pos="r" depth="1" NCoef="0" IVar="7" Cut="3.6335840821266174e-02" cType="1" res="7.6503112912178040e-02" rms="4.2136543989181519e-01" purity="6.8664228916168213e-01" nType="0">
          <Node pos="l" depth="2" NCoef="0" IVar="-1" Cut="0.0000000000000000e+00" cType="1" res="2.6446036645211279e-04" rms="4.2620563507080078e-01" purity="5.5253839492797852e-01" nType="-99"/>
          <Node pos="r" depth="2" NCoef="0" IVar="-1" Cut="0.0000000000000000e+00" cType="1" res="5.0172610208392143e-03" rms="4.0931203961372375e-01" purity="7.9794782400131226e-01" nType="-99"/>
        </Node>
      </Node>
    </BinaryTree>
    <BinaryTree type="DecisionTree" boostWeight="1.0000000000000000e+00" itree="699">
      <Node pos="s" depth="0" NCoef="0" IVar="0" Cut="8.8104623556137085e-01" cType="1" res="-8.9862300083041191e-03" rms="4.4485655426979065e-01" purity="5.0860053300857544e-01" nType="0">
        <Node pos="l" depth="1" NCoef="0" IVar="8" Cut="2.1285281181335449e+00" cType="1" res="-3.9176389575004578e-02" rms="4.5010480284690857e-01" purity="6.2443166971206665e-01" nType="0">
          <Node pos="l" depth="2" NCoef="0" IVar="-1" Cut="0.0000000000000000e+00" cType="1" res="-3.5705789923667908e-04" rms="4.3568310141563416e-01" purity="6.4895015954971313e-01" nType="-99"/>
          <Node pos="r" depth="2" NCoef="0" IVar="-1" Cut="0.0000000000000000e+00" cType="1" res="-2.9751728288829327e-03" rms="4.8677858710289001e-01" purity="5.3832614421844482e-01" nType="-99"/>
        </Node>
        <Node pos="r" depth="1" NCoef="0" IVar="7" Cut="1.5438719093799591e-01" cType="1" res="1.0836804285645485e-02" rms="4.4025203585624695e-01" purity="4.3254509568214417e-01" nType="0">
          <Node pos="l" depth="2" NCoef="0" IVar="-1" Cut="0.0000000000000000e+00" cType="1" res="5.0915102474391460e-04" rms="4.3572396039962769e-01" purity="4.2587351799011230e-01" nType="-99"/>
          <Node pos="r" depth="2" NCoef="0" IVar="-1" Cut="0.0000000000000000e+00" cType="1" res="-8.8909093756228685e-04" rms="4.5557627081871033e-01" purity="4.6204578876495361e-01" nType="-99"/>
        </Node>
      </Node>
    </BinaryTree>
  </Weights>
</MethodSetup>
